{"round": 6, "weights_b64": "W1tbLTAuMDk0ODkxOTUwNDg4MDkwNTIsIC0wLjAxMzQwMzkyNjA0NDcwMjUzLCAtMC4xNDQzMjc2MTA3MzExMjQ4OCwgLTAuMjk2MTkxMjc1MTE5NzgxNSwgLTAuMzMzMTgzOTc0MDI3NjMzNjcsIC0wLjA0NzMxMTU4MTY3MTIzNzk0NiwgLTAuMTIzNjI4NDIyNjE3OTEyMjksIC0wLjAwODg1NjQzNTMwNjM3MDI1OCwgMC4wNDg4NTY4MjQ2MzY0NTkzNSwgMC4wMjg2NzY0NTIxMTUxNzgxMDgsIC0wLjIwNDMyODQ0NzU4MDMzNzUyLCAwLjEzNDg3MzAzMjU2OTg4NTI1LCAwLjE1MjgxMjg5ODE1OTAyNzEsIDAuMjAxOTU0NjMyOTk3NTEyODIsIDAuMDIxMjA5MTEzMjk5ODQ2NjUsIDAuMDIwOTI4ODcyNzQ5MjA5NDA0LCAtMC4wMTg1MDAzNDg1NTMwNjE0ODUsIC0wLjExODcyNDc2MzM5MzQwMjEsIC0wLjA1Mzk3NTQzNjgzNjQ4MTA5NCwgLTAuMDAxNzY0MTE1NDExNzg4MjI1MiwgLTAuMzc3NzIzNDU1NDI5MDc3MTUsIDAuMDkwMjE3MTEzNDk0ODczMDUsIDAuMTE1Mjc4ODYyNDE2NzQ0MjMsIDAuMTI4NDMwNDQxMDIxOTE5MjUsIC0wLjA4NjczOTk2NDc4MzE5MTY4LCAwLjA4NTg4Mjg5NDY5NDgwNTE1LCAwLjA4MzAwNTU1NDk3NDA3OTEzLCAtMC4yNDkyOTMxMzM2MTY0NDc0NSwgLTAuMDI3MDg4NDExMTUyMzYyODIzLCAwLjAyMDkzOTg1NDkwNTAwOTI3LCAwLjA5ODc4MDQwODUwMTYyNTA2LCAtMC4wNjU5NjgzMjcyMjQyNTQ2MV0sIFswLjE2MzY5NDE3MzA5NzYxMDQ3LCAwLjE4MjI2NTI4MTY3NzI0NjEsIC0wLjgyMTI4MDI0MTAxMjU3MzIsIDAuNjIzMzIyNzg0OTAwNjY1MywgMC4yMzAwMTgzNzczMDQwNzcxNSwgLTAuNTI3MzIxMzM4NjUzNTY0NSwgLTAuMDA4NDc0NTI1OTk1NTUyNTQsIDAuMjA4ODU3OTIzNzQ2MTA5LCAxLjcwOTQ3OTMzMTk3MDIxNDgsIDAuMzAyNDEzMjI1MTczOTUwMiwgMC4wNzEzMTYyNzIwMjAzMzk5NywgMC4yOTc5MzAyNDA2MzExMDM1LCAwLjE5OTYwMTc2OTQ0NzMyNjY2LCAxLjcxMTA0MDQ5NjgyNjE3MTksIDAuNDEyNDMxMTIwODcyNDk3NTYsIDEuMTc0NDc1NDMxNDQyMjYwNywgMC4yMDQzMDc3NjQ3Njg2MDA0NiwgMC4yMjA2NDY5Nzc0MjQ2MjE1OCwgMC4yODE2NTc4NzQ1ODQxOTgsIDEuNDMzMTU0MzQ0NTU4NzE1OCwgLTAuMDkyMjYzODQ3NTg5NDkyOCwgLTAuMjA3OTYzMzkyMTM4NDgxMTQsIC0wLjIzNDcwNzUwNDUxMDg3OTUyLCAxLjkzOTE1OTk4OTM1Njk5NDYsIC0wLjQzMzM1NzA1OTk1NTU5NjksIC0wLjAzNTc2NDI5OTMzMzA5NTU1LCAtMC4zMzI1ODA3NDUyMjAxODQzLCAtMC4yNzgwMDc4NjQ5NTIwODc0LCAwLjE3MDkyMzIwMzIyOTkwNDE3LCAtMC4zMDYxOTk1ODA0MzA5ODQ1LCAtMC4yMDYyMzM2ODAyNDgyNjA1LCAwLjIyNTYyOTM4OTI4NjA0MTI2XSwgWy0wLjQ4NDExODg0OTAzOTA3Nzc2LCAtMC4wNDQ1MTY2NDUzNzE5MTM5MSwgLTEuNDIxMzMzNTUxNDA2ODYwNCwgLTAuNTQ2NzYxNzUxMTc0OTI2OCwgLTAuMTM1ODgxNjMyNTY2NDUyMDMsIC0wLjU5ODI2MDM0MzA3NDc5ODYsIC0wLjE4ODY0ODM0MzA4NjI0MjY4LCAwLjAzMDc4NjcwNjEzNDY3NjkzMywgMC4zMDQxMTQ0OTA3NDc0NTE4LCAwLjQ0NTAwODA5OTA3OTEzMjEsIC0wLjAxMzM3OTU0MjE1NzA1Mzk0NywgMC4xMzY2ODI4OTc4MDYxNjc2LCAwLjIyNzg5NTczNjY5NDMzNTk0LCAwLjA5MDkxNzE1NTE0NjU5ODgyLCAwLjAyNzYyMzA1NzM2NTQxNzQ4LCAwLjIxMDQwMzA1NDk1MjYyMTQ2LCAwLjI1MzcwMTE1MDQxNzMyNzksIDAuMDg2NzQyOTgyMjY4MzMzNDQsIC0wLjE4NDQ3NzgwNjA5MTMwODYsIC0wLjA1NDQ0NDkwMTY0NTE4MzU2LCAwLjIyMTMzNzcyMDc1MTc2MjQsIC0wLjExNDEyNjYwNzc3NTY4ODE3LCAtMC4xOTkyMTQyOTQ1NTI4MDMwNCwgMC40MjM0ODAwOTM0NzkxNTY1LCAtMC40Njg3MzMxMzE4ODU1Mjg1NiwgMC4yMjYzOTA2MDAyMDQ0Njc3NywgLTAuNzUyNjA2OTg3OTUzMTg2LCAtMC4yMjEzNDA0NDc2NjQyNjA4NiwgLTAuMDI5MTU0NzY4MjEzNjI5NzIzLCAtMC4zMjMwNTAwODE3Mjk4ODg5LCAwLjA3NzcyOTMyMjAxNjIzOTE3LCAwLjE2OTM4MTYzMzQwMDkxNzA1XSwgWy0wLjEyMDQyMTQ5OTAxMzkwMDc2LCAtMC43MTExNzY2OTM0Mzk0ODM2LCAwLjE2MjEwNDc3MDU0MTE5MTEsIDAuNTExMzEzMjU5NjAxNTkzLCAtMC4xMjA2NzcxMTM1MzMwMjAwMiwgLTAuMDMyNzM4MDY3MjA5NzIwNjEsIDAuMDgyNjk3NjA3NTc2ODQ3MDgsIC0wLjEyODM0NTY1MzQxNDcyNjI2LCAxLjI3NjA2NDE1NzQ4NTk2MiwgMC4yNTU1ODE0NjgzNDM3MzQ3NCwgLTAuMjU1OTgzNDQyMDY4MSwgMC4yMzQyMzA1NDgxNDMzODY4NCwgLTAuMDE3MjM4NzYwMzY3MDM1ODY2LCAwLjkzNTI2OTcxMzQwMTc5NDQsIDAuMDQ5NTI2Nzg4Mjk0MzE1MzQsIDAuOTIzNjA0NjA3NTgyMDkyMywgLTAuMDMwMjMxMDQ5Mjg0MzM4OTUsIC0wLjE2Mzk0OTcyODAxMjA4NDk2LCAwLjA1MDcxMzUxMzA0NjUwMzA3LCAxLjAzNDg2ODk1NTYxMjE4MjYsIC0wLjE5ODYzMTg2Nzc2NjM4MDMsIDAuMDQ4Nzk5MTc1NzY5MDkwNjUsIC0wLjE0OTI3MDc4NzgzNTEyMTE1LCAxLjIxMjMwNDM1MzcxMzk4OTMsIDAuMDMwODc4NzMzODQzNTY0OTg3LCAwLjAxNTY5ODU0ODQwNjM2MjUzNCwgLTAuMTI2NDA2Njk5NDE5MDIxNiwgLTAuNDQ2NDMxMzk4MzkxNzIzNjMsIC0wLjA4ODYyMjUwMjk4MjYxNjQyLCAtMC4yNjAyODUwNzk0NzkyMTc1MywgLTAuNjgxMDQzMjY3MjUwMDYxLCAwLjIwMTgzMDQ5MTQyMzYwNjg3XSwgWy0wLjY2NDk5MjU3MDg3NzA3NTIsIDAuMDIyNDc1OTkxMzk4MDk2MDg1LCAtMi4zMzY0MjMzOTcwNjQyMDksIC0wLjgyMzk5MjQzMTE2Mzc4NzgsIC0wLjEzNzA0MzY4NDcyMDk5MzA0LCAtMC4zNDE2MDYyNTkzNDYwMDgzLCAtMC4xNDk2NDIyMjkwODAyMDAyLCAtMC41NTE2NDg2MTY3OTA3NzE1LCAwLjU3MTY0MzM1MjUwODU0NDksIC0wLjExNzY3NTkxNTM2MDQ1MDc0LCAtMC4yNTIwNjg3NTgwMTA4NjQyNiwgLTAuMjA3NDU5NTM5MTc1MDMzNTcsIC0wLjI4NTQyNDY3OTUxNzc0NTk3LCAwLjAyMTAyMTczNjc4NTc2OTQ2MywgLTAuODQ0NDAxMDAxOTMwMjM2OCwgMC4wMzY1NzgxNzA5NTUxODExMiwgLTAuMjE1NDA3NDQ2MDI2ODAyMDYsIC0wLjI4MDE2NjM4NzU1Nzk4MzQsIC0wLjI2ODk2OTk1MzA2MDE1MDE1LCAtMC4yMjg2NjgzOTE3MDQ1NTkzMywgLTAuMTYxODI0NzkyNjIzNTE5OSwgMC4xNTc1OTY3OTY3NTEwMjIzNCwgMC4yNTI4ODI3NDg4NDIyMzk0LCAwLjYxMTUyMTc4MDQ5MDg3NTIsIDAuMDc1MDkzOTQ3MzUwOTc4ODUsIC0wLjI5NTQ4NTkxMzc1MzUwOTUsIC0wLjk0Nzk0MDI4OTk3NDIxMjYsIC0wLjAyODE0ODcwMzI3NzExMTA1MywgLTAuMjQ4NzIwNjYwODA1NzAyMiwgMC4zMDk1MjQyMzgxMDk1ODg2LCAwLjE5NDI2NDg1ODk2MTEwNTM1LCAwLjAxNjQwMTE0OTMzMjUyMzM0Nl0sIFstMC4wMzAxODU0NTE3MzEwODU3NzcsIDAuMzkxMTU5NzcyODcyOTI0OCwgMC4yNDUwNjczNTgwMTY5Njc3NywgMC4xMTI4MzUxMDkyMzM4NTYyLCAwLjMxMzI0MjMxNjI0NjAzMjcsIC0wLjIwNzk5ODEyNjc0NTIyNCwgMC4wNjQ2MDIyMzM0Njk0ODYyNCwgLTAuNDM5MzkyMjY4NjU3Njg0MywgMC4wODQxMzExODEyNDAwODE3OSwgMC4wNjI4NDU5MDA2NTQ3OTI3OSwgLTAuMDY1Njg1MTY3OTA4NjY4NTIsIDAuMDE4MTUzNTQyNjUyNzI2MTczLCAtMC4wMDAxMjg4NTQ1MzE3OTQ3ODY0NSwgLTAuMDIwNzcxNDMwODA1MzI1NTA4LCAtMC4wMjUyMzA1NjIzMTQzOTExMzYsIDAuMDc3MjI5MTU3MDkwMTg3MDcsIDAuMDExMTYxODg5ODgwODk1NjE1LCAwLjAxNTc2MDAwNDUyMDQxNjI2LCAwLjIwMjMyNzcyODI3MTQ4NDM4LCAtMC4wNTU0Mjc1NzM2MjEyNzMwNCwgMC4wMTM1NjQxOTY0MTUyNDU1MzMsIDAuMDk3MDM1ODI1MjUyNTMyOTYsIDAuMTIxNDM4NzU2NTg1MTIxMTUsIDAuMTY2NjYwOTk0MjkxMzA1NTQsIDAuMDM2NTAxMzc0MDk1Njc4MzMsIC0wLjIwNzYzNjUwNTM2NTM3MTcsIDAuMDQ3NjY2MDIwNjkxMzk0ODA2LCAwLjEyMTQ3NDQyMjUxNDQzODYzLCAtMC4wNDM1MzM3MzQ5NzcyNDUzMywgLTAuMjA2MTc5MzUwNjE0NTQ3NzMsIC0wLjAzNzQ4ODA2MTkzNDcwOTU1LCAwLjA3MDE3NTg0MTQ1MDY5MTIyXSwgWzAuMDY4MzEzMzMwNDExOTExMDEsIDAuNDAzNDg0NjQyNTA1NjQ1NzUsIC0wLjA0NTE2NjAxNTYyNSwgMC4yODA0MTk5NDU3MTY4NTc5LCAtMC4xNzE0OTc2NzI3OTYyNDk0LCAwLjQyMjIzNDg5Mjg0NTE1MzgsIDAuMzQyMjI1MDc0NzY4MDY2NCwgLTAuMTIyODI1NDczNTQ2OTgxODEsIDAuMDA3OTcxNDgxNDIwMDk5NzM1LCAtMC4wMjM1MTcxODAyMzQxOTM4MDIsIDAuMTIyNjQ1ODQwMDQ4Nzg5OTgsIC0wLjAzMzIxMzY2Mzg0NjI1NDM1LCAwLjAyNjA5MTQwOTg0NzE0MDMxMiwgMC4wNDI4NDc4OTQxMzIxMzczLCAwLjA5Njk5MzE5MzAzMDM1NzM2LCAwLjAyNzU4NzQwMDc0OTMyNTc1MiwgMC4xNjE2NjQ5Nzc2Njk3MTU4OCwgMC4yMTAwMjg3MDc5ODExMDk2MiwgMC4wNTEyNjk2NTc5MDk4NzAxNSwgMC4xMjU1MzY1MDE0MDc2MjMzLCAwLjE0NzAzNzY1NTExNTEyNzU2LCAwLjA5OTc1MjkwMjk4NDYxOTE0LCAtMC45NTI3OTE5MjkyNDQ5OTUxLCAtMC4xMzg4NDc5NzY5MjI5ODg5LCAwLjA1Njg2NzI1Njc2MDU5NzIzLCAwLjE3NDczODc5NDU2NTIwMDgsIC0wLjAxNzA3NzE2ODQ0OTc1OTQ4MywgLTAuODMyMzAyMjEyNzE1MTQ4OSwgMC4yMjcxNjMzNzQ0MjM5ODA3LCAwLjMwNDkxMDEyMzM0ODIzNjEsIDAuMjIyODQzOTc0ODI4NzIwMSwgMC4wNjQyNzE0MjAyNDA0MDIyMl0sIFsxLjUxMTM0MzAwMjMxOTMzNiwgMS4xMDc2NTY0Nzg4ODE4MzYsIDMuMzYwMTM2NTA4OTQxNjUwNCwgLTEuNjUxOTI5MTQwMDkwOTQyNCwgMC40MTE1NDc2MDEyMjI5OTE5NCwgMC4yMTEzMDA0NDc1ODMxOTg1NSwgMC43MTY1MDQ2OTMwMzEzMTEsIC0wLjI2NDk2NzUwMTE2MzQ4MjY3LCAtMi40NDg1Mjg1MjgyMTM1MDEsIC0xLjE1MzE1MTI3MzcyNzQxNywgMC40MzEzMTIyNjMwMTE5MzI0LCAtMC4zNDA2MzI2MTc0NzM2MDIzLCAwLjI0ODk5Nzc5MjYwMTU4NTQsIC0xLjk2MDY4MDI0NjM1MzE0OTQsIC0xLjYyOTg5MTc1MzE5NjcxNjMsIC0zLjA3MDU5Mjg4MDI0OTAyMzQsIC0wLjE4Nzk3MjMyMjEwNjM2MTQsIDAuNjM0ODQ4MTE3ODI4MzY5MSwgMS41MzQ1ODIzNzY0ODAxMDI1LCAtMi43NzAzMDM3MjYxOTYyODksIC0wLjEwNDY0MjMyNDE0OTYwODYxLCAwLjQzNzMxNTE5NTc5ODg3MzksIDAuMzgxNjIxMDkyNTU3OTA3MSwgLTMuNjA3NTE3MDA0MDEzMDYxNSwgMC4xNjc0NzUzMjc4NDkzODgxMiwgMC4wMzE4Mzc3NjUxMjc0MjA0MjUsIDIuNzk1NDU3NjAxNTQ3MjQxLCAxLjE3OTk5MDE3MjM4NjE2OTQsIC0xLjMxNTc4MzI2MjI1MjgwNzYsIDAuNzgxNzE5MTQ4MTU5MDI3MSwgMS4yNjcxMzYzMzUzNzI5MjQ4LCAtMC4yMzMzNzI0NDk4NzQ4Nzc5M10sIFstMC4yMjEzNzE4ODkxMTQzNzk4OCwgLTAuMzgyMDEwOTM2NzM3MDYwNTUsIC0wLjI4MzQ2ODk5MTUxODAyMDYzLCAwLjEyMjkyODY5Mzg5MDU3MTYsIC0wLjE0NTYxODE4NTQwMDk2MjgzLCAtMC4xODY1OTc1NTU4NzU3NzgyLCAwLjI3NjI0MDc5NTg1MDc1MzgsIDAuMjkwNTYxMzE4Mzk3NTIyLCAtMC4wNjIzNTUyNzYxOTcxOTUwNSwgMC40MjQ2MTQ5MDYzMTEwMzUxNiwgMC4wNzEzNTM0MjA2MTUxOTYyMywgMC4yMjE5MTgxMjA5ODAyNjI3NiwgMC4xMjU3MjE2NjMyMzY2MTgwNCwgLTAuNDkwNjA3OTE3MzA4ODA3NCwgMC4wOTcwNTAzNjg3ODU4NTgxNSwgMC4yNjU2NDczODE1NDQxMTMxNiwgMC4yMjExMjE3NTgyMjI1Nzk5NiwgMC4yMDE0NzcxMTAzODU4OTQ3OCwgMC4wNDU5MjE1OTc2Mjk3ODU1NCwgMC4xMTIxNTMwMzA5MzE5NDk2MiwgLTAuMDg3NDI3MDk0NTc4NzQyOTgsIC0wLjEyNDkxMTY5NTcxODc2NTI2LCAtMC4yMjc5MDkxNjI2NDA1NzE2LCAtMC4zOTE0Nzk0OTIxODc1LCAtMC42NjcxMTQ3MzQ2NDk2NTgyLCAwLjE2OTcwNTY3NDA1MjIzODQ2LCAtMC4xNDk3MDI2MjM0ODY1MTg4NiwgLTAuMzA0NzYzOTEzMTU0NjAyMDUsIC0wLjExMTI2MjEwNTQwNTMzMDY2LCAtMC4zMjU5MzE3ODc0OTA4NDQ3LCAtMC41ODUxMzQxNDg1OTc3MTczLCAtMC4xMjkwNzM0NzA4MzA5MTczNl0sIFstMS42MzI3OTM2NjQ5MzIyNTEsIDAuMTc0Nzg3Nzc0NjgyMDQ0OTgsIC0yLjc3NjgwMzk3MDMzNjkxNCwgLTAuMjA4MDY0MjcyOTk5NzYzNSwgLTAuMDYxNTg5ODEwOTk3MjQ3Njk2LCAtMS4zODY4MjY5OTIwMzQ5MTIsIDAuMTUwMjg1NTEyMjA4OTM4NiwgMC4yMTY2NDI2MzMwODA0ODI0OCwgMC4wNzkyNjI1Mzk3NDQzNzcxNCwgMC41MjMwNzgxNDM1OTY2NDkyLCAwLjYyNTcyNTg2NTM2NDA3NDcsIDAuNDAyOTc3MTA4OTU1MzgzMywgMC40MTYwNTEyMDg5NzI5MzA5LCAtMC4yNjk0ODI4MjEyMjYxMiwgLTAuMjY3MjEzMzQ0NTczOTc0NiwgLTAuMDU0Njc4NDgxMDcyMTg3NDI0LCAwLjQ2NTk0NzM4OTYwMjY2MTEzLCAtMC4wNDAwOTMzMjEzNTMxOTcxLCAtMS4wNDY2Mzk5MTkyODEwMDU5LCAwLjEwOTg2NjI1NDAzMTY1ODE3LCAwLjExMjI5ODQ2NjI2NTIwMTU3LCAtMC40NjU5ODI4NTQzNjYzMDI1LCAtMC40NjcxOTg2MTAzMDU3ODYxMywgMC4yMTcxMjIxMzc1NDY1MzkzLCAtMS4wODI4NjI4NTQwMDM5MDYyLCAwLjIzMzczNjQxMDczNzAzNzY2LCAtMS43MTc5NzEzMjQ5MjA2NTQzLCAtMC4yMjI2Mzk4NzM2MjM4NDc5NiwgMS4wMjUxOTY0MzMwNjczMjE4LCAtMC42OTM1Mjg2NTIxOTExNjIxLCAwLjIyODU2MjgwMjA3NjMzOTcyLCAwLjM3NjEwODU4Njc4ODE3NzVdLCBbLTAuMjUzNjU1NDAzODUyNDYyNzcsIDAuODM5Mzc1ODUzNTM4NTEzMiwgMC4xNzk4MTEyMzkyNDI1NTM3LCAwLjAzMTY1Nzc5NjM1MzEwMTczLCAwLjE0NjkwNzUzODE3NTU4Mjg5LCAwLjAzNjUxMjU1MzY5MTg2NDAxNCwgMC4wMzIyMjIzNDE3NDYwOTE4NCwgMC4xMTYwMDgxNjk5NDkwNTQ3MiwgLTAuMDM0NTEzMzE3MDQ4NTQ5NjUsIC0wLjM5NjY0NTE1ODUyOTI4MTYsIC0wLjE3ODM2NTg3MTMxMDIzNDA3LCAtMS4wNjcxNjcwNDM2ODU5MTMsIDAuMzU3NjYzMDM1MzkyNzYxMjMsIDAuMDE1NjI1Mzc5OTc5NjEwNDQzLCAtMC4xNTU2NTY2NjU1NjM1ODMzNywgMC4yNDg0NTg1MTk1Nzc5ODAwNCwgMC4xNzA4NTI4MTAxNDQ0MjQ0NCwgMC4wMTU5Mzk0NjY2NTUyNTQzNjQsIC0wLjE1MTE0MzgzMzk5NDg2NTQyLCAtMC4wMzA2MzQ0NzAyODM5ODUxMzgsIDAuMTAwMjY3ODU3MzEzMTU2MTMsIDAuMTQ4MDU1MjU1NDEzMDU1NDIsIDAuMjMwNDM0NTA3MTMxNTc2NTQsIC0wLjE1MzM0MzQzOTEwMjE3Mjg1LCAwLjA3MzAzMjI0NTAzOTkzOTg4LCAwLjI2NTQxMTg1Mzc5MDI4MzIsIDAuMjU1NTQ3OTEwOTI4NzI2MiwgLTAuMDYyNzU0NzEyOTk4ODY3MDMsIC0wLjE1NTMzNTA2ODcwMjY5Nzc1LCAwLjMwNTA1NDE4Nzc3NDY1ODIsIDAuMzIxOTk1NTU2MzU0NTIyNywgMC4xNzYyNzg2MjA5NTgzMjgyNV0sIFstMC4xODQ3ODM1MTgzMTQzNjE1NywgLTAuMDk3NjgzNDQ0NjE5MTc4NzcsIDAuMjM5OTIzMzI4MTYxMjM5NjIsIDAuMDU2NzQ3MTk4MTA0ODU4NCwgLTAuMTA3NDcwMjU5MDcwMzk2NDIsIDAuMDg5Mzc1ODIzNzM2MTkwOCwgLTAuMDI5MDU1MDM0NzQxNzU5MywgMC4wNTkyNzU2NTY5Mzg1NTI4NTYsIC0wLjIwMTM1MTY0MjYwODY0MjU4LCAtMC4wMTg1MTI4NTI0ODk5NDgyNzMsIC0wLjEwNzE5MTQ3MzI0NTYyMDczLCAtMC44MzUzMTYzMDAzOTIxNTA5LCAwLjAxNDk4MTk3MzkxNjI5MjE5LCAwLjAzOTIyOTgyMTQxMzc1NTQyLCAwLjA5MzAxMDY3ODg4NzM2NzI1LCAtMC4yNDkzMzMyNjI0NDM1NDI0OCwgLTAuMTEwNTIzMjIzODc2OTUzMTIsIC0wLjA0OTg5OTg5MTAxODg2NzQ5LCAtMC4wNzM1OTk3OTMwMTY5MTA1NSwgLTAuNTc5OTYyNjExMTk4NDI1MywgMC4wODA1ODQ3MTIzMjY1MjY2NCwgMC4zMTg1MDI3ODM3NzUzMjk2LCAwLjIwNDM0MDYzNjczMDE5NDEsIC0wLjM5MTI4NTM1OTg1OTQ2NjU1LCAwLjE2MzEzNDA1MzM0OTQ5NDkzLCAtMC41Mzk5Njk0NDQyNzQ5MDIzLCAwLjIyNDg1NjY3NDY3MTE3MzEsIDAuMTk0OTcwNDU4NzQ1OTU2NDIsIC0wLjA5ODU4ODYxNTY1NTg5OTA1LCAtMC4wNzA2ODI5NzI2Njk2MDE0NCwgLTAuMDUzNTA2Mjk5ODUzMzI0ODksIC0wLjYxNTg5Nzk1MzUxMDI4NDRdLCBbMC4wNDg0NTk5MDI0MDU3Mzg4MywgLTAuMDgwNjIzNTE0OTUwMjc1NDIsIDAuMTMyMTk5OTU3OTY2ODA0NSwgLTAuMDcwNDUzNjQzNzk4ODI4MTIsIC0wLjAyMzMzMjA4MzU5Nzc3OTI3NCwgMC4wMDc2NjA5MzAwNDQ5NDkwNTUsIDAuMjA5NTQxMzgwNDA1NDI2MDMsIDAuMTUxNDEyNTAxOTMxMTkwNSwgMC4xNjk2ODgzODg3MDUyNTM2LCAtMC4wNzE0ODkxMDMxMzg0NDY4MSwgMC4xMDA3MDk0NTMyMjUxMzU4LCAtMC42NTU4MTI5MTkxMzk4NjIxLCAtMC4wMjQ0ODAwMjk5NDA2MDUxNjQsIC0wLjA1NDk0NDgwMjA3NTYyNDQ2NiwgMC4wNzY5NTU5MjE5NDc5NTYwOSwgLTAuMDIwMzA5MTQ2NDkzNjczMzI1LCAwLjEyMTY2NjU1MDYzNjI5MTUsIDAuMDI5NjY2NzAxMzMxNzM0NjU3LCAwLjA3NDQ1MDkyNDk5MjU2MTM0LCAtMC4yNTAyMDg5MTQyNzk5Mzc3NCwgLTAuMTIxNDA2OTg3MzA5NDU1ODcsIC0wLjA2ODU5NjgzOTkwNDc4NTE2LCAwLjA1MjMyNTYyMTI0NzI5MTU2NSwgLTAuMTEzODcxOTQ2OTMwODg1MzEsIC0wLjAwODYwNjczOTM0MjIxMjY3NywgLTAuMzYwOTU1NTk1OTcwMTUzOCwgLTAuMDM4OTA1MzUyMzU0MDQ5NjgsIDAuMTAyMTA3MDAzMzMxMTg0MzksIDAuMDQyNzYwMDk2NDkwMzgzMTUsIDAuMTE1NTI4NjM1NjgwNjc1NSwgLTAuMDY0MDc3Nzc5NjUwNjg4MTcsIC0wLjIyODg4NDIyMDEyMzI5MTAyXSwgWy0wLjkzNzAwNzQyNzIxNTU3NjIsIDAuNzE0NzIwMjQ5MTc2MDI1NCwgLTEuMDAxMDE3MzMyMDc3MDI2NCwgLTAuMDExMjMwOTEwMTk2OTAwMzY4LCAwLjUzMTY2Mjc2MjE2NTA2OTYsIC0wLjU2MTUyODgwMTkxODAyOTgsIDAuMTMxODc1NjYzOTk1NzQyOCwgMC4xMjQwMjY5OTg4Nzc1MjUzMywgLTAuMDkwMTA5ODYyMzg3MTgwMzMsIDAuMzMyNDA5MjAzMDUyNTIwNzUsIDAuMTYwNTQ5MTYzODE4MzU5MzgsIDAuNjg2NDY5MDc4MDYzOTY0OCwgMC4zNDA5NTUxOTc4MTExMjY3LCAtMC4yMTY5ODY0NDc1NzI3MDgxMywgMC4yMjQ1MTYwMDQzMjM5NTkzNSwgLTAuMzgzNDIwODg0NjA5MjIyNCwgMC4zNzg1OTIwNzM5MTczODg5LCAwLjIzMjIxNTUyMzcxOTc4NzYsIDAuMDc5NDE3MDI3NTMzMDU0MzUsIC0wLjA2MjgzODA0MDI5MjI2MzAzLCAwLjI3MzkwMTU4MTc2NDIyMTIsIC0wLjE3NDA3NDYyMDAwODQ2ODYzLCAtMC4yMzUyNzE5OTAyOTkyMjQ4NSwgLTAuMjg5OTI3ODcwMDM1MTcxNSwgLTAuNTEzMTg5OTcxNDQ2OTkxLCAwLjU0MDkwNDY0MTE1MTQyODIsIC0wLjQ4NTgwMjk3ODI3NzIwNjQsIC0wLjE0MjE1OTIwODY1NTM1NzM2LCAwLjAyMjAyOTkyODg2MzA0ODU1MywgLTAuMzk0NTE5Nzc2MTA1ODgwNzQsIDAuMDU5Mzg4MTA0ODI2MjExOTMsIDAuMzMwNzU0OTk1MzQ2MDY5MzRdLCBbMC4wMTAzOTkwMjQ5MzM1NzY1ODQsIC0wLjAyODg1MzM0MTkzNzA2NTEyNSwgMC4xOTMzMDgxNDQ4MDc4MTU1NSwgLTAuMTEyNDY4Njk3MTMwNjgwMDgsIC0wLjExMDA2NDQyNDU3NDM3NTE1LCAwLjA5NTg4NDcxMDU1MDMwODIzLCAwLjA4NDY5Mjg4Nzk2MTg2NDQ3LCAwLjA0MDEwMzMzNDkzMzUxOTM2LCAtMC43NTg0OTE3NTQ1MzE4NjA0LCAwLjEzMjA3NTY1MjQ4MDEyNTQzLCAtMC4xMjg5NzE3MjU3MDIyODU3NywgLTAuMTA0MzQ5NTk4Mjg4NTM2MDcsIDAuMDY3MDU2MjY4NDUzNTk4MDIsIC0wLjU3MDAyMTM5MDkxNDkxNywgLTAuMTU3MTY0MTExNzMzNDM2NTgsIC0wLjMxOTQyMTIzMTc0NjY3MzYsIDAuMDU2MjQwODc4OTk5MjMzMjQ2LCAwLjAwNDgzODk3NzAwOTA1Nzk5OSwgLTAuMDY5Mjc3NzExMjEyNjM1MDQsIC0wLjQwODQzNDYyOTQ0MDMwNzYsIC0wLjA0MjI0NzkyMTIyODQwODgxMywgMC4yNDM3MjE0MjU1MzMyOTQ2OCwgMC4xNzY2NjAyMzk2OTY1MDI2OSwgLTAuNzY3Njk2NDk5ODI0NTIzOSwgMC4yNDY2MjI4MzA2MjkzNDg3NSwgMC4wMjkzNDExNTAwNzUxOTcyMiwgMC4xMDQzMTcwOTg4NTU5NzIyOSwgMC4xNzI5MDE4OTg2MjI1MTI4MiwgLTAuMDMzNTkzMDY5NzYxOTkxNSwgMC4xNzQ4Mjk1MTI4MzQ1NDg5NSwgLTAuMTkzNDUzOTgyNDcyNDE5NzQsIC0wLjAxMzI5MjMwNDI0MDE2NzE0MV0sIFswLjAzNDE1ODE3NzY3MzgxNjY4LCAwLjAxNDk3NTQ0NTM0NTA0NDEzNiwgMC4wMDA1MzU2NDY5MTkxNjEwODEzLCAtMC4wMDcxODAwMjQ4Njk3NDAwMDksIDAuMDI3NTY4OTA4NDA4Mjg0MTg3LCAwLjAyMzI2Mjg2NzcwNDAzMzg1LCAtMC4wNDM2NDk4MDM4NDcwNzQ1MSwgLTAuMDMxMTYwNzAyOTI4OTAwNzIsIC0wLjE3NzQyNTQ0NDEyNjEyOTE1LCAwLjExOTYzNTU4MTk3MDIxNDg0LCAwLjE0NDYwNTU2MjA5MDg3MzcyLCAtMC4wNTk1NzM4OTYyMjkyNjcxMiwgLTAuMDQzNDE3NTcyOTc1MTU4NjksIC0wLjI5ODQwNzIyNjgwMDkxODYsIC0wLjAwOTk4NzQwODI5NTI3Mzc4LCAtMC4wNTc5ODE4MTE0NjM4MzI4NTUsIDAuMDE0NjMyMjc3MTkwNjg1MjcyLCAwLjAwNjk1Mjc0MDcxNzY3OTI2MiwgLTAuMDA2ODM3OTg4MjcyMzA5MzAzLCAtMC4xMDc5ODMwMDgwMjcwNzY3MiwgLTAuMDczMzQyMzk3ODA5MDI4NjMsIDAuMDY4MzYyMDI3NDA2NjkyNSwgMC4xNTUxMDU0NDE4MDg3MDA1NiwgMC4wMDkyMjE5OTQzMTgwNjgwMjcsIC0wLjE1NDI2Mjc1MTM0MDg2NjEsIDAuMTY1Mjk0OTc1MDQyMzQzMTQsIDAuMDg1MTA3NTg3Mjc3ODg5MjUsIC0wLjEwNDU4NDQ0ODAzOTUzMTcxLCAwLjAwNDI3MjAwNTk4NjQyMjMsIDAuMDU1ODM2MDk2NDA1OTgyOTcsIC0wLjAwMDkzODkxNzc0MzA0MjExMTQsIDAuMDExOTk1MDIxMjUzODI0MjM0XSwgWzAuMDQyOTM2MDcxNzUzNTAxODksIDAuMDY2ODU3NzE3OTMxMjcwNiwgMC4wMDgwOTMxNTIxOTUyMTUyMjUsIDAuMDA1MzM5NjQzOTE3OTc3ODEsIDAuMDIzNzU0NjM1ODI1NzUzMjEyLCAtMC4wMDkyNjkzNDgzNDU2OTY5MjYsIC0wLjA5MjI4OTU4OTM0NTQ1NTE3LCAtMC4wMTA3MDc1MTA2MzUyNTY3NjcsIC0wLjAxMDUxMjEwNDI1Nzk0MTI0NiwgLTAuMDk1MDk2ODQxNDU0NTA1OTIsIDAuMDkxNzgyNzQ4Njk5MTg4MjMsIDAuMDIwNjgwNzkwNzY3MDczNjMsIC0wLjA1OTU3Mzc2MjExODgxNjM3NiwgLTAuMTI4NjIxMjgwMTkzMzI4ODYsIDAuMDA4MzY0Mzk5ODk1MDcxOTgzLCAtMC4zNDg5NzYxOTQ4NTg1NTEsIDAuMDI4Nzk1Nzg0MzM5MzA4NzQsIDAuMDEwOTA1MjkwMDIyNDkyNDA5LCAtMC4wMDE4MjE1NTcwNTk4ODQwNzE0LCAwLjAzODI5MjUwODU3MjM0MDAxLCAtMC4wMDYyMTUxMjA2NjU3MjkwNDYsIC0wLjA1NDk3MDA0MDkxNzM5NjU0NSwgMC4xMzU4MDE1NTM3MjYxOTYzLCAtMC4wMDI0NjAzNDkzNTExNjc2NzksIC0wLjA1MTQ2MzY2MzU3ODAzMzQ1LCAwLjA0MDIwODEzMTA3NDkwNTM5NiwgLTAuMDYzNzI4ODMxNzA4NDMxMjQsIDAuMDE4MDA4NDc3OTg1ODU4OTE3LCAtMC4wMDIwODEwMDAyNDYxMDc1NzgzLCAtMC4xMjQxNDkwMDk1ODUzODA1NSwgLTAuMDI3NjA5ODczNTYzMDUxMjI0LCAwLjAxNzI2MzcwNjc3MzUxOTUxNl0sIFstMC4wNzQwNzI1OTk0MTEwMTA3NCwgMC4xNzA4NzM4MjA3ODE3MDc3NiwgLTAuMjg5OTgyNjQ2NzAzNzIwMSwgMC4wNTA0MjA2MDQ2NDYyMDU5LCAwLjAwNDA5NDk4OTk3MDMyNjQyNCwgLTAuMDA2MjI0NDMwMTY2MTg0OTAyLCAwLjEyNTU0OTM0NjIwODU3MjQsIDAuMDMzMzUyMTYyNjg4OTcwNTY2LCAwLjAwMzM1Mjk2MjQzNDI5MTgzOTYsIDAuMDAzNTQwNzE1MjAyNjg5MTcxLCAwLjA1Njc2NDIzMDEzMjEwMjk2NiwgMC4wOTc0Nzc5Nzk5NTgwNTc0LCAwLjEyMzk1MjUzNzc3NTAzOTY3LCAtMC4zMTI3MDEyODQ4ODU0MDY1LCAwLjA4MzIwMzI2MzU4MDc5OTEsIC0wLjE4OTM5MDg4Mjg0OTY5MzMsIC0wLjA0MTM5NDk0ODk1OTM1MDU4NiwgMC4wNTI4ODE0MzgyODUxMTIzOCwgLTAuMDEzODM2NzcxMjQ5NzcxMTE4LCAtMC4wMTg1NTgyMjY1MjU3ODM1NCwgMC4wOTA2MjAwMTEwOTEyMzIzLCAtMC4wMzE0ODgxMTMxMDUyOTcwOSwgLTAuMjQwODUwNDE4ODA2MDc2MDUsIC0wLjA0MDIzMjM2MDM2MzAwNjU5LCAwLjA1NzQ3MDc1MDA2MzY1Nzc2LCAtMC4wNTc2MTc5OTU4ODc5OTQ3NjYsIC0wLjEwNDY4MTM0Mjg0MDE5NDcsIC0wLjE1Njk1NDg5OTQzMDI3NDk2LCAwLjE0NTU3MjQzODgzNjA5NzcyLCAwLjExMTcxMTg5Njk1NTk2Njk1LCAwLjEyMDEwNDUyMTUxMjk4NTIzLCAtMC4wMjc4ODU3ODM0NjM3MTY1MDddLCBbMC40MDEzNTM2NTcyNDU2MzYsIC0xLjY3Nzc0NDg2NTQxNzQ4MDUsIDAuMjYzMzU3NDkwMzAxMTMyMiwgLTAuMzUwMjc1NzU0OTI4NTg4ODcsIC0wLjQxMTcyMzI1NjExMTE0NSwgMC41NDgxMjg5NjI1MTY3ODQ3LCAtMC42NTcwNTQyNDU0NzE5NTQzLCAtMC4xOTQ4NjA5NjUwMTM1MDQwMywgMC4wOTY3MDY1MzkzOTI0NzEzMSwgLTAuMTIzNjI4Mzc3OTE0NDI4NzEsIC0wLjE5OTg1MjQ5NjM4NTU3NDM0LCAtMC40NjU2OTQwMTAyNTc3MjA5NSwgLTAuMzY5MDcwNTI5OTM3NzQ0MTQsIDAuMzI4MzQxMzY0ODYwNTM0NjcsIDAuNDI2NDIxMjg0Njc1NTk4MTQsIC0wLjA0MzMxNDE0NDAxNTMxMjE5NSwgLTAuMjA0OTExMjkxNTk5MjczNjgsIC0wLjUzMjY3ODg0MjU0NDU1NTcsIDAuMjg3NDEwNzY1ODg2MzA2NzYsIC0wLjI1NTYzNTY3ODc2ODE1Nzk2LCAtMC40MTUyNDQxNjIwODI2NzIxLCAtMC4wNjkyNzYxMDkzMzc4MDY3LCAwLjYzODgwNzY1NDM4MDc5ODMsIDAuMDY0NjEwOTczMDAwNTI2NDMsIDAuMzg2NDMwMzIzMTIzOTMxOSwgLTAuMjkxOTQ4NzA1OTExNjM2MzUsIDAuMTM0NDYxODA1MjI0NDE4NjQsIC0wLjE5NTI4NzA3ODYxOTAwMzMsIC0wLjQ4MTk3MDkwNjI1NzYyOTQsIDAuMzMwNTAyNDUwNDY2MTU2LCAtMC4xMzAzNjg1MDA5NDc5NTIyNywgLTAuMTIyNjI5NzAyMDkxMjE3MDRdLCBbMC42MzI1MDcyNjQ2MTQxMDUyLCAtMS41NDg0NDk2MzU1MDU2NzYzLCAwLjIwNTEwNjk0Mzg0NTc0ODksIC0wLjUyOTcyMDkwMjQ0MjkzMjEsIC0wLjIxOTU1MjYzNjE0NjU0NTQsIDAuNjMxNTQ3ODY4MjUxODAwNSwgLTAuNzU2ODIwMjAxODczNzc5MywgLTAuMjk3NTgyOTgzOTcwNjQyMSwgLTAuMDM1NTkyMTg3MTk2MDE2MzEsIC0wLjI2OTQyNTMzMjU0NjIzNDEzLCAtMC4zODYzMjEyNDY2MjM5OTI5LCAtMC42NDgyNjM5MzEyNzQ0MTQxLCAtMC42Nzc3MTM1MTMzNzQzMjg2LCAwLjI3OTkwODc0NjQ4MDk0MTgsIDAuNDQ5NzY3MjkxNTQ1ODY3OSwgLTAuMDA2MjIzMTEyMzQ0NzQxODIxLCAtMC40NDA1NjY2ODg3NzYwMTYyNCwgLTAuNjk0MjIwNDIzNjk4NDI1MywgMC40MDE4NDM2NjcwMzAzMzQ1LCAtMC4wMjY0MDI0ODgzNTA4NjgyMjUsIC0wLjQ2MTA4NTQzODcyODMzMjUsIC0wLjAzNzAwMTI2NzA3NTUzODYzNSwgMC43NDY5ODA5MDU1MzI4MzY5LCAwLjA2MDg5Mzg5MzI0MTg4MjMyNCwgMC42ODQ3MTM5NTk2OTM5MDg3LCAtMC4yNzIzNjM0ODM5MDU3OTIyNCwgMC4wNzU0OTQ4NTU2NDIzMTg3MywgLTAuMDgyMzE3ODE0MjMwOTE4ODgsIC0wLjUxNDg2Mzk2Nzg5NTUwNzgsIDAuNjYxMTg0OTA2OTU5NTMzNywgLTAuMTUxMTk5MDU3Njk4MjQ5ODIsIC0wLjQ1OTY4MTIxMjkwMjA2OTFdLCBbLTAuMDQwNjc1Nzc0MjE2NjUxOTE3LCAtMi4wNTY0OTA0MjEyOTUxNjYsIDAuMjUyMzM4NDM5MjI2MTUwNSwgLTAuMTAzMjMxNjIzNzY4ODA2NDYsIC0wLjA5NjczNzA1Njk3MDU5NjMxLCAwLjI5MDc1MDA1NjUwNTIwMzI1LCAtMC4xMzE0NTYzNDUzMTk3NDc5MiwgLTAuMTM1NzkwNzM1NDgzMTY5NTYsIC0wLjA0ODA2OTU2Mjc2Mjk3NTY5LCAwLjEwNTI0OTA0NzI3OTM1NzkxLCAtMC4xNTc3MTQwMzkwODcyOTU1MywgLTAuMTUyMzM0OTQzNDEzNzM0NDQsIC0wLjE3MjIyNTE0NzQ4NTczMzAzLCAtMC4wMzc3OTQyNDM1NDQzNDAxMzQsIDAuMDc0Mjg5ODIxMDg4MzE0MDYsIC0wLjE5NDQ3OTYyOTM5NzM5MjI3LCAwLjAxMTExODAyNjQ1MDI3NjM3NSwgLTAuMzUyNzE4NjUxMjk0NzA4MjUsIC0wLjIzMDE3NDk3MzYwNzA2MzMsIC0wLjM3NTA4MDEzODQ0NDkwMDUsIC0wLjIwNzYwNTE1MzMyMjIxOTg1LCAtMC40ODE3MDU3ODQ3OTc2Njg0NiwgMC4xMjY2ODc3OTQ5MjM3ODIzNSwgMC4wMTc3MTEzMTE1Nzg3NTA2MSwgMC4xMDY3NDYxMDczMzk4NTkwMSwgMC4xNTY2MTY0MDQ2NTI1OTU1MiwgMC4yMTE3OTQ4MjM0MDgxMjY4MywgLTAuMDM5OTc1NTkxMDAzODk0ODA2LCAtMC4wMTg4NTgwNTY1MTU0NTUyNDYsIDAuMjU2MjI5OTA3Mjc0MjQ2MiwgLTAuNDIzNzQ4NDMzNTg5OTM1MywgLTAuMTIwOTU3MDQ2NzQ3MjA3NjRdLCBbMC4wMDExNjg3MzU3OTA5OTc3NDM2LCAtMC4wOTc1Mzk0MDI1NDQ0OTg0NCwgLTAuMDMzMTA2NDU3NDQyMDQ1MjEsIC0wLjIyNzI2MzI4NjcwOTc4NTQ2LCAtMC40MDM2MjU5NjUxMTg0MDgyLCAwLjAzNzkyMzM2NTgzMTM3NTEyLCAtMC4xMzczMzUyMTEwMzg1ODk0OCwgMC4xMTc2MDk1MTU3ODYxNzA5NiwgMC4xODcxNTg0NjUzODU0MzcsIC0wLjA3MjAzODQ3MTY5ODc2MDk5LCAtMC4wNDY4MjY0Mjk2NjUwODg2NTQsIC0wLjAxMDI5OTAwNDYxNDM1MzE4LCAwLjA3MDcwMTI5MzY0NzI4OTI4LCAwLjA4NzAwODM3MTk0OTE5NTg2LCAtMC4yMzIwNTAxMzU3MzE2OTcwOCwgMC4yNjEyMDk4MTU3NDA1ODUzLCAtMC4wMTEwOTYxMzM4NTA1MTQ4ODksIC0wLjA3Mzk1Mzg2Njk1ODYxODE2LCAwLjIwOTc3NzM4NDk5NjQxNDE4LCAwLjAxNjk1NzUxOTU3NTk1MzQ4NCwgMC4wMTg1MDAyNjEwMDg3Mzk0NywgMC4wOTAzMzg4NDg1MzEyNDYxOSwgLTAuMDU0Mzg5ODQ5MzA1MTUyODksIC0wLjQyNDUxMTk2OTA4OTUwODA2LCAwLjA1NjgyNTMxNzQ0MjQxNzE0NSwgLTAuMDM0Nzk1MzQzODc1ODg1MDEsIC0wLjAyNzk5NjEwMDQ4NTMyNDg2LCAtMS4zMDM3NTA3NTM0MDI3MSwgLTAuMDA5MjQ0Mjc2MjEwNjY1NzAzLCAwLjA0MjQ4MzQwODAwNDA0NTQ4NiwgMC4wNDk5MTc2ODMwMDUzMzI5NSwgMC4wNDQwMDk3NzQ5MjMzMjQ1ODVdLCBbLTAuNDk4MjE1NjE1NzQ5MzU5MTMsIDAuMTIyMjYzNzUxOTI0MDM3OTMsIC0xLjM5MTAwMjI5NzQwMTQyODIsIC0xLjAwNDkyNDA1ODkxNDE4NDYsIDAuNDExOTY4MjMxMjAxMTcxOSwgLTAuNDA0MDM5MjA0MTIwNjM2LCAtMC4xODAzNDkyNjA1Njg2MTg3NywgMC4xMzgzMjk0NzYxMTgwODc3NywgMC41NDQwNzE0OTU1MzI5ODk1LCAwLjQ1NzIyMzUzNDU4NDA0NTQsIC0wLjExODE5OTkwNzI0MzI1MTgsIDAuMzY0MTM4Mjc1Mzg0OTAyOTUsIDAuMDgwNDcxMDIzOTE3MTk4MTgsIDAuODA4ODYwNTQwMzkwMDE0NiwgMC40NDk3Mjg5NjU3NTkyNzczNCwgMC40OTY1MDY5ODkwMDIyMjc4LCAwLjE3MTg0MDg3NjM0MDg2NjEsIC0wLjA5NjAxOTMxMjczOTM3MjI1LCAtMC40MjQyODgwMzQ0MzkwODY5LCAwLjM3MDc4MTk1ODEwMzE3OTkzLCAwLjMyODYxMTk2OTk0NzgxNDk0LCAwLjAyMjQ3OTgxNzI3MTIzMjYwNSwgMC4wOTU4OTM1OTE2NDIzNzk3NiwgMC4zOTU5NTk0MzY4OTM0NjMxMywgLTAuMTg1NzE1NjQ1NTUxNjgxNTIsIDAuMDIwMjUyNTAzNDU0Njg1MjEsIC0wLjM2NjQ2OTIzNDIyODEzNDE2LCAtMC4wMjAxNDg1MTAxMTMzNTg0OTgsIC0wLjc3NzQ4NTQ4OTg0NTI3NTksIC0wLjExMDA2Nzc2MjQzNDQ4MjU3LCAwLjI3Mzk0MTY5NTY5MDE1NTAzLCAwLjczOTAxNzYwNTc4MTU1NTJdLCBbMC4wNjAwNTA2MTc5MDM0NzA5OSwgMC4xMTM4MTMyMTQwMDQwMzk3NiwgLTEuMjg1MTcxNzQ3MjA3NjQxNiwgMC43MTQzMjQyOTU1MjA3ODI1LCAtMC4zMzIwMTE0MzE0NTU2MTIyLCAtMC4xMTc5MjQ1MTg4ODMyMjgzLCAwLjIzMjg2MTM5OTY1MDU3MzczLCAtMC4yMTM2MjI4OTc4NjMzODgwNiwgMC4xMzY2NzU2ODU2NDQxNDk3OCwgLTAuMDc1NTgyMzk5OTY0MzMyNTgsIDAuMDcwMjY4NDI5ODE1NzY5MiwgLTAuMjQxMDI3OTk1OTQ0MDIzMTMsIDAuMTI4ODUwNzU4MDc1NzE0MSwgMC4wMTMzNDA4MzI2NjU1NjI2MywgLTAuMzMyMDU4NTQ4OTI3MzA3MTMsIC0wLjAzNzQ0OTc1MTA0OTI4MDE3LCAwLjAwNzAwMTczODk5NTMxMzY0NCwgMC4xMzM1MTAxNDI1NjQ3NzM1NiwgMC4wMjk2MjY2NjM3NzQyNTE5MzgsIDAuMTA4NjQ3NzQ4ODI3OTM0MjcsIDAuMjIxNTU2OTAxOTMxNzYyNywgMC4wMjc1NDcxMjEwNDc5NzM2MzMsIC0wLjAwOTA4OTQ5OTcxMTk5MDM1NiwgMC4wNTExMDIxMDE4MDI4MjU5MywgLTAuMDc4NTAxMTk0NzE1NDk5ODgsIC0wLjA2MjQ3MTE5NjA1NTQxMjI5LCAwLjAzNjcyNjY2ODQ3NzA1ODQxLCAwLjE5MzMzNDYzOTA3MjQxODIsIDAuODQyMTg3NzAyNjU1NzkyMiwgMC4wNTU4MTEzMTIwNDk2MjczMDQsIC0wLjI5ODU2MDUwMDE0NDk1ODUsIC0wLjU5NTc2MzAyNzY2Nzk5OTNdLCBbLTAuMTU4OTM2NjY0NDYyMDg5NTQsIC0wLjAwNzYyMzI2ODI5MTM1NDE3OSwgMC4xMzAwOTA1OTQyOTE2ODcsIC0wLjExOTQxNzAxMTczNzgyMzQ5LCAwLjA1NjcyNDc4Njc1ODQyMjg1LCAtMC40NTQxMDA1NDkyMjEwMzg4LCAwLjI2MjQ1ODM4NDAzNzAxNzgsIC0wLjM3MTg3MzI1OTU0NDM3MjU2LCAtMC4xNTg5NzExOTA0NTI1NzU2OCwgMC4wODQxMzA3MDQ0MDI5MjM1OCwgMC4yMTUzNjc3MzQ0MzIyMjA0NiwgMC4wOTI5MDA0Njk4OTkxNzc1NSwgMC4yNjY5NjE0ODUxNDc0NzYyLCAtMC4xMzQ4NTU1ODMzMTAxMjcyNiwgLTAuMjMzMTY5NzM0NDc3OTk2ODMsIDAuMDAyNDQ5MzM4MzI0MzY4LCAwLjE0ODU2NTUxNTg3NTgxNjM1LCAwLjE0NzM2NjA3NjcwNzgzOTk3LCAtMC4wMzcwNTk2OTQ1Mjg1Nzk3MSwgLTAuMDI3NTA2MjY1Nzg5MjcwNCwgMC4xNzU5NDE5NzM5MjQ2MzY4NCwgLTAuMjA4ODMxMTMxNDU4MjgyNDcsIC0wLjA3MTUwMDA3Nzg0MzY2NjA4LCAtMC4xMzAxODQ0ODY1MDgzNjk0NSwgLTAuNDU0MDkzMDk4NjQwNDQxOSwgMC4xNTUyNDg2NDE5Njc3NzM0NCwgLTAuNTYzMjExMDgzNDEyMTcwNCwgLTAuMDM2MzgyNDA2OTQ5OTk2OTUsIC0wLjI4NDQ4MDcyMDc1ODQzODEsIC0wLjE4NDk4ODcwNzMwNDAwMDg1LCAtMC4wMTU4Mzk4NzEwMTkxMjQ5ODUsIC0wLjAyNjAzNDYwMjg5NTM3OTA2Nl0sIFswLjEzNzY5MTcwNjQxODk5MTEsIDAuMjk1OTQ3NjExMzMxOTM5NywgLTAuMDAxNTkxOTk2Mjg5Nzg5Njc2NywgMC4zMTg4MzIxNTkwNDIzNTg0LCAwLjA3MzEyOTI4MTQwMTYzNDIyLCAwLjExOTk0NDgzMzIxOTA1MTM2LCAwLjM1MDk1OTkyNjg0MzY0MzIsIDAuMTYxNDU4MTY0NDUzNTA2NDcsIDAuMDQxOTMyMDM1MjM3NTUwNzM1LCAtMC42MzMwNjkyNzY4MDk2OTI0LCAwLjEyMDE2MDc3MzM5NjQ5MiwgLTAuMjQ5MTE1ODU0NTAxNzI0MjQsIDAuMTcwMDMyNTc1NzI2NTA5MSwgLTAuMTMyNTkyNTI5MDU4NDU2NDIsIDAuNTMyMTIzOTIzMzAxNjk2OCwgLTAuMjc3ODA0MTM2Mjc2MjQ1MSwgMC4xNzA1NTE5ODU1MDIyNDMwNCwgMC4xMzAyNzUwNTU3NjYxMDU2NSwgMC4xMzc0MTk5ODM3NDQ2MjEyOCwgLTAuMjk4NzE0Mzk5MzM3NzY4NTUsIDAuMTg4MTgwMDU5MTk0NTY0ODIsIDAuMjY5OTE5MDY3NjIxMjMxMSwgMC4xNTAyNDQxNzYzODc3ODY4NywgLTAuMzE4ODgzMjk5ODI3NTc1NywgMC4wOTU5OTU1MTU1ODQ5NDU2OCwgLTAuMDcwNzk2NDA3NzU5MTg5NiwgMC4xNjgzMDc3MDY3MTM2NzY0NSwgMC4wOTE3MTYzODYzNzc4MTE0MywgMC43MDEwMTQxMDE1MDUyNzk1LCAwLjE5OTE5NjY5NjI4MTQzMzEsIDAuMDU3Nzc0OTIzNzQxODE3NDc0LCAtMC40MjMxNjI3NTgzNTAzNzIzXSwgWy0wLjAxMjAzNTgzNzM5Njk3OTMzMiwgLTEuOTU5NDk0ODI5MTc3ODU2NCwgMC41NTY4NjY1ODYyMDgzNDM1LCAwLjAxMjIwMDQ5MDU3MTU1ODQ3NSwgMC4xMzEzNDkzNjk4ODM1MzczLCAwLjAwNzM0ODM5MjE1ODc0NjcxOSwgMC4yMjMwMTI1OTYzNjg3ODk2NywgMC4wNzAzMjMyODg0NDA3MDQzNSwgMC4yMTQ3NzI3NDU5NjY5MTEzMiwgLTAuMDI4MDEyMjY4MjQ1MjIwMTg0LCAtMC4wOTA5NjU1OTg4MjE2NDAwMSwgMC4xODc1NzM1NjcwMzI4MTQwMywgLTAuMDI2NzUwOTE0NzUyNDgzMzY4LCAwLjA5MDEzMTk5ODA2MjEzMzc5LCAtMC4wNDQ4OTU3OTc5Njc5MTA3NywgLTAuMjI4MDA5NTgxNTY1ODU2OTMsIC0wLjA3NTY4MjgxODg4OTYxNzkyLCAwLjIwMDQwOTg4OTIyMTE5MTQsIC0wLjI3NTAzMzIzNTU0OTkyNjc2LCAwLjE0MjA1MTk2NDk5ODI0NTI0LCAwLjE5MTkzMTcyNDU0ODMzOTg0LCAtMC4yODExNjM1NDM0NjI3NTMzLCAtMC4yNDY2MDAwOTE0NTczNjY5NCwgMC4xMTUxMjU3NzUzMzcyMTkyNCwgMC4xMDUwMTM1NDkzMjc4NTAzNCwgMC4wOTk0MTU1MzMyNDQ2MDk4MywgMC40NzY0Mjc0OTU0Nzk1ODM3NCwgMC4wNTQzMjkxODI5NTI2NDI0NCwgLTAuMDk5OTI3OTAyMjIxNjc5NjksIC0wLjAzNjEyNDI3MDQwOTM0NTYzLCAtMC43NTUyNzY3OTkyMDE5NjUzLCAwLjAzMzY3MDMzMjI4Mjc4MTZdLCBbMC4zMDczNjA4ODc1Mjc0NjU4LCAwLjM0OTk1Nzg4MzM1ODAwMTcsIC0wLjU4NTY3OTg4ODcyNTI4MDgsIC0wLjEzNjE1NDExNTIwMDA0MjcyLCAtMC4wMzYyOTE3NDgyODUyOTM1OCwgMC4wMzY0NTM4ODAzNjk2NjMyNCwgLTAuMDM4MjM5MjE4Mjk0NjIwNTE0LCAwLjE0MjkyMzM1NTEwMjUzOTA2LCAtMC4zODkxMjE1OTIwNDQ4MzAzLCAtMC4wNzkyODYwODM1NzkwNjM0MiwgMC4xNDY1MjYxMTMxNTI1MDM5NywgLTAuMDk2MTMwNzgwODc1NjgyODMsIDAuMjU2MjE2OTEzNDYxNjg1MiwgLTAuMDI0Mjk0MTgwNzk1NTUwMzQ2LCAwLjEwNzg5NTA5MTE3NjAzMzAyLCAtMC4yODY0MjQ0MjgyMjQ1NjM2LCAwLjA3MzA2Mjk4NjEzNTQ4Mjc5LCAtMC4wNDAwNTYxNjE1ODI0Njk5NCwgMC42NTE0OTg3OTQ1NTU2NjQxLCAtMC4yNzM3MDI5MTk0ODMxODQ4LCAwLjI2NjEyODk1NzI3MTU3NTksIDAuMTM5MzU0OTQ0MjI5MTI1OTgsIDAuMTg3NzIwODM1MjA4ODkyODIsIC0wLjE0NTg1MDIxMTM4MTkxMjIzLCAwLjEyMzkzMzY0MzEwMjY0NTg3LCAtMC4wNzMwMjgzNTU4MzY4NjgyOSwgLTAuMDg2MjE0NzgwODA3NDk1MTIsIDAuMzgzMDM2ODUxODgyOTM0NTcsIDAuMDE5MjU0MjMzNjg4MTE2MDc0LCAwLjE0NTk4NTYxODIzMzY4MDczLCAwLjUwNDE5ODQ5MTU3MzMzMzcsIDAuMDcxMzg5NDM2NzIxODAxNzZdLCBbMC4yMzEzNjc0MzkwMzE2MDA5NSwgLTAuMzI3NTI5NjY4ODA3OTgzNCwgMC4yNzk5MjEzNTI4NjMzMTE3NywgMC4wMzc2Mzk1NjU3NjU4NTc3LCAtMC4zMDI3MzEyMTU5NTM4MjY5LCAwLjAxOTkwNDkwNDA2NzUxNjMyNywgMC4wMDEwNDI2ODk0Mjk1OTYwNjY1LCAwLjY3NzUxNzE3NTY3NDQzODUsIC0wLjM2ODAxNDc1Mjg2NDgzNzY1LCAtMS4xMTk3MzUxMjE3MjY5ODk3LCAtMC4wMDg5NDQxMjk1NzEzMTg2MjYsIC0wLjI3MzI4MDQxMTk1ODY5NDQ2LCAwLjU3Mjc5MTA5OTU0ODMzOTgsIC0wLjM0NTgyMTMyMTAxMDU4OTYsIC0wLjA0NTQ5NzU5NjI2Mzg4NTUsIC0wLjUwMDkwNTM5NDU1NDEzODIsIDAuNTM1NzI0OTM3OTE1ODAyLCAtMC4wNDg2MDI1NzcyOTg4Nzk2MiwgMC4xMzMzNzM0MDk1MDk2NTg4LCAtMC4wODU4ODA3NTYzNzgxNzM4MywgMC40NDAwNTAxODQ3MjY3MTUxLCAwLjE1MTkxNDc3NTM3MTU1MTUsIDAuMTAxNzEyNTQ3MjQyNjQxNDUsIC0wLjIyNjU4MDkwMjkzNDA3NDQsIDAuMTI2MjY3NzAxMzg3NDA1NCwgMC4zODc1Mjk2NzExOTIxNjkyLCAwLjQzOTQ3Nzc3MTUyMDYxNDYsIDAuMzIxNTU5MTMxMTQ1NDc3MywgMC45NTMwNDczMzUxNDc4NTc3LCAwLjI5NDA0MDQxMTcxMDczOTE0LCAtMC4yOTQwNzI2MjgwMjEyNDAyMywgLTAuNDI2NjMyODUxMzYyMjI4NF0sIFstMC44NDI0Mzc2ODQ1MzU5ODAyLCAtMC4xNTM1NTEzOTk3MDc3OTQyLCAtMS4zMTI1NTM2NDQxODAyOTc5LCAxLjMwODY4MTcyNjQ1NTY4ODUsIDEuMDcwMjE2MDU5Njg0NzUzNCwgLTEuMDA1NTQ4MjM4NzU0MjcyNSwgMS4yOTk4MzgwNjYxMDEwNzQyLCAtMC40NjQ3NzU3NDExMDAzMTEzLCAxLjQ0NjMyMDg5MTM4MDMxLCAtMC42NDk4NjUyNjk2NjA5NDk3LCAwLjUwNTYyMTQ5Mjg2MjcwMTQsIDAuNjQ5MTAzMDQ1NDYzNTYyLCAtMC44ODEzODU0NDU1OTQ3ODc2LCAxLjI0ODY1MTg2MjE0NDQ3MDIsIDAuNDMzMDI2NzAxMjExOTI5MywgMC41NDgyMTM4Mzk1MzA5NDQ4LCAtMC4zMTM5MjkzNDkxODQwMzYyNSwgMS4yNTQyOTM5MTg2MDk2MTkxLCAtMS44ODQyMTc1MDA2ODY2NDU1LCAxLjI2OTk2NDQ1NjU1ODIyNzUsIDAuNjk5OTAzNzg2MTgyNDAzNiwgLTEuMDgwNTI3MDY3MTg0NDQ4MiwgLTEuNjAyODgyODYyMDkxMDY0NSwgMS45MjM0MTgxNjQyNTMyMzQ5LCAtMS40MzIyNzcyMDI2MDYyMDEyLCAtMC42NDk3OTAxNjc4MDg1MzI3LCAwLjE0ODk4NzM5NzU1MTUzNjU2LCAtMC4yOTIzMzY2NzI1NDQ0NzkzNywgMC4wNDExNzE4NTI0OTkyNDY2LCAtMS4wNjExODcwMjg4ODQ4ODc3LCAtMS4xODg4NDE0NjIxMzUzMTUsIC0wLjA1NDY4MzY4MTU3NzQ0NDA4XSwgWzAuNDE1ODI4NDY2NDE1NDA1MywgLTAuNDk3MTg4MDkxMjc4MDc2MTcsIDAuMTE0OTg2NzkyMjA2NzY0MjIsIDAuMTk1NDEyMzY3NTgyMzIxMTcsIC0wLjMwMzUxNjIwOTEyNTUxODgsIDAuNDk5MDY1ODc2MDA3MDgwMSwgLTAuODg3NDA3MTgzNjQ3MTU1OCwgLTMuMTY4MjIwOTk2ODU2Njg5NSwgMC4xOTUyOTU4NzAzMDQxMDc2NywgMC44MTU4MzQ4Nzk4NzUxODMxLCAtMC4zNzU1MjcyNjI2ODc2ODMxLCAtMC44MTM0MjE5NjQ2NDUzODU3LCAtNC4wMDIyNDkyNDA4NzUyNDQsIDAuMzYwMzg0NDA0NjU5MjcxMjQsIDAuMjg3MDk3NzIyMjkxOTQ2NCwgMC42MTQyMzEzNDgwMzc3MTk3LCAtMy41NjA1Mzc4MTUwOTM5OTQsIC0wLjYxOTUyNTkwOTQyMzgyODEsIDAuMjIxNTIxNTU2Mzc3NDEwOSwgMC4zOTg4NDY3NzUyOTMzNTAyLCAtMS41ODcxMjE0ODY2NjM4MTg0LCAwLjA4Mzc4OTAwNTg3NTU4NzQ2LCAwLjQxMDgzMzE3OTk1MDcxNDEsIDAuNDUxMTI5MTM4NDY5Njk2MDQsIDAuNTczMzU3NzAxMzAxNTc0NywgLTMuMzE4NDQ5OTc0MDYwMDU4NiwgLTAuMjg0ODA1NTk1ODc0Nzg2NCwgLTAuMzcyMDc2ODY5MDEwOTI1MywgLTEuNzM2OTcwMTg2MjMzNTIwNSwgMC41OTk5NTk5Njk1MjA1Njg4LCAtMC4wNTk2MTEwNzQ2MjY0NDU3NywgMS4wMjk4Mzc0ODkxMjgxMTI4XSwgWy0wLjA1MTA5MTc4Mjc0ODY5OTE5LCAwLjAzOTM4NzAwMjU4NzMxODQyLCAwLjAyMzkwMzg1NzkxNjU5MzU1LCAtMC4xNTIyNDUwNDQ3MDgyNTE5NSwgMC4yNDQyMDc3OTk0MzQ2NjE4NywgLTAuMTQwNDc2NDgwMTI2MzgwOTIsIC0wLjAxMjYwNTc0OTA3MDY0NDM3OSwgLTAuMTc4MTQ1NDY4MjM1MDE1ODcsIDAuMDc4NTM0MTcwOTg1MjIxODYsIDAuMTkzNzIzODcyMzAzOTYyNywgLTAuMDcxNjI2ODU2OTIzMTAzMzMsIDAuMDU3NDM5NjY5OTY2Njk3NjksIC0wLjA4MDM0NTU3MTA0MTEwNzE4LCAwLjEyNDg1ODI4MjUwNjQ2NTkxLCAtMC4wOTI2MjA5NzYyNjkyNDUxNSwgLTAuMTAxMzA4Nzg1Mzc4OTMyOTUsIC0wLjAwMDI3Mzg3MzIxNDYwOTkyMSwgMC4xNjUzNTE1OTk0NTQ4Nzk3NiwgMC4xMzMxMzI5MDQ3Njc5OTAxLCAwLjEyMzgxOTk1NDY5MzMxNzQxLCAwLjAxODk3NzA5ODE2Njk0MjU5NiwgMC4wNDg1NTg4MDE0MTI1ODI0LCAwLjA5MTg1ODY3MDExNTQ3MDg5LCAtMC4wOTcxMDM5MDg2NTgwMjc2NSwgLTAuMDM3MDMxODk2NDEyMzcyNTksIC0wLjEyMzU1NzQwMzY4MzY2MjQxLCAtMC4wMjY2Mzk0NTc3OTIwNDM2ODYsIC0wLjE3Njc3OTEyMTE2MDUwNzIsIC0wLjAyOTEyMDUyNzIwNzg1MTQxLCAtMC4xMTY4MzI5NDE3NzA1NTM1OSwgMC4wMDUyMjc5NTEzMzI5MjY3NSwgLTAuMDA1OTg3MjM2Mjc2MjY4OTU5XSwgWzAuMDA5Mjc4Njk2OTYxNzAwOTE2LCAwLjA2NjIwMTcyNDExMjAzMzg0LCAwLjA3Mjg5NzczMjI1Nzg0MzAyLCAtMC4wNDEwNTgyNTcyMjIxNzU2LCAwLjA1MDYwNTU4MDIxMDY4NTczLCAtMC4wMjMyNjYxNzIwMzY1Mjg1ODcsIC0wLjA5Mzg4NDI1OTQ2MjM1NjU3LCAtMC4yMjk4Mzg4NjMwMTUxNzQ4NywgLTAuMTAwMjcyNTUxMTc4OTMyMTksIC0wLjAzNzQxNTEyODIwMTI0NjI2LCAtMC4xMjE4MTE5MzM4MTU0NzkyOCwgMC4wNzY0MDA3NTY4MzU5Mzc1LCAwLjE3NzU1Nzc5NjIzOTg1MjksIC0wLjAxNDI3OTQ2MzMyODQyMTExNiwgMC4wMzY3MjgzMjk5NTY1MzE1MjUsIDAuMDY4ODMwNDkwMTEyMzA0NjksIC0wLjIxMjU2MTE5MDEyODMyNjQyLCAtMC4wODYzMzM1NDMwNjIyMTAwOCwgLTAuMDA2Njk4Mzg4NjA2MzA5ODkxLCAwLjIyNjk3NTU2MDE4ODI5MzQ2LCAtMC4xMjE0MDc2NzI3NjI4NzA3OSwgLTAuMTA0ODE1ODAzNDY4MjI3MzksIC0wLjE2NDIxMDI0NTAxMzIzNywgMC4wOTYxMjMwMjQ4MjEyODE0MywgLTAuMTg5NTkwOTYwNzQxMDQzMSwgMC4xMDM4MTMwNjcwNzg1OTA0LCAwLjA0NzA1MDg0MTE1MjY2OCwgLTAuMDUxMTg0Njg0MDM4MTYyMjMsIC0wLjIxOTM1MDkzNDAyODYyNTUsIC0wLjAzMDI3ODc4NzAxNjg2ODU5LCAwLjAwMjg1NjAzMzE1NTY5NDYwNCwgMC4xMTMwNTE5NjU4MzI3MTAyN10sIFswLjI1NDg0NzM0NzczNjM1ODY0LCAwLjA3MTcwNDg0MjE1MDIxMTMzLCAtMS4yMjg0NDY0ODM2MTIwNjA1LCAwLjAxMDYwMjIxNDM3MzY0ODE2NywgLTAuMjc1NDkxNjg0Njc1MjE2NywgMC4yOTM1NDYxMTAzOTE2MTY4LCAtMC4xOTM4NDk1MDM5OTM5ODgwNCwgLTAuNTA5MDcyNzIxMDA0NDg2MSwgLTAuMDEwMDY1NDM0NTAwNTc1MDY2LCAtMC44MDkwMjUwNDkyMDk1OTQ3LCAtMC4xNDUwMjE2NzcwMTcyMTE5MSwgLTAuMzgzMTMyNDI3OTMwODMxOSwgLTAuNTYwNzQyNDM3ODM5NTA4MSwgLTAuMDY3MzMxMjk5MTg1NzUyODcsIC0wLjU1MjI4MDYwNDgzOTMyNSwgLTAuMDM3NDQzMDE5NDQ5NzEwODQ2LCAwLjA5NDQ2Mjc4OTU5NTEyNzEsIDAuMjAzOTIxNTg2Mjc1MTAwNywgMC4yMjI2MzcxNzY1MTM2NzE4OCwgMC40ODE4NzQ1MjU1NDcwMjc2LCAtMC4xODI4OTQ5MDA0NDExNjk3NCwgMC4yNzA0ODU0MDExNTM1NjQ0NSwgMC4xODUxNTUxODMwNzY4NTg1MiwgLTAuMTQ2ODMyMzQ2OTE2MTk4NzMsIDAuMDM4MTI2NTU4MDY1NDE0NDMsIC0wLjE5NzQwNTEyOTY3MTA5NjgsIDAuMTExMDgwMDIwNjY2MTIyNDQsIDAuMTY5NTI5OTE0ODU1OTU3MDMsIDAuMTMxMTAxMzk5NjYwMTEwNDcsIDAuMTMyNDIwMTM3NTI0NjA0OCwgLTAuMTUwMzI2MDEzNTY1MDYzNDgsIC0wLjAzMDkzMDk2NjEzODgzOTcyXSwgWy0wLjAyNTE1MzE4OTg5NzUzNzIzLCAtMC4wNjM2NjU0NjQ1MjA0NTQ0LCAwLjEyNzc2OTg1NzY0NTAzNDgsIDAuMDQ1NjU4ODc4OTgyMDY3MTEsIDAuMTMwMjczMjgyNTI3OTIzNTgsIDAuMDIxNzc0Mzg1MTI0NDQ0OTYsIDAuMjM3MTIzNzU3NjAwNzg0MywgLTAuMDcyNzAwNjQyMDQ5MzEyNTksIDAuMjEyMzA0NjIxOTM0ODkwNzUsIDAuMjIwNTI2MTg4NjExOTg0MjUsIDAuMzIwODQ3MTIzODYxMzEyODcsIDAuMjI2NTU0Mjc0NTU5MDIxLCAtMC4xMDI4OTMzOTcyMTIwMjg1LCAwLjA3ODQ5MTU4MzQ2NjUyOTg1LCAwLjE0OTY3NDExNzU2NTE1NTAzLCAwLjAwNjEzMDU3OTg1OTAxODMyNiwgLTAuMDM5NDc3MzcwNjc5Mzc4NTEsIC0wLjEyODM2Mzg0NzczMjU0Mzk1LCAwLjEwODQ3MTg2Mjk3MTc4MjY4LCAwLjI1MzgyOTEyMTU4OTY2MDY0LCAwLjIwOTMxMDk2Mzc0OTg4NTU2LCAtMC4xNDYxMDQzMzU3ODQ5MTIxLCAtMC4zODI4MzczNTUxMzY4NzEzNCwgMC4yNzI1NTU5NDczMDM3NzIsIC0wLjE0MDY0MDgxMDEzMjAyNjY3LCAtMC4wNzI2OTEzMjg4MjM1NjY0NCwgLTAuMTYwODA3NDYwNTQ2NDkzNTMsIC0wLjA3NTg3MjAwNDAzMjEzNTAxLCAwLjA1MTA0NDYyMDU3MzUyMDY2LCAtMC4xOTE3NTYxMjkyNjQ4MzE1NCwgMC43ODY1NjMwOTg0MzA2MzM1LCAwLjI0NDE5NjU5Mzc2MTQ0NDFdLCBbMC4yNTYyNDkwOTk5Njk4NjM5LCAwLjQ3ODM0MDg2NDE4MTUxODU1LCAtMC4xMjY5MTY4NTU1NzM2NTQxNywgMC4yNDE0MDM0OTAzMDQ5NDY5LCAwLjQwNzQyMjg0MDU5NTI0NTM2LCAtMC4yMzMwMjE4NTUzNTQzMDkwOCwgMC41NTU2MDA0NjQzNDQwMjQ3LCAwLjE5NDc4MTI1ODcwMjI3ODE0LCAwLjE5ODk0ODY1MTU1MjIwMDMyLCAtMC42MzI0OTgyNjQzMTI3NDQxLCAwLjUzODEwNjIwMzA3OTIyMzYsIDAuMDMxMTUzMzYyMjQ0MzY3NiwgLTAuMDA5NTYzNzI0NTEwMzcxNjg1LCAtMC4yMjkzMTYyNjQzOTA5NDU0MywgMC42NTgxOTQwNjUwOTM5OTQxLCAtMC4wODc2MDcyOTQzMjEwNjAxOCwgMC4xNDM3NTAwNzE1MjU1NzM3MywgMC4zMTU5MjEyMTcyMDMxNDAyNiwgMC4wMzUwOTI1MTQwMDgyODM2MTUsIC0wLjA3MTQ4OTg0MDc0NTkyNTksIDAuMzU4NTg1Nzc0ODk4NTI5MDUsIC0wLjIxMDgwMjk4NzIxNzkwMzE0LCAtMC4wMTEzNjU3OTA4NTE0MTQyMDQsIC0wLjEwODYwOTU0MjI1MDYzMzI0LCAtMC4xMzM2OTI2MjIxODQ3NTM0MiwgLTAuMDQ2ODcyMjEzNDgyODU2NzUsIDAuMDY0ODM4MDk2NDk5NDQzMDUsIDAuMjQzNjQ2NDU3NzkxMzI4NDMsIDAuOTQ2MzgyMDQ1NzQ1ODQ5NiwgMC4xNTU5NDExNTg1MzMwOTYzLCAwLjA2MTkyMTMwMjIyOTE2NjAzLCAtMC4yODIzMTc4MTcyMTExNTExXSwgWzAuMjQ4NDM0Nzk2OTI5MzU5NDQsIDAuMzU5NzgzMjkxODE2NzExNCwgMC41NzI1NjE0NDI4NTIwMjAzLCAtMC4xMDY5NTYwMDUwOTY0MzU1NSwgMC4xMTA0NTcwNDAzNjk1MTA2NSwgMC4zMjE5Mjg2Nzk5NDMwODQ3LCAwLjIxNTUzMzMxNjEzNTQwNjUsIC0wLjEwNzk2MTY2OTU2NDI0NzEzLCAtMC4xNjE2NDUyNjM0MzM0NTY0MiwgLTAuMTQ3NTkwNTE3OTk3NzQxNywgLTAuMDcwNzcyODM0MTIyMTgwOTQsIC0wLjEzNzQ5NTIwNDgwNjMyNzgyLCAtMC4xMDUxMTI3NjEyNTkwNzg5OCwgLTAuMTEyNjY3NjM1MDgzMTk4NTUsIC0wLjEwNTYwNTAyMTExOTExNzc0LCAtMC4xMDMzNjY0MzQ1NzQxMjcyLCAtMC4wNDkzMjY4ODkyMTY4OTk4NywgMC4xMzA3NTI4NzY0MDA5NDc1NywgLTAuMTA3Nzg2NzUyMjgzNTczMTUsIC0wLjE5MDQ3NjYyNjE1Nzc2MDYyLCAtMC4xMjc2NzE3MzM0OTg1NzMzLCAwLjQ3MzkwMTgzODA2NDE5MzcsIDAuNDE0Mzc3MjQyMzI2NzM2NDUsIC0wLjE0OTM4OTYyNDU5NTY0MjEsIDAuNDQ3ODY3MDM1ODY1NzgzNywgLTAuMTE3NTEyNzkyMzQ4ODYxNywgMC4yMTQwNTU0MTg5NjgyMDA2OCwgLTAuMTc1MzU2NTM3MTAzNjUyOTUsIC0wLjA2OTg2MDE2MDM1MDc5OTU2LCAwLjM1MzI4OTQyNTM3MzA3NzQsIDAuNjY2MjkyOTY1NDEyMTM5OSwgLTAuMDc1NDM2NjUxNzA2Njk1NTZdXSwgWzAuMTA4NDI5NDAyMTEyOTYwODIsIDAuMDQwMTM0NDU5NzMzOTYzMDEsIDAuMTExMDEzNTYxNDg3MTk3ODgsIDAuMDEwODYxODU1OTMxNTgwMDY3LCAwLjEwNjYxMzI2MzQ4NzgxNTg2LCAwLjAwMTA0ODI2MDk1MDQ4MzM4MTcsIDAuMDY3NjUyODIxNTQwODMyNTIsIDAuMDYwNzM4NzI3NDUwMzcwNzksIDAuMDM2NjgwNDcxMTUyMDY3MTg0LCAwLjEyODY3NDUyMjA0MjI3NDQ4LCAwLjAyOTI0OTc0NjM1MjQzNDE2LCAwLjA3NzU1ODU5MTk2MTg2MDY2LCAwLjA2NTg4MDE0OTYwMjg5MDAxLCAwLjA3ODk3MDI4MzI2OTg4MjIsIDAuMDU5NTk3OTU0MTU0MDE0NTksIDAuMDc0MjI0MzAwNjgyNTQ0NzEsIDAuMDY2MDUyNzI3NDAxMjU2NTYsIDAuMDgxMTIzNDg2MTYxMjMyLCAwLjA0MjIyMzU2NTI4MDQzNzQ3LCAwLjExNTI0MzAwMjc3MjMzMTI0LCAwLjA2MDI0NjY0MjY3ODk3NjA2LCAwLjE2MjE5NDk2NzI2OTg5NzQ2LCAwLjEwMDM5MzE0NjI3NjQ3NCwgMC4xMDIzMjg4MDcxMTU1NTQ4MSwgMC4wNDIxMTg3MDIwODM4MjYwNjUsIDAuMDYzMTc0OTcwNDQ4MDE3MTIsIDAuMDY0OTc2NTY1NTM5ODM2ODgsIDAuMDU2ODg0NTA0ODU0Njc5MTEsIC0wLjA0NTUyNzYxNDY1MzExMDUwNCwgMC4wNjI0MzM1NDgyNzE2NTYwMzYsIDAuMTM1NzA5MzE1NTM4NDA2MzcsIDAuMDQ3MTc0MTQwODEwOTY2NDldLCBbWy0wLjE3OTMxMTI3NTQ4MjE3NzczLCAtMC4yODk3NTU0MDM5OTU1MTM5LCAtMC4xNDExNTA5NTEzODU0OTgwNSwgLTAuMzI1NjgyNjQwMDc1NjgzNiwgMC4xNDkyNzk3NDM0MzI5OTg2NiwgMC42NTQyMzkwNTg0OTQ1Njc5LCAtMC40MzI1ODU4MzU0NTY4NDgxNCwgLTAuMDU0NzUwNjI4NzY5Mzk3NzM2LCAwLjMzNDcwOTk3MjE0MzE3MzIsIC0wLjQwMzEwNDI0NTY2MjY4OTIsIDAuNDQ0ODQyOTk0MjEzMTA0MjUsIDAuNDk4MDM0NTk2NDQzMTc2MjcsIC0wLjAyMzMyODczODI4NzA5MTI1NSwgMC4zMjgzMzQwMzM0ODkyMjczLCAtMC41MDE1NTI5Mzk0MTQ5NzgsIDAuMDE5MDUwMDUwNTI2ODU3Mzc2XSwgWy0xLjU1NjUwNzcwNjY0MjE1MDksIDIuNjQ2OTUxNjc1NDE1MDM5LCAtMS43MDExMjIyODM5MzU1NDY5LCAtMS44NjA4OTUxNTY4NjAzNTE2LCAtMC4zMjQyOTE4MjUyOTQ0OTQ2MywgMi40OTIyMjMwMjQzNjgyODYsIC0yLjU0NTk4NzEyOTIxMTQyNiwgLTEuNzA2MTI0NTQ0MTQzNjc2OCwgMi44MjU0NzMzMDg1NjMyMzI0LCAtMS43MDY1NjY1NzIxODkzMzEsIDIuOTAxMDkwMTQ1MTExMDg0LCAyLjczMTgwNjc1NTA2NTkxOCwgLTEuNjkyODU1MzU4MTIzNzc5MywgMi41NzMxNTc3ODczMjI5OTgsIC0xLjcxNjU3MzgzNDQxOTI1MDUsIDIuNzk4ODUwMjk3OTI3ODU2NF0sIFstMC41NDg3OTYwNTc3MDExMTA4LCAwLjczNDg5MjYwNjczNTIyOTUsIC0wLjQxNDIzOTEwODU2MjQ2OTUsIC0wLjM5Nzc3NjQ4NDQ4OTQ0MDksIC0wLjAzNTA2NTcyOTE3MTAzNzY3NCwgMC43NTg5ODI4MzcyMDAxNjQ4LCAtMC42NTg4ODA1MzE3ODc4NzIzLCAtMC43MzMxMzg3OTk2NjczNTg0LCAwLjgwNTExMzk3MTIzMzM2NzksIC0wLjYxMzI2OTMyOTA3MTA0NDksIDEuMDIxNjI4Mzc5ODIxNzc3MywgMC45NTQyNTQ1Njc2MjMxMzg0LCAtMC41NjY1MDAwNjc3MTA4NzY1LCAwLjgxNzAxNDQ1NTc5NTI4ODEsIC0wLjUzODY1OTI3NDU3ODA5NDUsIDAuOTE3NDM4OTgzOTE3MjM2M10sIFswLjUyNzA2MTEwNDc3NDQ3NTEsIC0wLjA4MzY5Mzg4NDMxMzEwNjU0LCAwLjMzNjQ0NjM0NDg1MjQ0NzUsIDAuMTQ5NjQ4MTE1MDM4ODcxNzcsIDAuMDA0MjE2NDg1MTkxMTM2NTk5LCAtMC4xODUxNTE4NDUyMTY3NTExLCAwLjI3NTM4MzcxMDg2MTIwNjA1LCAwLjM5NDA0NjQ1NTYyMTcxOTM2LCAtMC4yNzI1MzcyOTEwNDk5NTczLCAwLjUwMTYwOTQ0NDYxODIyNTEsIC0wLjMyMDg1NjU3MTE5NzUwOTc3LCAtMC41MzA3MjQ3NjM4NzAyMzkzLCAwLjYxMzIzMDIyODQyNDA3MjMsIC0wLjM2MzQ1NzkxODE2NzExNDI2LCAwLjQyMDQ1MTkwOTMwMzY2NTE2LCAtMC40MzMwNDE4NzA1OTQwMjQ2Nl0sIFswLjMyMjYyMjQ3ODAwODI3MDI2LCAtMC4wMTc0NTc5MjEwNTc5Mzk1MywgMC40NjM1NjA2MTEwMDk1OTc4LCAwLjE3MDIwMjcwMjI4Mzg1OTI1LCAtMC4yODU3NjA4NDk3MTQyNzkyLCAtMC4wMjYxMTgxNjMwMTk0MTg3MTYsIC0wLjAzNTcwMTIxODk5MjQ3MTY5NSwgLTAuMDI3MzYzOTM3MzQ4MTI3MzY1LCAwLjA5NjQ5MTg0MzQ2MTk5MDM2LCAwLjUxNzYzNzI1MjgwNzYxNzIsIDAuMjQ1MDQ5NTM2MjI4MTc5OTMsIDAuMjU2NzY0NDExOTI2MjY5NTMsIDAuMjY1NzI0NDgwMTUyMTMwMSwgLTAuMDkxMjE0MDE2MDc5OTAyNjUsIDAuMzQ4OTc0MjI3OTA1MjczNDQsIDAuMDc1NzE4OTA5NTAyMDI5NDJdLCBbLTAuMzk1OTc0ODQ0Njk0MTM3NiwgLTAuMDgxMzk3ODAxNjM3NjQ5NTQsIC0wLjAwNTE1MzUyMDQ5ODQyNDc2ODQsIC0wLjE3MTgwMTc0NTg5MTU3MTA0LCAtMC4wMzYyMTI1MzM3MTIzODcwODUsIDAuMDE1NTc1MDQxOTk0NDUyNDc3LCAtMC4wMDE1OTgwMDIzODkwNzMzNzE5LCAtMC4zNDM4NTg1NDAwNTgxMzYsIDAuMTYyMTg2OTUwNDQ1MTc1MTcsIC0wLjQ3ODc4MTk5ODE1NzUwMTIsIC0wLjAxMzQ2MDc4NDIxOTIwNTM4LCAwLjE4OTU3NTIxMDIxMzY2MTIsIC0wLjMyODAxMTA5NTUyMzgzNDIzLCAwLjAyNzk2NzIxODMwOTY0MDg4NCwgLTAuMTE5NDk2MTM2OTAzNzYyODIsIDAuMTM3MzAxODE3NTM2MzU0MDZdLCBbMC4yMjczNzE3MjI0NTk3OTMxLCAwLjI3NTY1MzM2MjI3NDE2OTksIDAuMjUwNTg3NjEyMzkwNTE4MiwgLTAuMTA0MTQwMDczMDYwOTg5MzgsIC0wLjQxNTA3MzYzMzE5Mzk2OTcsIDAuMTIxMDE1MzEwMjg3NDc1NTksIDAuMTM2NDk3OTQ0NTkzNDI5NTcsIDAuMzc1NTU3NTcxNjQ5NTUxNCwgMC4wNzg2MDcyNzYwODIwMzg4OCwgMC4zMDA5ODc4Mzk2OTg3OTE1LCAwLjQyMjUyNTA0ODI1NTkyMDQsIDAuMTY2NzUzNDQxMDk1MzUyMTcsIC0wLjA4MDM5NDkyMzY4Njk4MTIsIDAuMjUwNzIzMjEyOTU3MzgyMiwgMC4xMTY5ODAyODQ0NTI0MzgzNSwgMC4wNjg0MTUwMDEwMzQ3MzY2M10sIFswLjUyMjgwOTc0Mzg4MTIyNTYsIC0wLjA4OTQzMjYxMjA2MTUwMDU1LCAwLjYyMzQ3MDU0NDgxNTA2MzUsIDAuOTMzNzgzMTczNTYxMDk2MiwgLTAuMzEyMzYzNDc1NTYxMTQxOTcsIC0wLjc0OTg3MTQ5MjM4NTg2NDMsIDAuMzkwNjc4MTA3NzM4NDk0OSwgMC40NDg0MDUyMzYwMDU3ODMxLCAtMC43MjgyMTU5MzI4NDYwNjkzLCAwLjY5Mzg1MTUzMDU1MTkxMDQsIC0wLjYxNDI2MjM0MjQ1MzAwMjksIC0wLjYyMTk0MTIwODgzOTQxNjUsIDAuNjQxMjQzMTAwMTY2MzIwOCwgLTAuNTI4MDExNjc5NjQ5MzUzLCAwLjc2NTM5OTM5NjQxOTUyNTEsIC0wLjE1NjE2Mjk3NzIxODYyNzkzXSwgWzAuMzA2MzU5MjAxNjY5NjkzLCAwLjE0MjcwMzMzOTQ1NzUxMTksIDAuMTQxMzQ5MDE3NjIwMDg2NjcsIDAuMzkwMTkyMzAwMDgxMjUzMDUsIDAuMDAwNzQyMDAzNjEyNjg1OTQ4NiwgMC4wNTgxNDAwNjE3OTU3MTE1MiwgMC4wODU3NTU4MTc1OTIxNDQwMSwgMC4yMjQxNDA3NjMyODI3NzU4OCwgLTAuMDEwMzA1MDE5MDk1NTQwMDQ3LCAwLjQxNzg5MTA4NTE0Nzg1NzY3LCAwLjAyMDE1NzE2MjEwMDA3NjY3NSwgLTAuMjcwNDM2NzkzNTY1NzUwMSwgMC4xODA1OTcyMDA5ODk3MjMyLCAwLjAwNTc1MzU0MjI5NjU4ODQyMSwgMC4zMTE2Nzk5NTkyOTcxODAyLCAtMC4wNTIzMDI3OTI2NjgzNDI1OV0sIFswLjEyODE5MTI5MjI4NTkxOTIsIC0wLjEzNTc5NTE0NjIyNjg4MjkzLCAtMC4yMTMwNjIxNjcxNjc2NjM1NywgLTAuMDQ3MDk3NTYzNzQzNTkxMzEsIDAuNTk2ODEwODE3NzE4NTA1OSwgLTAuMzk2NzUzOTA3MjAzNjc0MywgMC41Njc5MjE0MDAwNzAxOTA0LCAtMC4xODE3MjUwMjUxNzcwMDE5NSwgLTAuMjU5MDg3Mjk0MzQwMTMzNjcsIDAuMDgwODQ0MDU5NTg2NTI0OTYsIC0wLjM1MDQwMDY1NjQ2MTcxNTcsIC0wLjM2MTM1ODczMTk4NTA5MjE2LCAwLjM3NDk0MzUyNDU5OTA3NTMsIC0wLjQ5NDYzOTA5ODY0NDI1NjYsIDAuMjI1MTIxNDUzNDA0NDI2NTcsIC0wLjQ1MDM0OTY4ODUyOTk2ODI2XSwgWzAuMTgwMDg3Njg1NTg1MDIxOTcsIDAuMTkzMTQ2NzA1NjI3NDQxNCwgMC4wNDYwNDYxODk5NjM4MTc1OTYsIDAuMDg5ODUyNjgzMjQ2MTM1NzEsIC0wLjI2Nzc2NjU5NDg4Njc3OTgsIDAuMDY4MjgxNzEwMTQ3ODU3NjcsIC0wLjAwMzk5MDUzMTg5OTAzNDk3NywgMC4yNzQ0MDM5Mjk3MTAzODgyLCAwLjAzNDM2OTcxODI4MzQxNDg0LCAwLjA4MTkyMDQ0NDk2NTM2MjU1LCAwLjEzNjEwNzcxMjk4NDA4NTA4LCAtMC4wMTQ0ODUxMDc3MzQ3OTkzODUsIC0wLjI0NTAwMTI4NjI2ODIzNDI1LCAwLjAzNzQ1MDA0NTM0NzIxMzc0NSwgMC4wNjM0MzM0ODMyNDI5ODg1OSwgLTAuMDAxNjcyMzgwNjAzODQ5ODg3OF0sIFswLjQyMjUxOTY4MzgzNzg5MDYsIC0wLjMxMjM1MTU4NDQzNDUwOTMsIDAuMjM1NDc0NDM3NDc1MjA0NDcsIDAuNTIzMjQ0Nzk4MTgzNDQxMiwgLTAuMjY4Mzg1MDIyODc4NjQ2ODUsIC0wLjA0NTUzMDQ2MDc3NDg5ODUzLCAwLjMzMzk4NTg5NDkxODQ0MTgsIDAuMjUyNjI5MjgwMDkwMzMyMDMsIC0wLjMzNjEyMjA5NTU4NDg2OTQsIDAuNTA2NjIzMjA4NTIyNzk2NiwgLTAuNjIxMzAxMjkzMzczMTA3OSwgLTAuNDI3MTA5MDAzMDY3MDE2NiwgMC4yOTc3NTc5MjM2MDMwNTc4NiwgLTAuMjQ5NDAwNjQ1NDk0NDYxMDYsIDAuMzcwODE2NDk4OTk0ODI3MjcsIC0wLjQ0MjQ1NTU4OTc3MTI3MDc1XSwgWzAuNjU5Njg4MTE1MTE5OTM0MSwgLTAuMzc0NjI5NTI3MzMwMzk4NTYsIDAuNjE1NjQxOTUxNTYwOTc0MSwgMC4zMzYzNDEyOTE2NjYwMzA5LCAtMC4yNTE4NDc1NjUxNzQxMDI4LCAtMC4xODUwNzQyOTk1NzM4OTgzMiwgMC4yOTUyMDk4ODQ2NDM1NTQ3LCAwLjc3ODQwNDM1NTA0OTEzMzMsIC0wLjE0NTc4NDc2NTQ4MTk0ODg1LCAwLjYxNTYwNjE4ODc3NDEwODksIC0wLjI3MTE3MDEzOTMxMjc0NDE0LCAtMC4wMjY1OTcyODAwNTUyODQ1LCAwLjM4MjU2OTU1MTQ2Nzg5NTUsIC0wLjE4MTc0MjI4MDcyMTY2NDQzLCAwLjUzOTc2MDQ3MDM5MDMxOTgsIC0wLjIzMTcxMTA4OTYxMTA1MzQ3XSwgWzAuMzcxMDI1MzIzODY3Nzk3ODUsIDAuMjI1MjU5MTU1MDM1MDE4OTIsIDAuMjM2Njc4MzMyMDkwMzc3OCwgMC4yOTk2NTcyMjU2MDg4MjU3LCAwLjQ0Mjk0Mjk0NzE0OTI3NjczLCAtMC4xOTI3ODkwMDMyNTI5ODMxLCAwLjQyNjI2NDk3MTQ5NDY3NDcsIDAuMDQwNDcwMDc0ODYyMjQxNzQ1LCAtMC4xMTY3MzEyODYwNDg4ODkxNiwgMC4yNTk0NDAzMDI4NDg4MTU5LCAtMC4wODc0MjU3NjgzNzUzOTY3MywgLTAuMjY4ODE1NjM2NjM0ODI2NjYsIDAuNjI0NzIxNDA3ODkwMzE5OCwgMC4xODI2MjAzMTY3NDM4NTA3LCAwLjM1NDE2NDM5MTc1NjA1Nzc0LCAwLjE0Mjg5MjUzOTUwMTE5MDE5XSwgWzAuMDE5ODM1MDA2NDQ1NjQ2Mjg2LCAtMC4zNDg0MzM4NTIxOTU3Mzk3NSwgMC4yNTgxODU1NjU0NzE2NDkxNywgMC4zMjE4NDkwNDgxMzc2NjQ4LCAwLjI3MTU5MDI5MjQ1Mzc2NTg3LCAtMC4yMzY2MTQ1MjUzMTgxNDU3NSwgMC41MDExNzczMTA5NDM2MDM1LCAwLjQ1NzQ5MDAyNjk1MDgzNjIsIC0wLjI2NDY5MjM5NTkyNTUyMTg1LCAwLjI2MDY2ODg0Mzk4NDYwMzksIC0wLjI0OTk1NzM4MjY3ODk4NTYsIDAuMDY1MjkyNDE4MDAzMDgyMjgsIDAuMTU5MzkwNjczMDQxMzQzNywgLTAuMjIyMjYzOTE3MzI2OTI3MTksIDAuMTY4NzU2MzA2MTcxNDE3MjQsIC0wLjA5MDc0Mzg5OTM0NTM5Nzk1XSwgWzAuMzAxOTg1OTE5NDc1NTU1NCwgLTAuMjAzMzcwMjI4NDA5NzY3MTUsIC0wLjE0MjQ0NDE2MzU2MDg2NzMsIDAuMTczNzYzNjYyNTc2Njc1NDIsIDAuNDA1NTk1NjYwMjA5NjU1NzYsIDAuMDIxNzI1NzMwOTcwNTAxOSwgMC41MTcwMTMwNzI5Njc1MjkzLCAwLjA2MTE5MDk3NzY5MjYwNDA2NSwgLTAuMjA4NTY1ODAxMzgyMDY0ODIsIDAuMjA5NTE1OTI5MjIyMTA2OTMsIC0wLjI4MzA4NDY5MDU3MDgzMTMsIC0wLjAyODgwNDg3MDMyMjM0NjY4NywgMC40MzAxMjQ5Mzg0ODgwMDY2LCAtMC4yMTQxNDc4MDYxNjc2MDI1NCwgMC40MTkyNTM1ODc3MjI3NzgzLCAtMC4yMTgyMjIyMTU3NzE2NzUxXSwgWzAuNTIxNjg3MzI4ODE1NDYwMiwgLTAuMzQ2MzA3NDU2NDkzMzc3NywgMC44MjgyODY2NDc3OTY2MzA5LCAwLjY4MzAxNTk0MjU3MzU0NzQsIC0wLjQwODYzOTA3MzM3MTg4NzIsIC0wLjY2NzM1OTgyODk0ODk3NDYsIDAuNDgwODI0MjYxOTAzNzYyOCwgMC42NzQ5MDA0MTI1NTk1MDkzLCAtMC40Njg2NDM2MzU1MTEzOTgzLCAwLjQ3MjczMDk5NDIyNDU0ODM0LCAtMC41MTc3NDA5NjQ4ODk1MjY0LCAtMC41MDE2Nzk1OTkyODUxMjU3LCAwLjU5NjkxNTAwNjYzNzU3MzIsIC0wLjU2NDE2Mjc5MDc3NTI5OTEsIDAuNjk5Mjk4NjIwMjIzOTk5LCAtMC41NjAyNTkyMjI5ODQzMTRdLCBbMC4zMzQ1MzUxMjE5MTc3MjQ2LCAwLjE5NjkwMTc5ODI0ODI5MTAyLCAwLjMxNTc2ODAwMzQ2Mzc0NTEsIDAuMDE0ODMwNTQ2NDUzNTk1MTYxLCAtMC4yMjQ1NDEyNDY4OTEwMjE3MywgLTAuMDIyNzMyNTg5MzkzODU0MTQsIC0wLjEyMzY5NTY0OTIwNjYzODM0LCAtMC4xOTYwOTkzNDA5MTU2Nzk5MywgMC4yMDgzMTc2Mzc0NDM1NDI0OCwgMC4wNjY2MDU0MDQwMTkzNTU3NywgMC4xMjk3MjkwMDI3MTQxNTcxLCAtMC4wMTE5OTk1NDQ2ODc1NjkxNDEsIDAuMjk3OTYxMzU0MjU1Njc2MjcsIDAuMjQ2OTg3OTY4NjgzMjQyOCwgMC4yOTcyMjMxNTA3MzAxMzMwNiwgMC4zNTU1NjA3NDk3NjkyMTA4XSwgWy0wLjU2NTM2NzIyMTgzMjI3NTQsIDAuNTEwMTQ0ODI5NzUwMDYxLCAtMC42Nzc4NTYwMjgwNzk5ODY2LCAtMC41OTkwOTczNzExMDEzNzk0LCAwLjM1OTIyNTQ1MTk0NjI1ODU0LCAwLjIxNjcxMzEwMDY3MTc2ODIsIDAuMjQxMzYwNjA0NzYzMDMxLCAtMC41NDE4NjI4NDU0MjA4Mzc0LCAtMC4wNDcwMDg1NTUzODI0OTAxNiwgLTAuMzk0OTk4NjM5ODIyMDA2MiwgLTAuMTkxMjIyNzEyMzk3NTc1MzgsIC0wLjA5NDIyODY3MDAwMTAyOTk3LCAtMC4xNjk5MzU4MDc1ODU3MTYyNSwgMC4yOTAxNTQ0MjcyODk5NjI3NywgLTAuNDc3ODUzNTM2NjA1ODM0OTYsIDAuNjQ3ODcyMjA5NTQ4OTUwMl0sIFswLjI0MzIxMTQzMzI5MTQzNTI0LCAtMC4xODk0NjA1MTU5NzU5NTIxNSwgMC40MDUzMTQ5MjIzMzI3NjM2NywgMC4zNDY4MDk5ODMyNTM0NzksIDAuMTYyMDM2ODA2MzQ0OTg1OTYsIC0wLjQ1ODA4MzEyMjk2ODY3MzcsIDAuNjU3NDY0ODYxODY5ODEyLCAtMC4wNjA1MjYyODE1OTUyMzAxLCAtMC4yNTMxNDk1MDk0Mjk5MzE2NCwgMC4yNTcyMTI3ODc4NjY1OTI0LCAtMC41MTg4NjYxMjE3Njg5NTE0LCAtMC4yOTUwNDcyODMxNzI2MDc0LCAwLjg3NDEwOTQ0NzAwMjQxMDksIDAuMDIwNzI0MTA2NTgwMDE4OTk3LCAwLjc3OTU1MTkyMzI3NDk5MzksIC0wLjI1NjgyNzgzMTI2ODMxMDU1XSwgWzAuMTQxMzg5Njk3NzkwMTQ1ODcsIDAuMDMyMTM5MzMxMTAyMzcxMjE2LCAwLjI0MzU2NDc4NDUyNjgyNDk1LCAwLjEzOTQ4MTU0NDQ5NDYyODksIC0wLjg1MTk3MDQzNDE4ODg0MjgsIDAuMjc0MDMyNTkyNzczNDM3NSwgLTAuMDEwMTU4NDMyNjQ3NTg1ODY5LCAwLjUyNzkwMDY5NTgwMDc4MTIsIDAuMTU3NzU2MjU0MDc2OTU3NywgMC41MTY4NzE2OTA3NTAxMjIxLCAwLjA4NjA2MzY4MzAzMjk4OTUsIDAuMzA0MzM1MzU1NzU4NjY3LCAtMC4xMDEwNDE5MjA0ODMxMTIzNCwgLTAuMDgwODI3MjM2MTc1NTM3MTEsIDAuMTAwMDQ0ODE2NzMyNDA2NjIsIC0wLjEzMzAyODUyMjEzMzgyNzJdLCBbLTAuMzM1MTQ2NDI3MTU0NTQxLCAwLjA5NjY2NDMxNjk1MjIyODU1LCAtMC4yNDg5ODUyOTA1MjczNDM3NSwgLTAuMTA2OTAwMzQ5MjU5Mzc2NTMsIC0wLjIyODM1Nzc3Njk5OTQ3MzU3LCAwLjI4MzA0MDk0MDc2MTU2NjE2LCAwLjA0NTUwODEwNTMwNzgxNzQ2LCAtMC40Njg2MjE4NTAwMTM3MzI5LCAwLjI4MTU1NTc3MTgyNzY5Nzc1LCAtMC4zMzk5NjIxMjQ4MjQ1MjM5LCAwLjU1NjAyNjUxODM0NDg3OTIsIDAuMjI2MTM1MzEzNTEwODk0NzgsIC0wLjEzMDgzMTg2NzQ1NjQzNjE2LCAwLjI3NDQ5MjMyMzM5ODU5MDEsIC0wLjI5OTE4OTMyOTE0NzMzODg3LCAwLjE2OTIwMDkyNzAxOTExOTI2XSwgWy0wLjM5MDA5Mjk2ODk0MDczNDg2LCAwLjIxMTcwMDAzNzEyMTc3Mjc3LCAtMC41MDA4NzQ4MTczNzEzNjg0LCAtMC4wNjc2NDM1MDgzMTUwODYzNiwgMC4yNDc5NTEwMzA3MzEyMDExNywgLTAuMTExNTEzNDUwNzQxNzY3ODgsIDAuMjY2ODA3NTI2MzUwMDIxMzYsIC0wLjMzODIxMTA4OTM3MjYzNDksIDAuMjE3NDgwMTgyNjQ3NzA1MDgsIC0wLjM1MjY0MjQ3NjU1ODY4NTMsIDAuMDkxMjQwNDEzNDg2OTU3NTUsIDAuMDQyNzY5NzY3MzQzOTk3OTU1LCAtMC4xNTc5Njc2ODY2NTMxMzcyLCAwLjE4NDg1ODU2MDU2MjEzMzgsIC0wLjA4NzQzNzI0MjI2OTUxNTk5LCAwLjIzODgwMDAwNDEyNDY0MTQyXSwgWzAuNjA3OTYxODkzMDgxNjY1LCAtMC4xMzI1NjAyOTc4NDY3OTQxMywgMC4yNzkwOTQ1NzY4MzU2MzIzLCAwLjQ1Nzg4ODg0MTYyOTAyODMsIDAuNjYxNDcxMTI4NDYzNzQ1MSwgLTAuNTk3OTA1NjM1ODMzNzQwMiwgMC40MzY3MDA5OTk3MzY3ODU5LCAwLjAzMTI3NDAxMzIyMTI2Mzg4NSwgLTAuMzI5ODkxMTQ1MjI5MzM5NiwgMC4yMzU4NzkxMjMyMTA5MDY5OCwgLTAuNDA5NDk1NzcwOTMxMjQzOSwgLTAuMjI2MjMyOTc1NzIxMzU5MjUsIDAuOTAyOTcwMjU0NDIxMjM0MSwgLTAuNTYzNjgyNDM2OTQzMDU0MiwgMC41Mjc1NDk4NjI4NjE2MzMzLCAtMC4zOTE4NDg1MDQ1NDMzMDQ0NF0sIFswLjAwMjU3MjM2NTEwNTE1MjEzLCAwLjE3MTA5MDc2Njc4NzUyOSwgLTAuMzk5NzEwMjM3OTc5ODg4OSwgLTAuMzM3NTUxMjY1OTU0OTcxMywgMC4xNjA0NjY1NTE3ODA3MDA2OCwgMC4wODE1MzkyOTU2MTM3NjU3MiwgMC4zMzY4MDA0ODU4NDkzODA1LCAtMC4zMzQ5Nzk3MTI5NjMxMDQyNSwgMC4wMjgzMDE1NzgwMTUwODkwMzUsIC0wLjM0MjU1OTQ1NjgyNTI1NjM1LCAtMC4yNTE3NzI1ODI1MzA5NzUzNCwgMC4wOTEyOTYwNzY3NzQ1OTcxNywgLTAuMDMwODY1MTg4Njg4MDM5NzgsIDAuMDQ2ODA1NjM4ODE5OTMyOTQsIC0wLjAwNTQ4MjAyNTQ0NDUwNzU5OSwgMC4yMjQ2NTkxNzQ2ODA3MDk4NF0sIFswLjQ2MjQ5NDk2OTM2Nzk4MDk2LCAtMC4yODk1OTg4ODIxOTgzMzM3NCwgMC41ODAwNTQxNjM5MzI4MDAzLCAwLjU1MTkxMTU5MjQ4MzUyMDUsIC0wLjQ5Mjc1OTQwNjU2NjYxOTksIC0wLjI1NDg0NjYzMjQ4MDYyMTM0LCAwLjQzODg5ODk1MDgxNTIwMDgsIDAuNjIxOTg2MjY5OTUwODY2NywgLTAuMjk2NjI3NjQwNzI0MTgyMTMsIDAuNjk0ODkxNzUwODEyNTMwNSwgLTAuNDg1OTcwNDM3NTI2NzAyOSwgLTAuMzM1MjkwNTUxMTg1NjA3OSwgMC4zMTQ1MTk3MDMzODgyMTQxLCAtMC4yMDcyNzg2OTg2ODI3ODUwMywgMC40MTA0Mjg1ODM2MjE5Nzg3NiwgLTAuMjY4Mjg4MjU0NzM3ODU0XSwgWzAuMTA3MTU3ODI2NDIzNjQ1MDIsIDAuMTcwNzA4MDMwNDYyMjY1MDEsIDAuMTkxNDc2MDc2ODQxMzU0MzcsIDAuMDUzMTEwMTU5OTMzNTY3MDUsIC0wLjI0MTk0OTgyNjQ3ODk1ODEzLCAwLjQxODkyMzQ2NzM5NzY4OTgsIC0wLjEwOTYxNDU4MDg2OTY3NDY4LCAwLjE4NDg3ODExMDg4NTYyMDEyLCAwLjQxODc0NjcwOTgyMzYwODQsIDAuMjE5NTI0NDcyOTUxODg5MDQsIDAuMDg5NDgxNTE3NjcyNTM4NzYsIDAuMTMwNDM4OTIzODM1NzU0NCwgLTAuMDY5NjgwNjk4MjE1OTYxNDYsIDAuMTUyNzExNjc0NTcxMDM3MywgLTAuMjAwMDQ2NzQ3OTIyODk3MzQsIC0wLjAzMjE5MjUwNTg5NjA5MTQ2XSwgWy0wLjUyNDMxNTI5NzYwMzYwNzIsIDAuNzc1MjM1MTc2MDg2NDI1OCwgLTAuNDg3MjQyOTk2NjkyNjU3NDcsIC0wLjU5NzUwNzExOTE3ODc3MiwgLTAuNzA5OTI1MjkzOTIyNDI0MywgMC40NDMxODk2MjA5NzE2Nzk3LCAtMC4zMDkyMDQ2MzgwMDQzMDMsIC0wLjE4NDA0NTM1OTQ5MjMwMTk0LCAwLjUwNjcyNDA1OTU4MTc1NjYsIC0wLjYxODk4NzU2MDI3MjIxNjgsIDAuNjM2ODU2MzE3NTIwMTQxNiwgMC43MjgwMTE4NDY1NDIzNTg0LCAtMC41NzI1NjM2NDgyMjM4NzcsIDAuNjM3NDYwMTEyNTcxNzE2MywgLTAuNTQ0MzI0MzM4NDM2MTI2NywgMC43MDUxNjQyNTM3MTE3MDA0XSwgWzEuNDAxMjA4NTE5OTM1NjA4LCAtMS4yMjM4MDAxODIzNDI1MjkzLCAxLjU2NTc5NjM3NTI3NDY1ODIsIDEuNDg3MTU3NzAyNDQ1OTgzOSwgLTAuNTgzMDUwNjA4NjM0OTQ4NywgLTEuMjc3MTQ1NTA0OTUxNDc3LCAxLjA0NDIxNzM0ODA5ODc1NDksIDEuMzI3MjUyODY0ODM3NjQ2NSwgLTEuMTU0MTUxMjAxMjQ4MTY5LCAxLjUyNTYyNjE4MjU1NjE1MjMsIC0xLjE4MTM5ODUxMDkzMjkyMjQsIC0xLjI4MzY5NTY5Nzc4NDQyMzgsIDEuMzcyNzAwMjE0Mzg1OTg2MywgLTEuMjE2MTIyNjI3MjU4MzAwOCwgMS4zNTg2NDg3NzcwMDgwNTY2LCAtMS4yMTk4MDgzNDAwNzI2MzE4XSwgWy0wLjM1ODUwMjc0NTYyODM1NjkzLCAtMC4wNTAxODcxMzMyNTI2MjA3LCAtMC4xMTQ2MDA1MjQzMDYyOTczLCAtMC4yMTE4NTk3MzI4NjYyODcyMywgMC4xMTA3MTE2NjM5NjE0MTA1MiwgMC4zMjcyMjY0MDAzNzUzNjYyLCAwLjAyNDU2MDQ4ODc2MDQ3MTM0NCwgMC4xNjAxMDU0OTY2NDQ5NzM3NSwgLTAuMDQ1OTQ3NTg4OTgwMTk3OTA2LCAtMC4zMDMzNjc4ODI5NjY5OTUyNCwgMC4xNDM3NjYxNDk4Nzg1MDE5LCAwLjE0MTM5Nzc1OTMxODM1MTc1LCAtMC4zMTUyMjQzNDk0OTg3NDg4LCAwLjM4OTI1NzE5MjYxMTY5NDM0LCAtMC40OTk1NjIyMDM4ODQxMjQ3NiwgMC4yOTA5OTcwODc5NTU0NzQ4NV0sIFstMC44MjM5NDE2NDgwMDY0MzkyLCAwLjkxNTY1MTQ0MDYyMDQyMjQsIC0xLjQ4NzE2MTE1OTUxNTM4MDksIC0wLjU0MjY3NTI1NjcyOTEyNiwgMC4zMDIyNzI0MzkwMDI5OTA3LCAwLjkxNTgwMjU5Nzk5OTU3MjgsIC0wLjU5ODU0NzI3OTgzNDc0NzMsIC0xLjIxOTQ4NDMyOTIyMzYzMjgsIDAuNzU0NDQ0NzE4MzYwOTAwOSwgLTEuMzMwMzY1NDE5Mzg3ODE3NCwgMS4xMTg0ODA2ODIzNzMwNDY5LCAwLjkwMTk2MTIwNzM4OTgzMTUsIC0wLjU0MTM0ODA5OTcwODU1NzEsIDAuODE5Njc2NTE4NDQwMjQ2NiwgLTAuODYyNjM3Njk4NjUwMzYwMSwgMS4xNTg2NTAzOTgyNTQzOTQ1XSwgWzAuMjU3NTc5ODYzMDcxNDQxNjUsIC0wLjU2MjcyNTY2MzE4NTExOTYsIDAuMjY2MTEyNDc2NTg3Mjk1NTMsIDAuMDU1ODg4NDI1NTU4ODA1NDY2LCAwLjc3OTEyNzk1NTQzNjcwNjUsIC0wLjYzNjU3NDMyNzk0NTcwOTIsIDAuODg0ODI4NTA3OTAwMjM4LCAtMC4xNjQzNzIzMzk4NDQ3MDM2NywgLTAuNjkyNjA1OTcyMjkwMDM5MSwgMC4xMDQxNDA1NDI0NDc1NjY5OSwgLTAuNzEyODgzNDcyNDQyNjI3LCAtMC41Nzg4Njg0NDg3MzQyODM0LCAwLjQzMjU0MTAxMjc2Mzk3NzA1LCAtMC40NTk0MjY5OTkwOTIxMDIwNSwgMC4xNzEwOTIwMDM1ODM5MDgwOCwgLTAuNDU4MDgzOTI3NjMxMzc4Ml1dLCBbMC4wNzM3ODk0NzczNDgzMjc2NCwgMC4xMTUzMzk0MjA3MzU4MzYwMywgMC4wNzEyNTQ5Mzg4NDA4NjYwOSwgMC4xMzUxMzE5NDAyNDU2MjgzNiwgMC4xNDQ4ODQ0MzczMjI2MTY1OCwgMC4xMTA4MTU4Mzc5NzkzMTY3MSwgMC4wNzMyMjM2NTA0NTU0NzQ4NSwgMC4wNDQ2NTI1OTYxMTYwNjU5OCwgMC4xMTMzNjE1NTIzNTc2NzM2NSwgMC4xNDkyMTc4NDQwMDkzOTk0MSwgMC4xMzY3ODgyMDQzMTIzMjQ1MiwgMC4wOTg1NTY3MjcxNzA5NDQyMSwgMC4wNTY0OTI5MDk3ODkwODUzOSwgMC4wNDYxMzM4ODMyOTc0NDMzOSwgMC4xMzA2NzI5OTEyNzU3ODczNSwgMC4wODI4ODgxMjYzNzMyOTEwMl0sIFtbMS41MTMxMTM3MzcxMDYzMjMyXSwgWy0xLjIzMzY2NzM3MzY1NzIyNjZdLCBbMS45NjQ1NjA1MDg3MjgwMjczXSwgWzEuMjQ1NDI4MzIzNzQ1NzI3NV0sIFswLjYzMjAzMzA1MDA2MDI3MjJdLCBbLTEuMDM5OTc3OTA4MTM0NDYwNF0sIFswLjkyODY0NjUwNDg3ODk5NzhdLCBbMS42MTY5NDUxNDc1MTQzNDMzXSwgWy0xLjExMDk5MTQ3Nzk2NjMwODZdLCBbMS44MzMyMjkwNjQ5NDE0MDYyXSwgWy0xLjQyNzI1ODQ5MTUxNjExMzNdLCBbLTEuMjk4MjM1NjU0ODMwOTMyNl0sIFswLjgxNTc0NzczNzg4NDUyMTVdLCBbLTEuNDc1MDMxNjE0MzAzNTg4OV0sIFsxLjA2MDA3NjcxMzU2MjAxMTddLCBbLTEuMzQ5OTk3OTk3MjgzOTM1NV1dLCBbMC4wMjE3MDA3MTkzNzE0MzgwMjZdXQ==", "metrics": {"loss": 0.158505, "accuracy": 0.93556, "auc": 0.984852, "precision": 0.950927, "recall": 0.928062}}