{"round": 5, "weights_b64": "W1tbLTAuMjA2NDcxNDI4Mjc1MTA4MzQsIDAuMDk4MTY0MDM2ODcwMDAyNzUsIC0wLjE1NTk3MzE5NjAyOTY2MzA5LCAwLjAyNzE3MTkzNTg4NjE0NDYzOCwgMC4xNTcxODEzODIxNzkyNjAyNSwgMC4yMjgxMDcyMTM5NzM5OTkwMiwgMC4xMzA2ODU5NTUyODYwMjYsIC0wLjA2NzcwNzkxODU4NDM0Njc3LCAtMC4wMzgwNTk2MzY5NTA0OTI4NiwgMC4zOTAwNzY3ODYyNzk2NzgzNCwgLTAuMDczNzYzMzU1NjEyNzU0ODIsIDAuMDEwMzY2NjcwNzg3MzM0NDQyLCAtMC4wODY3ODc1NTE2NDE0NjQyMywgLTAuMDkyMTU4NzY0NjAwNzUzNzgsIC0wLjAwMDc3ODg4NTU1ODI0NzU2NjIsIDAuMTI4MjQyMTIwMTQ2NzUxNCwgMC4wNzk2MzM4OTkwMzMwNjk2MSwgLTAuMDk3NDY3NzEzMDU3OTk0ODQsIDAuMDQ2OTA0OTczNjg1NzQxNDI1LCAtMC4yMTg2ODA5NDgwMTkwMjc3LCAwLjU4NzY3MTc1Njc0NDM4NDgsIDAuMTYyNTg1NjMxMDEyOTE2NTYsIC0wLjA2NTYyNjA5OTcwNTY5NjEsIC0wLjAwMzQzMjI2OTkwNjYyNTE1MTYsIDAuMTYwNDYzNjQ2MDU0MjY3ODgsIC0wLjIxOTUwMDgzOTcxMDIzNTYsIC0wLjAzNjEwNjI1MTE4MDE3MTk3LCAwLjA3OTAxOTY5NTUyMDQwMSwgMC4xMTMwMTQ2ODMxMjc0MDMyNiwgMC40MTcwNzUxNTcxNjU1MjczNCwgLTAuMTA2NDM5NDU2MzQzNjUwODIsIDAuMzIyNzIzMDMxMDQ0MDA2MzVdLCBbMC4wNjY2MDA2NjU0NTAwOTYxMywgMC4wODg1NjEzODU4Njk5Nzk4NiwgMC4wMjU2NjkxMjM5Nzc0MjI3MTQsIC0wLjM2ODk5MzgxODc1OTkxODIsIC0wLjEwMDcxOTM2MjQ5NzMyOTcxLCAyLjA2NTM3Njc1ODU3NTQzOTUsIDAuNTM5NTQzMDMyNjQ2MTc5MiwgMC4yNTkyODM5NTk4NjU1NzAwNywgMC40OTA4ODY2ODgyMzI0MjE5LCAxLjAzNDI0NzYzNjc5NTA0NCwgMC4wODEzNzYyNzY5MTAzMDUwMiwgMC41MDE4OTMyODE5MzY2NDU1LCAwLjM0NzIwMzU4MjUyNTI1MzMsIC0wLjE3MDYxNjE3OTcwNDY2NjE0LCAtMC43MTUyMzYwNjc3NzE5MTE2LCAxLjA3MDMwNzAxNjM3MjY4MDcsIC0wLjM3NzQxNTUwODAzMTg0NTEsIC0wLjYyNjMwNTEwMzMwMjAwMiwgLTAuNDI1MDAwOTA1OTkwNjAwNiwgLTAuNjk1NzU4MTA0MzI0MzQwOCwgMS4xODA4MjI2MTA4NTUxMDI1LCAwLjI3NjIxMjI3NTAyODIyODc2LCAwLjM3NTkxNTgyNTM2Njk3MzksIDAuMDY3MjgxODE5ODgwMDA4NywgLTAuMjU3OTU3NDU4NDk2MDkzNzUsIC0wLjQ1ODk0NDAyMjY1NTQ4NzA2LCAtMC4wNTQ5MDE4NzkyODA4MDU1OSwgLTAuMDA5MzUxNDA2MjQ2NDIzNzIxLCAtMC41MjM0NTgxODI4MTE3MzcxLCAxLjE3NzUxMTIxNTIwOTk2MSwgLTAuNzA4NTgwNDkzOTI3MDAyLCAwLjkxNTk0Njk2MDQ0OTIxODhdLCBbMC4xODg1MDQ3NTU0OTY5Nzg3NiwgMC4wMjIyOTE0ODUyMjAxOTM4NjMsIDAuMTU5NzA0MTE4OTY3MDU2MjcsIC0wLjIwNDAxNTM0NDM4MTMzMjQsIDAuMDQwMTI0NDUzNjA0MjIxMzQ0LCAtMC40NTg5NzkyNDkwMDA1NDkzLCAwLjMwNDkwMzc0NTY1MTI0NTEsIDAuMzMxMzU1MTU0NTE0MzEyNzQsIDAuMzMzMDM1MzQ5ODQ1ODg2MjMsIDAuMTgzOTcwMzAyMzQzMzY4NTMsIDAuMTYxNjQ2ODcyNzU4ODY1MzYsIDAuMjk3MjcxMzcwODg3NzU2MzUsIDAuMTM5NzYyNjM5OTk5Mzg5NjUsIC0wLjI4OTEzNzYwMTg1MjQxNywgLTAuNDUxODg5MjQ2NzAyMTk0MiwgMC40ODAwODkxODc2MjIwNzAzLCAtMC41MjQ5MDY4NzM3MDMwMDI5LCAtMC42NjMyMzU5MDI3ODYyNTQ5LCAtMC4xODE5MTk3ODMzNTM4MDU1NCwgLTAuNDcxNzQyNTcwNDAwMjM4MDQsIDAuMTY0MTMyNTIwNTU2NDQ5OSwgLTAuMjQwMzMzMjc0MDA2ODQzNTcsIDAuNDQyMTMyMDg1NTYxNzUyMywgLTAuMDUyMzE1MDQ1MTQ4MTM0MjMsIC0wLjA2MjkxNTcxMjU5NDk4NTk2LCAtMC45MDM2NjMzOTY4MzUzMjcxLCAwLjE4NjU1NzYyMDc2Mzc3ODcsIDAuMzY2MTkxODkzODE1OTk0MjYsIC0wLjA4NjA1MjcxNTc3ODM1MDgzLCAwLjQ5NTE5MTk2MTUyNjg3MDcsIC0wLjU1NDkwODU3MzYyNzQ3MTksIDAuMjIxNzA4ODA0MzY4OTcyNzhdLCBbLTAuMzE1MTc5NTg2NDEwNTIyNDYsIC0wLjA4MjQzNDcyODc0MTY0NTgxLCAtMC4yMjA4NTY0MjgxNDYzNjIzLCAtMC4xNjI1NzAxNzg1MDg3NTg1NCwgLTAuMjg2MDE1MTgyNzMzNTM1NzcsIDEuMTc1NzExMzkzMzU2MzIzMiwgMC4xNDg5OTU5NTA4MTgwNjE4MywgMC4wODAyMzgyMzc5NzcwMjc5LCAwLjI2OTc5NTgzNTAxODE1Nzk2LCAwLjg1MTk1OTUyNjUzODg0ODksIDAuMDgxNzcwMTU5MzA0MTQyLCAwLjA2MzM2NTQyOTYzOTgxNjI4LCAtMC4yNTE4MTk3Mjk4MDQ5OTI3LCAtMC4yODM5NTYyMjk2ODY3MzcwNiwgLTAuMzA3ODYxNzQ1MzU3NTEzNCwgMC42NDI1MDA4NzczODAzNzExLCAtMC4yNDcyNzY5MzIwMDExMTM5LCAtMC4yODcwMzAxMDA4MjI0NDg3MywgLTAuOTE0NDEwODI5NTQ0MDY3NCwgLTAuNDYzNTM3NTE0MjA5NzQ3MywgMC45Nzc1Njg3NDU2MTMwOTgxLCAwLjE0MzYxMjgxNjkyOTgxNzIsIDAuMDk0ODQ2MzIzMTMyNTE0OTUsIC0wLjUyNjMzODk5NDUwMzAyMTIsIC0wLjM3Nzc4MzI5ODQ5MjQzMTY0LCAtMC4wNTQ0ODc2NjA1MjcyMjkzMSwgLTAuNzg0MTk2NzM0NDI4NDA1OCwgMC4wMDk1MTE1MjEwODYwOTY3NjQsIC0wLjI3ODEzMjM3OTA1NTAyMzIsIDAuODgzODQ0Mzc1NjEwMzUxNiwgLTAuMjEyMjk2MjE3Njc5OTc3NDIsIDAuNjAwMjE3NzU5NjA5MjIyNF0sIFstMC4wNDYzNzMyMzMxOTkxMTk1NywgMC4xODIwOTQwMDc3MzA0ODQsIDAuMTAyNDgyMDY1NTU4NDMzNTMsIDAuMjgxMTE4MTU0NTI1NzU2ODQsIC0wLjA0OTM0MjAyNTA3MTM4MjUyLCAtMC4xOTcxNTM4MzY0ODg3MjM3NSwgMC4wMzgzMjA0OTI5NTMwNjIwNiwgLTAuMTM0Mjk3NDAwNzEyOTY2OTIsIC0wLjAzNDY5MzU4Mzg0NjA5MjIyNCwgMC4wMTExMDUzNjIzMjU5MDY3NTQsIC0wLjAwNzYzNzAyMjk5NDQ1ODY3NSwgLTAuMDcwNDIzMTExMzE5NTQxOTMsIC0wLjExOTU0MTcxMjEwNTI3NDIsIC0wLjIxMjIwNTM1MDM5OTAxNzMzLCAtMC44NTM5MTkwMjkyMzU4Mzk4LCAwLjYwNTc4Nzc1NDA1ODgzNzksIC0wLjI1NTMyMzA1MjQwNjMxMTA0LCAwLjIxODQ0MTkzMzM5MzQ3ODQsIC0wLjIwMzQzODk4MjM2NzUxNTU2LCAtMC4xNTAzODYzMzM0NjU1NzYxNywgMC4wNzEwMjQwNjAyNDkzMjg2MSwgLTAuMDQ2NTY5MTc5NzQzNTI4MzY2LCAtMC4xMTcyMTI0Mjk2NDI2NzczMSwgMC4wNzU4MjMxOTUyNzg2NDQ1NiwgLTAuMDkxMjU2NzA3OTA2NzIzMDIsIC0wLjkxMDA2NDkzNTY4NDIwNDEsIDAuMTkxNDUyMDU2MTY5NTA5OSwgMC4wMzU5MzM4MDAwNDE2NzU1NywgMC4wNjI3NjI0OTg4NTU1OTA4MiwgMC4xMjE2NTI5MjM1MjQzNzk3MywgLTAuMDQwOTA1NTA5MTQ0MDY3NzY0LCAtMC4wMDI2NDUzMzg4ODU0ODYxMjZdLCBbMC4xMjM2NDg2ODgxOTcxMzU5MywgLTAuMDQ5MzMyODU3MTMxOTU4MDEsIDAuMDQ5NDYxMTMzNzc4MDk1MjQ1LCAtMC4wMzk1NjMxMzgwMzc5MiwgLTAuMDI4ODc2MTU3NDc3NDk4MDU1LCAwLjE1NzI2MDIzOTEyNDI5ODEsIC0wLjA1NjY2MDg5ODAyOTgwNDIzLCAtMC4wMTQ5ODI1MDAxMTM1NDY4NDgsIC0wLjA3MjA2NzU1MTMxNDgzMDc4LCAtMC4yMjM0MTc1ODAxMjc3MTYwNiwgLTAuMDA0ODMyNjU3OTg1Mzg5MjMzLCAwLjE0MjMwMzUxMTUwMDM1ODU4LCAwLjA5ODMyODQ4NjA4NDkzODA1LCAwLjMwNTUxNjg5ODYzMjA0OTU2LCAwLjEzMjcyNzc4Njg5ODYxMjk4LCAtMC4zMDMwNDcyOTkzODUwNzA4LCAwLjA4MDA3MjEwNDkzMDg3NzY5LCAwLjAwMTYyMjc0ODQ0NDc4ODE1OCwgMC4xMDcwMjUzMjUyOTgzMDkzMywgMC4wNDE5OTYwNzY3MDMwNzE1OTQsIDAuMDU2ODUzNTg4NjcwNDkyMTcsIDAuMDg3NjMyMTA0NzU0NDQ3OTQsIC0wLjI0NTY3NjMyMzc3MTQ3Njc1LCAwLjU3NjMxMTcwNzQ5NjY0MzEsIC0wLjA1MTA5MTIwOTA1Mzk5MzIyNSwgMC4wMTMzMjIwNzk1NTQyMDAxNzIsIC0wLjA3MjE0MTMwNDYxMjE1OTczLCAwLjIyODM2ODU4MDM0MTMzOTEsIDAuMTI1ODUzNDY0MDA3Mzc3NjIsIC0wLjExNDEzNTgxNjY5MzMwNTk3LCAwLjA0OTEwOTc5NDE5OTQ2NjcwNSwgMC4wNzk4MDQzMTYxNjMwNjMwNV0sIFstMC4wODIyMzMwODYyMjgzNzA2NywgMC40MzU4MTQzMjEwNDExMDcyLCAwLjA1NDA5MzkxMjI0Mzg0MzA4LCAtMC4xMDgwNDk4MjQ4MzM4Njk5MywgMC4zNDMzNzE2Mjk3MTQ5NjU4LCAwLjA0MzU3MDgzMTQxODAzNzQxNSwgMC4xMzMwNDEzMzcxMzI0NTM5MiwgMC4wNTM0MzcxMTc0ODcxOTIxNTQsIDAuMTg1MjUzMTEzNTA4MjI0NSwgMC4wNTEyNDQ0NTI1OTU3MTA3NTQsIDAuMTI4MTE1ODc3NTA5MTE3MTMsIDAuMTA0Mzk4MzQ3NDM3MzgxNzQsIC0wLjEwMjYxMTgwMjUxODM2Nzc3LCAtMC4wNjAxMjM3MjY3MjU1NzgzMSwgLTAuMDgzOTMxNDAxMzcxOTU1ODcsIDAuMTEyODQwODAxNDc3NDMyMjUsIC0wLjE0NjQxNTcxMDQ0OTIxODc1LCAtMC4wNjY0MzI4NjM0NzM4OTIyMSwgMC4wNjE2MDM1Mzg2OTE5OTc1MywgMC4wNjU3NjAyODQ2NjIyNDY3LCAtMC4wMjIzMDUyNTc2MTg0MjcyNzcsIC0wLjA0NDA4NjY0MjU2MzM0MzA1LCAwLjIyMzM5MDU5NDEyNDc5NCwgMC4yNjg0NTIzNDYzMjQ5MjA2NSwgMC4yMDU1NDU1NzQ0MjY2NTEsIC0wLjA5NTU5NzI2NzE1MDg3ODksIDAuMjg5MTUzMDM5NDU1NDEzOCwgLTEuNTkxMTg2MDQ2NjAwMzQxOCwgLTAuMDU0NTMyMzc4OTExOTcyMDQ2LCAwLjA0Mzg3NDM3NTUyMjEzNjY5LCAtMC4xNjI2MDI3ODIyNDk0NTA2OCwgMC4zMDg2MzkyMjgzNDM5NjM2XSwgWy0wLjYyOTcxOTczNDE5MTg5NDUsIDEuMDIzMTQ0NDgzNTY2Mjg0MiwgMC44NzczNTExNjQ4MTc4MTAxLCAwLjYyNjUwMzgyNTE4NzY4MzEsIDAuNTU1ODMxNjExMTU2NDYzNiwgLTEuODY3OTUzNjU4MTAzOTQyOSwgLTAuMzA4NzgxNTA0NjMxMDQyNSwgMS4xMzk4MTIyMzEwNjM4NDI4LCAtMC40MDcwMjEyMjQ0OTg3NDg4LCAxLjQ0Njk1NjM5NjEwMjkwNTMsIDAuMjM0ODA5NzcxMTgwMTUyOSwgMC43MDgwNTkwNzI0OTQ1MDY4LCAxLjQyNjYxNzYyMjM3NTQ4ODMsIDIuMTg4ODkyMTI2MDgzMzc0LCAxLjc5ODcxNzE0MTE1MTQyODIsIC0zLjkzOTg3NjA3OTU1OTMyNiwgMC44MjM4MTQ1NzA5MDM3NzgxLCAwLjk0NDI5MDUxODc2MDY4MTIsIDAuMTc4NjMzNjMwMjc1NzI2MzIsIDEuNDE0MDEwNTI0NzQ5NzU1OSwgLTMuMjg2NDUzOTYyMzI2MDUsIC0wLjUxMTEyODg0MjgzMDY1OCwgLTAuNDYwNzc5NDg4MDg2NzAwNDQsIDEuMjE1OTAxOTcwODYzMzQyMywgMC40NTUyNTc4OTI2MDg2NDI2LCAxLjA4OTI2MzkxNjAxNTYyNSwgMS4wMTkwOTU4OTc2NzQ1NjA1LCAxLjE0NTk5NDkwMTY1NzEwNDUsIDAuOTA3NjgxMzQ1OTM5NjM2MiwgLTEuMDMyMzI1NzQ0NjI4OTA2MiwgMC41NTU1NzY4MDEzMDAwNDg4LCAtMS4xODY5NDcyMjY1MjQzNTNdLCBbLTAuNjY0Njk4NjAwNzY5MDQzLCAtMC4wMzA3OTc1MjgxMDI5OTM5NjUsIDAuMjE4OTU0MTE2MTA2MDMzMzMsIC0wLjE2NTkxNzAzODkxNzU0MTUsIC0wLjQ1MDE1MjAzOTUyNzg5MzA3LCAtMC43NDE2NjIyNjM4NzAyMzkzLCAwLjQ2OTY5NDkxMjQzMzYyNDI3LCAwLjMzNTMxNDA5NTAyMDI5NDIsIDAuNDU3MTQyNTkxNDc2NDQwNDMsIC0wLjE2MTk3NjgyOTE3MTE4MDczLCAwLjE3NTk0NTA0MzU2Mzg0Mjc3LCAwLjIzMTk0NzgwOTQ1Nzc3ODkzLCAwLjE5MTQ0MjMxMDgxMDA4OTEsIC0wLjUwNjgyMzQyMDUyNDU5NzIsIC0wLjMyODE4Mzg1OTU4NjcxNTcsIC0wLjQ0Njk4NTE4NTE0NjMzMTgsIC0wLjM0MjMyMjI4OTk0MzY5NTA3LCAtMC4zNjg3NTIwMDI3MTYwNjQ0NSwgLTAuNzY3MTk0NzQ3OTI0ODA0NywgLTAuNDYwMzg5NTU0NTAwNTc5ODMsIDAuMzgzMjE4NDY3MjM1NTY1MiwgMC4wODQ5MzY2Nzg0MDk1NzY0MiwgMC40MzEwOTc3NDU4OTUzODU3NCwgLTAuMDcxNzgxMzA3NDU4ODc3NTYsIC0wLjU2NTAzNzI1MDUxODc5ODgsIC0wLjM3MDY2MjAzMzU1Nzg5MTg1LCAtMC40MDY2MjMxODQ2ODA5Mzg3LCAwLjg1MzMwOTI3MzcxOTc4NzYsIC0wLjU5MzY5ODE0Mzk1OTA0NTQsIC0wLjA2MDEwNDkzNjM2MTMxMjg2NiwgLTAuMzgyNTMwNjg5MjM5NTAxOTUsIDAuMDIyNzQzODUyODA5MDcxNTRdLCBbLTAuMDYzMTU5NzE5MTA5NTM1MjIsIC0wLjExNDg5MzkxMzI2OTA0Mjk3LCAtMC4wNDkxMDIxNTM2MjkwNjQ1NiwgLTAuMzI1MjU0OTE3MTQ0Nzc1NCwgLTAuMjUzODM1MjkwNjcwMzk0OSwgMC4wMTAyOTU2ODE2NTU0MDY5NTIsIDAuMjU0NjAzNjgzOTQ4NTE2ODUsIDAuMjIxMjMxMzQxMzYxOTk5NSwgMC4zNDcyMTEwMzMxMDU4NTAyLCAtMC4xMjMyNDA2MzQ3OTkwMDM2LCAwLjI2Mzk5NTQzODgxNDE2MzIsIDAuNDEyMjA2MDUzNzMzODI1NywgMC4wNjEwODQ4MDMxOTM4MDc2LCAtMC40Mjk2ODg4MTEzMDIxODUwNiwgLTEuNDgyNzA0MTYyNTk3NjU2MiwgLTAuMTA3NjQ4Nzg5ODgyNjU5OTEsIC0xLjEyNTU2NTI5MDQ1MTA0OTgsIC0wLjk4NDg1ODM5MzY2OTEyODQsIC0wLjY0NjM3MDcwODk0MjQxMzMsIC0wLjYxMzM2MTAwMTAxNDcwOTUsIDAuMDY3NzI1NjczMzE3OTA5MjQsIC0wLjI1MTI2ODExODYxOTkxODgsIDAuMzY5MDMwMjk2ODAyNTIwNzUsIDAuMDY4OTMyNDI4OTU2MDMxOCwgLTAuMTE5OTU1MTE1MDIwMjc1MTIsIC0yLjI2MTk2MTQ2MDExMzUyNTQsIC0wLjA3MDM1NTkyMTk4MzcxODg3LCAwLjIxNzE5NTI1NzU0NDUxNzUyLCAtMC40ODczODUwOTQxNjU4MDIsIC0wLjEzMTkxMjExMjIzNjAyMjk1LCAtMS4yNzcxMDQ3MzUzNzQ0NTA3LCAwLjA2NDkwMzI3NDE3ODUwNDk0XSwgWy0wLjIxNDcwNDI3NTEzMTIyNTU5LCAwLjI1NzM4ODUzMjE2MTcxMjY1LCAtMC4zNjMwMjIxNDg2MDkxNjE0LCAwLjM4ODE1MTU4NjA1NTc1NTYsIDAuMTkwNTYxMjc5NjU0NTAyODcsIC0wLjI0MDkzNjg0NTU0MTAwMDM3LCAwLjAxNDc2NjQyOTU1MDk0NTc1OSwgMC4xMDI3NDU2ODIwMDExMTM4OSwgMC4wNDk5MDYzNjU1NzM0MDYyMiwgMC40MDU0NTc1MjY0NDUzODg4LCAwLjI3MjAwNzY0NDE3NjQ4MzE1LCAwLjAxOTA0NDIyNDE3MjgzMDU4LCAtMC4wNTc4MjUwMDY1NDQ1ODk5OTYsIDAuNTY5OTE1NTMzMDY1Nzk1OSwgMC4xNDAwMjExNDUzNDM3ODA1MiwgLTAuMDk3MzA2MjI5MTc0MTM3MTIsIDAuMDc4NTM0NDgzOTA5NjA2OTMsIDAuMDc1ODA1MzgwOTQwNDM3MzIsIDAuMjgwMTY1NzkxNTExNTM1NjQsIDAuMTQ2MTEyNTkxMDI4MjEzNSwgLTAuMDA5NzY3MjA2Mzg1NzMxNjk3LCAtMC4zMjExMzI5NTc5MzUzMzMyNSwgMC4yMDAxNzI0ODM5MjEwNTEwMywgMC42NDczNTgzNTc5MDYzNDE2LCAwLjQwNTM1NDAyMjk3OTczNjMzLCAtMC4xMjU2NzQ1MDEwNjE0Mzk1MSwgMC41MDY2MTkwMzYxOTc2NjI0LCAwLjEzODYwOTc2Njk2MDE0NDA0LCAwLjMxNjE0OTU5MjM5OTU5NzE3LCAwLjE0MjUzNjk5Nzc5NTEwNDk4LCAwLjI0MTExMTkzNDE4NTAyODA4LCAtMC4wMDYwOTQxOTQ5NDg2NzMyNDhdLCBbLTAuMjYyMzc5Njc2MTAzNTkxOSwgMC4wMDk5OTQxMzMzNzU1ODUwOCwgLTAuMTYwNDEzMDg2NDE0MzM3MTYsIDAuMTQ3MzMyOTA2NzIzMDIyNDYsIC0wLjExNDgzODk0Mjg4NTM5ODg2LCAtMC43ODI3ODA1MjgwNjg1NDI1LCAtMC4wNjUyMjg4MjcyOTc2ODc1MywgLTAuMTc3MTc1NDc3MTQ3MTAyMzYsIC0wLjA0MzM0NjQzMTEwNjMyODk2NCwgMC4zMzk5MzgxNjM3NTczMjQyLCAtMC4xMjc4Nzc1OTMwNDA0NjYzLCAtMC4yMzkyNTA0MjE1MjQwNDc4NSwgMC4wODU0NzI2NTgyNzY1NTc5MiwgMC4zMjQ3ODA5MTEyMDcxOTkxLCAwLjA2MTAxMjkzODYxODY1OTk3LCAtMC4wMjEyNzEyMDA4NTA2MDU5NjUsIDAuMTExMDcyOTg3MzE4MDM4OTQsIDAuMDYzNjkyNDcyODc1MTE4MjYsIDAuMDAxNTUwODgzOTg2MDU1ODUxLCAtMC4xNzY3NDY5NjQ0NTQ2NTA4OCwgLTAuMTYwNzU4NzYzNTUxNzEyMDQsIC0wLjAyODAxMTU2OTc1MzI4OTIyMywgLTAuMDQ2MzQ0NzcxOTgxMjM5MzIsIC0wLjE2OTk5NTY4MDQ1MTM5MzEzLCAwLjE3MjM0NTg3NjY5MzcyNTU5LCAwLjA2NTQxNjIxNjg1MDI4MDc2LCAtMC4wODQ4MDY4NzQzOTQ0MTY4MSwgMC4xMDkwMDk5ODg2MDU5NzYxLCAwLjE0ODA3NTEzMzU2MjA4OCwgMC4yNDI1NzkzNzA3MzcwNzU4LCAwLjEwMTI4NTU2MTkxOTIxMjM0LCAtMC4xMjUwMDA1ODExNDUyODY1Nl0sIFstMC4yOTQ2ODU2MDIxODgxMTAzNSwgMC4yNTQxNjk3OTE5MzY4NzQ0LCAwLjA3NDM1MDc0NDQ4NTg1NTEsIC0wLjE3MzA0NjM1MDQ3OTEyNTk4LCAwLjEwNDYzNDYyMDI0OTI3MTM5LCAtMC4wOTUzMTE0OTI2ODE1MDMzLCAwLjA5MDg5MDQxNTAxMjgzNjQ2LCAtMC4wNjg1MTU1MDE5MTY0MDg1NCwgLTAuMTQyOTUzMTU3NDI0OTI2NzYsIDAuMjUzNTcyODIxNjE3MTI2NDYsIDAuMDY5MTk4MjM1ODY5NDA3NjUsIC0wLjAzNDk3NDYyNzE5Njc4ODc5LCAwLjA3MzY2NzY5NzYwODQ3MDkyLCAwLjIxMTAzOTE0MDgyMDUwMzIzLCAwLjExODUxNTE0ODc1ODg4ODI0LCAwLjE0MTA1NDE4MzI0NDcwNTIsIC0wLjAyNTM2NjY4ODE0NzE4NzIzMywgMC4wNDc5MDk1OTg3OTc1NTk3NCwgMC4wNzA3MTQxMTYwOTY0OTY1OCwgLTAuMTE5NjQzMTUxNzYwMTAxMzIsIC0wLjA1ODc5OTMxNTI0Mzk1OTQzLCAwLjEzMTI5OTU4NTEwMzk4ODY1LCAwLjAyOTkyNjM4NzU5MzE1MDE0LCAtMC4wNzYxMjE4Mjk0NTAxMzA0NiwgLTAuMDMzODE3ODM1MTUyMTQ5MiwgMC4xNjAzODYyMDQ3MTk1NDM0NiwgLTAuMDYyODQ3NzE4NTk2NDU4NDQsIC0wLjA5ODA4MjU1NzMyMDU5NDc5LCAtMC4xNDUxNTgyNDYxNTk1NTM1MywgMC4yMTUwNTY4NjY0MDczOTQ0LCAwLjA2OTY1NDU1NDEyODY0Njg1LCAwLjAwMzQ3Mzc3NzMyMzk2MTI1OF0sIFstMC4xMTM1MTk4ODQ2NDU5Mzg4NywgMC4zNTA1MTgwNDc4MDk2MDA4MywgMC42MTI3MjU5NzMxMjkyNzI1LCAtMC4yNDU4MjMwMjU3MDM0MzAxOCwgLTAuMDI0Nzg0NTUwMDcwNzYyNjM0LCAtMC43MDM2NDU3MDYxNzY3NTc4LCAwLjY2MTI0MjYwNDI1NTY3NjMsIDAuNTI3NjEwNzE5MjAzOTQ5LCAwLjQxNzk3NjI2MDE4NTI0MTcsIC0wLjEwMTMxNjA0OTY5NTAxNDk1LCAwLjMzMTg2NTk5NjEyMjM2MDIzLCAwLjQ0NjQ1NDM0NjE3OTk2MjE2LCAwLjI0NDc5ODQzNjc2MDkwMjQsIC0wLjA2NTI4ODAyMjE2MDUzMDA5LCAtMC41OTE4NDcwNjIxMTA5MDA5LCAwLjA2NzM4MTI4NTEzMDk3NzYzLCAtMC41MzA2NjczMDQ5OTI2NzU4LCAtMC42MDEzNzQ1MDY5NTAzNzg0LCAtMC41MTA2NjIxOTgwNjY3MTE0LCAtMC41NDY0OTEzMjQ5MDE1ODA4LCAtMC4xODY1ODg3MzQzODgzNTE0NCwgLTAuMjU1OTk2NzA0MTAxNTYyNSwgMC41NTk5NTg0NTc5NDY3NzczLCAwLjgyMTg0ODI3MzI3NzI4MjcsIC0wLjE1NDQwNTMyNTY1MTE2ODgyLCAtMC42NDU3ODcwNjAyNjA3NzI3LCAwLjI4OTg0NTk0MzQ1MDkyNzczLCAtMC4wMDk4OTc0OTY1NTEyNzUyNTMsIC0wLjYwNDUyNjE2MjE0NzUyMiwgMC4wMzc3ODE5MjQwMDkzMjMxMiwgLTAuMzYzNjY1NjEwNTUxODM0MSwgLTAuMDMzMTc4MTI0NTc2ODA3MDJdLCBbLTAuMjU3Mzk1MjY3NDg2NTcyMjcsIC0wLjE0MzQ4Nzc2NjM4NTA3ODQzLCAwLjAxMDIyMTU5MTIxOTMwNTk5MiwgMC4xODQ1ODg4OTQyNDgwMDg3MywgLTAuMDY5Njk3ODc5MjU0ODE3OTYsIC0xLjEzOTcwNTQxOTU0MDQwNTMsIC0wLjAzNjc1MTM4MjA1Mjg5ODQxLCAwLjA0NjQ2NTI5MjU3Mjk3NTE2LCAtMC4wMjY3MjU0NTYxMTg1ODM2OCwgLTAuNTA0NjM5MjY3OTIxNDQ3OCwgMC4wNjg5OTk3MjI1OTk5ODMyMiwgLTAuMTI0ODc3MDM1NjE3ODI4MzcsIDAuMTE0ODE5OTIxNTUzMTM0OTIsIDAuMDkzMDAzNzk0NTUwODk1NjksIC0wLjA1ODgxMTI5NTc3NzU1OTI4LCAtMC41NTg4NDMyNTUwNDMwMjk4LCAwLjAwMTA2OTcwMTUwOTU1MDIxMzgsIDAuMjQ4NTEwMDYyNjk0NTQ5NTYsIDAuMDIyOTg0Nzg0MDk2NDc5NDE2LCAwLjEzODg2MTg3OTcwNjM4Mjc1LCAtMC41NDc4MDQxNzY4MDc0MDM2LCAtMC4xNDQ2NDE4NDY0MTgzODA3NCwgLTAuMDAxMjU5MTc0MDgxNDk2ODk0NCwgLTAuMDA1NDI5NTQ1NDE3NDI4MDE3LCAwLjExODcxNDU3ODQ0OTcyNjEsIDAuMTMyMjIxNjk4NzYwOTg2MzMsIC0wLjA2MTcyMzMyMTY3NjI1NDI3LCAtMC4wOTkwMTE2ODk0MjQ1MTQ3NywgMC4xNzQ5Nzk5MjUxNTU2Mzk2NSwgLTAuNjk3NjUzMTc0NDAwMzI5NiwgMC4yNzY1NjU0OTIxNTMxNjc3LCAtMC40MjAxMDU5NjM5NDUzODg4XSwgWy0wLjAyMzcwOTQ1MzY0MjM2ODMxNywgMC4wMDE4MjM2NzU0Njk0OTUzNTYsIC0wLjAwMzgwMjQwNDI3MzMwMTM2MywgMC4wNjM5MDQ4MjE4NzI3MTExOCwgMC4wMTU3NjE4NTA0MDE3NTkxNDgsIDAuMDA1OTk3OTMxNTg0NzE1ODQzLCAwLjAyOTUzOTA3ODQ3NDA0NDgsIDAuMDM5NjYyMjQxOTM1NzI5OTgsIDAuMDM2MDQ2NzczMTk1MjY2NzI0LCAtMC4yOTM4MTA1NzYyMDA0ODUyMywgLTAuMDI3ODU3NTEwMzcyOTk2MzMsIDAuMTY3NDI5NzE1Mzk0OTczNzUsIDAuMDE3NzQwNjU3NTUzMDc2NzQ0LCAtMC4xMTkyNTkwMTQ3MjU2ODUxMiwgMC4wNjg0OTY5Nzk3NzMwNDQ1OSwgLTAuMTE0OTEzNTM4MDk4MzM1MjcsIDAuMTYwODEyMjU4NzIwMzk3OTUsIC0wLjAwNDE3ODI5NzcwNTk0ODM1MywgMC4wMDMzNjUyMjA1MDIwMTg5Mjg1LCAtMC4wNzMyNDA2OTczODM4ODA2MiwgMC4wODY5MDUwMzIzOTYzMTY1MywgMC4wMTEyMjc4MDc5NjE0MDQzMjQsIC0wLjA0MzM3NzAxMjAxNDM4OTA0LCAwLjAzNzQ4MzQxMjc3MjQxNzA3LCAwLjAyMTU2NjE1NjI5NzkyMjEzNCwgMC4wMTIwMzAxOTQ1MTM0OTk3MzcsIC0wLjAxNDU0MTY1ODU3Mjg1MjYxMiwgLTAuMDAyNDQyOTc1MDYyODc2OTM5OCwgMC4wOTQ0NzQ0MzQ4NTI2MDAxLCAtMC4wMTgxNDUyNTAxNTY1MjE3OTcsIC0wLjAxOTM4ODc1NzY0NjA4MzgzMiwgLTAuMjc3MDc4NDQ5NzI2MTA0NzRdLCBbMC4wOTQ4MTY5OTc2NDcyODU0NiwgMC4wMDIxODYzMDIwOTU2NTE2MjY2LCAtMC4wMDk4MDE4MzU3NTMwMjM2MjQsIDAuMDI3MjYzNjg0MTk4MjYwMzA3LCAwLjAyNTc1ODM3NDQ4MjM5MzI2NSwgLTAuMDM0NTE1MTc5NjkzNjk4ODgsIDAuMDA2NzkyMTkyODEzMDA5MDI0LCAwLjA5MTEyODE3Nzk0MDg0NTQ5LCAwLjA1MzA4ODcyNDYxMzE4OTcsIC0wLjIzNzEzNzE2ODY0NTg1ODc2LCAtMC4wMzYyMDIzNDg3Njg3MTEwOSwgMC4wMzg3NjMzODg5OTEzNTU4OTYsIC0wLjE1ODMyNzA0MzA1NjQ4ODA0LCAwLjA0OTM5OTYwNjg4MzUyNTg1LCAwLjA3OTM3NzEyOTY3Mzk1NzgyLCAtMC4xNjAxMjYxNzk0NTY3MTA4MiwgMC4wODM5MzMwODUyMDMxNzA3OCwgLTAuMDE0NDA2NTYyNzgyODI0MDQsIDAuMDA4Mzk3ODY2MDQwNDY4MjE2LCAtMC4wMTQ1NTY5ODA2OTE4NTAxODUsIC0wLjE0MTQ1ODQ5NjQ1MTM3Nzg3LCAtMC4wMDg5MDMyNTM4MjM1MTg3NTMsIDAuMDQ4OTE1MTU1MjMxOTUyNjcsIDAuMDQ4MTI1OTg2MDA5ODM2MiwgMC4wMDcwNTcwOTg2NzE3OTM5MzgsIDAuMDA5NDA0MTAyMzQwMzQwNjE0LCAtMC4wMDM5ODc1MjA0Njc0ODk5NTgsIDAuMDExODY0ODI0MjIwNTM4MTQsIC0wLjEzMzQzNzIxNjI4MTg5MDg3LCAtMC4xNjU1NTc2Mzc4MTA3MDcxLCAwLjA4MDUxMzQ0NzUyMzExNzA3LCAwLjE0NzQwNjY4MjM3MjA5MzJdLCBbLTAuMDEwMzAzNzEzMzgxMjkwNDM2LCAtMC4wMTY3MjI5NDE3NzExNDk2MzUsIC0wLjE5MjYxNTgzNjg1ODc0OTQsIDAuMDU3MjcxMzQ2NDQ5ODUxOTksIDAuMDkwMDUzODU2MzcyODMzMjUsIC0wLjE4NzMyMDczOTAzMDgzOCwgMC4xMDEwNjM0MzAzMDkyOTU2NSwgMC4wOTYzNjU2MjMxNzYwOTc4NywgMC4wMzU5NTYwNzcyNzc2NjAzNywgLTAuMjgzNTQ0Njg5NDE2ODg1NCwgMC4wMzQ2MjkzMTE0MTI1NzI4NiwgLTAuMDA1MjY1MDUxMDMzMzQ3ODQ1LCAwLjIwNDAwMTg1ODgzMDQ1MTk3LCAtMC4wODE5MzAzMzkzMzYzOTUyNiwgLTAuMDU3NDcyMzg1NDY2MDk4Nzg1LCAtMC4wNjMzNDAyNDY2NzczOTg2OCwgLTAuMDY2NDc0MTY5NDkyNzIxNTYsIC0wLjA1ODI0MDEwODE5MTk2NzAxLCAtMC4wNDI1ODk0OTMwOTU4NzQ3ODYsIC0wLjAzMzU2MzYyODc5Mjc2Mjc1NiwgLTAuMDU3NDc1MTMxMDA1MDQ4NzUsIDAuMTA0NTc5ODA2MzI3ODE5ODIsIDAuMTE5NTUzMDE0NjM2MDM5NzMsIDAuMjU5MDg5NjQ4NzIzNjAyMywgLTAuMTI5NjA0Mzk5MjA0MjU0MTUsIC0wLjIxNDE1NzQ5MTkyMjM3ODU0LCAtMC4wODg5NzcxNjU1MjAxOTExOSwgLTAuMDc3MDYwNTY1MzUyNDM5ODgsIC0wLjAyOTY3Mjc1MzA2NTgyNDUxLCAtMC4yODU4MzAxNDAxMTM4MzA1NywgLTAuMDk3MTg0NDM0NTMzMTE5MiwgLTAuMTYyNTE1NTk1NTU1MzA1NDhdLCBbMC4xMjU5NTI4MTAwNDkwNTcsIC0wLjM3Mzk4OTIyNDQzMzg5ODksIC0wLjExODg1MjkzNTczMTQxMDk4LCAwLjM1MDk0MTA2MTk3MzU3MTgsIC0wLjA4NjI0NTMyMDczNzM2MTkxLCAwLjA1NDMwMTc2MTA5MDc1NTQ2LCAtMC41NDIyMTM2NzgzNTk5ODU0LCAtMC40NTU0NzM1NDIyMTM0Mzk5NCwgLTAuMzEzODMxMTgwMzM0MDkxMiwgLTAuMTQ0NzM0MzY3NzI4MjMzMzQsIC0wLjI5OTA1MTQ5MzQwNjI5NTgsIC0wLjYyMTQ3NDg2MjA5ODY5MzgsIC0wLjA0NTkxODAwNjQ0OTkzNzgyLCAtMC4xNzMxODc3MDI4OTQyMTA4MiwgMC4yMjk5MjI5NjUxNjg5NTI5NCwgMC4wNTY4MjgyMTE5OTI5NzkwNSwgMC42NTMwODg1MTAwMzY0Njg1LCAwLjgzMTc0MTA5NDU4OTIzMzQsIDAuMDA0MjA4NTg2MTc4NzE5OTk3LCAtMC4yNjgxMjQxOTI5NTMxMDk3NCwgMC4wNzU4Mjg4MTMwMTY0MTQ2NCwgMC42ODMxMTQ2NDc4NjUyOTU0LCAtMC44MDAwNjE3MDI3MjgyNzE1LCAtMS45NjE3OTU4MDY4ODQ3NjU2LCAtMC4wMzUzNzk5ODM0ODQ3NDUwMjYsIDAuNTcwMzMwMDgzMzcwMjA4NywgLTAuMzUyMzg5MDM3NjA5MTAwMzQsIC0wLjEwMzI4MDg2NDY1NTk3MTUzLCAwLjI2NzA0NTc5NTkxNzUxMSwgMC4yODU3NzI2MjE2MzE2MjIzLCAwLjU4NzAwMDQ4OTIzNDkyNDMsIC0wLjMyNTA3OTc5ODY5ODQyNTNdLCBbMC4xMDE0Nzk4ODc5NjIzNDEzMSwgLTAuNDUwNjI4MTAxODI1NzE0MSwgLTAuMDI5NjY5NDI2MzgxNTg3OTgyLCAwLjI1ODUwOTUxNjcxNjAwMzQsIDAuMTg0MTU4NjM4MTE5Njk3NTcsIDAuMTM1NDcyMjk3NjY4NDU3MDMsIC0wLjU5ODIyOTc2NTg5MjAyODgsIC0wLjYxMDU1NzU1NjE1MjM0MzgsIC0wLjYwMDMyMDkzNTI0OTMyODYsIC0wLjAyMTIwNTY4MDQ0NDgzNjYxNywgLTAuNTA1ODQ1NTQ2NzIyNDEyMSwgLTAuNDc5OTQwNjUyODQ3MjkwMDQsIC0wLjM3OTI3NTE0MzE0NjUxNDksIC0wLjE5MDI3NDUwNjgwNzMyNzI3LCAwLjY3NTg0ODkwMTI3MTgyMDEsIC0wLjExNzE5NTQzNDg2ODMzNTcyLCAwLjg2NjI1NzI1MDMwODk5MDUsIDEuMDMyOTQyMDU2NjU1ODgzOCwgMC4zNTYzODg4MDcyOTY3NTI5MywgLTAuMTIwNDgwNjU2NjIzODQwMzMsIC0wLjA2NDg0NTM2ODI2NjEwNTY1LCAwLjc0OTA5MTk4Mjg0MTQ5MTcsIC0xLjAzMTYwODU4MTU0Mjk2ODgsIC0xLjYxMjA1OTgzMTYxOTI2MjcsIDAuNDM5NDIzOTc4MzI4NzA0ODMsIDAuNTgyNzczNjI1ODUwNjc3NSwgMC4xOTIwOTExMDczNjg0NjkyNCwgMC4xMjg3ODIzOTE1NDgxNTY3NCwgMC44MTI4NjE5MTk0MDMwNzYyLCAtMC4xMzg5ODAxOTQ5MjYyNjE5LCAwLjk2MzIzNjgwODc3Njg1NTUsIC0wLjQ4MTY0MzkxNTE3NjM5MTZdLCBbMC4yMTU0NzA0MDM0MzI4NDYwNywgLTAuNTE5OTU0ODAwNjA1NzczOSwgLTAuMjAyMjEwNDg1OTM1MjExMTgsIC0wLjI0NTAxNTg3NDUwNTA0MzAzLCAtMC40MDAyNzc2MTQ1OTM1MDU4NiwgMC4wMTE5NjA5OTQ0NTIyMzgwODMsIC0wLjEyNjA3NTE2MzQ4MzYxOTcsIC0wLjMwODI4Njc4NjA3OTQwNjc0LCAtMC4yMDQ4MDk3MTAzODM0MTUyMiwgMC4xMjk5ODI3Njk0ODkyODgzMywgMC4wMTYyMDk2NDMzMzQxNTAzMTQsIC0wLjQwNjI0NTExMjQxOTEyODQsIC0wLjI1MzE2NDA1Mjk2MzI1Njg0LCAtMC4yMTk2MTQ0NzU5NjU0OTk4OCwgLTAuMTQ0OTk0MjQzOTc5NDU0MDQsIDAuMDE0NTg4MjAxNDE4NTE5MDIsIDAuMTkxODg0MzA5MDUzNDIxMDIsIDAuMTk0NzA1MDA5NDYwNDQ5MjIsIC0wLjQwMTg3NTk3Mjc0NzgwMjczLCAtMC4zNTI2NDY4ODczMDIzOTg3LCAwLjEzNzk5ODgwNDQ1MDAzNTEsIDAuNjU1MTI2MzMzMjM2Njk0MywgLTAuNTIyMDU1NzQ1MTI0ODE2OSwgLTEuODQ5MTQ4NjMxMDk1ODg2MiwgLTAuMjkyMTEwNjIxOTI5MTY4NywgMC4yNzc1OTQyNjgzMjE5OTA5NywgLTAuNTc1MTAzOTM4NTc5NTU5MywgLTAuMTYxNDcwMjM0Mzk0MDczNSwgMC4wNjY1ODk1NzE1MzU1ODczMSwgMC4xMzI2MzYwMTA2NDY4MjAwNywgMC4xODcxMDE0MDg4MzkyMjU3NywgLTAuMzkzNjU1MzI5OTQyNzAzMjVdLCBbLTAuNTA1Njg0NjczNzg2MTYzMywgMC40MTU3MTkwOTE4OTIyNDI0MywgMC4xODYwODY0MTYyNDQ1MDY4NCwgLTAuMDA2MTUwNzc2MDU0NzEwMTUsIDAuMjA4ODM0NzA3NzM2OTY5LCAtMC41NzYwOTI3MjAwMzE3MzgzLCAwLjEwMzYxNjUzNTY2MzYwNDc0LCAtMC4wNTg5NDYyNTE4NjkyMDE2NiwgMC4yMTYwMzM3ODY1MzUyNjMwNiwgMC4wNDM5NjE1OTk0NjkxODQ4NzUsIDAuMDg4NDYwNjY4OTIxNDcwNjQsIC0wLjE0NjQ2MTA5OTM4NjIxNTIsIC0wLjI0OTE0NjIwODE2NzA3NjEsIC0wLjA4Mjk5ODczNzY5MjgzMjk1LCAtMC4xNzg3ODU3MTE1MjY4NzA3MywgMC4xOTU0MzU4MjIwMTAwNDAyOCwgLTAuMDY5MjI0ODk0MDQ2NzgzNDUsIDAuMTcyMTA0NTUyMzg4MTkxMjIsIC0wLjA5MTQ3NTE4ODczMjE0NzIyLCAtMC4wMDk3NzQ2MDk0Njg4NzczMTYsIDAuMTE3NzkzMzM2NTEwNjU4MjYsIC0wLjExNDQ1MTY3NjYwNzEzMTk2LCAwLjAyNTk5Mzg1MTk0NDgwNDE5LCAtMC4wNzMxMzYwMDkyNzU5MTMyNCwgLTAuMDY1ODAxOTkzMDEyNDI4MjgsIDAuMDM2NTk0OTg2OTE1NTg4MzgsIDAuMDg0MDExMjA0NTQwNzI5NTIsIC0yLjM5NDI4MTg2NDE2NjI1OTgsIC0wLjEwNDg4NzI3Njg4Nzg5MzY4LCAwLjE2NTk3MDUzNDA4NjIyNzQyLCAwLjA2NzUwNzg0ODE0MzU3NzU4LCAwLjExNjIyNTcxMjAwMTMyMzddLCBbMC43MTIxODI1MjE4MjAwNjg0LCAwLjIxNDAwNDMzNzc4NzYyODE3LCAwLjE3MDg3MjU5ODg4NjQ4OTg3LCAtMC4wMDY1OTM4NTA0NDEyNzcwMjcsIDAuMTc5MzIwMjMxMDgwMDU1MjQsIC0xLjE3NDkyODkwMzU3OTcxMiwgMC4yNDcyNTgxODYzNDAzMzIwMywgMC4xNjE4MTM5NzQzODA0OTMxNiwgMC41MTE2MDIyODI1MjQxMDg5LCAwLjczNzA4ODU2MTA1ODA0NDQsIDAuNDI4Mjg3MjY3Njg0OTM2NSwgLTAuMDMzMjI2Mjk2MzA1NjU2NDMsIC0wLjAzNTc1ODMzMTQxODAzNzQxNSwgLTAuMTg0MzgyNzgxMzg2Mzc1NDMsIC0wLjUyNjAxMzI1NTExOTMyMzcsIDAuNTI1ODU3NTA4MTgyNTI1NiwgLTAuMzc2MTcxMzgwMjgxNDQ4MzYsIC0wLjMxMDQwNTYxMTk5MTg4MjMsIC0wLjIyNDU0NDY3NDE1ODA5NjMsIC0wLjIwNzQ3NjgyNDUyMjAxODQzLCAwLjI5NTEzMzMyMjQ3NzM0MDcsIC0wLjIxODU3MTI2MDU3MTQ3OTgsIDAuMTgxNDkyNzMwOTc1MTUxMDYsIDAuMTM5NTEwMTg0NTI2NDQzNDgsIDAuMDU0MTAyNzg1ODg1MzM0MDE1LCAtMC40NTU4MDA4OTA5MjI1NDY0LCAwLjA0NzUwNzI1NjI2OTQ1NDk1NiwgMC4xMjYxNjQ4Njg0NzQwMDY2NSwgLTAuMTc5NjQ4MTkwNzM2NzcwNjMsIDAuNzMyMTA0NTk5NDc1ODYwNiwgLTAuMjM1MDI1MTM3NjYyODg3NTcsIDAuMzU4MDUwMzQ2Mzc0NTExN10sIFstMC4xODUzOTI0OTg5NzAwMzE3NCwgMC4wNzk0NDMxODY1MjE1MzAxNSwgMC4wNDcyNTkxNzQyODczMTkxOCwgLTAuMTkzMTUyNjIxMzg4NDM1MzYsIC0wLjE4NzgxNzQ4NDE0MDM5NjEyLCAwLjAwMTc5NTU1NDUzMzYwMDgwNzIsIDAuMTA1NjM4NTExNDc4OTAwOTEsIC0wLjAxMDUyNjY5MzQyNjA3MjU5OCwgMC4zMzE2NTU4MDAzNDI1NTk4LCAtMC4xNzUxODk0NjUyODQzNDc1MywgLTAuMzM3NTgxMzM2NDk4MjYwNSwgMC4zNTY5NzQ0MjI5MzE2NzExNCwgMC4yMjQwNjEwNDIwNzAzODg4LCAtMC40NTg2NzUwMjY4OTM2MTU3LCAtMC4yNzg1Njg0MTY4MzM4Nzc1NiwgLTAuMTIxMjE0MjI1ODg4MjUyMjYsIC0wLjMyNDM1MDUzNTg2OTU5ODQsIC0wLjM3MTE2MDM1ODE5MDUzNjUsIC0wLjI4NjEzNTk3MTU0NjE3MzEsIC0wLjM5NTgxMTAyMTMyNzk3MjQsIC0wLjE1ODI5NjE1Mjk0OTMzMzIsIDAuMDAxOTY5ODY5MjQ4NTY5MDExNywgMC4wNTY3OTQyNjcxNDc3Nzk0NjUsIDAuMDYwOTg4MDEyNzAxMjcyOTY0LCAtMC4xMjYwMjM4NTg3ODU2MjkyNywgLTAuMzA1MDk5NjY2MTE4NjIxOCwgLTAuMjU2MzMyMTI5MjQwMDM2LCAwLjUyODg2OTk4NjUzNDExODcsIC0wLjM1MjEwMzk3ODM5NTQ2MjA0LCAtMC4wMjI1MTMxODg0MjE3MjYyMjcsIC0wLjM2Njc2NDEyODIwODE2MDQsIC0wLjMwMjE1NTYxMzg5OTIzMDk2XSwgWzAuMTk3MTYyNTM4NzY2ODYwOTYsIDAuMDU3MDcyNzgxMDI2MzYzMzcsIDAuMDUwOTczNzk1MzU0MzY2MywgMC4xMDg0NDk0MTQzNzI0NDQxNSwgMC4xNTU3Mzk1NzU2MjQ0NjU5NCwgMC4xMTEwMjA1NTAxMzE3OTc3OSwgLTAuMDExNTM0NzE2MDAyNjQzMTA4LCAtMC4xMDE2ODY2NjM5MjU2NDc3NCwgMC4xMDIwMjk4NzQ5MjA4NDUwMywgLTAuMDI3MTgzMzc5OTc3OTQxNTEzLCAwLjIwODYwOTA0NDU1MTg0OTM3LCAwLjAyNjQ0ODg4Njg0MTUzNTU2OCwgMC4yNDczMTA1OTM3MjQyNTA4LCAwLjMxMTU2MjM1OTMzMzAzODMzLCAtMC4zNDQzNDg4NDc4NjYwNTgzNSwgLTAuMTEzMzQwNDQ0ODYyODQyNTYsIC0wLjI2NDY0MjAwMDE5ODM2NDI2LCAtMC4yOTI1MzU4NzEyNjczMTg3LCAwLjAwOTA4NTgxOTEyNTE3NTQ3NiwgLTAuMzE0MzI1MTUzODI3NjY3MjQsIC0wLjAyNzc5NzUwMTUzNDIyMzU1NywgMC4wODMxMDI2MTM2ODc1MTUyNiwgMC4wNjY0MDE0Mjk0NzQzNTM3OSwgLTAuMDI4NTc0NDQyNDkwOTM1MzI2LCAtMC4wMTM4MzEzNjExOTY5MzUxNzcsIC0wLjA1OTU2NjI1OTM4NDE1NTI3LCAtMC4wMTcxMTk4NjU4NjQ1MTUzMDUsIDAuMDEyODUyMTUwOTQ2ODU1NTQ1LCAtMC4xMTM1Nzg0NTM2NjAwMTEyOSwgMC4xNTgwNTYzMTg3NTk5MTgyLCAtMC4zNTA5MTEyMDAwNDY1MzkzLCAtMC40MjE1NDk2Nzc4NDg4MTU5XSwgWy0wLjI3MDE5NjMxODYyNjQwMzgsIDAuMDIyNTA1MzA1NzA3NDU0NjgsIDAuMzAxMjU0MDYzODQ0NjgwOCwgMC4wMTgyMzY5OTY2MDU5OTIzMTcsIC0wLjIyNzg2NjYxOTgyNTM2MzE2LCAwLjA0ODM1NjkyNzkzMTMwODc0NiwgLTAuMjYzNjU3ODY3OTA4NDc3OCwgMC41NTY2ODI5NDQyOTc3OTA1LCAwLjQxNTkxNzc1NDE3MzI3ODgsIDAuMjQzMzU2MDE5MjU4NDk5MTUsIDAuNTE2NDA3OTY2NjEzNzY5NSwgMC43MzAxOTA2MzQ3Mjc0NzgsIDAuNDAyMDUyMjIzNjgyNDAzNTYsIDAuNDA2NDQ5Mzc3NTM2NzczNywgLTAuMTU0MzY2NzAxODQxMzU0MzcsIC0wLjA4MDAwODEwNDQ0MzU1MDExLCAtMC4wMjg2MDc4NTgzNDQ5MTI1MywgLTAuMDM1NTQ5ODYwNDQ3NjQ1MTksIC0wLjE1NDIyNjI3MzI5ODI2MzU1LCAwLjA5OTEwNjMxOTI0ODY3NjMsIDAuMTg5MDg4OTcwNDIyNzQ0NzUsIDAuMTA2Njg2ODMwNTIwNjI5ODgsIDAuMzUyNTE4NDA5NDkwNTg1MywgMC4yNTk0ODczOTA1MTgxODg1LCAtMC4wNDQxMTQxMDkxMjg3MTM2MSwgLTAuMDc3OTA1MTMzMzY2NTg0NzgsIDAuMTMxNjY0MjQ2MzIwNzI0NSwgMC4wNDY0Mzc0ODcwMDYxODc0NCwgMC4wNzI2NjgzODg0ODU5MDg1MSwgMC4xNzM3NDk1NjYwNzgxODYwNCwgMC4wNjE5NjMxNjcwNDE1NDAxNDYsIDAuMDc5NDY2NjQ4Mzk5ODI5ODZdLCBbMC4xMzMwNTYwNzQzODA4NzQ2MywgLTAuMzQxNTg4Nzk1MTg1MDg5MSwgLTAuMzYzMjI5NDIzNzYxMzY3OCwgMC4xOTMxOTI5MjkwMjk0NjQ3MiwgLTAuNTc1MDQ2MDAyODY0ODM3NiwgMC4xOTgyOTgyNDU2Njg0MTEyNSwgLTAuMDA1NzUzNDUzODIwOTQzODMyLCAtMC4wMjg2ODY1NDIwNjM5NTE0OTIsIC0wLjAyNjA1MzM2MTU5NDY3Njk3LCAwLjA0NzQ5MjQyMjE2MzQ4NjQ4LCAtMC4xOTM0NzU3Njc5NzAwODUxNCwgLTAuMjc2Mjg1NTg4NzQxMzAyNSwgMC4wMjYwNTQyOTI5MTcyNTE1ODcsIDAuNjE2MDIyMTA5OTg1MzUxNiwgMC4yODI5MjI5NTMzNjcyMzMzLCAtMC4yNTI4NTE1NzU2MTMwMjE4NSwgMC40NDUyNTU2OTY3NzM1MjkwNSwgMC4wMzcxNDQzNjI5MjY0ODMxNTQsIC0wLjEwMzU1NDQ5NDY3ODk3NDE1LCAwLjE1MTI0NTM0MDcwNDkxNzksIDAuMDMzNTM3OTcyNzE4NDc3MjUsIDAuMjk0MTY0MzU5NTY5NTQ5NTYsIC0wLjA5OTc5Njc5NDM1NDkxNTYyLCAtMi4yODE0MjAyMzA4NjU0Nzg1LCAtMC41NjIzMDc1OTYyMDY2NjUsIDAuNDE5MzU5MjA3MTUzMzIwMywgLTAuNzk4MjA0NTQxMjA2MzU5OSwgLTAuMzM2MTU4Mjc1NjA0MjQ4MDUsIC0wLjAwODczNDUyOTgzNzk2NTk2NSwgLTAuMDQwNzA3MTkzMzE1MDI5MTQ0LCAwLjEzODYyNDE5MTI4NDE3OTcsIC0wLjE2NDE1MTA0MjY5OTgxMzg0XSwgWzAuMjAyNjk4MTExNTM0MTE4NjUsIDAuMDg0NDMzMTUzMjcxNjc1MTEsIDAuNzYwMjkwMjA1NDc4NjY4MiwgLTAuMDQ4ODk3NzY5MzAyMTI5NzQ1LCAwLjE4NTE0OTgxODY1ODgyODc0LCAwLjE0NzMyMTkwOTY2NjA2MTQsIDAuMDg2MTk2MTc2NzA3NzQ0NiwgMC4zNTc4MzIyMjMxNzY5NTYyLCAwLjIzMzAxMzkyNzkzNjU1Mzk2LCAwLjIzMDE1NzEzNjkxNzExNDI2LCAwLjUwODQ0MTk4NDY1MzQ3MjksIDAuMzg2NjM4OTM5MzgwNjQ1NzUsIDAuMjkwNjg0MDQ0MzYxMTE0NSwgMC4wNTI0MTMxNjU1NjkzMDU0MiwgLTAuMDY0NjIwMDYyNzA4ODU0NjgsIDAuMDAxNjkzNTEzMzYwODA1ODA5NSwgLTAuMTM4NzQ2MDgyNzgyNzQ1MzYsIC0wLjAyODQ1MzczNzQ5NzMyOTcxMiwgMC4yNDEwODU5MTY3NTc1ODM2MiwgLTAuMTUyNjQ2MjEzNzY5OTEyNzIsIC0wLjA2OTIzODY4NTA3MTQ2ODM1LCAtMC4yMTM5NDQ2NDM3MzU4ODU2MiwgMC4zMTE0NTgxMTA4MDkzMjYxNywgMC40Mjk1NjkwOTUzNzMxNTM3LCAwLjEzMzczMjUyNzQ5NDQzMDU0LCAtMC4yNTIwNTUxOTc5NTQxNzc4NiwgMC43MzE1MTExNzU2MzI0NzY4LCAwLjQ0MDA2NDE5MTgxODIzNzMsIC0wLjIzNjY4MTg0ODc2NDQxOTU2LCAtMC4wMzQ2NDAwMjkwNzI3NjE1MzYsIC0wLjA5NDU1NDgyNjYxNzI0MDksIC0wLjAxNzQyOTk5NDQxOTIxNzExXSwgWy0wLjIwMzU4MTAwNTMzNDg1NDEzLCAwLjA1NTI1NTU5NTU5NDY0NDU0NywgMC4yNTI4NDQ0ODI2NjAyOTM2LCAtMC4xOTg4NTI4MzcwODU3MjM4OCwgLTAuMjg1NzYzNjIxMzMwMjYxMjMsIDAuMTQ1ODY5ODk1ODE1ODQ5MywgMC4wNzE2ODc4MDI2NzIzODYxNywgMC4wMDY0MTcyMjYwNDYzMjM3NzYsIDAuMTI1MTA5NzQ3MDUyMTkyNywgLTAuMDMyNjYyMDYzODM3MDUxMzksIDAuNDA2NzI0OTg5NDE0MjE1MSwgMC4xMTQwNzk2MjQ0MTQ0NDM5NywgMC4yMjA2OTU5NzI0NDI2MjY5NSwgMC4wNTQ0MjQxMjk0MjY0NzkzNCwgMC4yMzAzNDA3NDkwMjUzNDQ4NSwgMC4wMTc0ODA5Nzg3NDIyNDE4NiwgMC4yNzgxMjQ5Mjg0NzQ0MjYyNywgLTAuMTQyNjc4MjAxMTk4NTc3ODgsIC0wLjA0ODMwMDQ1OTk4MDk2NDY2LCAwLjI3OTM0NDY0ODEyMjc4NzUsIDAuMTI1OTI1MjcyNzAzMTcwNzgsIC0wLjA5NjA5NjI0NzQzNDYxNjA5LCAwLjU4OTI2NzI1Mzg3NTczMjQsIC0wLjQwNjkwNTI5MzQ2NDY2MDY0LCAtMC4xNTYyNDM2NTIxMDUzMzE0MiwgLTAuMDMwMTA3OTYwMTA0OTQyMzIyLCAtMC4wODI4OTgxMTAxNTEyOTA5LCAwLjYwMjUyMDA0ODYxODMxNjcsIC0wLjA5NDA2OTY5Njk2MjgzMzQsIC0wLjE5NjgxOTk0NjE2OTg1MzIsIC0wLjE2NTg1OTkyMjc2NjY4NTQ5LCAtMC4xOTM2NjI0NjQ2MTg2ODI4Nl0sIFsxLjM5NTg4NTM0ODMyMDAwNzMsIC0wLjQxMzE4NzU5MzIyMTY2NDQzLCAtMS40MjQ1MjE0NDYyMjgwMjczLCAtMC42NzU3Mjk4NzA3OTYyMDM2LCAtMC43NjA4NDIxNDQ0ODkyODgzLCAxLjU1MTU5MzU0MjA5ODk5OSwgLTAuNzU0Nzk0NTk3NjI1NzMyNCwgMC4zNjE4MjcwNzU0ODE0MTQ4LCAwLjE1ODI0MDI3MzU5NDg1NjI2LCAwLjY3MDU0NTIyMDM3NTA2MSwgLTAuMzY0MzM2MjUyMjEyNTI0NCwgMC44MzQzMzA3OTcxOTU0MzQ2LCAwLjA4Nzc2ODUzOTc4NjMzODgsIC0wLjYxNjk1MDUxMTkzMjM3MywgLTAuMDIwNTgwMTQ2NDYxNzI1MjM1LCAwLjc5MTk0OTM5MTM2NTA1MTMsIC0wLjIyODM2NTg1MzQyODg0MDY0LCAtMS4wMDE4NjcyOTQzMTE1MjM0LCAtMC45NDYzMTIzMDgzMTE0NjI0LCAtMS4wNzIwODU5NzY2MDA2NDcsIDEuMTEwODAwMjY2MjY1ODY5MSwgMS4yNTA5NTgyMDQyNjk0MDkyLCAtMC41NjI2ODY1NjI1MzgxNDcsIC0wLjEyNjMzMTc3NjM4MDUzODk0LCAtMS4xNDQ3ODI2NjIzOTE2NjI2LCAtMC43NDc2NzExMjczMTkzMzU5LCAtMi4xMjM5MjY2Mzk1NTY4ODQ4LCAtMC44MDg0MDIxMjEwNjcwNDcxLCAtMC4wNjE5NDk3OTMyNDkzNjg2NywgMC4zMzQwODgyMDYyOTExOTg3MywgLTEuMDEzMzcyNzc4ODkyNTE3LCAxLjA1NDc1Mzg5OTU3NDI3OThdLCBbMC42MzE0MjI0NjAwNzkxOTMxLCAtMC4wMDIwMzQ2MTcxMjIyNjI3MTYzLCAtMC4xNzczNzI2NjQyMTMxODA1NCwgMC4yMzM0MjU2NDcwMjAzMzk5NywgMC41OTM4OTg1OTQzNzk0MjUsIDAuNDM4ODA2NDQ0NDA2NTA5NCwgLTQuNjQ2MjEyNTc3ODE5ODI0LCAtMC42ODUyMzA3OTE1Njg3NTYxLCAtMi4zMjExNTMxNjM5MDk5MTIsIDAuMDU5OTA3MzU4MTM5NzUzMzQsIC0wLjg1MDM1MTkyOTY2NDYxMTgsIC0xLjA0NjkzMjkzNTcxNDcyMTcsIC0xLjYyMjM2MzU2NzM1MjI5NSwgLTAuNTkyMDcwODc3NTUyMDMyNSwgMC41NzQyMzY5ODkwMjEzMDEzLCAwLjI3NzUxNjYwMzQ2OTg0ODYzLCAwLjg4Mzc1MTg2OTIwMTY2MDIsIDAuODQxNzAzMjk1NzA3NzAyNiwgMC42OTY0NzI3NjQwMTUxOTc4LCAtMC4yMTY5MTQ1MDQ3NjY0NjQyMywgMC4wMTg4MTI3MzQ2MzM2ODQxNiwgMC4yODkyNTk1NTI5NTU2Mjc0NCwgLTMuNzg0MjMxMTg1OTEzMDg2LCAtMC42NjUwMTc5MDI4NTExMDQ3LCAwLjc1Nzk1NzIyMDA3NzUxNDYsIDAuODIyNjY3NDc5NTE1MDc1NywgLTAuMDQyNzI4NjUxMzE0OTczODMsIC0wLjIzOTY4NjIyMDg4NDMyMzEyLCAwLjQ3MzM0MTk0MTgzMzQ5NjEsIDAuMDg4ODQ4MTUxMjY2NTc0ODYsIDAuODQ1NTk0MTA4MTA0NzA1OCwgMC4xMzEyNDQ3MDQxMjczMTE3XSwgWzAuMDQ5ODk3NzU2NDI3NTI2NDc0LCAtMC4wMTg4MDg0MDc3MDkwMDI0OTUsIDAuMDM2Nzg5MjYwODA0NjUzMTcsIC0wLjA5NTkzODQ0NDEzNzU3MzI0LCAtMC4wNDQ3MzExOTk3NDEzNjM1MjUsIDAuMTM2NzQ0MjE2MDg0NDgwMjksIDAuMDM1MjE2MDQ4MzU5ODcwOTEsIC0wLjA2Mzg3NDk4OTc0ODAwMTEsIDAuMTAyNDk5MzUwOTA1NDE4NCwgMC4wOTc1ODgxMzY3OTIxODI5MiwgLTAuMjg4MTQ1ODk5NzcyNjQ0MDQsIC0wLjExNzAxMjA0NjI3NzUyMzA0LCAwLjAyNTMzMDcyOTc4MjU4MTMzLCAtMC4xODM2MTU1OTUxMDIzMTAxOCwgMC4wNDY5MTc3ODEyMzM3ODc1NCwgLTAuMTA4NTY5MDg1NTk3OTkxOTQsIDAuMTQ0Njg0MjU1MTIzMTM4NDMsIC0wLjA1NjIzMzI4MzEzMjMxNDY4LCAtMC4xOTE3NzE4MzUwODg3Mjk4NiwgLTAuMDQ5MDI3MzI3NDQ4MTI5NjU0LCAwLjA2Mjk4OTEzMDYxNjE4ODA1LCAtMC4wNTM1NTc2NzUzMzE4MzA5OCwgMC4xNTUxNDIzNTE5ODQ5Nzc3MiwgMC4wNTY4MTEyMjgzOTQ1MDgzNiwgMC4wMjQ2MjEyOTY2NzQwMTMxMzgsIDAuMDE4Njg5OTQ5MDY1NDQ2ODU0LCAwLjA1NDIyNTEyODE0NDAyNTgsIC0wLjA3NTM5MDkwNTE0MTgzMDQ0LCAtMC4wMTQ4NTE5MDE2ODAyMzEwOTQsIC0wLjAzMjk0NTE0MTE5NjI1MDkxNiwgMC4wMDEyMDE3OTcwNDM5MDQ2NjIxLCAwLjI0MTk0ODI2MTg1NzAzMjc4XSwgWzAuMDAzMjk2MDUxMTc0NDAyMjM3LCAwLjE3MDAzODU1MTA5MjE0NzgzLCAwLjAyMjYwODgxNDc2MTA0MjU5NSwgMC4wMjYxNDU4MDQ2NzM0MzMzMDQsIDAuMTE3MDU3NDcyNDY3NDIyNDksIC0wLjA1MDA3OTM1MzE1MzcwNTYsIDAuMDU0ODkxMTkxNDIyOTM5MywgLTAuMDkwMjQ0ODY2OTA3NTk2NTksIC0wLjA0NzY0NDMyMDg3NTQwNjI2NSwgLTAuMDg3OTAzNTg5MDEwMjM4NjUsIDAuMDc4ODU4MzAxMDQzNTEwNDQsIDAuMDMyODYxNDYwMDAwMjc2NTY2LCAwLjA2MDY3NDcyNjk2MzA0MzIxLCAtMC4xNjE2NDk2NzQxNzcxNjk4LCAwLjA5ODcyNjYwMDQwODU1NDA4LCAtMC4wMzY5NDM4MzgwMDAyOTc1NDYsIC0wLjAzODYwMjkxMDkzNTg3ODc1NCwgMC4wNDE3NTk2NzcyMzEzMTE4LCAwLjA4ODQ3ODgxMTA4NTIyNDE1LCAtMC4wODkyODc4MTc0NzgxNzk5MywgLTAuMDA5NjM3Njk2NjY4NTA1NjY5LCAtMC4wNTA4ODc5ODcwMTc2MzE1MywgLTAuMTE2NDM1NDc1NjQ3NDQ5NSwgMC4wMzQyMDM5MzkxMzk4NDI5OSwgLTAuMTc4NDg1NzA2NDQ4NTU1LCAwLjAwODI0ODgzOTUyNzM2ODU0NiwgLTAuMDUyMjkwNDU4MjMyMTY0MzgsIDAuMDUzNjI1Mjc4MTc0ODc3MTcsIDAuMDQ1NzUwNTczMjc3NDczNDUsIDAuMDE1NDcyNDUzMDg3NTY4MjgzLCAtMC4xODMyNDAwNzA5MzkwNjQwMywgMC4xOTkyNDcwMzI0MDM5NDU5Ml0sIFswLjEyNDY4NDMzMzgwMTI2OTUzLCAwLjEwODY3NDAyNzAyNTY5OTYyLCAwLjA4NzA1OTk1OTc2OTI0ODk2LCAtMC4wMTQ1MTI1Mzg5MDk5MTIxMSwgMC4xMzM4OTIyMjMyMzg5NDUsIC0wLjA1MjA0Mzc3MzIzMzg5MDUzLCAtMC4zMTkwOTg0NDI3OTI4OTI0NiwgLTAuNDQ0NzE5OTEwNjIxNjQzMDcsIC0wLjY1MjcyMjk1NDc1MDA2MSwgLTAuMTE0NTk4MTQ3NTcxMDg2ODgsIC0wLjUwNzY5MzI5MDcxMDQ0OTIsIC0wLjA3NTg4MjU1NDA1NDI2MDI1LCAtMC4yMzI1MjY5MjgxODY0MTY2MywgMC4wMjMwNTQ0OTkxNzkxMjQ4MzIsIDAuMDM2ODQ4Mzk5Nzg4MTQxMjUsIC0wLjEyNDQwNjc5MjIyMzQ1MzUyLCAtMC4wNzM2ODA5ODk0NDQyNTU4MywgLTAuMDU5NzQ2MTU3Mzc3OTU4MywgMC4xODMwMjg0NDQ2NDc3ODksIC0wLjA3MDg3MjIzOTc2ODUwNTEsIC0wLjQxNzYyNTU0NjQ1NTM4MzMsIDAuMDc2MDY5NzU3MzQyMzM4NTYsIC0wLjI1NzM2NjEyMDgxNTI3NzEsIC0wLjAxMjg4MTc2MTQxNjc5Mjg3LCAwLjA5OTU3MDg5Mjc1MTIxNjg5LCAwLjAyNTc3OTk1MzIyNjQ0NzEwNSwgMC4xMTk3NjUxMzI2NjU2MzQxNiwgMC4xMzc2NjE0NTcwNjE3Njc1OCwgLTAuMTA0MTI2NTU3NzA3Nzg2NTYsIDAuMTU1NDQ4Mzc3MTMyNDE1NzcsIDAuMDE2MjE1NjgzODkyMzY5MjcsIC0wLjM0MTk0Njk1OTQ5NTU0NDQzXSwgWzAuMTYwOTMwMjE2MzEyNDA4NDUsIDAuMTE4Mzg2MTk0MTA5OTE2NjksIDAuMDgxMjk0NTY2MzkyODk4NTYsIC0wLjA2NTM1NTI3ODU1MTU3ODUyLCAwLjI0NTQ3NjI0NTg4MDEyNjk1LCAwLjAwMDkyMjc0Njk1NjM0ODQxOTIsIC0wLjIxNzk1MjU0OTQ1NzU1MDA1LCAwLjE0MDE2OTAzOTM2ODYyOTQ2LCAwLjE0MjMwNzc3MzIzMjQ2MDAyLCAwLjA1OTcwMDAwNDc1NjQ1MDY1LCAwLjAxOTQ4MTUxNzM3NDUxNTUzMywgMC41Mjk1MTI2NDM4MTQwODY5LCAwLjE2NTkyMjEzNTExNDY2OTgsIC0wLjExMTY0Mzk2MjU2MjA4NDIsIDAuMTYzNTM5MDUyMDA5NTgyNTIsIDAuMDY5ODI3NzY1MjI2MzY0MTQsIC0wLjAwMjIyMTk3MTI4NDU5ODExMiwgLTAuMTA3MjQ1MzExMTQxMDE0MSwgMC4wMzA0MzI4MTY1OTQ4MzkwOTYsIC0wLjExMTA4MjU1Mzg2MzUyNTM5LCAwLjIyMDYwMzMwMjEyMTE2MjQxLCAwLjAwMzk2NjQ1ODE0MTgwMzc0MTUsIDAuMDcwNzY3NjYzNDE5MjQ2NjcsIDAuMTI5ODIwNjc0NjU3ODIxNjYsIDAuMjQ3NTA1Mjc3Mzk1MjQ4NCwgLTAuMDgyOTA2NjkzMjIwMTM4NTUsIDAuNDYxOTc5NjU3NDExNTc1MywgLTAuMjQ4OTA3NjcwMzc4Njg1LCAwLjA1NDUxODc1MTgwMDA2MDI3LCAwLjA1MTIzMjMzMDUwMTA3OTU2LCAwLjA3MTQ4NjQyODM4MDAxMjUxLCAwLjEzMzQ2ODQzNDIxNDU5MTk4XSwgWzAuMDI2NzU2MDc4MDA0ODM3MDM2LCAwLjAyNTYxOTExMzgxNzgxMTAxMiwgMC4wMDg5MDYwMjM1NzY4NTU2NiwgLTAuMTQ0MjYwMTgyOTc2NzIyNzIsIC0wLjI2OTM4MjY1NTYyMDU3NDk1LCAwLjQyNzU4MzYzNDg1MzM2MzA0LCAtMC41MjcwMjUxNjMxNzM2NzU1LCAwLjk5NTI5NzcyOTk2OTAyNDcsIDAuNDc1MTc2MDk1OTYyNTI0NCwgMC4zMzM2MjQxNTQzMjkyOTk5LCAwLjYzODcwMzIyNzA0MzE1MTksIDAuODA5MzE3MzUwMzg3NTczMiwgMC42OTExMDg3MDM2MTMyODEyLCAwLjIxMTI0NjU1MDA4MzE2MDQsIC0wLjEzMDkwNDM0NjcwNDQ4MzAzLCAwLjIzOTE2NTA5NzQ3NTA1MTg4LCAtMC4wMTkwOTIzODQ3MjU4MDkwOTcsIC0wLjIxOTc4MzQ0MDIzMjI3NjkyLCAtMC4yNzk5OTc4ODUyMjcyMDMzNywgLTAuMDQwMTY3MzgzODQ5NjIwODIsIDAuMDUzNTg4NzI1NjI2NDY4NjYsIC0wLjAyODc1ODE0OTU5NDA2ODUyNywgMC41NDQ4NDEyODk1MjAyNjM3LCAwLjQyODU4NjIxNDc4MDgwNzUsIC0wLjM3MTQ2MzU5NjgyMDgzMTMsIC0wLjI5NzA4MTgyODExNzM3MDYsIC0wLjAyNjM0MjI5NTExMDIyNTY3NywgMC4xMDcxMzIwNDc0MTQ3Nzk2NiwgLTAuMDkxOTM0MTU5Mzk4MDc4OTIsIDAuMTU5NzYyNjgwNTMwNTQ4MSwgLTAuMjQ5NTg0NDk2MDIxMjcwNzUsIDAuMTk3MTM0NTU0Mzg2MTM4OTJdLCBbLTAuMTEzNDc5MDYyOTE0ODQ4MzMsIDAuMzM5ODk0ODMxMTgwNTcyNSwgMC4zOTE2MjkyMTkwNTUxNzU4LCAwLjQyMzcwNDAyODEyOTU3NzY0LCAwLjQzMTQyNzUzODM5NDkyOCwgLTAuMTA3ODM1MzIyNjE4NDg0NSwgLTAuMTUzMTk1NTg5NzgwODA3NSwgMC4wNTI3Nzc4NDkxMzc3ODMwNSwgLTAuMjEzNTQ5NTU0MzQ3OTkxOTQsIDAuMjI1NTU5OTM0OTczNzE2NzQsIDAuMTIzNTE4ODM5NDc4NDkyNzQsIDAuMDA2NDE0MzQ1OTMxMjYxNzc4LCAwLjMwMDc5MTg1OTYyNjc3LCAwLjI5NzgzMTY1NDU0ODY0NSwgMC4zNDA2Mjg5ODE1OTAyNzEsIC0wLjEwNzMwODgxOTg5MDAyMjI4LCAwLjM2MDEyNjM3NjE1MjAzODYsIDAuMzM0MTk2MDYwODk1OTE5OCwgMC41MDM5MTc5OTIxMTUwMjA4LCAwLjI2ODkzNzY0NzM0MjY4MTksIC0wLjIxMDc0Njg1NDU0MzY4NTksIDAuMTcwODI1NTQxMDE5NDM5NywgLTAuMjI2NDM4OTY5MzczNzAzLCAtMC4wNzg3MzMyNTA0OTg3NzE2NywgMC4zMjk3MzI2NTY0Nzg4ODE4NCwgMC4xOTI4NjQwNjA0MDE5MTY1LCAwLjI3MTgxOTUwMjExNTI0OTYzLCAwLjU1OTE3NDA2MDgyMTUzMzIsIDAuNDUwNTE5NjgwOTc2ODY3NywgLTAuMDY4MDY5OTQyMjk1NTUxMywgMC40NTYzNTA0NDU3NDczNzU1LCAtMC4wMjI4NTc1NzQ3NDYwMTI2ODhdXSwgWzAuMDg4OTkyMzIwMDAxMTI1MzQsIDAuMDg1NTA4ODMwODQ1MzU1OTksIDAuMTY4ODQ1ODkxOTUyNTE0NjUsIDAuMDYwNjg2MDA3MTQyMDY2OTU2LCAwLjE2ODc3MDA3NDg0NDM2MDM1LCAwLjA0NjEzNzIxMzcwNjk3MDIxNSwgMC4xMzY3ODA3MDkwMjgyNDQwMiwgMC4xMTI0OTY2NzQwNjA4MjE1MywgMC4xOTE4MjI1NTg2NDE0MzM3MiwgMC4wMDQ2MjY4NjQxMDE3Mzc3MzgsIC0wLjAxNDk3NDYwMjQ5ODExNDEwOSwgMC4yMDE3NDQ3NTAxNDIwOTc0NywgMC4wODc2NjYwOTQzMDMxMzExLCAwLjE5NTAyNzAzODQ1NTAwOTQ2LCAwLjA5NzcxOTU3MjQ4NDQ5MzI2LCAwLjA4NDkyNzQ5OTI5NDI4MSwgMC4wNTc1MjIwMjQ5NTkzMjU3OSwgMC4wODE4MTA4NDY5MjQ3ODE4LCAwLjEwODgzMzI5ODA4NzEyMDA2LCAwLjA4NzYyNzU1OTkwMDI4MzgxLCAwLjE0NjQ3MDYwNjMyNzA1Njg4LCAtMC4wODc1ODQzMjQxODEwNzk4NiwgMC4wODg2NTI5OTA3NTg0MTkwNCwgLTAuMDEzMjM4MzAxNTAwNjc4MDYyLCAwLjE1MzExNDAyMDgyNDQzMjM3LCAwLjA1ODEwOTExMjA4MzkxMTg5NiwgMC4yNTY5OTAzNzMxMzQ2MTMwNCwgMC4yNDQ4NTkwNjk1ODU4MDAxNywgMC4xMDQxNTYwMjQ3NTQwNDc0LCAwLjA2MzIxMzA5NTA2ODkzMTU4LCAwLjA0NDY1MjAxNDk3MDc3OTQyLCAwLjE3MjkxMTg4MjQwMDUxMjddLCBbWzAuNTM5NDM3MTc0Nzk3MDU4MSwgLTAuNzM2OTA0NjIxMTI0MjY3NiwgLTAuNjExMjMxOTIzMTAzMzMyNSwgMC40MjM4MTYzNTMwODI2NTY4NiwgMC4zOTAyNDA2MDk2NDU4NDM1LCAtMC4zODE1ODQ3NjM1MjY5MTY1LCAwLjE3MTg0MDI1MDQ5MjA5NTk1LCAtMC41ODcyMzI5NDczNDk1NDgzLCAwLjcyMzkwMjU4MzEyMjI1MzQsIC0xLjA3MDU2NjI5NjU3NzQ1MzYsIC0wLjc5NzgwODA1MTEwOTMxNCwgMC4zNjA3MDE5MTg2MDE5ODk3NSwgLTAuNTEzNzk0ODk4OTg2ODE2NCwgLTAuNDc0NTU5NzI0MzMwOTAyMSwgMC4zODMzMTEwOTI4NTM1NDYxNCwgLTAuODU5MDczNjM4OTE2MDE1Nl0sIFswLjE2MTk5MTA3NDY4MTI4MjA0LCAwLjYwOTkxMDk2NDk2NTgyMDMsIDAuMDI4OTQxMDc2MjQ4ODg0MiwgLTAuNzE1ODU5NjUxNTY1NTUxOCwgLTAuNzI4NDc4OTA4NTM4ODE4NCwgMC41ODY0OTE3MDM5ODcxMjE2LCAtMC4wMjY3MTY4NjAwMTEyMTk5OCwgMS4wMDI1NjA2MTU1Mzk1NTA4LCAtMC40MjU0OTcwNTUwNTM3MTA5NCwgMC4xMDQ0MjAwNTg0MjkyNDExOCwgMC4yOTMzMDE3OTA5NTI2ODI1LCAtMS4xMTQyNjQ0ODgyMjAyMTQ4LCAwLjk3OTMxMDY5MTM1NjY1ODksIDAuOTE3Mzk0ODc2NDgwMTAyNSwgLTEuMDM3NjA2MzU4NTI4MTM3MiwgMC40OTYzNzk1NTQyNzE2OThdLCBbLTAuMzM2Njc4NzQzMzYyNDI2NzYsIDAuMTUxMTY2Nzk2Njg0MjY1MTQsIDAuODIxNzYzNjM0NjgxNzAxNywgLTAuNzUzNDY0NTc5NTgyMjE0NCwgLTAuNDE3NjU2OTI4MzAwODU3NTQsIDAuMTAxNjEyNDAzOTg4ODM4MiwgLTAuMzU5MTc1NzExODcwMTkzNSwgLTAuMTM1MzUxNjU3ODY3NDMxNjQsIC0wLjQ4MjY4MTkzMDA2NTE1NTAzLCAwLjMwNzQ4MjI0MjU4NDIyODUsIDAuNTEyNTEwMjk5NjgyNjE3MiwgLTAuMTEwNDE3NjA0NDQ2NDExMTMsIC0wLjAxNDAwNTUwODI3MzgzOTk1LCAtMC4wNzA2MDMyNjYzNTgzNzU1NSwgLTAuMjA1MzU4NzEzODY1MjgwMTUsIDAuNjMxODkxODQ2NjU2Nzk5M10sIFstMC4zMjAxNjA1Njc3NjA0Njc1MywgMC4xMDk0NDgyMzkyMDcyNjc3NiwgMC4xMTMyNzkzNTAxMDE5NDc3OCwgMC4xMDc3MDEzOTA5ODE2NzQyLCAtMC4yNTQ3NDIwNTYxMzEzNjI5LCAwLjM2NDg1NDI0NjM3Nzk0NDk1LCAwLjIyMjczMzk1OTU1NTYyNTkyLCAwLjE3NjkxMTk1MDExMTM4OTE2LCAwLjE5NTQ2MjAxODI1MTQxOTA3LCAtMC4xODE1Nzk3Mzg4NTUzNjE5NCwgMC4wNjU2ODkxNjg4NzA0NDkwNywgLTAuMjU4NjI4MzY4Mzc3Njg1NTUsIDAuMzA5ODI0MjU4MDg5MDY1NTUsIDAuMzAxMzI4MjcxNjI3NDI2MTUsIC0wLjQxODQyOTQwNDQ5NzE0NjYsIDAuMDc4MjYyODgwNDQ0NTI2NjddLCBbLTAuNzI4Mjk0MDE0OTMwNzI1MSwgLTAuMTc5MTEyODUxNjE5NzIwNDYsIDAuMjAwODA3MDM0OTY5MzI5ODMsIC0wLjkyNzgzMjU0Mzg0OTk0NTEsIC0wLjgwNTkwOTA5NzE5NDY3MTYsIC0wLjQ5OTYzMDI3MjM4ODQ1ODI1LCAtMS4xNTMxODU4NDQ0MjEzODY3LCAtMC4xODYzMDY1OTU4MDIzMDcxMywgLTAuODgwNzQ3MzE4MjY3ODIyMywgMC4yMzg1MTgyMzgwNjc2MjY5NSwgLTAuMDEyNTA4NjQ3NTE2MzY5ODIsIDAuNDgzMjE4MDE0MjQwMjY0OSwgLTAuNTM2ODY2Nzg0MDk1NzY0MiwgLTAuNTMwOTUzNDY2ODkyMjQyNCwgLTAuNTQwMDkzMzAyNzI2NzQ1NiwgMC4yMjU4NjMzMzc1MTY3ODQ2N10sIFswLjI2ODE4NjQ3OTgwNjksIC0wLjE2NDEwMDcwNjU3NzMwMTAzLCAtMC4zNzEyODMzMjI1NzI3MDgxMywgMC41NjQ1NDMzNjY0MzIxODk5LCAwLjcwMjQxMDgxNzE0NjMwMTMsIC0wLjExMzIzMTE5Njk5OTU0OTg3LCAwLjE2ODAwMzkxNjc0MDQxNzQ4LCAtMC4zMTE5NjE2NTA4NDgzODg2NywgMC41OTU0MzM0NzM1ODcwMzYxLCAtMC40ODUxNDgxMzE4NDczODE2LCAtMC40MjM1OTYwODQxMTc4ODk0LCAwLjU3OTA4NTA1MjAxMzM5NzIsIC0wLjEwOTg0NTQ0NDU2MDA1MDk2LCAtMC4xMDUyNjMyMDMzODI0OTIwNywgMC41MzYzNDAxMTc0NTQ1Mjg4LCAtMC41MjI1MzYxNTg1NjE3MDY1XSwgWzEuMTc2MjE1NDEwMjMyNTQ0LCAtMC43MzY2NDgzMjExNTE3MzM0LCAtMS4xNzc2NTI5NTUwNTUyMzY4LCAwLjg3NzMxODA4NDIzOTk1OTcsIDEuMDgwODM5MTU3MTA0NDkyMiwgLTAuNzM1NTEzODA2MzQzMDc4NiwgMS4yMTM1NTAyMDk5OTkwODQ1LCAtMC43ODEzMTg1NDUzNDE0OTE3LCAwLjYzMTA4NTE1NzM5NDQwOTIsIC0wLjk2Njk1NzI3MTA5OTA5MDYsIC0wLjkxNDU4NTc2OTE3NjQ4MzIsIDAuNTAwNTI0Njk5Njg3OTU3OCwgLTAuNTI2NTM0Nzk1NzYxMTA4NCwgLTAuNjkwMjE4NTY3ODQ4MjA1NiwgMC41NzU5MDA5MTIyODQ4NTExLCAtMC44NTc0Mjk4MDI0MTc3NTUxXSwgWzAuMTgzOTczNzc0MzEzOTI2NywgMC4wODUwOTQ0NTkzNTQ4Nzc0NywgLTAuMDc5NTc0MzE2NzQwMDM2MDEsIDAuMDY1NzgzMTQzMDQzNTE4MDcsIDAuMTcyOTU1NDIzNTkzNTIxMTIsIDAuMDI2NjY0MjkwNTc3MTczMjMzLCAtMC4wMzcwOTAwNzA1NDU2NzMzNywgMC4wMjcwMDQxMzc2MzUyMzEwMTgsIDAuMTExNjY0NTMzNjE1MTEyMywgMC4xMDE4NjAxNDMyNDQyNjY1MSwgMC4yOTQ3Mjc1MDQyNTMzODc0NSwgMC4xMjYyNjk2Mzg1MzgzNjA2LCAtMC4wNDg3NTM3NjA3NTUwNjIxLCAwLjIxOTU4MDAwOTU3OTY1ODUsIDAuNTQ1NDY2MTg0NjE2MDg4OSwgMC4xNzQ2ODY0MDIwODI0NDMyNF0sIFswLjQzODQyNzk4NDcxNDUwODA2LCAtMC4zMjI5NDA4MjY0MTYwMTU2LCAtMC4yMzYzNzE1MDIyODAyMzUzLCAwLjY2NTQ5ODAxODI2NDc3MDUsIDAuNzQ3MjM5MDUzMjQ5MzU5MSwgLTAuMDUzNzE0NDAyMDE5OTc3NTcsIDAuNTA5MTc1MTIxNzg0MjEwMiwgLTAuMDg3NDQ2NjAwMTk4NzQ1NzMsIDAuMzYwMzU5MzcwNzA4NDY1NiwgLTAuNDQ0OTc5NzI3MjY4MjE5LCAtMC40NDU4Mzk5NDE1MDE2MTc0MywgLTAuMTA4NDA5ODUxNzg5NDc0NDksIC0wLjE1MDM4MDE2NDM4NDg0MTkyLCAtMC4wMTQ4NTIzMDAyODYyOTMwMywgMC4zMjY2NzcyNjI3ODMwNTA1NCwgLTAuNDcxOTE4MzQ0NDk3NjgwNjZdLCBbMC4yMTQyODgzOTg2MjM0NjY1LCAwLjAzNjI5NjQzNDcwMDQ4OTA0NCwgMC4yNDk3NDA4MjQxMDMzNTU0LCAwLjIzNTMxNjEyNzUzODY4MTAzLCAwLjExOTg4OTU0MjQ2MDQ0MTU5LCAtMC4xMDgwODk5OTgzNjQ0NDg1NSwgMC4wOTAwMDExMjExNjMzNjgyMywgLTAuMjA3NjQyNTU1MjM2ODE2NCwgMC4xODYwNDI0ODc2MjEzMDczNywgMC4xNzAyMjM0NzQ1MDI1NjM0OCwgMC4xNDE1MTQ1NTQ2MTk3ODkxMiwgMC4xNzU0MDQ5MzYwNzUyMTA1NywgMC4wNjAwMDcwMzU3MzIyNjkyOSwgLTAuMTg5NDA3MDIwODA3MjY2MjQsIDAuMTU0MzUyNTE1OTM1ODk3ODMsIDAuMjMxNjE3ODgyODQ3Nzg1OTVdLCBbMC40MTkzMTE0MDQyMjgyMTA0NSwgLTAuMzA1ODc0ODI0NTIzOTI1OCwgLTAuMzExMzc0MDA4NjU1NTQ4MSwgMC40NDUwNjExMTc0MTA2NTk4LCAwLjQ3Mjk0NzA2MTA2MTg1OTEzLCAwLjE1MTEyNTEzMzAzNzU2NzE0LCAwLjM3MDQxOTc3MDQ3OTIwMjI3LCAtMC4xODM4MjgzNTM4ODE4MzU5NCwgMC43Mzk5MDA0Njk3Nzk5NjgzLCAtMC41MTUzNTY2NTk4ODkyMjEyLCAtMC40ODQ3MzM3NjAzNTY5MDMxLCAtMC4zNjM4MzU2MDI5OTg3MzM1LCAwLjAzNTU5NjQ2MDEwMzk4ODY1LCAwLjE3Mzk4NTI0Mjg0MzYyNzkzLCAwLjQ5Mzk2NTUwNjU1MzY0OTksIC0wLjU2MzUzODQzMjEyMTI3NjldLCBbMC4zMDI4MTc0MzQwNzI0OTQ1LCAwLjAxNTk0NTMyMjgxMTYwMzU0NiwgMC4xOTM0Njc0MDg0MTg2NTU0LCAwLjQyNTA3MjY5OTc4NTIzMjU0LCAwLjM1MDg1NjY2MTc5NjU2OTgsIDAuMzQ0MzUzNDA3NjIxMzgzNjcsIDAuNTQ3NzQ4OTIzMzAxNjk2OCwgMC4wODkzNzEyOTM3ODMxODc4NywgMC42OTg5NDU0MDMwOTkwNjAxLCAwLjAyMTM3NjI2NzA3NTUzODYzNSwgLTAuMjcxODI1NTUxOTg2Njk0MzQsIC0wLjE0OTI5MDE1OTM0NDY3MzE2LCAwLjM2MzE2MzU5MDQzMTIxMzQsIDAuNDkyNDM1MDY3ODkyMDc0NiwgMC4yMjcxNDE0MTAxMTIzODA5OCwgLTAuMjU1MzgwMjQzMDYyOTczXSwgWzAuMDg2OTgzMjE4Nzg5MTAwNjUsIDAuMDYwMDI4NzA1NzQ1OTM1NDQsIC0wLjEzOTc4MDU4MDk5NzQ2NzA0LCAwLjE4NDQ1NDQ4NTc3NDA0MDIyLCAwLjI1MzYyOTA4ODQwMTc5NDQzLCAtMC4xNDU0ODExMjQ1MjAzMDE4MiwgMC4yNTA2MjAxODYzMjg4ODc5NCwgMC4wMDE3ODgxMTYwNjAxOTczNTM0LCAwLjI5OTEzNTIwODEyOTg4MjgsIDAuNDEyNTU5NzQ3Njk1OTIyODUsIDAuMTU2MjcxMTQ0NzQ3NzM0MDcsIDAuMjIzMjI1Mjk1NTQzNjcwNjUsIDAuMTU1NTg3NjI4NDgzNzcyMjgsIC0wLjEyMjk0MzAxMzkwNjQ3ODg4LCAwLjUxNDg1MjgyMTgyNjkzNDgsIDAuMzk2MzE0NTYxMzY3MDM0OV0sIFswLjUxNzE4NDg1MzU1Mzc3MiwgMC4yODIwMzY5ODk5MjcyOTE4NywgLTAuMDM5MTA1NDc0OTQ4ODgzMDYsIDAuMDA2NTM4NjMwOTI4ODQ0MjEzNSwgMC4xMDQwMDA4NTE1MTE5NTUyNiwgMC4zMTc3NzgzNzg3MjUwNTE5LCAwLjM0NTI0MzUxMzU4NDEzNjk2LCAwLjM1MTE2NDc1ODIwNTQxMzgsIDAuMjI5MjU0MDIyMjQwNjM4NzMsIDAuMTcwMjM1MDY3NjA1OTcyMywgMC4zNzIyNTEzNjE2MDg1MDUyNSwgLTAuNTMwOTkzMDQ0Mzc2MzczMywgMC4zMjM4MzQ5NTU2OTIyOTEyNiwgMC4zNzkyNDIyNzExODQ5MjEyNiwgLTAuMDUyNTk0MzExNTM1MzU4NDMsIDAuMTY0MjI2NDEyNzczMTMyMzJdLCBbLTAuMDA1NzIzNjk5OTI3MzMwMDE3LCAwLjA2NTY4MTEyMjI0MzQwNDM5LCAwLjAxMTA5MTI4ODE3OTE1OTE2NCwgLTAuMDE4MjI5OTcwNzA4NDg5NDE4LCAtMC4yODM5MzA0ODA0ODAxOTQxLCAwLjExMzA5MzcxODg4NjM3NTQzLCAtMC4wMjExMzgxMzE2MTg0OTk3NTYsIDAuMTcwNjMxNjQ3MTA5OTg1MzUsIC0wLjIwNzU0MDQ4MjI4MjYzODU1LCAwLjI1NTE1NTUwMzc0OTg0NzQsIC0wLjA3NTk1MzE1NTc1NTk5NjcsIDAuMzM1NDYzNzMyNDgxMDAyOCwgMC4xMDY0NjIxODA2MTQ0NzE0NCwgMC4xMzI0MzU0NDEwMTcxNTA4OCwgLTAuMTUxMTcwMDYwMDM4NTY2NiwgMC4xNTcxMTY5OTQyNjE3NDE2NF0sIFswLjM1OTkyODQ4ODczMTM4NDMsIC0wLjM1NjM1MTUyNDU5MTQ0NTksIC0wLjUwNTU4MjIxMzQwMTc5NDQsIDAuMzA4MDczMTkyODM0ODU0MSwgMC4zMjYzODMxMTM4NjEwODQsIC0wLjE4MTcwMzAwMTI2MDc1NzQ1LCAwLjQyOTczNjY3MzgzMTkzOTcsIC0wLjA3MTMyMDY0NTUxMTE1MDM2LCAtMC4xMjQ0NzEzMjE3MDIwMDM0OCwgLTAuMzgzOTI1NzY1NzUyNzkyMzYsIC0wLjQzNjY4OTM3NjgzMTA1NDcsIDAuMTI2MDUyNzk2ODQwNjY3NzIsIC0wLjMxNDk3NDg0NDQ1NTcxOSwgLTAuMTIyMTU0Njc1NDI0MDk4OTcsIDAuMDUxOTI5Mjk1MDYzMDE4OCwgLTAuMTg0NDEyMDE3NDY0NjM3NzZdLCBbLTAuMDg2MjA1MDM1NDQ4MDc0MzQsIDAuMTMwMjgyNTY1OTUxMzQ3MzUsIDAuMTAzMTMwNjgzMzAyODc5MzMsIC0wLjE4OTAyNzYzNzI0MzI3MDg3LCAtMC4wNzE5MjE0MTU2MjcwMDI3MiwgLTAuMDk0NDg5NDU1MjIzMDgzNSwgLTAuMzE2NDc2ODIxODk5NDE0MDYsIC0wLjA5NjMzOTA3Njc1NzQzMTAzLCAtMC4xNDMzNDYzMzk0NjQxODc2MiwgMC4xNTA1OTY4ODY4NzMyNDUyNCwgMC4xOTgyMTkwNjA4OTc4MjcxNSwgMC41NDkwNzE3ODg3ODc4NDE4LCAtMC4xMDk0OTEyMjkwNTczMTIwMSwgLTAuMTAzMjEzMzkyMTk4MDg1NzgsIDAuMTY1Mzk1NDA4ODY4Nzg5NjcsIDAuMjEyNjY1NTI4MDU5MDA1NzRdLCBbLTAuMjkwOTc1NjMwMjgzMzU1NywgMC4wMjA4MjYyOTMxNTU1NTA5NTcsIDAuNTU5MDMzMjc0NjUwNTczNywgLTAuMTQ1MzkzNzU5MDEyMjIyMywgLTAuNDQwNzA3OTIxOTgxODExNSwgLTAuMDY5MjU4ODQ2MzQyNTYzNjMsIC0wLjQ1MDczMzA2NTYwNTE2MzYsIDAuMDY3ODQ2MDE1MDk1NzEwNzUsIC0wLjU4MDM3MjgxMDM2Mzc2OTUsIDAuMjQyMDYyNDQ5NDU1MjYxMjMsIDAuNDU1MDE4Njk5MTY5MTU4OTQsIDAuMTE4MzA4NzAwNjIxMTI4MDgsIDAuMDA4NzE4MjA4NDA5ODQ1ODI5LCAwLjExNDk2NzcxMTI2OTg1NTUsIC0wLjQwOTYwNTMyNDI2ODM0MTA2LCAwLjMzMDI2NjE3NzY1NDI2NjM2XSwgWy0wLjU2NzY5OTI1MzU1OTExMjUsIC0wLjI3OTc5MzM4MTY5MDk3OSwgMC4wNjg3NTkxNTA4MDMwODkxNCwgLTAuNTI1NzI3NTEwNDUyMjcwNSwgLTAuMjgwMDMyNTQ1MzI4MTQwMjYsIC0wLjM3MzY3NTM0NjM3NDUxMTcsIC0wLjM1OTQ3NjYyNTkxOTM0MjA0LCAtMC4zMzU1NDcxNDkxODEzNjU5NywgLTAuMzcxMTg2NzkyODUwNDk0NCwgMC4wMDE4NDAxMDk5MzY4OTI5ODYzLCAtMC4wNjE1NTg4OTg1MzgzNTEwNiwgMC4zNDE2Nzk4NDEyNzk5ODM1LCAtMC4xODEwMTc1MDMxNDIzNTY4NywgLTAuMTIxNDg1OTU2MDEzMjAyNjcsIC0wLjU0NjMzMTc2MzI2NzUxNzEsIC0wLjA4NjQ1NTE2NjMzOTg3NDI3XSwgWy0wLjA5MTUzNDgyMzE3OTI0NSwgMC4wNDk2MDExNDUwODg2NzI2NCwgMC4yMTU4NzA2MDM5MTkwMjkyNCwgMC4wNzY1NDkxNTc1MDAyNjcwMywgMC4xMjU4MDUxNjkzNDM5NDgzNiwgLTAuMTUyNzIyNzE2MzMxNDgxOTMsIDAuMTYzNTg2MjI5MDg1OTIyMjQsIC0wLjMyMTIwNTgyNDYxMzU3MTE3LCAtMC4zMTQ0NTYwNDU2Mjc1OTQsIDAuNDQ4NzUwNzM0MzI5MjIzNjMsIDAuMTg4MjQzODA2MzYyMTUyMSwgLTAuMTY2MTEyNzIwOTY2MzM5MSwgLTAuNDE3MzIwNjY4Njk3MzU3MiwgLTAuMTc5MDY1MTA4Mjk5MjU1MzcsIDAuMjAwNDEzMTUyNTc1NDkyODYsIDAuMjM5Nzk1MjA3OTc3Mjk0OTJdLCBbMC40Mjg1ODU2MTg3MzQzNTk3NCwgLTAuMjY3MTc2MTUxMjc1NjM0NzcsIDAuMjAyMjEzNjg5Njg0ODY3ODYsIDAuNTQxNTE4MTUxNzYwMTAxMywgMC4zODA4MTUzODY3NzIxNTU3NiwgMC4wNjIyNjM0NjY0MTc3ODk0NiwgMC41MjE1NzI1ODk4NzQyNjc2LCAtMC4zMTkxMTk2OTE4NDg3NTQ5LCAwLjQxNzE5OTk2OTI5MTY4NywgLTAuMjQ5OTgxNjcxNTcxNzMxNTcsIC0wLjE5MTA5MjUzNTg1MzM4NTkzLCAwLjA3NDMwMzU4OTc2MTI1NzE3LCAtMC4yMzA0NTU5MDUxOTkwNTA5LCAtMC4yNTQwMDI4NjkxMjkxODA5LCAwLjM1NDMwNDM3MzI2NDMxMjc0LCAtMC4wNDQ4MjU2MjgzOTk4NDg5NF0sIFswLjA5NTk2NzQxOTQ0NTUxNDY4LCAtMC4xODE0OTg1ODcxMzE1MDAyNCwgMC4wNzUzODIyNzczNjk0OTkyLCAtMC4wNTYwNzU1NTQzNDEwNzc4MDUsIDAuMjI2MjM2Nzc1NTE3NDYzNjgsIC0wLjE2NDEyMTMxNDg4MzIzMjEyLCAtMC4yODA3NTUxMDI2MzQ0Mjk5MywgMC4wNTQ1MzU0NDExMDA1OTczOCwgMC4xMzYxMDg5NjQ2ODE2MjUzNywgMC4zNTkzNjY3NzQ1NTkwMjEsIDAuMTg3NDIyMzM1MTQ3ODU3NjcsIDAuNDg0NTI4ODk5MTkyODEwMDYsIC0wLjQyNjA2ODI0NjM2NDU5MzUsIC0wLjMwNDk0MTUwNTE5MzcxMDMsIDAuMTU3Mzc0MjkyNjEyMDc1OCwgMC4xNDA3MzI1NzE0ODI2NTg0XSwgWzAuNTc1OTgwNzgyNTA4ODUwMSwgLTAuMzY0OTU2MzE5MzMyMTIyOCwgLTAuMDMwMDc5NzAzNzc4MDI4NDg4LCAwLjM4MTEwMTMxMDI1MzE0MzMsIDAuNjQ1MTQ0ODIwMjEzMzE3OSwgLTAuMTM2NjkzMDAwNzkzNDU3MDMsIDAuNDg4NTI3NTA2NTg5ODg5NSwgLTAuNDU0NzUwNTk3NDc2OTU5MjMsIDAuNDg5NzEwMTgxOTUxNTIyOCwgLTAuNDk4ODExMDM2MzQ4MzQyOSwgLTAuNTA2MDgzMzY5MjU1MDY1OSwgMC4xMzgyNDMxMDg5ODc4MDgyMywgLTAuMTkyNjM1ODM0MjE3MDcxNTMsIC0wLjE5MzAxMzM5OTgzOTQwMTI1LCAwLjU5NDc1MTU5NjQ1MDgwNTcsIC0wLjgyMDk5NDI1NzkyNjk0MDldLCBbLTEuNjkxNzg5ODY1NDkzNzc0NCwgMi40NTUwMTEzNjc3OTc4NTE2LCAzLjMxNzE2NzI4MjEwNDQ5MiwgLTEuNjAzOTUxNTczMzcxODg3MiwgLTEuNzIxNjYzNTk0MjQ1OTEwNiwgMS45ODA1MzAyNjE5OTM0MDgyLCAtMS43NDI4MjYxMDQxNjQxMjM1LCAyLjYzMDc3Mzc4MjczMDEwMjUsIC0xLjQ1MDg2NjkzNzYzNzMyOSwgMy4xNTk2Mjc5MTQ0Mjg3MTEsIDIuODQzNzc0MDgwMjc2NDg5MywgLTAuNjgyNTc5Mjc4OTQ1OTIyOSwgMS43NjMxMjg1MTkwNTgyMjc1LCAyLjA3NjAxMzU2NTA2MzQ3NjYsIC0xLjI5Mzk4MDU5ODQ0OTcwNywgMi45Njc3ODI5NzQyNDMxNjRdLCBbLTAuNjYzMDIyOTk0OTk1MTE3MiwgLTAuMjQzMjM0MDA4NTUwNjQzOTIsIC0wLjI0NzU5MTczMzkzMjQ5NTEyLCAtMC43NzkwNTk0MTAwOTUyMTQ4LCAtMC43NjkyMjMwOTM5ODY1MTEyLCAtMC4xNjQwMzc2NDQ4NjMxMjg2NiwgLTAuNDA1NzI5NzExMDU1NzU1NiwgMC4wMTM4OTUzOTA1NTUyNjI1NjYsIC0wLjQ5MDk5NjY4ODYwNDM1NDg2LCAtMC4zNjkzMTc1MDE3ODMzNzA5NywgLTAuMDc3MjM3OTA0MDcxODA3ODYsIDAuMzgwMDkxODQ1OTg5MjI3MywgLTAuMTM4MzkyMDMxMTkyNzc5NTQsIC0wLjEwNDM0NzczNTY0MzM4Njg0LCAtMC45NTQ0Mzg0NDc5NTIyNzA1LCAtMC4yOTY2Mzc2MjQ1MDIxODJdLCBbLTAuODIyOTAyMTQzMDAxNTU2NCwgMC4zMzY0NDM0MjQyMjQ4NTM1LCAwLjYyNDgzODgyOTA0MDUyNzMsIC0wLjY3NjY2MTM3MjE4NDc1MzQsIC0wLjY4NTI1OTUyMTAwNzUzNzgsIDAuMzE0MzMyMjQ2NzgwMzk1NSwgLTAuNzU2MDA2NTM4ODY3OTUwNCwgMC40MjE1ODEzMjc5MTUxOTE2NSwgLTAuNTM1ODM5Mzc4ODMzNzcwOCwgMC4zNDczMDUxNzg2NDIyNzI5NSwgMC4yNTM1NDg4OTAzNTIyNDkxNSwgMC4xOTM3Mjk2MzkwNTMzNDQ3MywgMC4yNDE5MzgwMzk2NjA0NTM4LCAwLjEzMDIzNTYxMjM5MjQyNTU0LCAtMC40OTM1MjA3MzY2OTQzMzU5NCwgMC40MzQyNTc3MTU5NDA0NzU0Nl0sIFstMC4yNTIyNjE1NzkwMzY3MTI2NSwgMC40NDA0MDk3Nzk1NDg2NDUsIDAuNTExMTE0NTk3MzIwNTU2NiwgLTEuMzg3NDYzMzMxMjIyNTM0MiwgLTEuMjA5OTg4MzU1NjM2NTk2NywgLTAuMDMxNTc2ODU2OTcwNzg3MDUsIC0wLjk0ODU5NTY0MzA0MzUxODEsIDAuNTIyNzYyMDAwNTYwNzYwNSwgLTEuNDQ2NDM3ODM1NjkzMzU5NCwgMC43NzM2NjU2NjY1ODAyMDAyLCAwLjg1OTYzMDI4NjY5MzU3MywgLTAuMTY2MDQ1NTkxMjM1MTYwODMsIDAuMTE5MjcyODk1MTU3MzM3MTksIDAuMzQ1MTg3MDY3OTg1NTM0NjcsIC0xLjA1NzU0MjgwMDkwMzMyMDMsIDAuOTc4OTczODY1NTA5MDMzMl0sIFstMS41ODM1MzEyNjA0OTA0MTc1LCAxLjg4OTUzMzUxOTc0NDg3MywgMS43NTMyMjE1MTE4NDA4MjAzLCAtMS45MDEzMDEwMjYzNDQyOTkzLCAtMS45Mjk2NTg1MzIxNDI2MzkyLCAxLjc5NTM0ODI4NjYyODcyMzEsIC0xLjkyNTg0MTMzMTQ4MTkzMzYsIDEuNzQxOTk1ODExNDYyNDAyMywgLTIuMTg3NTg2MDY5MTA3MDU1NywgMi4xMjkxMzUzNzAyNTQ1MTY2LCAyLjEwNTkwNjcyNDkyOTgwOTYsIC0yLjAwNjc2NTg0MjQzNzc0NCwgMS41MzU4MzE5MjgyNTMxNzM4LCAxLjUxNzk2MTg1OTcwMzA2NCwgLTEuOTU1MDA5Njk4ODY3Nzk3OSwgMS45NDYyNTIyMjY4Mjk1Mjg4XSwgWzAuMjc0MTc2NDE4NzgxMjgwNSwgMC4yNzMxNjA5OTQwNTI4ODY5NiwgLTAuMDAwNDE4MzU1Njg4NDUyNzIwNjQsIC0wLjAzOTEzMjE4NTI4MDMyMzAzLCAtMC4xNDU2ODM0NjczODgxNTMwOCwgMC4wMTI3NDU2NjkxMTE2MDk0NTksIC0wLjA0NTk0NTI2MDY3Mzc2MTM3LCAwLjIzNTMxMTc3NjM5OTYxMjQzLCAtMC4xMTY4Nzg3NTUzOTA2NDQwNywgMC4wNzk3MDU3NDQ5ODE3NjU3NSwgMC4wMzQzOTEzNTg0OTQ3NTg2MDYsIDAuMTM5ODY4NjE3MDU3ODAwMywgMC4yNTY4NDI0OTQwMTA5MjUzLCAwLjIzODA1MDE2Mjc5MjIwNTgsIC0wLjI5OTAzOTk1OTkwNzUzMTc0LCAwLjEyNTg0OTMwNjU4MzQwNDU0XSwgWzAuMjA3OTMyOTc4ODY4NDg0NSwgMC4yMDM2OTQyOTg4NjM0MTA5NSwgLTAuMzUxMjU4OTMzNTQ0MTU4OTQsIDAuMzUwMjU5NjkxNDc2ODIxOSwgMC4yNTAxOTA3MzQ4NjMyODEyNSwgMC4wNzM4NDU2MTAwMjI1NDQ4NiwgMC4zNDUyNzEyNTk1NDYyNzk5LCAwLjE3NTg3NjM0OTIxMDczOTE0LCAwLjAxMzYzMzkyMzYwNTA4NDQyLCAtMC4wMzg3OTM5ODg1MjU4Njc0NiwgLTAuMDMwODkyMTk1MTgwMDU4NDgsIC0wLjAwMjA4NTA5NzEzNDExMzMxMTgsIDAuMDIwOTY2MzI4NjgwNTE1MjksIDAuMDM0NzkxNjQwOTM3MzI4MzQsIC0wLjEyMjE4NTE0MDg0ODE1OTc5LCAtMC4wOTM5MTk4MTM2MzI5NjUwOV0sIFstMC40MDAwNzAzMzk0NDEyOTk0NCwgMC4yMTA3ODE4ODcxNzM2NTI2NSwgLTAuMDA5NTg3MDAxOTg2ODAxNjI0LCAtMC4wNzkxMjI3NTE5NTEyMTc2NSwgLTAuMzY4MjQ5OTUyNzkzMTIxMzQsIDAuMzEwNDIwNjkxOTY3MDEwNSwgLTAuMjk0MDE5NjA5Njg5NzEyNSwgMC4zMDM2OTE0NzY1ODM0ODA4MywgLTAuMTg0MDg1NjY3MTMzMzMxMywgMC4yNjMwNjk3NDg4Nzg0NzksIDAuMTY4MDc2NjY0MjA5MzY1ODQsIDAuMjEyMzEwMzQzOTgwNzg5MTgsIDAuMTQwNDkwOTM0MjUyNzM4OTUsIC0wLjA1MzA2MjcxNDYzNjMyNTgzNiwgLTAuNDI2MzA2MjE3OTA4ODU5MjUsIDAuMzI4MTEyNjAyMjMzODg2N10sIFswLjU3ODEwOTAyNTk1NTIwMDIsIDAuMDA1MzY0OTE3Njg0MzQ2NDM3NSwgLTAuNDY0NzI1NDM0NzgwMTIwODUsIDAuMTE5MDk0NTIwODA3MjY2MjQsIDAuMTQxMDgxNTcxNTc4OTc5NSwgLTAuMTI2NTYwNjEzNTEyOTkyODYsIDAuMzM4NjQ0Mzg1MzM3ODI5NiwgLTAuMTE3Njg1MDM0ODcxMTAxMzgsIC0wLjEwMjc0OTc1NzQ2ODcwMDQxLCAwLjA0ODU5NjY2NTI2MzE3NTk2NCwgMC4wMjc5MjQwMDEyMTY4ODg0MjgsIC0wLjA0MDQzNTU0NTE0NjQ2NTMsIDAuMzA5Nzc0MTAwNzgwNDg3MDYsIDAuMTU3MTExMzYxNjIyODEwMzYsIDAuMTUxNTY2MTAzMTAwNzc2NjcsIC0wLjExMDUzNTgzMDI1OTMyMzEyXV0sIFswLjExMzgxMDY0MzU1MzczMzgzLCAwLjA2MjEwOTAzODIzMzc1NzAyLCAwLjA1NjYxMDQ0MjY5ODAwMTg2LCAwLjA0MDM5NDExOTkxODM0NjQwNSwgMC4xNzU5NDk5MzExNDQ3MTQzNiwgMC4wNDE1NDM1OTE3Njc1NDk1MTUsIDAuMTAwNTA4MTY4MzM5NzI5MzEsIDAuMDM2MjA0OTUyNzQ2NjI5NzE1LCAwLjA3ODEzODIzMjIzMTE0MDE0LCAwLjA1OTI4NjU1MzQxMjY3NTg2LCAwLjAxOTc3NjYzNDg3MTk1OTY4NiwgMC4wMzI2MjkwMzkxMzg1NTU1MywgMC4wMzEzNDQwODIyMDY0ODc2NTYsIDAuMDQ2Nzc5MjUyNTg4NzQ4OTMsIDAuMDk5OTM2MjQ2ODcxOTQ4MjQsIC0wLjAwMDU3MTg1NzY3MjE4NDcwNTddLCBbWzEuMTE4MTYwOTYzMDU4NDcxN10sIFstMS4xNDY3NTE0MDM4MDg1OTM4XSwgWy0wLjc5ODg4MTA1MzkyNDU2MDVdLCBbMC45ODcxMjkyMTE0MjU3ODEyXSwgWzIuMzcwMDE4MDA1MzcxMDkzOF0sIFstMC42OTk1NTUyMTgyMTk3NTcxXSwgWzEuNTg4NDk0MDYyNDIzNzA2XSwgWy0wLjcwNDc5Mzc1MTIzOTc3NjZdLCBbMS43MzQxMTA4MzIyMTQzNTU1XSwgWy0xLjAzMzg2NDQ5ODEzODQyNzddLCBbLTAuODg3OTc0MDgzNDIzNjE0NV0sIFswLjgwNTgyODUxMTcxNDkzNTNdLCBbLTAuNDc2NDc5ODg3OTYyMzQxM10sIFstMC40ODY4NTAzODA4OTc1MjJdLCBbMS45Mzk5Nzg4Mzc5NjY5MTldLCBbLTAuODY5NjE1Njc0MDE4ODU5OV1dLCBbMC4wODUzMDU1NTY2NTQ5MzAxMV1d", "metrics": {"loss": 0.153452, "accuracy": 0.939447, "auc": 0.985096, "precision": 0.940323, "recall": 0.946381}}