{"round": 5, "weights_b64": "W1tbLTAuNDMxMTU5MDc5MDc0ODU5NiwgMC41MzkwMjk0MTk0MjIxNDk3LCAwLjQzNDU1NTg4ODE3NTk2NDM2LCAwLjIxNTYyNDAwNDYwMjQzMjI1LCAwLjAxODQ0MDI2MTQ4MzE5MjQ0NCwgMC4xNTE4MjcxMTE4NDAyNDgxLCAwLjA1NzM2NDEwNjE3ODI4MzY5LCAtMC4xNjQ3Mjc1Njg2MjY0MDM4LCAwLjAzNjA2OTY0NjQ3NzY5OTI4LCAtMC4xMzU0OTU3OTY3OTk2NTk3MywgMC4xMDY2ODQ4MzM3NjUwMjk5MSwgLTAuMTI5MjM2NjUzNDQ3MTUxMTgsIC0wLjE4Mzk0NzgzMTM5MjI4ODIsIDAuMTk4NDc1NTA5ODgxOTczMjcsIDAuMDA2NjY1MDA5NTM5NTc0Mzg1LCAwLjAzODA1NDExNjA3MDI3MDU0LCAtMC4xMDczMjA0NzI1OTgwNzU4NywgMC4wODgyODU0MTYzNjQ2Njk4LCAwLjE3Njg2MTk0MTgxNDQyMjYsIDAuMDc2MDQ4ODczMzY0OTI1MzgsIC0wLjQzODQ1MzEzNzg3NDYwMzI3LCAtMC4zNTYyOTA3NTc2NTYwOTc0LCAwLjEwODc2OTM1NzIwNDQzNzI2LCAwLjAxNzk0ODI2OTg0NDA1NTE3NiwgMC4wNTY1MTI0NDg5MzY3MDA4MiwgLTAuMTM2OTA0NTk3MjgyNDA5NjcsIC0wLjQzODI2NDc4NzE5NzExMzA0LCAtMC4wMDY5NTk5Nzc1NTk3NDUzMTIsIDAuNDA4OTg0NDIyNjgzNzE1OCwgLTAuMjExNzQ5NzYyMjk2Njc2NjQsIC0wLjEzMTg1MTQ0OTYwODgwMjgsIDAuMDkyODU4MTY1NTAyNTQ4MjJdLCBbLTEuMTU2ODIxOTY2MTcxMjY0NiwgMS4xNDI0NDkxNDA1NDg3MDYsIDAuOTAxMTE1MDU5ODUyNjAwMSwgLTAuNDY1NjkwMzc0Mzc0Mzg5NjUsIDAuMDU3OTM3NjkyODUwODI4MTcsIDAuMDA1OTI0NzE2NTkxODM1MDIyLCAwLjIxOTY4NDA5NDE5MDU5NzUzLCAwLjI2ODU1ODIwNDE3NDA0MTc1LCAwLjU2ODIzODczNTE5ODk3NDYsIC0wLjI5MzY0Mzk1MTQxNjAxNTYsIDAuNTYwMTY4Mzg1NTA1Njc2MywgMC4wOTg1MTQzNDgyNjg1MDg5MSwgMC4zNjA5Mjk0ODkxMzU3NDIyLCAtMC4zMzE2NTI4Nzk3MTQ5NjU4LCAwLjIwNjM2MzM3OTk1NTI5MTc1LCAwLjAyNjcxNzIyMzIyNzAyNDA4LCAwLjM1MjgxNDAxODcyNjM0ODksIC0wLjQ2MTEyMjk1OTg1MjIxODYzLCAwLjQ2ODk0OTg1NDM3MzkzMTksIDAuNDEwNDExMjM4NjcwMzQ5MSwgLTAuMDU4NjY2OTc0MzA2MTA2NTcsIC0wLjE4NDIzOTI4MzIwNDA3ODY3LCAwLjYyMjg2MjU3NzQzODM1NDUsIC0wLjMxMzAzNTQ4ODEyODY2MjEsIC0wLjY2Mzg5OTE4MzI3MzMxNTQsIDEuODIzNDU5MDI5MTk3NjkyOSwgLTAuMjU5Njk2MzA0Nzk4MTI2MiwgMC4yNDIwNzA5NzI5MTk0NjQxLCAxLjIxMDExOTcyNDI3MzY4MTYsIDAuNjExNTg0MzA1NzYzMjQ0NiwgMC44OTMwMTc4ODgwNjkxNTI4LCAwLjA4MTY3MTA0NDIzMDQ2MTEyXSwgWy0wLjYyMzI1ODY1MDMwMjg4NywgMC4zNDUwMzk4NDQ1MTI5Mzk0NSwgMC4yNDc1MjMzOTcyMDcyNjAxMywgLTAuMjYyNTY2ODk0MjkyODMxNCwgMC4xNzU5OTgxMDY1OTg4NTQwNiwgLTAuMDI4NDY4NTE1NzIzOTQzNzEsIC0wLjAzNzYxNzQ1MjQ0MjY0NjAzLCAtMC4xMDc3NTkyNTk2NDExNzA1LCAwLjE0NjIzMTc0MDcxMzExOTUsIC0wLjQyODYxMjE0MjgwMTI4NDgsIDAuMjUwMjI0NzY5MTE1NDQ4LCAwLjAxNTIzMTI3MjIwNTcxMDQxMSwgLTAuMTE5ODU1NDE4ODAxMzA3NjgsIC0wLjIwMzUzNjk4NzMwNDY4NzUsIDAuMDkxNDMyOTczNzQyNDg1MDUsIDAuMDY2MTk3OTMxNzY2NTEwMDEsIC0wLjE3NzUzOTQ2NzgxMTU4NDQ3LCAtMS4xODQ0NjY4Mzg4MzY2NywgMC40ODI3ODA2OTQ5NjE1NDc4NSwgMC4wMTk5NjczNTQ4MzQwNzk3NDIsIC0wLjA5NjI1MjcwOTYyNzE1MTQ5LCAwLjA0MTY5NjE2MTAzMTcyMzAyLCAwLjI4Mzg1MTcxMjk0MjEyMzQsIC0wLjcyNTMyNjU5NzY5MDU4MjMsIC0wLjcwNTYwNTg2NDUyNDg0MTMsIC0wLjEzMTQ0MDU5NDc5MjM2NjAzLCAtMC4wMzI5MzQ3NDAxODU3Mzc2MSwgMC4wNDk4MTgzNTkzMTUzOTUzNTUsIDAuNTQ5MTQ5OTMwNDc3MTQyMywgMC4yMzM5ODE4NDc3NjMwNjE1MiwgMC4zMTA2MzEwNjY1NjA3NDUyNCwgMC4xNjI2NDY3NDA2NzQ5NzI1M10sIFstMS4xMTc3MTgxMDA1NDc3OTA1LCAwLjc5Nzk5Njg3ODYyMzk2MjQsIDAuODk3MTQzOTU5OTk5MDg0NSwgLTAuMzc2NzIyMDM3NzkyMjA1OCwgLTAuMzc5ODc5OTUxNDc3MDUwOCwgLTAuNDc1NTcwOTE3MTI5NTE2NiwgLTAuMTI0MjM5Njc1NzAwNjY0NTIsIDAuNDA4ODE2MzM3NTg1NDQ5MiwgMC4zNzIwMjgzNTA4MzAwNzgxLCAtMC40Mzg1MjY2NjAyMDM5MzM3LCAwLjI2NTYyMTY2MjEzOTg5MjYsIC0wLjM2ODg1ODk5MzA1MzQzNjMsIC0wLjA0NDM0NDA3NTAyNDEyNzk2LCAtMC4yNTcxMDE0NzYxOTI0NzQzNywgLTAuNTM1ODA4MjY1MjA5MTk4LCAtMC43MDQ4OTQ5MDAzMjE5NjA0LCAtMC4wMDQ2MDExNjc1MTQ5MjAyMzUsIC0wLjE5NjQxOTg3OTc5NDEyMDgsIDAuMzIzNzU2NjA1Mzg2NzM0LCAwLjA3ODQwNzEwMTMzMzE0MTMzLCAwLjAxMzk3ODM0MzQ1Njk4MzU2NiwgLTAuMjg1Mjg2NDg2MTQ4ODM0MjMsIDAuNDY3NTQ5MzI0MDM1NjQ0NTMsIC0wLjE5Mjc1ODE0Mjk0ODE1MDYzLCAtMC41ODAxMzc0OTEyMjYxOTYzLCAwLjU0MDg2MzkzMTE3OTA0NjYsIC0wLjI2OTI0NjIyMDU4ODY4NDEsIDAuMjYzMzQwODkwNDA3NTYyMjYsIDAuOTU0NzQ2ODQyMzg0MzM4NCwgMC4zNTc4MzA3NjI4NjMxNTkyLCAwLjQ5NDU5NDc1Mjc4ODU0MzcsIDAuMzE0MDEyMjU5MjQ0OTE4OF0sIFstMC44MzMwMDUzMDkxMDQ5MTk0LCAwLjQyMjM4NTk5MDYxOTY1OTQsIC0wLjI0MzM2MzYzMzc1MTg2OTIsIC0wLjAwNTk4MzIwODMwNjEzMzc0NywgMC4wMjgzNTQwNTk5MDQ4MTM3NjYsIDAuMjEzNjY4MzAxNzAxNTQ1NzIsIDAuMTgwNzc3OTY2OTc2MTY1NzcsIDAuMTU5MzAwNjQwMjI1NDEwNDYsIC0wLjEyNDM4NDQ0MDQ4MTY2Mjc1LCAwLjEyMjU2Mjk4OTU5MjU1MjE5LCAwLjAzNDA3MTkzNzIwMzQwNzI5LCAtMC4xNjQ0MDI5MzE5Mjg2MzQ2NCwgLTAuMjIxMjc4MzI0NzIzMjQzNywgLTAuMDAwMjIzODg0MTg0Mzc5MTMwNiwgMC4xMzY4ODIwMzY5MjQzNjIxOCwgMC4wMzA5Mjc5NzEwMDU0Mzk3NiwgLTAuMjA3OTE2NTg3NTkxMTcxMjYsIC0xLjQ4NjI4MjU4NzA1MTM5MTYsIDAuMDU0Njc2MzAxNzc3MzYyODIzLCAwLjA0NjUyNjAyNTk4MDcxMDk4LCAtMC4wNTQ4NTgzODY1MTY1NzEwNDUsIDAuMDA3ODcyMTA0NjQ0Nzc1MzksIC0wLjEyMjA2NzcwNDc5Njc5MTA4LCAtMC40Mjc2NjgzMzMwNTM1ODg4NywgLTAuNjYxMTkxMTA1ODQyNTkwMywgMC4wMTUzMTU4Mjg4NDQ5MDQ5LCAtMC4xODg5NjUwOTcwNjk3NDAzLCAtMC4wNjg5ODA2MTkzMTEzMzI3LCAwLjQ5NjYyODU1MjY3NTI0NzIsIC0wLjA4OTU3OTk0NzI5MjgwNDcyLCAwLjQyODI3OTg0NjkwNjY2MiwgLTAuMDE1MTA4NDkyMjI1NDA4NTU0XSwgWzAuMTYwODI5OTMxNDk3NTczODUsIC0wLjAxMjIxMTI0NTQ4NDY1MDEzNSwgMC4wMTcwNTc4Mjg2MDUxNzUwMiwgMC4xMDE3NzUwNjUwNjQ0MzAyNCwgMC4wNDAzMDAyNjEyMjkyNzY2NiwgLTAuMDU2NTc2NTk4NDM1NjQwMzM1LCAwLjI1NzgzMTg3MTUwOTU1MiwgLTAuMDk5NDYxNTQwNTc5Nzk1ODQsIDAuMDM0MzA3ODU2MTEyNzE4NTgsIC0wLjI2NzU0MTk0NDk4MDYyMTM0LCAwLjAyOTMzNzU5MDU2MDMxNzA0LCAwLjAyODM1OTgwNDMwMjQ1Mzk5NSwgMC4xMTk1NjQ4NzU5NjAzNTAwNCwgMC4yMzc1ODE5Mzg1MDUxNzI3MywgMC4zMjg4ODk5MDY0MDY0MDI2LCAtMC4wMjc1NDg0NzE0NjU3MDY4MjUsIDAuMzAwOTkxNzczNjA1MzQ2NywgLTAuMDQyODAwMDcyNTgwNTc1OTQsIC0wLjAyODY3NzI0NzQ2NDY1NjgzLCAwLjIxMzQ3NzA0NTI5NzYyMjY4LCAwLjAwMDIwODU2MzYzNjk4ODQwMTQsIC0wLjAxNTgxMjkwNTUwNTI5OTU2OCwgMC4wMzU2ODA4ODI2MzI3MzIzOSwgMC4wODEwMTg5MjQ3MTMxMzQ3NywgMC4wMTYyNjkyMjc0ODk4MjkwNjMsIDAuMTIwNzAxNTgxMjM5NzAwMzIsIDAuMDc3OTgwMDExNzAxNTgzODYsIC0wLjA1MTY3Nzg5MDEyMTkzNjgsIC0wLjE4MjY3ODI4MjI2MDg5NDc4LCAwLjAwNDkxMjg4MzA0MzI4OTE4NSwgLTAuMDA5OTMzNzYyMjUyMzMwNzgsIC0wLjU0MjU2OTEwMDg1Njc4MV0sIFstMS4xMzI5OTg5NDMzMjg4NTc0LCAwLjAwOTI4NzIwMDg2ODEyOTczLCAwLjE1NjE5OTY2Mzg3NzQ4NzE4LCAwLjAwMTYxODMzNzIzNTQxMzQ5MTcsIC0wLjA2MTQ4NTY4NTQwODExNTM5LCAwLjU2NTg0MDcyMTEzMDM3MTEsIDAuMjMxMzk0ODI3MzY1ODc1MjQsIDAuMDA4NjY2NTkyNjUwMTE1NDksIDAuMTEyNzk1NTY5MDAyNjI4MzMsIDAuMzIzMzcwOTkzMTM3MzU5NiwgMC4wMzk0MDA1NTE0NjgxMzM5MjYsIC0wLjE1NjkxMTI4MzczMTQ2MDU3LCAtMC4zMTEzOTg5MjMzOTcwNjQyLCAtMS43NTUwMjQ1NTIzNDUyNzU5LCAwLjI2MjEzMzY4NzczNDYwMzksIDAuMzMwNTUzNzQwMjYyOTg1MjMsIDAuMTI5Mzc2NjQ5ODU2NTY3MzgsIC0wLjA4OTMwNzczMjg4MDExNTUxLCAwLjA2ODk1OTMyNTU1MTk4NjcsIC0xLjU0NzYzMDY2NzY4NjQ2MjQsIC0wLjE3ODQzNzg1ODgxOTk2MTU1LCAwLjI4NDkwMjAzNjE5MDAzMjk2LCAtMC4xODk4OTU2ODk0ODc0NTcyOCwgMC4wNzg5ODQ4ODY0MDc4NTIxNywgMC4yMjgzMjE3OTA2OTUxOTA0MywgLTAuMDg2NTM5OTAxNzkzMDAzMDgsIC0wLjEyNjcxNjI1NjE0MTY2MjYsIDAuMjI0OTM3NzUxODg5MjI4ODIsIC0wLjIzNjAzOTQ1OTcwNTM1Mjc4LCAtMC4wMzA0NjAyODY4ODU0OTk5NTQsIC0wLjE0OTY3MDQyMjA3NzE3ODk2LCAwLjE0MDUwMjc2NTc3NDcyNjg3XSwgWy0wLjcyNDc3NDQ3OTg2NjAyNzgsIC0xLjEzNDMwMTE4NTYwNzkxMDIsIC0yLjM0NjU2NzYzMDc2NzgyMjMsIDAuMDQxNzI0NjQ0NjAxMzQ1MDYsIDAuNDg0NzA1Mjk5MTM5MDIyOCwgMC43Nzk2NDYwOTg2MTM3MzksIDAuNzE1MzQ1ODU5NTI3NTg3OSwgLTAuMjE5NzE5MTg2NDI1MjA5MDUsIC0wLjIzNTEyMzAwODQ4OTYwODc2LCAwLjIwMDU4MDAwMDg3NzM4MDM3LCAtMC4zNjQ3NzUwMzE4MDUwMzg0NSwgMy4zMzk1Mzk3NjYzMTE2NDU1LCAwLjk4NDY0NjY3Nzk3MDg4NjIsIDAuMDgyNTYyNDMxNjkzMDc3MDksIDAuODQwMjAyMzMxNTQyOTY4OCwgMC44MDk2MDk3MTExNzAxOTY1LCAtMC4xODAyNTMxNzc4ODEyNDA4NCwgLTAuODQ1MzI3MTk4NTA1NDAxNiwgLTEuMjYwMTg3NzQ1MDk0Mjk5MywgMC43ODkzMDA2ODAxNjA1MjI1LCAwLjc1ODIxNzU3MzE2NTg5MzYsIC0wLjEwOTI4NTY2NzUzODY0Mjg4LCAtMC4zOTUyMzUyMTA2NTcxMTk3NSwgMC41NzI4MjM3NjI4OTM2NzY4LCAwLjYwMjAzMzA3ODY3MDUwMTcsIC0xLjEyOTMyNDE5Nzc2OTE2NSwgMC45ODU2NDMyNjc2MzE1MzA4LCAtMC42NDE5ODcwMjU3Mzc3NjI1LCAtMS4xNTU3NTA3NTE0OTUzNjEzLCAwLjE4NTE3NjMxMjkyMzQzMTQsIC0yLjUyMDExNTEzNzEwMDIxOTcsIC0wLjQwMjMyNzg5NTE2NDQ4OTc1XSwgWy0wLjQwNTk1MDA2OTQyNzQ5MDIzLCAwLjE0NjgzMTEzOTkyMjE0MjAzLCAwLjI5MTMxMzE3MTM4NjcxODc1LCAtMC4zOTgzNDkwNDY3MDcxNTMzLCAtMC4xODY1MTUwNjMwNDc0MDkwNiwgLTAuMzYxMDg3MjYyNjMwNDYyNjUsIC0wLjA4MzA1MjM1MjA3MDgwODQxLCAwLjU2NTc0NTUzMjUxMjY2NDgsIDAuNjA0ODM2OTQwNzY1MzgwOSwgLTAuMjY3NDYyODQ5NjE3MDA0NCwgMC4zMzY0Mzg1MzY2NDM5ODE5MywgLTAuMTY5NTA4ODE0ODExNzA2NTQsIDAuMjc0NTM0MTY1ODU5MjIyNCwgLTAuNzExMjM2MjM4NDc5NjE0MywgLTAuMTg5NzAzNjI4NDIwODI5NzcsIC0wLjEyMDgzNDE3MTc3MjAwMzE3LCAtMC4yMzE3Mjk4OTQ4NzY0ODAxLCAtMC41NDI0MTYwOTU3MzM2NDI2LCAwLjM3MDg4MzgyMjQ0MTEwMTEsIDAuMTAxMDU5NDUxNjk5MjU2OSwgLTAuMDI0NTI3Nzg4MTYyMjMxNDQ1LCAwLjA1MTkwNTkwMDIzOTk0NDQ2LCAwLjQ3OTk4ODI3Njk1ODQ2NTYsIC0wLjIyMjg1MzgzOTM5NzQzMDQyLCAtMC43MjE0OTYzNDM2MTI2NzA5LCAtMC4wMzg3NzYxMzY5MzQ3NTcyMywgLTAuMTUyMTY3MzY0OTU0OTQ4NDMsIDAuNTM3NTk5NzQyNDEyNTY3MSwgLTAuMTg1ODk5MzE3MjY0NTU2ODgsIDAuMjM1MjkwNjE2NzUwNzE3MTYsIC0wLjMzNjA1MzQ5MDYzODczMjksIDAuNDE0OTgxMzY1MjAzODU3NF0sIFstMC45MTEwNTA3OTY1MDg3ODkxLCAtMC4wMDAzMDIzMTkxODIwODMwMTA3LCAwLjAzNTM0OTQ1ODQ1NjAzOTQzLCAtMC44MTM4MjcyNzYyMjk4NTg0LCAwLjEzNjk4NDk0NDM0MzU2NjksIDAuMDA5MjYyNTA3NzgxMzg2Mzc1LCAtMC4wMjE1OTUzNzE4ODcwODc4MjIsIDAuMjc4MzExOTA4MjQ1MDg2NjcsIDAuMzIxMTc0ODg5ODAyOTMyNzQsIC0wLjM0NjAzMzE1NTkxODEyMTM0LCAwLjMwNTEzMzU4MTE2MTQ5OSwgMC4wNjMwMDQ5MzMyOTc2MzQxMiwgLTAuMDc2MjMxNDM0OTQxMjkxODEsIDAuMDMzMzczNzU4MTk2ODMwNzUsIC0wLjA2ODMyNTAwNTQ3MTcwNjM5LCAwLjE1NjQxNDUzODYyMTkwMjQ3LCAtMC4xMzg0NjYwNjAxNjE1OTA1OCwgLTIuNjgwMTg4MTc5MDE2MTEzMywgMC43OTI4NDExMzY0NTU1MzU5LCAwLjAwNjg3OTI5Mjg5NDE1NDc4NywgLTAuMTQwNzY4Mjg5NTY2MDQwMDQsIDAuMDMzMzQ5MDc4MTQ4NjAzNDQsIDAuMzk0OTI1Mjk2MzA2NjEwMSwgLTAuOTk3Nzc1NjczODY2MjcyLCAtMS44Njc2NDY5MzI2MDE5Mjg3LCAwLjE2MjEyNjc5NDQ1NzQzNTYsIC0wLjA3Mzk4NTM1MzExMjIyMDc2LCAwLjE4NTk0Nzk1NDY1NDY5MzYsIDAuMTMyNDA3ODE0MjY0Mjk3NDksIDAuMjk2NDU3NDA5ODU4NzAzNiwgLTAuMTI5MDMyMjI0NDE2NzMyOCwgMC4xMDUwMDA1MTA4MTE4MDU3M10sIFstMC4yMTE1NjQwOTM4MjgyMDEzLCAtMC41MzIzMzU0MDA1ODEzNTk5LCAtMC4xODA0Mjk1MzMxMjM5NzAwMywgMC4xMzIxNzE3MzUxNjc1MDMzNiwgMC4yMjU1NjkyMTgzOTcxNDA1LCAwLjM2ODc3MDU2OTU2MjkxMiwgMC4zMDIzODY0NjI2ODg0NDYwNCwgLTAuMDYxNjIxMjMwMDk1NjI0OTI0LCAwLjA3OTgxMDg3MjY3Mzk4ODM0LCAtMC4xNjgwMTUzNjA4MzIyMTQzNiwgLTAuMTM3OTE3MTQ2MDg2NjkyOCwgMC4wMzE3Mzc4NDUzOTEwMzUwOCwgMC4zNzQyMDg1Mzk3MjQzNSwgMC4wODI4MTAxNzA5NDg1MDU0LCAwLjYyMDA5NDM1ODkyMTA1MSwgMC4xMjQwNDIxMDg2NTQ5NzU4OSwgMC4yMTEyOTIyMDcyNDEwNTgzNSwgMC4yOTg0NDUyMjQ3NjE5NjI5LCAwLjAxODYzNzcwNTU5NDMwMTIyNCwgMC4yMDQ0NjE4MTI5NzMwMjI0NiwgMC4wNTc4NjQxODE2OTczNjg2MiwgMC4yNzc3MjE4NTIwNjQxMzI3LCAtMC4wOTg0MjIwMjgxMjQzMzI0MywgLTAuMDc4MzIxNzEwMjI4OTE5OTgsIC0wLjAyOTEzODIwNzQzNTYwNzkxLCAtMC4xMDI3MTI2MzEyMjU1ODU5NCwgMC4yNDQ4NTI5NjAxMDk3MTA3LCAwLjEyOTQ1NDc0Njg0MjM4NDM0LCAtMC4zNTExOTYwNTA2NDM5MjA5LCAwLjE5MzI1MjM4NDY2MjYyODE3LCAtMC4yODA3MDc2NTczMzcxODg3LCAtMC4wNTA0OTYwOTc2NTQxMDQyM10sIFstMC4wNDE0NzczMDAyMjY2ODgzODUsIDAuMTE0NTM4NjM5NzgzODU5MjUsIC0wLjI2NjI2NzgzNjA5MzkwMjYsIDAuMTI1MTQ2NDE4ODA5ODkwNzUsIDAuMDYzMTkzOTM5NjI2MjE2ODksIDAuMTI2Nzk1OTYyNDUyODg4NSwgLTAuMTA4ODUzODkxNDkxODg5OTUsIC0wLjA2NzA2Mzc5MzU0MDAwMDkyLCAwLjAxOTQwMDA2MDE3Njg0OTM2NSwgMC4wNzAwODY4MTQ0NjMxMzg1OCwgMC4wNTk5NzM0MTEyNjIwMzUzNywgLTAuMTczMTAzMzAyNzE3MjA4ODYsIDAuMTA3MDAzMjExOTc1MDk3NjYsIDAuMTk2OTE3MDU3MDM3MzUzNTIsIC0wLjE2MjA5MDMzMTMxNTk5NDI2LCAwLjA2MTk3OTkwMTA0NTU2MDg0LCAwLjAyMTMwMTkyNTE4MjM0MjUzLCAwLjMxNDg1MzI4MDc4MjY5OTYsIDAuMDQwMTA1MzI3OTYzODI5MDQsIDAuMTYzNTU2NTQ1OTcyODI0MSwgLTAuMDY0OTc1NDAzMjQ5MjYzNzYsIDAuMDE1NzYxNjYwNDExOTUzOTI2LCAtMC4wNDMzMjkzNDY5MjUwMjAyMiwgLTAuMDEwMTUxMjc4MjI3NTY3NjczLCAtMC4wMDM4MTM5ODYyMDA4MzkyODEsIC0wLjUzMzc3NzIzNjkzODQ3NjYsIDAuMTEzODMwODE5NzI1OTkwMywgMC4wMzAyOTkwODA1MzU3Njk0NjMsIDAuMzQ1Njk5OTY1OTUzODI2OSwgLTAuMjExNDEwMjA5NTM2NTUyNDMsIDAuMTg3NDA2ODIzMDM5MDU0ODcsIC0wLjE5MjgwNjYwMTUyNDM1MzAzXSwgWy0wLjExMjI1MDIyMzc1NTgzNjQ5LCAwLjE2MDU2MjgxMzI4MjAxMjk0LCAtMC4xMzA5MzEwOTQyODg4MjYsIC0wLjAyNDk1MjAzMTY3MjAwMDg4NSwgLTAuMDk0MDE2ODA1MjkxMTc1ODQsIC0wLjE0NzYyMDczNzU1MjY0MjgyLCAwLjA4NzUyNzA1MTU2ODAzMTMxLCAwLjAwNDY4MjE0MDg5MDUwODg5LCAtMC4wMDMxODkzMTc4ODIwNjEwMDQ2LCAwLjA4Mjc5Nzk4MTc5ODY0ODgzLCAwLjEzNjU0Mjg1NjY5MzI2NzgyLCAtMC40MDA4NzU4MDY4MDg0NzE3LCAwLjA5OTUzOTIyMDMzMzA5OTM3LCAtMC4wMjkxMDUwODU4Nzk1NjQyODUsIC0wLjE1OTQxNzQ4MDIzMDMzMTQyLCAtMC4wNjI2MTMwOTIzNjI4ODA3LCAwLjIyOTMzMTI1NDk1OTEwNjQ1LCAwLjEwNDI1NzY0MzIyMjgwODg0LCAtMC4wNjc5MzI0MDQ1Nzc3MzIwOSwgMC4wOTY5OTcwNjczMzIyNjc3NiwgMC4wMjIzMDM5ODcyOTQ0MzU1LCAwLjAyMDMxMjM3NjMyMDM2MjA5LCAwLjAyNzQ4OTEyMDE0MDY3MTczLCAwLjEyODIzMTAwMzg4MDUwMDgsIDAuMTIzODU3ODQwODk1NjUyNzcsIC0wLjM1NzM4ODUyNjIwMTI0ODE3LCAwLjA0MjkwMzE2OTk4OTU4NTg3NiwgLTAuMDM1MDY1OTM0MDYyMDA0MDksIDAuMDM0MjY1OTAxODkzMzc3MzA0LCAtMC4xMTY5MjMyOTQ5NjE0NTI0OCwgMC4xMDE3NTA0NzgxNDg0NjAzOSwgMC4xMTM4ODY3NzM1ODYyNzMyXSwgWy0wLjM2MzYxODkxMDMxMjY1MjYsIDAuMjU0MTQ1ODYwNjcxOTk3MDcsIC0wLjA4MDg0MTgzOTMxMzUwNzA4LCAtMC41NDQ0NzQ0ODI1MzYzMTU5LCAwLjI0NDM5NDYzMDE5MzcxMDMzLCAwLjUzMDcxMTgyOTY2MjMyMywgLTAuMDAxMDEwOTkxODY1NzY5MDI4NywgMC4yNDYxMzIyNTQ2MDA1MjQ5LCAwLjU4NzY4NDAzNTMwMTIwODUsIC0wLjI2MDIwNTQ0NzY3Mzc5NzYsIDAuMDAzMTk3NTU5MTU1NTIzNzc3LCAtMC4xMTM3NzM1MDk4NjAwMzg3NiwgLTAuMDI4OTExNjU3NjMxMzk3MjQ3LCAtMC40MDYzNjQ3Mzg5NDExOTI2LCAwLjQ0ODU5NzAxMzk1MDM0NzksIDAuMjU1NTE2NDk5MjgwOTI5NTcsIDAuMDUyMzkzOTIwNzE5NjIzNTY2LCAtMC45MTI2MzQzNzI3MTExODE2LCAwLjM2MjMzNzIzMTYzNjA0NzM2LCAwLjAxMDE4NDkyODc3NDgzMzY4LCAwLjIyNDAwNjc3MjA0MTMyMDgsIDAuMjgxODcxMjU5MjEyNDkzOSwgMC4zNDI2MjQ2MDQ3MDE5OTU4NSwgLTAuNDYyMDIwNzU0ODE0MTQ3OTUsIC0wLjY4NDg4MDAxODIzNDI1MjksIDAuNDExOTI2MDkwNzE3MzE1NywgLTAuMTM1NTA4NDYyNzg2Njc0NSwgMC4wMzg4ODYzOTA2MjY0MzA1MSwgMC4xNjAyODk4ODM2MTM1ODY0MywgMC40MzY5ODE0NjkzOTI3NzY1LCAwLjAxOTIwODk3NTEzNjI4MDA2LCAwLjI5MjEzNDIyNTM2ODQ5OTc2XSwgWzAuMDMwMjc1ODMwOTk5MDE2NzYyLCAtMC42ODk3NDgxMDgzODY5OTM0LCAtMC40NjYwMDEwMDM5ODA2MzY2LCAwLjA0MDI4NzM0MTkyMjUyMTU5LCAtMC4xNzI0ODcxMzk3MDE4NDMyNiwgLTAuMTg3NjYxNjc3NTk4OTUzMjUsIDAuMDY0MjAxNTQ4Njk1NTY0MjcsIDAuMDYxMjMzNjQ3MTY3NjgyNjUsIDAuMDE2MzcyMTk2Mzc2MzIzNywgMC4yMTYzMzQyODMzNTE4OTgyLCAtMC4xMTc5NDI5NTkwNzAyMDU2OSwgLTAuMjI2MjgwNTg0OTMxMzczNiwgLTAuMDk1MjUwNDg3MzI3NTc1NjgsIC0wLjAxMTc5MjA3Mzk1NzYyMjA1MSwgMC4wNDg1OTk3MTI1NTA2NDAxMDYsIC0wLjIyNDMwMjQ4NTU4NTIxMjcsIC0wLjU5ODAyOTAxNzQ0ODQyNTMsIDAuMTQ5NzE2MTk4NDQ0MzY2NDYsIC0wLjAxNzcwMDkyOTE5NDY4ODc5NywgLTAuMDUxNzk4MjMxODk5NzM4MzEsIDAuMDYwMDMwODU1MjM4NDM3NjUsIDAuMDI4NjgwNTc0MTQ4ODkzMzU2LCAtMC4wNzE5NDgxMTg1MDc4NjIwOSwgLTAuMTE5OTIzMTgxODMxODM2NywgMC4yNzc3OTI2MzI1Nzk4MDM0NywgLTAuMzE2MDYzODgwOTIwNDEwMTYsIDAuMDYwNTU3NzYwMjk4MjUyMTA2LCAtMC4wNzQwNjQ2OTQzNDQ5OTc0LCAtMC43NDU3MTg0MTk1NTE4NDk0LCAtMi40MjYwNjYyMDMwNDI4NjQ4ZS0wNSwgLTAuNzA2MjM4NjI3NDMzNzc2OSwgMC4wNjg2NTE0NzUwMTIzMDI0XSwgWy0wLjE4MTA3Mjc0MTc0NjkwMjQ3LCAwLjA4NDI2MDQyNjQ2MTY5NjYyLCAwLjAxNDUzMzc3MTIwMTk2ODE5MywgMC4xOTY3MTE0NTA4MTUyMDA4LCAwLjAwNzIzNzYyNTMwODMzNDgyNywgMC4wMDY3MjAxMzYzODU0MTEwMjQsIDAuMDA3MjA1OTc1MjQxOTU5MDk1LCAtMC4wNTY2NTM0Njk4MDA5NDkxLCAwLjAzMDUyNTU4Mzc3Mzg1MTM5NSwgLTAuMDIyMzQzODgxNDI4MjQxNzMsIDAuMDA1MDA1OTk2MjA4NjM3OTUzLCAwLjA3MTIzNDc3NzU2OTc3MDgxLCAwLjExNjk2ODcyODYwMTkzMjUzLCAwLjAxNjM4MzE0MTI3OTIyMDU4LCAtMC4wMTE0NjM0MzI1NzI3ODIwNCwgMC4wMjU5MDE3NzIwODE4NTE5NiwgLTAuMTE0OTY3Mzc1OTkzNzI4NjQsIC0wLjA2MTIyMDI1MTAyMzc2OTM4LCAtMC4wMDI4NDA2MzgxNjA3MDU1NjY0LCAtMC4wMTc3MDkzNDI3NjI4Mjc4NzMsIDAuMDIwOTAyNTQ5ODQ3OTYwNDcyLCAtMC4wMDcwNTA4MzY0NTg4MDIyMjMsIDAuMDA0NTU3NDQ3NTA3OTc3NDg2LCAtMC4wMzAwNTI3NTEzMDI3MTkxMTYsIDAuMDcxODUxMDUyMzQzODQ1MzcsIDAuMTA4Mjc1MzM5MDA3Mzc3NjIsIC0wLjA4NDM0MTg4MzY1OTM2Mjc5LCAwLjAwMTAzOTEwNjYzMTY1MTUyMDcsIDAuMDU3NzIzNzkwNDA3MTgwNzg2LCAwLjA5NzE4NzM5OTg2NDE5Njc4LCAtMC4wNDc4MzA1MjIwNjAzOTQyOSwgLTAuMDA3NjA4NDg2MzM5NDQ5ODgyNV0sIFstMC4wMjM2OTM0NjI4MzM3NjIxNywgLTAuMTI0MjQzMTQwMjIwNjQyMDksIC0wLjE4NTk0NTg5ODI5NDQ0ODg1LCAwLjAxMTQyOTEwNTg4NTMyNjg2MiwgLTAuMDA3MTcyODM1MDU5NDYzOTc4LCAtMC4wMTUyMjE0NzI4Mjk1ODAzMDcsIDAuMDMyODg4NDcyMDgwMjMwNzEsIDAuMDk0MjMzMTg1MDUyODcxNywgMC4wMDE1NzU0MzUzOTUzNTI1NDI0LCAtMC4wMTUyMTU5OTEwNjQ5MDYxMiwgMC4wMDEzNjg1MzE0OTE2MDc0Mjc2LCAtMC4xODI5NjQwMTIwMjY3ODY4LCAtMC4wMDU0MTg1MDgzMTM1OTYyNDksIDAuMDIwNTAwOTY5MTQxNzIxNzI1LCAwLjAwMzk2MDcyMjEyNjA2NjY4NSwgLTAuMDEwMDY1MDgyNDYwNjQxODYxLCAtMC4wMDQ5MDQwMDk0MDE3OTgyNDgsIC0wLjA2MTM3Nzc2NzQ3MzQ1OTI0NCwgMC4wMDI0ODYwMjkxNzQxNzg4Mzg3LCAtMC4wMDU3Mjg2MTU0NDc4Nzg4MzgsIDAuMDIwNzU3NjcxNDQ1NjA4MTQsIC0wLjAwOTA3MjY3NDQzODM1NzM1MywgLTAuMDEwMTE3ODM4MTU5MjAzNTMsIDAuMDY0NjQ1MTc4NjE2MDQ2OSwgLTAuMDg1MTkxMzMxODAzNzk4NjgsIC0wLjAxNzUxMDI0Mjc2MDE4MTQyNywgMC4wMDMyNzY2NDI0MTE5NDcyNTA0LCAtMC4wMDE5OTUxNzk1NjkzNDg2OTMsIC0wLjExNDUzMzM3MjIyMzM3NzIzLCAtMC4xMDg4NTY4ODY2MjUyODk5MiwgMC4wMjE3MTk1NTI1NzY1NDE5LCAwLjAwNzgxNDUyNTYyNjU5OTc4OV0sIFstMC4xNTA3NTI0MjUxOTM3ODY2MiwgLTAuMDEwMDMzMDU1MjA4NjIzNDEsIC0wLjAzMjU2MjM5NzQyMDQwNjM0LCAtMC4xODcwMzQ3ODU3NDc1MjgwOCwgMC4wNDk2NTk5MDAzNjcyNTk5OCwgMC4wMzEwNTYxOTM2MzQ4Njc2NjgsIDAuMDg4NDgwODMwMTkyNTY1OTIsIC0wLjA4NDQ4MDkyNjM5NDQ2MjU5LCAwLjA2NTMzNjI3MjEyMDQ3NTc3LCAwLjAzMTM1MTkxNjQ5MTk4NTMyLCAwLjE0MzMwOTE0NjE2NTg0Nzc4LCAwLjA2NDAwMzMyNTk5ODc4MzExLCAwLjA0OTQzMDI2NjAyMjY4MjE5LCAwLjE1NDM4NTMyODI5Mjg0NjY4LCAwLjE1ODU4NDU2NDkyNDI0MDEsIDAuMDM5MTQzNDA1ODU0NzAxOTk2LCAwLjAyODk5ODIxNDc1MTQ4MjAxLCAtMC4wNTUwNjkyNjc3NDk3ODYzOCwgMC4wMzU5ODgzOTQxNzA5OTk1MywgLTAuMTEwNTIxNDk1MzQyMjU0NjQsIC0wLjA4NTI5Njk3MzU4NjA4MjQ2LCAwLjAzNjQ4NDkxMjAzNzg0OTQyNiwgLTAuMDA0MzUzODg2OTM1ODU5OTE5LCAwLjA4NDE2ODkzMzMzMTk2NjQsIC0wLjE1OTY1OTM1NTg3ODgyOTk2LCAwLjA2MDYzMjY0NjA4MzgzMTc5LCAwLjA3Njk4ODYzNzQ0NzM1NzE4LCAtNi4zMDczMzU1NzA0NTQ1OTdlLTA1LCAtMC4wODY3Nzk0MDA3MDYyOTEyLCAwLjE5NjcwOTMzNDg1MDMxMTI4LCAtMC4wMzA0NTcyNjk0MDAzNTgyLCAtMC4wODMwNjEwODQxNTEyNjhdLCBbMC4zOTI3MTEyODE3NzY0MjgyLCAwLjAwMDIyMjM5Mzc3NzIyMTQ0MTI3LCAwLjA1MTgxNTgwMDM2ODc4NTg2LCAwLjM2OTQ0MDAxOTEzMDcwNjgsIC0wLjI5MDc0NjgzNzg1NDM4NTQsIC0wLjY0MzQ0MTYxNzQ4ODg2MTEsIC0wLjA3MDY3Njk1MjYwMDQ3OTEzLCAtMC4wMzYwNzI0MTQzNjgzOTEwNCwgLTAuNjUyODI5ODI1ODc4MTQzMywgMC4yNTY3NzgwMDE3ODUyNzgzLCAtMC4wMjU0ODg0MDI2OTQ0NjM3MywgLTAuMDE5OTMwNDIwNDQzNDE1NjQyLCAtMC40MzY2MjkyOTUzNDkxMjExLCAwLjEwNDU1ODMxODg1MzM3ODMsIC0wLjU5MjMwMTk2NDc1OTgyNjcsIC0xLjA0NzMzMzI0MDUwOTAzMzIsIC0wLjAxNDI5NTEzMjgzMDczOTAyMSwgMS4wNjQxMzY5ODE5NjQxMTEzLCAtMC4xMzQzNDYyNjE2MjA1MjE1NSwgLTAuMTczMjAwODQ1NzE4MzgzOCwgLTAuNDIxNDkyNjk1ODA4NDEwNjQsIC0wLjEwMTE0OTgxOTc5MTMxNjk5LCAtMC4zMDgwNTE2NzU1NTgwOTAyLCAwLjAxNTQ1MzgzNDA4NjY1NjU3LCAwLjI4NzI0MDk4MjA1NTY2NDA2LCAtMC4xMTk4NjY3NzM0ODYxMzczOSwgLTAuMDUxMTc5NDk0NzA4Nzc2NDc0LCAtMC4xMjU0NjI5NzkwNzgyOTI4NSwgMC4xNDQ5ODE0ODg1ODU0NzIxLCAtMC41ODI2NzI3NzQ3OTE3MTc1LCAtMC4wMjQwNjA4ODYzNTMyNTQzMTgsIC0wLjM2OTE0OTU2NTY5NjcxNjNdLCBbMC4zMzY2NTAzMTE5NDY4Njg5LCAwLjIxODk3NDU2MDQ5OTE5MTI4LCAtMC4wOTc3MDE5MjIwNTkwNTkxNCwgMC44NTY4NjkzOTk1NDc1NzY5LCAtMC4zNjgwNTM0OTU4ODM5NDE2NSwgLTAuMDYwOTQ2MTQ0MTYzNjA4NTUsIDAuMTQ2MDc4NjQ2MTgzMDEzOTIsIC0wLjQ4Nzk1NzA2MDMzNzA2NjY1LCAtMC44MTgwNjE0NzA5ODU0MTI2LCAwLjU0NTgyOTE3NjkwMjc3MSwgLTAuMTUyMTYzMDQzNjE4MjAyMiwgMC4wNDYzNzI0NTgzMzg3Mzc0OSwgLTAuNDE2MDg3OTg1MDM4NzU3MywgLTAuMDI4NTYyODEyMTM0NjIzNTI4LCAtMC41MzQ0MTc0NTA0MjgwMDksIC0wLjg3OTk1NjAwNzAwMzc4NDIsIDAuMDQwMjg4MjA5OTE1MTYxMTMsIDEuMjM3MDAzMzI2NDE2MDE1NiwgLTAuMjczMDI3MzMwNjM2OTc4MTUsIDAuMDEyMTczNDA4NjQyNDExMjMyLCAtMC41NjM0MjIwODM4NTQ2NzUzLCAtMC4zMzM4MjM0NzIyNjE0Mjg4MywgLTAuNTU1MDQ0NTMxODIyMjA0NiwgMC4zMTYxMzIzNjY2NTcyNTcxLCAwLjYxMjQyMzcxNzk3NTYxNjUsIC0wLjQzMzg4Mzc4NjIwMTQ3NzA1LCAtMC4yNDI1ODUxNTIzODc2MTkwMiwgLTAuMjk3MTcwNTE5ODI4Nzk2NCwgLTAuMDk0MzA1OTkyMTI2NDY0ODQsIC0wLjgwMTgxNjQ2MzQ3MDQ1OSwgLTAuMDgyNDQ4MjI5MTkzNjg3NDQsIC0wLjQ5NzU0MjE0Mjg2ODA0Ml0sIFswLjI4NDI2OTg2OTMyNzU0NTE3LCAwLjEwOTI5NTk4NjU5Mjc2OTYyLCAwLjA0MjA3MjYzODg2OTI4NTU4MywgMC4xNTQ1OTgwODcwNzIzNzI0NCwgLTAuNjkyOTE2MzkzMjgwMDI5MywgLTAuNzI2MjEzMDk3NTcyMzI2NywgLTAuMTQ5ODk2MDI1NjU3NjUzOCwgLTAuMDkwMTgzMzkyMTY3MDkxMzcsIC0wLjU0MDM5NDcyMzQxNTM3NDgsIDAuMDA1NTEwNzgyODIyOTY2NTc2LCAtMC4wOTM0NTUyOTk3MzUwNjkyNywgLTAuNTI2NzQzNDEyMDE3ODIyMywgLTAuMTcxNTY5NzA1MDA5NDYwNDUsIC0wLjM1NzQ0MjM3ODk5NzgwMjczLCAtMC44NTI0MDE2MTQxODkxNDgsIC0xLjMzMDM1NjgzNjMxODk2OTcsIDAuMDM4MjM4NTk2MTcxMTQwNjcsIDAuNTA3MTY2OTIyMDkyNDM3NywgLTAuMDIwNjM1MDIzNzEzMTExODc3LCAtMC4xNjEyMjg3NzU5NzgwODgzOCwgLTAuMDQ1NTE0NjEzMzg5OTY4ODcsIC0wLjIwNjI2NjE3OTY4MDgyNDI4LCAtMC4wMDkyNzAyMjI4NTc1OTQ0OSwgMC4wMjk1MTU4MjE0ODY3MTE1MDIsIDAuMDM2MzAyNDkyMDIyNTE0MzQsIC0wLjA1NzEzNjU2MTcyMTU2MzM0LCAtMC4wNzgxMDk5Mjc0NzU0NTI0MiwgMC4xNDAzMTI4MjA2NzI5ODg5LCAwLjA4OTY4NjIxNDkyMzg1ODY0LCAtMC4zODk5OTU5OTIxODM2ODUzLCAtMC4xMzU2NDc0NDU5MTcxMjk1MiwgMC4yMTAzNTQ2MTEyNzc1ODAyNl0sIFstMS43NTgyNzc1MzU0Mzg1Mzc2LCAtMC4xNTE0MzI1MTQxOTA2NzM4MywgMC4xODc4Njk0NzQyOTE4MDE0NSwgMC4xNTU5ODA3NjU4MTk1NDk1NiwgMC4wMTcyNTU0NzAxNTY2Njk2MTcsIDAuMzg4OTgyNTM0NDA4NTY5MzQsIC0wLjAyMzE0MTMwNTg5MzY1OTU5LCAtMC4yNzk4NTAwNjU3MDgxNjA0LCAwLjA1NTIwMjEwNDE1MTI0ODkzLCAwLjE4OTAwNTA0NzA4MjkwMSwgMC4yMDk3ODIzMDIzNzk2MDgxNSwgLTAuMjE0ODAzNDg3MDYyNDU0MjIsIC0wLjE5OTgwMTgwMjYzNTE5Mjg3LCAtMC40MzcyNzk4MjA0NDIxOTk3LCAtMC4wMjAxNzA1MTM1NDA1MDYzNjMsIC0wLjAwODg1NzAxMDg2MzcyMTM3LCAtMC4xNzc0NTc4ODM5NTQwNDgxNiwgMC4wNDMyMjM3NjEwMjIwOTA5MSwgMC4xMDQ5OTk1NTcxMzc0ODkzMiwgLTEuNzMzNzY0ODg2ODU2MDc5LCAtMC4wMTA5MTY1MzQ4MTEyNTgzMTYsIDAuMDE3OTg1NzA5MDExNTU0NzE4LCAtMC4wNTgwNjA0Mjk5OTAyOTE1OTUsIDAuMDI5OTMwMTkyOTc3MTkwMDE4LCAwLjE2OTIwMjA4OTMwOTY5MjM4LCAtMC41MjQzMTkyOTExMTQ4MDcxLCAtMC4xMzQ5ODk0NDA0NDExMzE2LCAwLjAxODE3MTA3MjAwNjIyNTU4NiwgLTAuMDY2NDQwMzczNjU5MTMzOTEsIC0wLjAxMTk4NTA2MzU1Mjg1NjQ0NSwgMC4xMTIwNzEwMjk4NDE4OTk4NywgMC4wMDcyODc4Mzk4OTMyNTE2NTc1XSwgWy0wLjgxMTQ0MjEzNjc2NDUyNjQsIC0wLjQ4NzcwMTUwNTQyMjU5MjE2LCAwLjI2ODQ4Mjc3NDQ5NjA3ODUsIC0wLjIwMDk0OTgxNzg5NTg4OTI4LCAwLjE1NDc3ODI0MjExMTIwNjA1LCAwLjEwNTA2NDEwODk2Nzc4MTA3LCAwLjE3NjUzMTczMjA4MjM2Njk0LCAwLjExMzM5MzgyODI3MjgxOTUyLCAtMC4wNzIyMzkzMTY5OTk5MTIyNiwgLTAuMjQyMzA5NzkzODI5OTE3OSwgMC42MjI2NDMzNTE1NTQ4NzA2LCAtMC4yNzA2MjMwODc4ODI5OTU2LCAtMC4wNjUwODMwMDQ1MzQyNDQ1NCwgLTAuMDQwODkwOTA5NzMxMzg4MDksIDAuMDEwNzU3ODQ4NjIwNDE0NzM0LCAwLjAzNDI3NzUzMjI0OTY4OTEsIC0wLjQ3NzUwMTMwMjk1NzUzNDgsIC0wLjczNzg5NTg0NjM2Njg4MjMsIC0wLjQzMDg2NjI0MTQ1NTA3ODEsIDAuMDY5MDkwMzE0MjA5NDYxMjEsIDAuMDA5OTgwNzkwMzE3MDU4NTYzLCAtMC4wNzExNDkzNDkyMTI2NDY0OCwgMC4xNDUxNDI3NjM4NTMwNzMxMiwgLTAuMzUwNzcyNzk4MDYxMzcwODUsIC0wLjQ3NjAzMzAwMjEzODEzNzgsIC0wLjEzMjMwNzk3NjQ4NDI5ODcsIDAuMDMxMDU1OTM2NTg5ODM3MDc0LCAwLjcxMDM5Mzk2NTI0NDI5MzIsIC0wLjI0MDQxMDk4MzU2MjQ2OTQ4LCAwLjUyMzc1NTU1MDM4NDUyMTUsIDAuNjQwODQ0NTgzNTExMzUyNSwgMC4xNjI5NTcxMDIwNjAzMThdLCBbLTAuNTQ5MjA4ODc5NDcwODI1MiwgMC4xMzUzMDg3NDI1MjMxOTMzNiwgLTAuNDEzMzU4ODM3MzY2MTA0MSwgLTAuMTM4OTM0NjQyMDc2NDkyMywgMC4xMjY4MDk1NjcyMTMwNTg0NywgLTAuMDgzMDcxNzY4MjgzODQ0LCAwLjE2NjM1MzQ5MzkyODkwOTMsIDAuMjE2OTgzOTczOTc5OTQ5OTUsIDAuMjIzOTc3MTkzMjM2MzUxLCAtMC4xOTc1NDQ4NzI3NjA3NzI3LCAtMC4zMDg1NTk4OTQ1NjE3Njc2LCAtMC4xMjI5MDIyMzY4Nzg4NzE5MiwgLTAuMTQxNTc2NzY2OTY3NzczNDQsIC0wLjMwNjA1MjE3ODE0NDQ1NDk2LCAwLjEwNTIyNzk2MjEzNjI2ODYyLCAwLjA1NTYxNzY4MjYzNTc4NDE1LCAtMC4xMzg0NDU4NTQxODcwMTE3MiwgLTAuMjg3MTQ0NDUyMzMzNDUwMywgMC41ODkwOTU5NTAxMjY2NDgsIDAuMzY5NTE5MTE0NDk0MzIzNzMsIC0wLjA5OTEzNjMzNzYzNzkwMTMsIDAuMjc5MjcxMzY0MjEyMDM2MTMsIDAuMjEyODMyNjU5NDgyOTU1OTMsIC0wLjI3NzQxODQ5NDIyNDU0ODM0LCAtMC4zNDA2MTE0NTc4MjQ3MDcwMywgMC4xMjE1NzIzNzUyOTc1NDYzOSwgLTAuMjY2NjU0NTUxMDI5MjA1MywgLTAuMzIyMzUzNjMxMjU4MDEwODYsIC0wLjExODY4NTA1MTc5ODgyMDUsIDAuMTQ2NzkzNzA4MjA1MjIzMDgsIC0wLjA3MDgyNjk1NTEzOTYzNywgMC4yMTIyMDAyNTQyMDE4ODkwNF0sIFstMC4wNzg4MjU4MzE0MTMyNjkwNCwgLTAuMDkxODA2NjI3ODEwMDAxMzcsIC0wLjA2ODk4ODg5NjkwNjM3NTg5LCAwLjAxNTkzNjExMzg5Mzk4NTc1LCAwLjA0MDkwMDkzMDc2MjI5MDk1NSwgLTAuMDQ0MzAwMjY1NjEwMjE4MDUsIC0wLjAzMTQ5NTU2NzQxMTE4NDMxLCAwLjAwNzIxNTg0ODE5MjU3MjU5NCwgMC4wMjAzNDE2NjgyNzc5Nzg4OTcsIC0wLjExNjIxNDYzMjk4Nzk3NjA3LCAtMC4yMDM1MTgwMDMyMjUzMjY1NCwgLTAuMTU0MTQ5NTc3MDIxNTk4ODIsIC0wLjAwMDY5NDE5NzYwMjU3MDA1NjksIC0wLjAxMTAxMzIyNDcyMDk1NDg5NSwgMC4wMzA2OTM3MDIzOTk3MzA2ODIsIDAuMDE1NzM1MjIyMDI2NzA1NzQyLCAtMC4xOTQ1MDg0OTI5NDY2MjQ3NiwgLTAuMTI4MTIzMTY0MTc2OTQwOTIsIC0wLjQyNjMzOTM4Nzg5MzY3Njc2LCAtMC4wMjg1MjkzOTYyODA2NDYzMjQsIDAuMDYyNDk5ODI4NjM2NjQ2MjcsIDAuMDQ2NjIxMTUxMjY4NDgyMjEsIDAuMDA4MjMyNDM2MTQyODYxODQzLCAwLjA0NjE5OTQ4NTY1OTU5OTMwNCwgLTAuNDE0Mzk1Njg5OTY0Mjk0NDMsIDAuNDIwNjg5NTIzMjIwMDYyMjYsIDAuMDE0MTA5OTY0NDgyNDg2MjQ4LCAwLjA4NjI1MDk5MDYyOTE5NjE3LCAwLjAzNzY0NjcwMzQyMjA2OTU1LCAtMC4xNjA0NjE3OTgzMTAyNzk4NSwgMC4wOTgwNDIxMTU1NjkxMTQ2OSwgMC4xMDM3OTYxOTg5NjQxMTg5Nl0sIFswLjAxNDU0MzEwNzcxMDc3ODcxMywgMC4xMzA3ODAyNzk2MzYzODMwNiwgLTAuMTAyNzYyNTk0ODE5MDY4OTEsIDAuMDc4ODYyMDQxMjM0OTcwMDksIDAuMjEwNDY2ODYxNzI0ODUzNTIsIDAuMTA1MzA4NjUxOTI0MTMzMywgMC4wOTM3MjkyMTI4ODAxMzQ1OCwgMC4yNjg1NDczMjYzMjYzNzAyNCwgMC4xMTUzMDc4NTI2MjU4NDY4NiwgMC4xNDI4ODEzMzM4Mjc5NzI0LCAwLjM1NTM3NTg4NTk2MzQzOTk0LCAwLjI3NjM2ODU1ODQwNjgyOTgzLCAwLjMxNzgzNjA3NjAyMTE5NDQ2LCAwLjEwNjE0OTMzMDczNTIwNjYsIDAuMTQ2ODM5MDgyMjQxMDU4MzUsIDAuMTEzNDY5NzA0OTg1NjE4NTksIC0wLjA2NzY5NzE0NTA0NDgwMzYyLCAtMC4wNzI5MDI1Mzc4ODIzMjgwMywgMC40MDQ3NjA2NTg3NDA5OTczLCAwLjEyOTk0NTAwOTk0NjgyMzEyLCAwLjI2NjkxODc3ODQxOTQ5NDYzLCAwLjUxMTkzMTQxOTM3MjU1ODYsIDAuMDAwMjE0MDM1NjIyNzc1NTU0NjYsIDAuMjc4MTUxNzUwNTY0NTc1MiwgMC4wMjM0NzM3NzY4NzY5MjY0MjIsIC0wLjE3ODU5NTU0MjkwNzcxNDg0LCAwLjA3NjcwNDA5MjMyMzc4MDA2LCAwLjM3MjYyNDAzOTY0OTk2MzQsIC0wLjAzNTIzMTM0NDQwMTgzNjM5NSwgMC4yMzE3OTMwMzEwOTY0NTg0NCwgMC4wMDA3MDYwNzcwODc2NzA1NjQ3LCAtMC4zODE5Mzg2MDY1MDA2MjU2XSwgWzAuNTM3OTEwODE5MDUzNjQ5OSwgMC4xNTU1NTM5ODE2NjE3OTY1NywgMC4wMTU1Mjc3MDQ3MzA2Mjk5MjEsIDAuMDE5MjA4MTcwNDczNTc1NTkyLCAtMC40NjI1Nzk1NzgxNjEyMzk2LCAtMC43MzE3NzQ3NDczNzE2NzM2LCAtMS4wMjg1MjY0MjUzNjE2MzMzLCAwLjEzMDE3MzkyMTU4NTA4MywgLTAuMzExOTUxNDI4NjUxODA5NywgLTAuMDYyOTY2NzYzOTczMjM2MDgsIC0wLjExNzk4MzM1NjExODIwMjIxLCAtMC4xNzc4NDUwMDEyMjA3MDMxMiwgMC40MzA3Mjc4NjkyNzIyMzIwNiwgLTAuMDQ5NzAxNzgzODA2MDg1NTksIC0xLjM2NDQ4NDMxMDE1MDE0NjUsIC0wLjM0ODUzNzIwNjY0OTc4MDMsIDAuMTUzMzU1MTIxNjEyNTQ4ODMsIDAuNzE2NjA2Nzk1Nzg3ODExMywgLTAuMDk1MzY5MzI0MDg4MDk2NjIsIC0wLjQwMDU4OTUyNTY5OTYxNTUsIDAuMjk5MjIwOTE5NjA5MDY5OCwgLTAuMDMzOTk3ODIyNTUyOTE5MzksIDAuMzMzMzQ5NDY2MzIzODUyNTQsIDAuNTc2ODYzODg0OTI1ODQyMywgMC4xMjA1NzIxMDUwNTAwODY5OCwgMC4yMzE1NTk4NTc3MjYwOTcxLCAwLjExMTE1NDMxNzg1NTgzNDk2LCAwLjEzNjg5NzEwMTk5ODMyOTE2LCAwLjEzMTgwNTMwMDcxMjU4NTQ1LCAtMC4xODA5ODMxNTU5NjU4MDUwNSwgLTAuMjM1MzkyOTU3OTI1Nzk2NSwgMC4xMTY1NjIzODEzODY3NTY5XSwgWzAuMjUwNTgyMDM5MzU2MjMxNywgLTAuMTU0NzUzOTgzMDIwNzgyNDcsIC0wLjA0Mjg3MzU4MzczNDAzNTQ5LCAwLjEyMTQ5NTQzMzE1MTcyMTk1LCAwLjUyMzIxNjk2MjgxNDMzMSwgMC4xMTU1MTc5NTE1NDgwOTk1MiwgMC4xMzYyOTMxMjgxMzI4MjAxMywgMC4zNzE3MTAyMTEwMzg1ODk1LCAwLjMzNzg5MzM2NjgxMzY1OTY3LCAwLjE3MzMzNzU5MzY3NDY1OTczLCAwLjEwMjkyOTM1MzcxMzk4OTI2LCAwLjIxMDg5NDgyMzA3NDM0MDgyLCAtMC4xMDg4MTUyNjc2ODIwNzU1LCAtMC40NjEyNjc2NTAxMjc0MTA5LCAwLjc1NjI2NDg2NTM5ODQwNywgMC4yNTM5Mjg3NTA3NTM0MDI3LCAtMC4wMjU2MTgxMzQwNjY0NjI1MTcsIC0wLjMyMjUzOTkyNTU3NTI1NjM1LCAwLjE3ODk4NjAyNzgzNjc5OTYyLCAwLjE1NjMwMDE1NzMwODU3ODUsIC0wLjEyODU4ODcyMTE1NjEyMDMsIDAuMTg2OTE5OTU3Mzk5MzY4MywgMC4wMDEzNjYyMTY2ODkzNDgyMjA4LCAtMC4yNjcwMTY1NTk4MzkyNDg2NiwgLTAuMTkxODQ5MTEyNTEwNjgxMTUsIDAuMTk4ODU1ODMyMjE5MTIzODQsIC0wLjIyODMyMDQ3OTM5MzAwNTM3LCAwLjAyNDk2NzgzODA3ODczNzI2LCAtMC4wODk4NzM2MDQ0NzY0NTE4NywgMC4yOTkyNDEzMDQzOTc1ODMsIC0wLjEwNTU1NDMxMjQ2NzU3NTA3LCAwLjAyNDg5MDE1MDg3NDg1MzEzNF0sIFswLjczMzc5MTIzMjEwOTA2OTgsIC0wLjAwNTAxNTI2NDI2NTIzOTIzOSwgLTAuMDkwODU4Mjk1NTU5ODgzMTIsIC0wLjAxOTE0NDQ3NzMyMjY5NzY0LCAwLjA5OTY4NjQ1ODcwNjg1NTc3LCAtMC4yMTIyMzE2MjExNDYyMDIxLCAtMC40NjY5MjU4ODkyNTM2MTYzMywgMC4xNTAzNzYzMDQ5ODQwOTI3LCAwLjU4NDI0MTUwOTQzNzU2MSwgLTAuMTAyMzAwNjI5MDE5NzM3MjQsIDAuMzI3MjQxNDgwMzUwNDk0NCwgMC4wODYxNjM1MDU5MTE4MjcwOSwgMC4xMzYwNDA2NTc3NTg3MTI3NywgMC4yNzY1MjE4MDE5NDg1NDczNiwgLTAuNDA5NDk5MDE5Mzg0Mzg0MTYsIDAuMTkyMjQ5ODQ5NDM4NjY3MywgLTAuMDg2NzY5MTE4OTA1MDY3NDQsIC0wLjAzOTA3MTkxMDA4MzI5MzkxNSwgMC41OTg1MTc0Nzc1MTIzNTk2LCAwLjMwMjc4NTEyODM1NTAyNjI1LCAtMC4xMTg5MTg3OTg4NjM4ODc3OSwgMC43MjQ3NDA1MDUyMTg1MDU5LCAwLjA3NDQxNDQ0Njk0OTk1ODgsIDAuMTg2OTg3ODQ3MDg5NzY3NDYsIDAuMDc2MDM2MzE5MTM2NjE5NTcsIC0wLjAyOTkyOTA4Mjg0MDY4MTA3NiwgMC4xNDEzMDM0NDk4NjkxNTU4OCwgMC4zMzA3NTE5NTU1MDkxODU4LCAwLjA3NzE2NDE1ODIyNTA1OTUxLCAwLjI4MDE3OTE3Mjc1NDI4NzcsIC0wLjIzMDEwOTUxMjgwNTkzODcyLCAtMC42MjE2NzMxMDcxNDcyMTY4XSwgWy0wLjQzNTYzOTQ3MDgxNTY1ODU3LCAxLjYyOTQyMzE0MTQ3OTQ5MjIsIDEuMzkxOTk2MzgzNjY2OTkyMiwgLTAuNzAyMDU3MTIzMTg0MjA0MSwgLTEuMDQzNTY4OTY4NzcyODg4MiwgLTEuMTA4MjA2NTEwNTQzODIzMiwgLTAuMjA2NjE0MzE1NTA5Nzk2MTQsIDAuNDUxNzI3NTA5NDk4NTk2MiwgLTAuMzMzODgyNzQ5MDgwNjU3OTYsIC0xLjYyMzE2MzIyMzI2NjYwMTYsIDAuMzQyNjgyMTIzMTg0MjA0MSwgLTAuODkzNDc0NTc4ODU3NDIxOSwgMC42NjEzNTQ3ODAxOTcxNDM2LCAwLjM4NDgxOTYyNjgwODE2NjUsIC0wLjA0Nzg4MjAxMzAyMjg5OTYzLCAtMC43OTkyODQyNzkzNDY0NjYxLCAwLjgyNTM1NzMxNzkyNDQ5OTUsIC0xLjE4NTU4MjM5OTM2ODI4NjEsIDAuMjMxMzA2MjU0ODYzNzM5LCAtMC4zMjIyMzkwNzExMzA3NTI1NiwgMC4zMDE0ODY5MzkxOTE4MTgyNCwgLTAuNDIwOTA0MjE5MTUwNTQzMiwgMC41ODQxNjk5ODM4NjM4MzA2LCAwLjAwMTQ2NTE5Mjk5NTk2NTQ4MDgsIC0wLjE4Mzc1Nzk0NTg5NTE5NSwgMS4xNTYyODA1MTc1NzgxMjUsIDAuNTYxODQ1NDIxNzkxMDc2NywgMC44MDY0MjM0MjU2NzQ0Mzg1LCAxLjQ3Nzc1NjYxOTQ1MzQzMDIsIDAuMDIwNDA2NjU3ODI5ODgwNzE0LCAxLjExMDg4NzI4OTA0NzI0MTIsIC0wLjU5ODYwNDkxNzUyNjI0NTFdLCBbLTAuMDkzMTc2OTYwOTQ1MTI5NCwgMC40MDk0MTE5NjY4MDA2ODk3LCAwLjMyNDY3OTg4MTMzNDMwNDgsIDAuNjM3MTgzNDI3ODEwNjY5LCAtMC4xOTIzMTA2OTA4Nzk4MjE3OCwgLTAuMDU0MTUyODkxMDM5ODQ4MzMsIDAuMDA5NTI4NzA3NzEyODg4NzE4LCAtMC45NDgxNjcyNjQ0NjE1MTczLCAtMy42NzA3MzUzNTkxOTE4OTQ1LCAwLjcxMjQ1MjQ3MTI1NjI1NjEsIC0wLjk4NzMyMDg5OTk2MzM3ODksIDAuMDEyMDQ1NDExMzkzMDQ2Mzc5LCAtMC43MTI1MDMxOTQ4MDg5NiwgLTAuMDEzNTYzMjkwMjM4MzgwNDMyLCAtMC42NTkzOTMwNzIxMjgyOTU5LCAtMC4yNDM4MDQ5NjE0NDI5NDc0LCAwLjU3MzQ5Njg3ODE0NzEyNTIsIDAuNzIzNzg3MjQ4MTM0NjEzLCAtMS41MDA5NTg0NDI2ODc5ODgzLCAtMC4yNDc3MzU3Mzg3NTQyNzI0NiwgLTAuNTM3MTA0MTg5Mzk1OTA0NSwgLTIuNDI3OTEzNjY1NzcxNDg0NCwgLTIuMDg4MDY2MzM5NDkyNzk4LCAtMC4zMjAxMTM4OTczMjM2MDg0LCAwLjE5NjY5NTA1OTUzNzg4NzU3LCAwLjYxMTI0MjY1MTkzOTM5MjEsIC0wLjQ4MjQ5MjQ0Njg5OTQxNDA2LCAtMS40ODk0NDk1MDEwMzc1OTc3LCAwLjI0NzA0ODc2NTQyMDkxMzcsIC0xLjQ3NjQ2ODIwNTQ1MTk2NTMsIDAuNjM0NTczODc2ODU3NzU3NiwgLTMuMzc5MTQ4OTYwMTEzNTI1NF0sIFstMC4xODA2OTcxMTMyNzU1Mjc5NSwgMC4wODIyNTU0OTAxMjQyMjU2MiwgLTAuMDIwMjM0NjMzMjM3MTIzNDksIDAuMTk4MjE3MTUzNTQ5MTk0MzQsIDAuMDQ3Njk0NjgzMDc0OTUxMTcsIDAuMDA2NzAwNjUzNTgyODExMzU2LCAtMC4wMDk0NDI0MTQxNTcwOTI1NzEsIC0wLjExMDMxMjA0NDYyMDUxMzkyLCAtMC4wMTYyNTcyMzIwNTUwNjgwMTYsIDAuMTUyNDc5MjkwOTYyMjE5MjQsIC0wLjI3MzY2MjU2NzEzODY3MTksIDAuMDY2MTQ4ODI0OTg5Nzk1NjgsIC0wLjE0NDA0ODU3MTU4NjYwODksIC0wLjEzNTMxNzU3ODkxMTc4MTMsIC0wLjAyNDY0MTczMzYxNjU5MDUsIDAuMDI2MzA4NDM5NjcxOTkzMjU2LCAtMC4wMjg4MDQ1MjU3MzI5OTQwOCwgLTAuMDY0NTU2NjEzNTY0NDkxMjcsIC0wLjAzNjY3ODc2ODY5NDQwMDc5LCAtMC4wMTM2NDgwMjk0MTY3OTk1NDUsIDAuMDExMTc3MzAwNDc1NTM3Nzc3LCAtMC4wOTgzNjg3MDQzMTkwMDAyNCwgMC4wMjU0MTY3NzA5NDk5NTk3NTUsIC0wLjA0MjA4NDU0ODYyMjM2OTc2NiwgMC4wNjcxMDAzNDYwODg0MDk0MiwgMC4xNzYwNTIwMDQwOTg4OTIyLCAtMC4wODQwNzYxMjE0NDk0NzA1MiwgMC4wMzc2Mzk1NDM0MTQxMTU5MDYsIC0wLjEyMzM3MzYyNzY2MjY1ODY5LCAwLjA0MjUxNTc5NTY3NzkwMDMxNCwgLTAuMDMxODgzNzMxNDg0NDEzMTUsIDAuMDY4MTE5ODYxMTg1NTUwNjldLCBbMC4wMjg2MDUyOTM0ODI1NDIwMzgsIC0wLjAwNTQ0NDQzNzI2NTM5NjExOCwgMC4yMTU0NTMxNDc4ODgxODM2LCAwLjA3ODkwMzg0NjQ0MjY5OTQzLCAtMC4wNjU3NjE4NjQxODUzMzMyNSwgMC4wNjI0NTY3NjQyODA3OTYwNSwgLTAuMDEwMzczODE4Njg4MDk0NjE2LCAtMC4wNjI5NTg0ODYzNzgxOTI5LCAwLjAyOTgwMjk1MTk2MTc1NTc1MywgLTAuMDU2NDg4MjAxMDIyMTQ4MTMsIC0wLjA2ODUyNDYwNjUyNTg5Nzk4LCAwLjA3NTY0MzM1MzE2NDE5NjAxLCAtMC4xOTQyOTQwOTUwMzkzNjc2OCwgMC4wNjc5MDYwNjY3NzUzMjE5NiwgLTAuMDE4MDUyODIwMTE2MjgxNTEsIDAuMDM1NzA5NzMxMjgwODAzNjgsIDAuMDUzMzM2MTIxMTQxOTEwNTUsIC0wLjAzMTQ2ODg4Njg4MjA2NjczLCAtMC4wMjI0NTE2NDQ3NjMzNTA0ODcsIC0wLjAwNjg2MzYxMjIxNTk2NTk4NiwgLTAuMDg1Mzk0ODgxNjY1NzA2NjMsIC0wLjE0OTg4Njg3NjM0NDY4MDgsIDAuMDMzNjA2MjQ5ODM5MDY3NDYsIC0wLjA2NjY3ODM4MjQ1NjMwMjY0LCAwLjAxMTg0MDY3NTk1NzUwMDkzNSwgMC4xMTYzMjY2MzAxMTU1MDkwMywgLTAuMTk4OTEyMjkyNzE4ODg3MzMsIC0wLjA0MzIyODIwNTI5MzQxNjk4LCAtMC4wMjU0MDUzMzYxNzEzODg2MjYsIC0wLjAxMDA4ODEwMTAyOTM5NjA1NywgLTAuMDY2ODA0MTExMDAzODc1NzMsIDAuMDA1NjI2NTMzMTgwNDc1MjM1XSwgWy0wLjE2MTA1Mzc3Njc0MTAyNzgzLCAtMC4wNTk1MTkzODAzMzEwMzk0MywgLTAuMzU1NzAyNjk4MjMwNzQzNCwgMC4xMzExOTEzNzI4NzEzOTg5MywgMC4wMTkyOTEwOTkxNjA5MDk2NTMsIC0wLjA3NjUxMTExNDgzNTczOTE0LCAwLjI3NTMyMjc5NDkxNDI0NTYsIDAuMDYxMTg4MTk0OTAwNzUxMTE0LCAtMC4xOTc0MjkxNTAzNDI5NDEyOCwgMC4xMzU5MzkyODUxNTkxMTEwMiwgLTAuNDc4MzE3MDIyMzIzNjA4NCwgMC4xMzUxNDM0NDM5NDIwNywgLTAuMjA0ODEwMDIzMzA3ODAwMywgLTAuMTU1NDM5NjE1MjQ5NjMzOCwgLTAuMDAwMzMwNDA2MjQxMTE4OTA3OTMsIDAuMDQxNjk4NjYwNzAxNTEzMjksIC0wLjAyMjAyMzQ1NDMwODUwOTgyNywgMC4xNzgwMDY1ODk0MTI2ODkyLCAwLjAxNDIyNjg2ODc0ODY2NDg1NiwgMC4yMTMyNTgyOTYyNTEyOTcsIDAuMDE3OTgxMDg0MDYzNjQ5MTc4LCAtMC4wMTA1MzA3NDM3NDc5NDk2LCAtMC4yNzgxMzI5MTU0OTY4MjYxNywgLTAuMDY0OTU2MTIxMTQ2Njc4OTIsIDAuMDgzMTUzNDU2NDQ5NTA4NjcsIDAuNDg5Nzg3MjgwNTU5NTM5OCwgLTAuMDcxMjI1NDM0NTQxNzAyMjcsIC0wLjQ5MTk3MTYxMTk3NjYyMzU0LCAwLjE0Mjk5ODU2MTI2MzA4NDQsIC0wLjIwNDkxNjM1Nzk5NDA3OTYsIC0wLjAwOTAyNzQ2MzM4Mzk3MjY0NSwgLTAuMTk5OTMxNjIxNTUxNTEzNjddLCBbMC4wMDU2MjAzMjE3MjQ1NjM4MzcsIDAuMTk5ODI1OTU3NDE3NDg4MSwgMC4xMjM0MDYwNjc0OTA1Nzc3LCAwLjE4MDUxNzU1NDI4MzE0MjEsIC0wLjIxODA4NTcyMTEzNTEzOTQ3LCAwLjY0NTE2ODc4MTI4MDUxNzYsIC0wLjY2Mjg3NjcyNTE5NjgzODQsIDAuMDk0MDM2NzQzMDQ0ODUzMjEsIC0wLjE1MDM0NjEzMDEzMjY3NTE3LCAwLjE0ODc3MzEwMzk1MjQwNzg0LCAwLjAxMDc4NzI3NjU1MTEyNzQzNCwgMC4yNzg3MDAxMTMyOTY1MDg4LCAwLjAzNDk1NjY5MzY0OTI5MTk5LCAtMC4xMDg5NTc1MDY3MTYyNTEzNywgLTAuMDM3NTU5Mzc4ODkyMTgzMzA0LCAwLjA2MzYwMzYzOTYwMjY2MTEzLCAwLjA3MTA4MDQ2MTE0NDQ0NzMzLCAtMC4xMjQ1MDQ0MTcxODEwMTUwMSwgMC4wMzg3NjUwNTA0NzA4MjkwMSwgLTAuMzU3OTc3NTM5MzAwOTE4NiwgLTAuMDA1Nzk5MTIyNjIwMzczOTY0LCAtMC4wNzA1NjIxMzkxNTM0ODA1MywgMC4wMjA3MjcyMjgzNzMyODkxMSwgLTAuMjA1OTgwMzMwNzA1NjQyNywgMC4wOTM0MDU0OTI2MDM3Nzg4NCwgMC4wMzIxMDY0Nzc3NjcyMjkwOCwgMC4wMDc5NTMxMTc2MDE1NzM0NjcsIC0wLjA2NTkzNjk2MDI3OTk0MTU2LCAwLjI1NjM3OTM2NTkyMTAyMDUsIDAuMzkxNDE3MDI2NTE5Nzc1NCwgMC4zMDY0MzE3NzAzMjQ3MDcwMywgLTAuMDY1Mjk0Mjg4MDk4ODEyMV0sIFswLjA3Mjg5Mzk1NDgxMzQ4MDM4LCAwLjI5OTY3OTA0MDkwODgxMzUsIDAuMDUyOTI5MjkzMzY0Mjg2NDIsIC0wLjEwMTg3MDAwNzgxMjk3Njg0LCAwLjIxMTUyMjg0NzQxNDAxNjcyLCAwLjE1MjYzNzcyMDEwODAzMjIzLCAtMC4wNDE5NTk3MTc4Njk3NTg2MDYsIDAuNDI3MjUzNDg0NzI1OTUyMTUsIDAuMTMzNjE4Mzk5NTAwODQ2ODYsIC0wLjIzNDE5NDU0NjkzNzk0MjUsIDAuNDU4NDM2MTMxNDc3MzU1OTYsIDAuMzI0OTYwMTEyNTcxNzE2MywgMC42NDM0NDE2NzcwOTM1MDU5LCAtMC4xNzAzMzExOTQ5OTY4MzM4LCAwLjMzMDQ3MjU1ODczNjgwMTE1LCAwLjM5NDExMTU3MzY5NjEzNjUsIDAuMDcxNDMzNjcwODE4ODA1NywgLTAuMjIyMzkzNjkxNTM5NzY0NCwgMC42MjE1NDAxODg3ODkzNjc3LCAwLjAyNzEzNDcyMDIzNjA2MzAwNCwgMC40MjU3MzMxNDkwNTE2NjYyNiwgMC41NTExMzA0NzM2MTM3MzksIDAuMTUwNzAxMTk1MDAxNjAyMTcsIDAuMTMxMzYwOTE4MjgzNDYyNTIsIDAuMTE1NzQ4MzYwNzUzMDU5MzksIDAuMTAwMTE3NDY3MzQzODA3MjIsIDAuMzk3MDI2MTIxNjE2MzYzNSwgMC42NjkxODQwODg3MDY5NzAyLCAwLjI5MjQ5MzUyMjE2NzIwNTgsIDAuNTE4MzY5NjE1MDc3OTcyNCwgMC4xMjc3MDYyODkyOTEzODE4NCwgLTAuOTAyMTU3MTg3NDYxODUzXSwgWzAuMjA0NTI3OTg5MDI5ODg0MzQsIC0wLjEyMjUwMzUxOTA1ODIyNzU0LCAtMC4xNjIzMzQyNjMzMjQ3Mzc1NSwgMC4yODk3NjIzNzc3Mzg5NTI2NCwgMC4zNTEwMjIwNjQ2ODU4MjE1MywgMC4zNTUxMzY2MzI5MTkzMTE1LCAwLjA5OTcwNjUzMDU3MDk4Mzg5LCAtMC4yMDk1NDEyMzEzOTM4MTQxLCAtMC4yMTg5NzE4NzgyOTAxNzY0LCAwLjI5NzQ1MzQwMzQ3MjkwMDQsIC0wLjA4ODU4ODA5NjIwMTQxOTgzLCAwLjI5MjUzMTc4ODM0OTE1MTYsIDAuNDAwMjk3NjQxNzU0MTUwNCwgMC4zMTY5ODA1NDA3NTI0MTA5LCAwLjQ4ODI2NTM5NTE2NDQ4OTc1LCAwLjIyMzQ0MTg5ODgyMjc4NDQyLCAtMC4wNDU4NDg0NjY0NTU5MzY0MywgMC40MTM3MjYyMTA1OTQxNzcyNSwgLTAuMDc1NjkzNDUwODY4MTI5NzMsIDAuMzI2NDUyOTEwOTAwMTE1OTcsIDAuMDgyNDU0Nzg1NzA0NjEyNzMsIC0wLjA1NjQzNjMyMjYyOTQ1MTc1LCAtMC4yMjQ5OTYxMTk3Mzc2MjUxMiwgMC4zNTgwNTA1MjUxODg0NDYwNCwgMC4yODg5NDU0MzY0Nzc2NjExMywgLTAuMDI0MTQ1MTQ4Njk0NTE1MjMsIDAuMzg2ODQ4MzkwMTAyMzg2NSwgLTAuMjQ5MjY2MTYyNTE0Njg2NTgsIC0wLjA5OTYzNzE5NTQ2Nzk0ODkxLCAtMC4wMzM4MzM3NzkzOTQ2MjY2MiwgLTAuMTE1ODA5Njc5MDMxMzcyMDcsIC0wLjE1NzgxODQ5NjIyNzI2NDRdXSwgWy0wLjA4Nzg2MTcwMTg0NjEyMjc0LCAtMC4wNzM4NDI2MDc0Mzg1NjQzLCAwLjEwNjMxOTAyNTE1ODg4MjE0LCAwLjA4NTc5MTgyNjI0ODE2ODk1LCAwLjE2ODQ2OTE5MDU5NzUzNDE4LCAwLjE4NzA3MDc4Njk1Mjk3MjQsIC0wLjAwMzQ3MTA3Mjk5NjAzNTIxODIsIDAuMDQ3ODg0Mzc4NTgyMjM5MTUsIDAuMTQ3MDAyMzA5NTYwNzc1NzYsIDAuMDA3NTAzMzk3NzYyNzc1NDIxLCAtMC4wMzE3NzgzMjgxMjA3MDg0NjYsIDAuMDI2MTYyMjgxNjMyNDIzNCwgMC4xNzE3NTQ1ODM3MTYzOTI1MiwgMC4wNDc0ODY0NTQyNDg0MjgzNDUsIC0wLjAwMjY0NjE0MDk4NzA1MzUxMzUsIDAuMTc2OTAzMTg4MjI4NjA3MTgsIC0wLjA4Mjc2NjE0NTQ2Nzc1ODE4LCAtMC4wMjU1NDIzMDIwNTcxNDcwMjYsIC0wLjAxMDk0MzkzNjE4NDA0ODY1MywgMC4yMzU4MDU1MTE0NzQ2MDkzOCwgMC4xMDQzNDEyNjEwODg4NDgxMSwgLTAuMDA0Njg5MjYyMjQ4NTc1Njg3LCAwLjExOTU4MTA1ODYyMTQwNjU2LCAwLjA4MDE1NzA0MTU0OTY4MjYyLCAwLjAxNjg3Mjk0OTg5ODI0Mjk1LCAwLjA2ODMwOTc2MTU4MzgwNTA4LCAwLjAyMDkwMTI0OTcyMTY0NjMxLCAwLjAzODg1NDk0MTcyNTczMDg5NiwgLTAuMTA3OTExMTQ3MTc3MjE5MzksIDAuMDQ1NzU5MTkzNTk5MjI0MDksIDAuMDU2Mjc3ODM3NjA0Mjg0Mjg2LCAwLjEyNDU4NDg4MzQ1MTQ2MTc5XSwgW1swLjEwNzQ3MzM0MzYxMDc2MzU1LCAxLjA2ODU1MTc3ODc5MzMzNSwgLTEuMzEzODMzNzEzNTMxNDk0MSwgLTEuMTc3NDM4MjU5MTI0NzU1OSwgLTAuMjA1NTE1NTkzMjkwMzI4OTgsIDEuMTMxMzQ3Mjk4NjIyMTMxMywgLTEuMTM0OTY3MzI3MTE3OTIsIC0xLjM2MzkyMDkyNzA0NzcyOTUsIDAuNzYwNzc5MzIxMTkzNjk1MSwgMS4wNDkzMTAzMjY1NzYyMzMsIC0wLjAxNjU1MzcwNzQyMDgyNTk1OCwgLTEuMzYzMjQzMTAzMDI3MzQzOCwgMC44ODIyNzQyNzAwNTc2NzgyLCAtMS40MTgxNDU1MzczNzY0MDM4LCAxLjI0MDQ3MzUwODgzNDgzODksIDEuMjI2NjIwMDc4MDg2ODUzXSwgWzAuMDQ1ODc0MDg5MDAyNjA5MjUsIC0wLjEzMDU5ODM1MTM1OTM2NzM3LCAwLjMyOTYyNzEyNjQ1NTMwNywgMC4zNTIzMDQ2Mzc0MzIwOTg0LCAwLjQ3MjQ5NTQwNjg2NjA3MzYsIC0wLjQxOTQ4NTI0MTE3NDY5NzksIDAuNjI1MzgxOTQ2NTYzNzIwNywgMC41NjUzNjI3NTE0ODM5MTcyLCAtMC4yMTI0Mzg4ODEzOTcyNDczMSwgLTAuMjI2Nzc5MDI4NzczMzA3OCwgLTAuMDk1ODc3MzQ5Mzc2Njc4NDcsIDAuNDM4OTkwMjM1MzI4Njc0MywgLTAuMTMwMjUyNzQ4NzI3Nzk4NDYsIDAuNTQ2NjI5MDcxMjM1NjU2NywgLTAuNTE5Mjk2NzY1MzI3NDUzNiwgLTAuNDc5MDUxMTQyOTMwOTg0NV0sIFstMC4wNTkwNjI0NzcyMDEyMjMzNywgLTAuMDY5NjA0OTAzNDU5NTQ4OTUsIDAuNDEwMDIxMzA1MDg0MjI4NSwgMC4zOTI4NTc2NDA5ODE2NzQyLCAtMC42NTQxODc2NzkyOTA3NzE1LCAtMC4yNDI3Njc3MjE0MTQ1NjYwNCwgMC4xMzYzMzkyNDcyMjY3MTUxLCAwLjMxNTM2OTYwNjAxODA2NjQsIC0wLjExMTk2MDU2MDA4MzM4OTI4LCAtMC4wNjg5MjQ4MjE5MTMyNDIzNCwgMC4yMDEzNTQxMTYyMDE0MDA3NiwgMC4yODQ0MTk2ODU2MDIxODgxLCAtMC4xMzk1NDI5MDc0NzY0MjUxNywgMC4yMTMzODM2NDQ4MTkyNTk2NCwgLTAuMDIwMzAwNDI5MzE0Mzc0OTI0LCAtMC40MzM2OTcxNjQwNTg2ODUzXSwgWy0wLjIxMDMwNDYwMjk4MDYxMzcsIC0wLjI5NTExMDczMjMxNjk3MDgsIC0wLjAxNDY5NDMyMjgzMTkyODczLCAtMC4xMTAwNjIwOTI1NDI2NDgzMiwgLTAuNTg1Nzk2MTE3NzgyNTkyOCwgMC4wOTAyNDAwOTEwODU0MzM5NiwgLTAuMjg0OTYwMzg5MTM3MjY4MDcsIC0wLjI3NjkxMjUxMDM5NTA1MDA1LCAwLjA0NDIyMzMxOTczOTEwMzMyLCAtMC4wNzY2OTg3OTQ5NjA5NzU2NSwgLTAuMjA0Mjk2Mjc1OTczMzIsIC0wLjQ0OTczMjE1NDYwNzc3MjgsIDAuMTQ5ODE3MTA5MTA3OTcxMiwgLTAuMzU1MDAxMzg5OTgwMzE2MTYsIDAuMTcxMzQwNDM1NzQzMzMxOSwgMC4yODIyOTU4NTI4OTk1NTE0XSwgWzAuMTM5MjM3OTI1NDEwMjcwNywgMC40MDIxNzk1OTg4MDgyODg2LCAtMC4zMjQxNjg1NjI4ODkwOTkxLCAtMC4yNTgzNzI2MDQ4NDY5NTQzNSwgMC41MDc4MzcwNTcxMTM2NDc1LCAwLjc5NjE0MzQxMjU5MDAyNjksIC0wLjkxODMxODY4ODg2OTQ3NjMsIC0wLjI3NTE5MDcxMTAyMTQyMzM0LCAwLjM0NzAwNjIwMTc0NDA3OTYsIC0wLjMzNzcwNDA2MjQ2MTg1MywgMC40Nzk1Mzc5MzQwNjQ4NjUxLCAtMS4wNDc4MDcyMTY2NDQyODcsIC0wLjM5OTUxMzk4OTY4Njk2NTk0LCAtMC42MDU1NDk1MTQyOTM2NzA3LCAwLjY4MjA3MDk3MDUzNTI3ODMsIDAuNDU5ODQ2NzA1MTk4Mjg3OTZdLCBbMC4xNTMzNzMxOTY3MjEwNzY5NywgMC42NjgyNjA1NzQzNDA4MjAzLCAtMC43NDEzNzk1NTkwNDAwNjk2LCAtMC42NDgyNTQ4NzEzNjg0MDgyLCAwLjYzMjQzNzM0ODM2NTc4MzcsIDAuNzI4OTkwNjE0NDE0MjE1MSwgLTEuMDM3MjcwNTQ1OTU5NDcyNywgLTAuMzQ2OTc4NzI0MDAyODM4MTMsIDAuNjMzNTI1MDEzOTIzNjQ1LCAwLjA4NTMzNTE1MDM2MTA2MTEsIDAuNzIwNTA1MjM3NTc5MzQ1NywgLTEuNTA2MDc4NDgxNjc0MTk0MywgMC4xMDQ5MDc3NTEwODMzNzQwMiwgLTAuOTE3NDI0MjAxOTY1MzMyLCAwLjg2ODU3MDM4NzM2MzQzMzgsIDAuODA4MTM5MzgzNzkyODc3Ml0sIFswLjE4OTEyMDQ3MTQ3NzUwODU0LCAwLjYzMzI0ODg2NTYwNDQwMDYsIC0wLjYzNTM2MDM2MDE0NTU2ODgsIC0wLjYzMjAwMzEyODUyODU5NSwgMC45MDI2MTMxMDMzODk3NCwgMC40MDY5MTg0NjYwOTExNTYsIC0wLjYxODA3MDQ4MzIwNzcwMjYsIC0wLjU4NjQzMDc4ODA0MDE2MTEsIDAuNjc0NjUyODE0ODY1MTEyMywgMC41NzE0MjEwMjcxODM1MzI3LCAwLjg0ODQ1NzY5NDA1MzY0OTksIC0wLjUwMjIwNDk1NDYyNDE3NiwgMC42MTcyMDI0MDExNjExOTM4LCAtMC44MDQwMTI4MzUwMjU3ODc0LCAwLjYxMzc4NTk4MjEzMTk1OCwgMC42NzQxNjE2NzI1OTIxNjMxXSwgWzAuMjc1NjMwNjUyOTA0NTEwNSwgLTAuMDc2NDQ3MzYwMjE3NTcxMjYsIDAuMjEyNzkxNTE3Mzc2ODk5NzIsIDAuMjEwMjc5MjI2MzAzMTAwNTksIDAuMDg4MDYyNDQyODM5MTQ1NjYsIC0wLjA1NjIwODAyMTkzODgwMDgxLCAwLjczNjM2NjAzMzU1NDA3NzEsIDAuNTIxOTI4MTMxNTgwMzUyOCwgMC4wNzM2ODUxOTE1NzE3MTI1LCAwLjAxMTczMTkzNTY2NTAxMTQwNiwgLTAuMDc1MjQxOTc1NDg2Mjc4NTMsIDAuNTI4NzU4NDA2NjM5MDk5MSwgMC4yNDIyMTIyMDYxMjUyNTk0LCAwLjIzOTk0ODA2NDA4ODgyMTQsIDAuMDQ2OTU2OTM0MDM0ODI0MzcsIC0wLjA2NDc0MjY4NDM2NDMxODg1XSwgWy0wLjA0MjcwMjA3NTA5Mzk4NDYwNCwgLTAuMjAxNzQ1MTIyNjcxMTI3MzIsIDAuNjg4NDEzMTQzMTU3OTU5LCAwLjg2OTUwMjU0NDQwMzA3NjIsIDAuMzg5OTMxNTU5NTYyNjgzMSwgLTAuNTQwMzM3NjgxNzcwMzI0NywgMC43MDQzNTU3MTY3MDUzMjIzLCAwLjY3NDM0MjY5MTg5ODM0NiwgLTAuMzc1NjE4Njk2MjEyNzY4NTUsIC0wLjM5Mjk0NDk5MTU4ODU5MjUzLCAwLjA1Mjk3OTg3NTM1NTk1ODk0LCAwLjkwNTk1MjU3MjgyMjU3MDgsIC0wLjQ1NzUwOTQ4Nzg2NzM1NTM1LCAwLjgzNzEwOTE0ODUwMjM0OTksIC0wLjU0MjY1MTg5MTcwODM3NCwgLTAuNDg2MzU0NTg5NDYyMjgwM10sIFstMC4wODMzNTEwNjA3NDgxMDAyOCwgLTAuMjYyNTk4Mzk1MzQ3NTk1MiwgMC4yOTI0OTAxMjQ3MDI0NTM2LCAtMC4xNTMzNTAxNTk1MjU4NzEyOCwgMC4yMjI0MzMzMjg2Mjg1NDAwNCwgLTAuMTM0NjQ3NzI3MDEyNjM0MjgsIC0wLjMwNzc3MzM4MTQ3MTYzMzksIC0wLjQ2NDg1ODM4Mjk0MDI5MjM2LCAwLjA0NjQxNzYyNzQ4MzYwNjM0LCAtMC4xOTAyMjUxODM5NjM3NzU2MywgMC4xMTk3NjA1MjA3NTYyNDQ2NiwgLTAuMjE3MTY0MjkyOTMxNTU2NywgLTAuMDgxNjk2NzYzNjM0NjgxNywgLTAuMzE5MzQ0MDEzOTI5MzY3MDcsIC0wLjA1NDAxNjI3NzE5NDAyMzEzLCAwLjAyMDUyNjk4NjU2OTE2NjE4M10sIFswLjE1OTcwMDM5MzY3Njc1NzgsIC0wLjQwMTgwNzQ4NzAxMDk1NTgsIDAuNTAyNDY4NDA3MTU0MDgzMywgMC4yNTAyMDM5OTY4OTY3NDM4LCAwLjI5MDIwMDc0MDA5ODk1MzI1LCAtMC40ODA2ODU0NzI0ODg0MDMzLCAwLjI4ODU1NTM4MzY4MjI1MSwgMC4yODU1ODAwOTg2Mjg5OTc4LCAtMC40NTg3MzczMTM3NDc0MDYsIC0wLjEwNTg5NTI1MTAzNTY5MDMxLCAtMC41NzY3MTk4ODAxMDQwNjQ5LCAwLjI4MTIwMjQ2NTI5NTc5MTYsIDAuMDIyODA5NDI1MzY4OTA1MDY3LCAwLjUwNzU4MzQzOTM1MDEyODIsIC0wLjU4MjIyNTkxODc2OTgzNjQsIC0wLjMyNjk1Mzc5ODUzMjQ4NTk2XSwgWzAuNDYyNDEzMDcyNTg2MDU5NTcsIDAuMTk1NjU1MDc3Njk1ODQ2NTYsIDAuMTI5MjExOTMyNDIwNzMwNiwgLTAuMTk0OTIxOTg1MjY4NTkyODMsIDEuMDA2Nzg1NjMxMTc5ODA5NiwgLTAuMTI4ODQwODYzNzA0NjgxNCwgMC4zMzQ3MjA2NzExNzY5MTA0LCAtMC4xMzgzODA3MDYzMTAyNzIyMiwgMC41NjA3MjY1MjMzOTkzNTMsIDAuMjYwMDE4MTY5ODc5OTEzMzMsIDAuMzY0MjM4OTc3NDMyMjUxLCAtMC4wNjI0NDkzMTc0MjU0ODk0MjYsIDAuMzQyNTA2MjU5Njc5Nzk0MywgLTAuMDczMjA2MjIzNTQ3NDU4NjUsIDAuNDc5NTk5MDU4NjI4MDgyMywgMC42NDM4OTEzMzQ1MzM2OTE0XSwgWy0wLjA1MjA1MDc4MDUwNDk0MTk0LCAwLjM1MTkxNjIyMzc2NDQxOTU2LCAwLjA3MTQxMDMyODE0OTc5NTUzLCAwLjA3ODAyMDUxMzA1NzcwODc0LCAtMC4xOTgxMzA3ODY0MTg5MTQ4LCAwLjI5OTk4NDM5NTUwMzk5NzgsIDAuNDgxNzE4NDgwNTg3MDA1NiwgMC4xNjg0MjYyNzUyNTMyOTU5LCAwLjMyODU1NzUyMTEwNDgxMjYsIDAuMTc5NDQ4OTYyMjExNjA4OSwgMC4zMjEwMDcxMzI1MzAyMTI0LCAwLjMwMDM1NTE2NjE5NjgyMzEsIDAuMTQzOTY0NDg0MzMzOTkyLCAwLjI5MzcxOTI5MTY4NzAxMTcsIDAuMTI3OTcyMzc5MzI2ODIwMzcsIDAuMTk2NjE0NTMzNjYyNzk2MDJdLCBbMC4wMjgwNjg4OTI2NTc3NTY4MDUsIDAuNTg3MzM0ODExNjg3NDY5NSwgLTAuMzI4NDUzMzYxOTg4MDY3NiwgLTAuMzQ4MTE3NzA5MTU5ODUxMSwgMC40MDIwMjU4NDg2MjcwOTA0NSwgMC4xOTIxODcxNjAyNTM1MjQ3OCwgLTAuNjE1NzQ4MDQ3ODI4Njc0MywgLTAuMjM4MDQyMjk0OTc5MDk1NDYsIDAuMTU4MDY3NDY0ODI4NDkxMiwgLTAuMTg5NTIxMzI3NjE0Nzg0MjQsIDAuMzExMDEwNzc3OTUwMjg2ODcsIC0wLjE0OTgxNjg1NTc4ODIzMDksIC0wLjAzOTYwNTc1MTYzMzY0NDEwNCwgLTAuMzQ0OTcwNDA1MTAxNzc2MSwgMC4yOTI1NTIyMzI3NDIzMDk1NywgLTAuMTAyMDk3NzE5OTA3NzYwNjJdLCBbMS41MjU2Mzk4OTE2MjQ0NTA3LCAyLjI0MDk1MTUzODA4NTkzNzUsIC0xLjgyODA3ODAzMTUzOTkxNywgLTEuOTAxNjg0Mjg0MjEwMjA1LCAyLjIwMDQ3NDk3NzQ5MzI4NiwgMi4xMDE3OTQ0ODEyNzc0NjYsIC0xLjUzNTkxMjc1MjE1MTQ4OTMsIC0xLjcyODc1MjEzNjIzMDQ2ODgsIDIuMzE5OTg2MzQzMzgzNzg5LCAxLjU4NTc5NDY4NzI3MTExODIsIDIuMzY4OTE4ODk1NzIxNDM1NSwgLTEuNjQxNTc1MjE3MjQ3MDA5MywgMi4wMzMyMzg4ODc3ODY4NjUyLCAtMS41Mzk4MTExMzQzMzgzNzksIDIuMDU1OTE5MTcwMzc5NjM4NywgMi4xODI4OTU0MjE5ODE4MTE1XSwgWzAuMDI5MjAwNDcwMDc1MDExMjUzLCAwLjEyODY0MDU5MjA5ODIzNjA4LCAtMC4xNTUwMDMxMDA2MzM2MjEyMiwgMC4yMjgxNzkxMjY5Nzc5MjA1MywgLTAuMDc3MDk2ODg2OTMyODQ5ODgsIDAuMTQxNDEwMzIwOTk3MjM4MTYsIC0wLjM2MjQxNjg2MzQ0MTQ2NzMsIC0wLjA2ODYzNzUyMDA3NDg0NDM2LCAwLjM4NzU0Nzc5MTAwNDE4MDksIDAuODA4Njc0OTMxNTI2MTg0MSwgMC4yNjg1NTU5OTg4MDIxODUwNiwgLTAuMjA3OTY5MzgyNDA1MjgxMDcsIDAuNjc1NjEyNjg4MDY0NTc1MiwgLTAuMDQzNDIxNjkzMTQ2MjI4NzksIDAuNDY3ODY4MTQ5MjgwNTQ4MSwgMC40NDU4NjAxNzcyNzg1MTg3XSwgWy0wLjE3Mjc2NDgwNzkzOTUyOTQyLCAtMC4xMjk5OTY4MDYzODMxMzI5MywgMC41MTU1OTQ4NDAwNDk3NDM3LCAwLjM4Njg2MzcwODQ5NjA5Mzc1LCAwLjA0MzY2NDIyNDQ0NTgxOTg1NSwgLTAuMTYxMDE3MTc5NDg5MTM1NzQsIDAuMTM5NzMwNjAyNTAyODIyODgsIDAuMTMwMDc3ODY4NzAwMDI3NDcsIC0wLjY0ODk3MDA2NzUwMTA2ODEsIC0wLjc0NTYyNDQyMzAyNzAzODYsIDAuMTE1MTg2NjYxNDgxODU3MywgMC4xNDE4ODk5Mjk3NzE0MjMzNCwgLTAuNjQxMTcyMjg5ODQ4MzI3NiwgMC4yNTk1MTQ4MDg2NTQ3ODUxNiwgLTAuMzA2MDM2MTc0Mjk3MzMyNzYsIC0wLjU4ODkwMDMyNzY4MjQ5NTFdLCBbMC4wOTI2NTc5Njg0MDE5MDg4NywgMC4yMzE5NDkxNjU0NjM0NDc1NywgLTAuMjI0MDUyODYxMzMyODkzMzcsIC0wLjQ3NTI0MTEyNDYyOTk3NDM3LCAtMC41NDUwNTQ3OTMzNTc4NDkxLCAwLjgwNjY4MzMwMTkyNTY1OTIsIC0wLjg0MDg5NTY1Mjc3MDk5NjEsIC0wLjQ5NTc0NjAxNjUwMjM4MDM3LCAwLjQ5OTU3ODIwNzczMTI0Njk1LCAwLjI2NjM1MTU1MDgxNzQ4OTYsIDAuMDE1NTQ3MTgyNDEwOTU1NDI5LCAtMC42NDQ5OTUyMTI1NTQ5MzE2LCAwLjM3MjUzMTA1NjQwNDExMzc3LCAtMC43MDAzOTcwNzQyMjI1NjQ3LCAwLjQ5MDM0ODMzOTA4MDgxMDU1LCAwLjg3NjM4MTMzNzY0MjY2OTddLCBbLTAuMzk1MzU4NTAyODY0ODM3NjUsIC0wLjYxNjg1MzcxMzk4OTI1NzgsIDAuMjUzNzg3MDQwNzEwNDQ5MiwgMC44NjQxMDE3Njc1Mzk5NzgsIC0wLjIwODgzMzMwNzAyNzgxNjc3LCAtMC4yOTU0OTIxNzIyNDEyMTA5NCwgMC44NDk1NTQxODEwOTg5MzgsIDAuOTE0MzkyMjMyODk0ODk3NSwgLTAuNTg2ODAwODEzNjc0OTI2OCwgLTAuMzM3OTc0MDcxNTAyNjg1NTUsIC0wLjcyMjQ0OTc3OTUxMDQ5OCwgMC43MjIyNjI5Nzg1NTM3NzIsIC0wLjIxODc5MTE3MTkwODM3ODYsIDAuNjcxMjg1NzQ4NDgxNzUwNSwgLTAuNTgzMTU2ODI0MTExOTM4NSwgLTAuNzMyMzM5ODU5MDA4Nzg5MV0sIFswLjEwMDIxMDM4MzUzNDQzMTQ2LCAxLjAzNzc4MjQzMDY0ODgwMzcsIC0xLjE0MjgxODkyNzc2NDg5MjYsIC0xLjE2ODcwOTk5MzM2MjQyNjgsIDAuNTExMzc1ODQ0NDc4NjA3MiwgMS4xOTU3MDQ2OTg1NjI2MjIsIC0xLjI5ODM4NjU3Mzc5MTUwNCwgLTEuMzM2NDQ1NDUwNzgyNzc1OSwgMS4zNjQzNzcwMjE3ODk1NTA4LCAxLjY4ODkyNjQ1ODM1ODc2NDYsIDAuMTA1NTE1MjI2NzIxNzYzNjEsIC0xLjIxOTU4OTIzMzM5ODQzNzUsIDEuNTA2NTYxMjc5Mjk2ODc1LCAtMS41NDE3MjM5NjY1OTg1MTA3LCAxLjQwNjMwOTYwNDY0NDc3NTQsIDEuMzI0Njg0MTQzMDY2NDA2Ml0sIFswLjM0MTA3NDY0NTUxOTI1NjYsIDAuMDg0OTI5Nzk0MDczMTA0ODYsIDAuMjYyNzE5NTcxNTkwNDIzNiwgMC4wMDA0NzQ2NzkyODM3OTc3NDA5NCwgLTAuMTU3MjY1ODEyMTU4NTg0NiwgLTAuMDUxNjM1NDI5MjYzMTE0OTMsIDAuMzMzNTgwMzQ0OTE1MzksIDAuMDI1NjY4NzQ3NzIzMTAyNTcsIDAuMDE1NzU2NDYzNjMxOTg3NTcsIDAuMjAxMTI0MDcyMDc0ODkwMTQsIC0wLjA2NDUyNDMwNzg0NzAyMzAxLCAwLjM1MDAxNjQxNTExOTE3MTE0LCAwLjI1OTUzNzM5ODgxNTE1NTAzLCAwLjIxMjkwNzQ2MzMxMjE0OTA1LCAwLjM2NTk3MDczMDc4MTU1NTIsIDAuNDU4ODQyOTMzMTc3OTQ4XSwgWy0wLjEyNzIwMDA2NzA0MzMwNDQ0LCAtMC45MzEwNDc5MTY0MTIzNTM1LCAwLjU1MTA4NzY3NzQ3ODc5MDMsIDEuMDg0NDIyMzQ5OTI5ODA5NiwgMC41MjM2Mjk4NDQxODg2OTAyLCAtMC44OTQ4NDcxNTQ2MTczMDk2LCAwLjYwMjQ5Mjk4ODEwOTU4ODYsIDAuNjg5NjgxNDEwNzg5NDg5NywgLTAuNTQxNTE5MDQ1ODI5NzczLCAtMC40NTY0MjI5NTQ3OTc3NDQ3NSwgLTAuMTQ4NTU0NzcyMTM4NTk1NTgsIDEuMDQwNzExNjQxMzExNjQ1NSwgLTAuMzM5NDQ2NzgzMDY1Nzk1OSwgMC44Nzg3NjIwMDY3NTk2NDM2LCAtMC42Njc3NDM1MDQwNDczOTM4LCAtMC45MjI3MjY5ODg3OTI0MTk0XSwgWy0wLjM1NDk1NDM2MTkxNTU4ODQsIC0wLjE5ODY2NzU3MDk0ODYwMDc3LCAwLjcxMjgwNDc5NDMxMTUyMzQsIDAuNjA0MTM4OTcwMzc1MDYxLCAtMC4yOTc1NDQwNjIxMzc2MDM3NiwgLTAuMzkxODI1MTY5MzI0ODc0OSwgMC42MDE3ODQyMjkyNzg1NjQ1LCAwLjM2OTk1NTQ1MDI5NjQwMiwgLTAuMzIxNzg5ODAxMTIwNzU4MDYsIC0wLjA3MzAzMjUwNTgxMDI2MDc3LCAtMC43NzcwOTA3ODc4ODc1NzMyLCAwLjU5MTE4NzAwMDI3NDY1ODIsIDAuMTM5MzAwNjg5MTAxMjE5MTgsIDAuNTkyMDk0NjU5ODA1Mjk3OSwgLTAuNTM5MDA0NTA0NjgwNjMzNSwgLTAuMzMxMzcwMTc0ODg0Nzk2MTRdLCBbMC4wMDY1MjM5NTU2MTMzNzQ3MSwgMC4wMDIwMzg3NjY2Mjk5OTM5MTU2LCAtMC4xMTIyMTg0NjkzODEzMzI0LCAwLjE1NzU3NzkzMTg4MDk1MDkzLCAtMC4zNjM0OTMxNzQzMTQ0OTg5LCAwLjQ2NTA4NDc5MTE4MzQ3MTcsIDAuMDI1NzQxMjcxNjc0NjMzMDI2LCAwLjExNDU1OTgyOTIzNTA3NjksIDAuMjM4OTYyMzIyNDczNTI2LCAtMC4wNjMwODM4MTI1OTQ0MTM3NiwgLTAuMjM5NjA5OTcxNjQyNDk0MiwgLTAuMTIwODgyMzA5OTczMjM5OSwgMC4xNTg0MzA4MTQ3NDMwNDIsIDAuMjkzMDU1NTM0MzYyNzkyOTcsIDAuMzE1MDk1NzIyNjc1MzIzNSwgMC4yOTc4NjU5ODY4MjQwMzU2NF0sIFswLjEwNjg5MDgzNDg2Nzk1NDI1LCAtMC4wMzc5ODM4NjA4MjA1MzE4NDUsIDAuMTE4MzgyNjkyMzM3MDM2MTMsIDAuMDA2MzkyNTIyNzE1MDMyMTAxLCAtMC4xOTg5Njc1OTA5MjgwNzc3LCAwLjE3MzE5MTQ1Nzk4NjgzMTY3LCAtMC4wODQ1MTQxNzA4ODUwODYwNiwgMC4wNjA5MDU4MzI3OTcyODg4OTUsIDAuMDQzMjY4NjIwOTY3ODY0OTksIDAuMDAwMjc1ODU3MDQ4MTA5MTczOCwgLTAuMTM2ODA0NzI5NzAwMDg4NSwgLTAuMDAwMzIzMTU2MTI3NzA2MTcwMSwgLTAuMTc4MjkwODQzOTYzNjIzMDUsIC0wLjE3NDY2NTA5MzQyMTkzNjA0LCAwLjM5NzczODUxNjMzMDcxOSwgMC4yOTQyOTEyNTc4NTgyNzYzN10sIFstMC4zMTExNDg5NzEzMTkxOTg2LCAtMC40MTEyOTg4NzEwNDAzNDQyNCwgMC4yNzU1NjU2MjQyMzcwNjA1NSwgMC41MzE4NjQzNDUwNzM3LCAtMC4xMzAyMDI4ODk0NDI0NDM4NSwgLTAuNTA3MTk2MTg3OTczMDIyNSwgMC41NDIxMDM1ODg1ODEwODUyLCAwLjUwNTA4NjQyMTk2NjU1MjcsIC0wLjMzNDI1NzA2NjI0OTg0NzQsIC0wLjI3OTIxMDMyOTA1NTc4NjEzLCAtMC4yMjE0MzU2OTU4ODY2MTE5NCwgMC45ODcwMzc1Mzk0ODIxMTY3LCAtMC40MTg1NTM5NDg0MDI0MDQ4LCAwLjQxNDMxNTg0OTU0MjYxNzgsIC0wLjY0OTYwNDU1ODk0NDcwMjEsIC0wLjczODMyMDExMjIyODM5MzZdLCBbLTAuMDk5Njk1NDU5MDA4MjE2ODYsIDAuMTAxNjA0NTgwODc5MjExNDMsIC0wLjA2MDYzMjY4MzMzNjczNDc3LCAwLjEyNTU5MTAyNDc1NjQzMTU4LCAtMC4wNTA2NzU1MzM3MTE5MTAyNSwgMC4zMjIxNjgzODAwMjIwNDg5NSwgMC4yMTU2OTIyMjIxMTgzNzc2OSwgMC4zMTA1MzUzNzEzMDM1NTgzNSwgMC4wMjU3MDI0MjI0ODQ3NTU1MTYsIDAuMjYzNzIwOTg5MjI3Mjk0OSwgMC4zMjA5MzM0NjExODkyNywgLTAuMTQzNjM2MDE4MDM3Nzk2MDIsIC0wLjEzOTQ1MTI2NTMzNTA4MywgMC4zMDMzNzU2NjEzNzMxMzg0LCAwLjEyMzY3MzI1Mjc2MTM2Mzk4LCAwLjE4MjEwMjY4MDIwNjI5ODgzXSwgWy0wLjc1NzAxOTE2MjE3ODAzOTYsIC0wLjYyNDc0MjU2NzUzOTIxNTEsIDAuNDM3NDE3MjA5MTQ4NDA3LCAwLjc3NDcyMjMzNzcyMjc3ODMsIDAuMjg3OTY1MTE4ODg1MDQwMywgLTAuNjMxMzcwMzY1NjE5NjU5NCwgMC43NjAxMzMwMjgwMzAzOTU1LCAwLjgzMzk4NDg1MTgzNzE1ODIsIC0wLjYwNjc4MjkxMzIwODAwNzgsIC0wLjMwOTc3NzIwMDIyMjAxNTQsIC0wLjk1NzgwNjcwNjQyODUyNzgsIDAuODcyNTE0OTYzMTUwMDI0NCwgLTAuNTgwNDE5Nzc4ODIzODUyNSwgMC42MjMxNTA4MjU1MDA0ODgzLCAtMC44NTY1NjA0MDkwNjkwNjEzLCAtMC43OTQxMTY5NzM4NzY5NTMxXSwgWzAuMzQ0MDUzOTI0MDgzNzA5NywgLTAuMDc1NTI0OTI2MTg1NjA3OTEsIDAuMjU2NDUwMTE2NjM0MzY4OSwgMC4yNjI5MTcxMDEzODMyMDkyMywgMC4yNTYwMzc5ODAzMTgwNjk0NiwgLTAuMzE3NDMwNTI2MDE4MTQyNywgMC4zMzE2NTg0ODI1NTE1NzQ3LCAwLjM2MjgxODc3NzU2MTE4Nzc0LCAtMC4yMzMzMDg5MjYyMjQ3MDg1NiwgLTAuMDAwNTU0MjM2NTgzNDExNjkzNiwgMC4wMDA5Njc2MDEzMTQxODcwNDk5LCAwLjUzMjM5MzMzNjI5NjA4MTUsIDAuMDMxMTI4NjU3OTgxNzUzMzUsIDAuNDQyODc0NTUwODE5Mzk3LCAtMC4zOTM4OTYyODE3MTkyMDc3NiwgLTAuMDk2NTUwNTgzODM5NDE2NV0sIFswLjEzMDkyNzIxOTk4NjkxNTYsIC0wLjAyOTMxNDQ1Mjc4MjI3MzI5MywgMC4yNjcwMDAwMTk1NTAzMjM1LCAwLjEzNjk4Nzk1NDM3ODEyODA1LCAwLjM2NDQ4ODYwMTY4NDU3MDMsIC0wLjA4NTg2MTc0OTk0NzA3MTA4LCAwLjE4MDE1MDc0NzI5OTE5NDM0LCAwLjI1MjQ2NDExNTYxOTY1OTQsIDAuMTAwMzgzOTIyNDU3Njk1MDEsIDAuMzMzODc4ODc0Nzc4NzQ3NTYsIDAuMjgwNDEwMjg5NzY0NDA0MywgMC4yNzIyNDc5OTk5MDY1Mzk5LCAwLjE0NTI3NTY1MjQwODU5OTg1LCAwLjM3MzA1MjQxODIzMTk2NDEsIC0wLjE1NDQ2MzAzNzg0ODQ3MjYsIC0wLjA3MDI2NjU3NDYyMTIwMDU2XSwgWzAuMDE5NDU2NTk1MTgyNDE4ODIzLCAtMC4xMDIyMzY1MDkzMjMxMjAxMiwgMC41MzI5NTcyNTU4NDAzMDE1LCAwLjUzNDQxNTI0NTA1NjE1MjMsIC0wLjU0ODkyMjU5ODM2MTk2OSwgLTAuMjQ5OTI3NTIwNzUxOTUzMTIsIDAuMzE4NTc5Mzc1NzQzODY1OTcsIDAuNTAwNjAyOTYwNTg2NTQ3OSwgLTAuMzE0MzM4NzQzNjg2Njc2LCAtMC42MzcxNDQ0NDYzNzI5ODU4LCAwLjA0ODg4MjM1Nzc3NjE2NTAxLCAwLjYzMzM4OTQ3Mjk2MTQyNTgsIC0wLjQ5NDU5NjI3MjcwNjk4NTUsIDAuMzM4NjA5MTg4Nzk1MDg5NywgLTAuNDkxNTY1Njc0NTQzMzgwNzQsIC0wLjU0NTEyNzY4OTgzODQwOTRdLCBbLTAuNTExMDM5NzkzNDkxMzYzNSwgLTAuNTIyMzA5OTU4OTM0NzgzOSwgMC43MzI5OTI2NDkwNzgzNjkxLCAwLjg4NjkwOTI0NjQ0NDcwMjEsIC0wLjEzNzkxODIxODk3MDI5ODc3LCAtMS4wMzQ4ODU0MDY0OTQxNDA2LCAwLjcxMjM5NzgxMzc5Njk5NzEsIDEuMDIwNjI3Mzc5NDE3NDE5NCwgLTAuNzUzODUxODkwNTYzOTY0OCwgLTEuMjA3MzA3NTc3MTMzMTc4NywgLTAuNzY0OTk3NzIwNzE4MzgzOCwgMC44NzQ5MjE1MDA2ODI4MzA4LCAtMS4wOTY5ODMxOTQzNTExOTYzLCAwLjkwNDM0NjQ2NjA2NDQ1MzEsIC0wLjk4MTczMjcyNjA5NzEwNjksIC0wLjc1NTU1NTUxMDUyMDkzNTFdXSwgWzAuMDUzNDUxMTk1MzU5MjMwMDQsIDAuMTE0NDkyOTY3NzI0ODAwMTEsIDAuMjM3OTQ2MzkxMTA1NjUxODYsIDAuMDY0MTI1MjE3NDk3MzQ4NzksIC0wLjEyNjg4ODM5NDM1NTc3MzkzLCAwLjA1NzQ1NTczMzQxODQ2NDY2LCAwLjA2OTA5NjQxNjIzNDk3MDA5LCAwLjA5MTA3NzMxMjgyNzExMDI5LCAtMC4wMDQzMjE4NTEzMDE5MzgyOTUsIDAuMDYyMTUwNTM3OTY3NjgxODg1LCAwLjAyOTE1NDg0ODMwNzM3MTE0LCAwLjA5MzMwMzAwMjQxNzA4NzU1LCAwLjA0OTg3MTEyODA1MjQ3MzA3LCAwLjA3Mjk4MzI2NDkyMzA5NTcsIDAuMDcwMTMwNTk0MDc0NzI2MSwgLTAuMDA3NzU5NTk5NDgwNzc3OTc5XSwgW1stMS4xNjcyNjMwMzEwMDU4NTk0XSwgWy0xLjAyMzUzODgyNzg5NjExODJdLCBbMC44Mzg0ODQxMDg0NDgwMjg2XSwgWzEuMjk4OTgxNDI4MTQ2MzYyM10sIFstMS44Njg2Njg5MTM4NDEyNDc2XSwgWy0wLjk0NDU5OTAzMjQwMjAzODZdLCBbMS40OTY2MTQzMzY5Njc0NjgzXSwgWzEuODM1ODUzOTM0Mjg4MDI1XSwgWy0xLjgxMDU2OTA0NzkyNzg1NjRdLCBbLTAuODc0NjY2OTI5MjQ0OTk1MV0sIFstMS4xMTMxNjYzMzIyNDQ4NzNdLCBbMS4zNjEzMjY5MzI5MDcxMDQ1XSwgWy0wLjkwMzMxNjg1NTQzMDYwM10sIFsxLjc0MzU5Nzc0NTg5NTM4NTddLCBbLTEuMTU0OTA3OTQxODE4MjM3M10sIFstMS4yNzQzNDY0NzA4MzI4MjQ3XV0sIFswLjE5NzkxNDM2MTk1MzczNTM1XV0=", "metrics": {"loss": 0.145213, "accuracy": 0.94048, "auc": 0.98707, "precision": 0.931493, "recall": 0.959337}}