{"round": 5, "weights_b64": "W1tbMC4wOTUwNDc4MjQwODQ3NTg3NiwgMC40ODQxMTY1NTQyNjAyNTM5LCAtMC4xMzAwMDA4MTQ3OTU0OTQwOCwgLTAuMDQ2ODgyNjQ0Mjk1NjkyNDQ0LCAwLjA0NjcwNjIyMTk5NzczNzg4NSwgLTAuMDMwMzMzNDY2ODI3ODY5NDE1LCAwLjI3MjYxNTQ5MjM0MzkwMjYsIDAuMTE5MzgxMjYzODUyMTE5NDUsIDAuMDE1MTE3MjE0MDYxMzE5ODI4LCAwLjI1MjY5MjA3MzU4MzYwMjksIDAuMjI3MDcyMTY0NDE2MzEzMTcsIC0wLjIwNDIzNDAxODkyMTg1MjEsIC0wLjM1ODM3NDQxNjgyODE1NTUsIC0wLjEwNTUyNzI4OTIxMTc1MDAzLCAwLjAwODU1MjIxNjkyNDcyNjk2MywgMC4xNzI4ODQ0MDQ2NTkyNzEyNCwgMC4yNzg0NTA4MTY4Njk3MzU3LCAtMC4wMTY5NjcyMDM0NjgwODQzMzUsIDAuMDE1MjUyMjc3MjU1MDU4Mjg5LCAtMC4wMTg0MDMzNDc1ODE2MjQ5ODUsIDAuMjk5NTIxMDg4NjAwMTU4NywgMC4yMzU5ODQ5OTU5NjExODkyNywgMC4xMTUzNjYxNjgzMjAxNzg5OSwgLTAuMDQxMzQ1ODc1NzEwMjQ4OTUsIDAuMjAyMDYyMDQwNTY3Mzk4MDcsIDAuMDQ1NzgwMDE3OTcxOTkyNDksIDAuMDA4NjQyNjU1Nzk3MzAyNzIzLCAwLjEwNzQ4NTcxMTU3NDU1NDQ0LCAtMC4zODU4ODc5ODA0NjExMjA2LCAwLjUzNzY1ODYzMTgwMTYwNTIsIDAuMDk4NjE2NjUyMTkwNjg1MjcsIDAuMTU0MzQ0NDI0NjA1MzY5NTddLCBbLTAuMzIxMjQ3MTAwODMwMDc4MSwgMC45ODMwNTIxMzQ1MTM4NTUsIDAuMDgzOTQ4NDMzMzk5MjAwNDQsIDAuMDQ0OTA0Mjc2NzI4NjMwMDY2LCAtMC40OTYzNTg5MzEwNjQ2MDU3LCAwLjMzMTk2NjUxOTM1NTc3MzksIDEuNDAwMTYwNTUxMDcxMTY3LCAtMC4yNjE0NjY3NDE1NjE4ODk2NSwgLTAuNTc4MDc4NjI3NTg2MzY0NywgLTAuNzAyODcxMTQzODE3OTAxNiwgMi41MjQ4MTQ2MDU3MTI4OTA2LCAwLjA4NjcwMTExMDAwNTM3ODcyLCAtMC4zMTg0MDY4NTAwOTk1NjM2LCAtMC40Njk1ODQxNjcwMDM2MzE2LCAwLjc1OTA4MDc2NzYzMTUzMDgsIDAuMTA1NTQ5NzgyNTE0NTcyMTQsIDMuNDQ5NzA0ODg1NDgyNzg4LCAtMC43Njg3NDU3Nzk5OTExNDk5LCAzLjg0MDY2Njc3MDkzNTA1ODYsIDAuMzI3NTc5MTQwNjYzMTQ3LCAxLjA3ODkzMjc2MjE0NTk5NiwgLTAuOTUyOTMwODA4MDY3MzIxOCwgLTAuNDkwMjU3ODU5MjMwMDQxNSwgMC40MjIxNDA2MjgwOTk0NDE1MywgMC4yNjM5MTkwMjU2NTk1NjExNiwgLTEuNDgxNTIzMjc1Mzc1MzY2MiwgLTEuMTA4OTcxNzE0OTczNDQ5NywgMC44Mjg4MjczODExMzQwMzMyLCAwLjE3MDA0ODQxNTY2MDg1ODE1LCAzLjA4MjMwNDk1NDUyODgwODYsIDAuMjYwODA2MzIyMDk3Nzc4MywgLTAuNTcyMTI0MzYxOTkxODgyM10sIFstMC41MjEzNjE2NDkwMzY0MDc1LCAwLjI2ODc3MzA3ODkxODQ1NzAzLCAtMC4wMTA0NTY3ODU1NTk2NTQyMzYsIDAuMTUzODEzMDkzOTAwNjgwNTQsIC0xLjQ5NTkyNDQ3MjgwODgzOCwgMC4wODcyMDg4MzcyNzA3MzY3LCAwLjU4Njg2Nzc0OTY5MTAwOTUsIDAuMTUwNzk5MTk5OTM4Nzc0MSwgMC4yMjY1MDE3OTI2NjkyOTYyNiwgLTEuODUyOTUzNjcyNDA5MDU3NiwgMC4zMTc1MDgwNDE4NTg2NzMxLCAwLjMwNzIzNzc0NDMzMTM1OTg2LCAtMC40MDU3NTI2NTg4NDM5OTQxNCwgLTAuODU4NzMwNDM1MzcxMzk4OSwgMC4yNzA0MDc0MzgyNzgxOTgyNCwgMC4yMDY1NTI5Njc0MjkxNjEwNywgMC41ODE3NzIyMDgyMTM4MDYyLCAtMS45MzYyNjg1NjgwMzg5NDA0LCAtMC4yMTQ0MTU4MTg0NTI4MzUwOCwgMC4xMTk0MjIzMTY1NTEyMDg1LCAwLjQ2Mzk2MzA5MTM3MzQ0MzYsIC0wLjM2MTQ1MzYyMjU3OTU3NDYsIC0wLjcxOTA5OTY0MDg0NjI1MjQsIC0wLjEzMzc4NzIxNDc1NjAxMTk2LCAwLjMxNzgzNzExOTEwMjQ3OCwgLTAuNjE3NzMyNzAzNjg1NzYwNSwgMC4wNTA1NTA0ODY4OTI0NjE3OCwgMC40MzY1NDY5ODEzMzQ2ODYzLCAwLjIzODAwNTYwODMyMDIzNjIsIDAuNDY0NjcwNzc3MzIwODYxOCwgMC4wOTkzNjY3MjQ0OTExMTkzOCwgLTEuNDE4NzgwNTY1MjYxODQwOF0sIFstMC4wNjk4OTA5NTM2MDA0MDY2NSwgMC4zNTcxMjU2OTk1MjAxMTExLCAwLjAzMDc3NzkzMTIxMzM3ODkwNiwgLTAuMTM3OTcyMTQ2MjcyNjU5MywgMC4wODM4MTg3NzgzOTU2NTI3NywgLTAuMjc5NzM2NDU5MjU1MjE4NSwgMS42MjMwMTY1OTU4NDA0NTQsIC0wLjU5MTk1MzYzNTIxNTc1OTMsIC0xLjM1MDYxNDE5MDEwMTYyMzUsIDAuMjMzMTkxOTY3MDEwNDk4MDUsIDEuNTY1MzAxMDYwNjc2NTc0NywgLTAuMjk3OTIxOTg1Mzg3ODAyMSwgLTAuMjA0NTkxNDUzMDc1NDA4OTQsIC0wLjMzMzk4Mjc5NTQ3NjkxMzQ1LCAwLjA0ODAyMzQwMjY5MDg4NzQ1LCAtMC4xNTc4MjAyODQzNjY2MDc2NywgMS4zNDUwODU4NTkyOTg3MDYsIDAuMDQxNTQxNTYxNDg0MzM2ODUsIDEuMzk2NTY5MDEzNTk1NTgxLCAwLjEyMTg2MzQ2OTQ4MTQ2ODIsIDAuNzc1MDYwNDE1MjY3OTQ0MywgLTAuOTE4MzU5Njk2ODY1MDgxOCwgLTAuMjk3NjUzMTA4ODM1MjIwMzQsIDAuMTc3MjkxMTg0NjYzNzcyNTgsIC0wLjAwMzU2OTY0NDg3NTgyNDQ1MTQsIC0wLjc0MzIxMTMyODk4MzMwNjksIC0wLjk5MjgyNjQ2MTc5MTk5MjIsIDAuMDg2NTEzMDQyNDQ5OTUxMTcsIC0wLjA0MzAxNzIwODU3NjIwMjM5LCAxLjc1ODkxMzc1NTQxNjg3MDEsIC0wLjgwMTI1MjM2NTExMjMwNDcsIDAuNDE5MDQxNjkzMjEwNjAxOF0sIFswLjMyNjYyMzU4ODgwMDQzMDMsIC0wLjk1NzI2OTc4Nzc4ODM5MTEsIC0wLjQzNDM2NjE2NjU5MTY0NDMsIDAuMjIwNDE0NDc0NjA2NTEzOTgsIC0xLjk5ODI4MTAwMjA0NDY3NzcsIC0wLjIxODA1NTkxODgxMjc1MTc3LCAwLjEyNDM5OTExMDY3NDg1ODEsIC0wLjE2NDc1NTM4OTA5NDM1MjcyLCAtMC4xNTI1MzMwODQxNTQxMjkwMywgLTIuMzI3ODA5ODEwNjM4NDI3NywgMC4yMTY3NjE1Mjk0NDU2NDgyLCAtMC4zMjc2OTMxMDQ3NDM5NTc1LCAtMC41MTM1MTI0MzI1NzUyMjU4LCAtMC40NTI2NDk1MzM3NDg2MjY3LCAwLjA1OTg4NTI4NTc5NDczNDk1NSwgMC40NjY0OTE1MjA0MDQ4MTU3LCAwLjUzNjU2MTU0ODcwOTg2OTQsIC0zLjYyNjkxNzM2MjIxMzEzNDgsIC0wLjIyNTQxMTI2NjA4ODQ4NTcyLCAtMC4zODQwNjI0NjkwMDU1ODQ3LCAtMC4yNjkxODY2NzU1NDg1NTM0NywgMC4xMTc0MTIxNzk3MDg0ODA4MywgLTAuNjc4MjEwNDM3Mjk3ODIxLCAtMC4xMzg4NTg3MjA2NjAyMDk2NiwgMC41ODAwNjkxMjQ2OTg2Mzg5LCAtMC45NDc1MzAyNjk2MjI4MDI3LCAwLjE2OTI3NzkzNjIyMDE2OTA3LCAtMC4zMjUwOTAyODkxMTU5MDU3NiwgLTAuMDM4ODMzMzQ5OTQzMTYxMDEsIDAuMjcwNzQ0MzgzMzM1MTEzNSwgLTAuMDkyOTkxNTc1NTk4NzE2NzQsIC0yLjAzOTk1NjU2OTY3MTYzMV0sIFswLjEzMjYzNzYxOTk3MjIyOSwgMC4xMDY4NTU3MDUzODA0Mzk3NiwgLTAuMDYzMDEzNzc3MTM2ODAyNjcsIDAuMDkwMzc4Mjc3MDAzNzY1MSwgMC4wMzg0NTc3MzYzNzI5NDc2OSwgMC4wOTc0NTExODAyMTk2NTAyNywgLTAuMTQyMjE0MTE5NDM0MzU2NywgLTAuMDMwOTgxNjkzNDE2ODMzODc4LCAwLjIxOTE0MTM2NDA5NzU5NTIxLCAwLjExODYwMDQ4NzcwOTA0NTQxLCAwLjAwNjI5ODc1MzQzMjkyOTUxNiwgLTAuMjI2NDgwMzM0OTk3MTc3MTIsIC0wLjAwODgzMzQ2NzAyOTAzNTA5MSwgMC4xMjMzNTU2MjcwNTk5MzY1MiwgMC4wMjI4MTA1OTMyNDc0MTM2MzUsIDAuMDA5OTU0Mzc4OTQwMTY1MDQzLCAwLjAwMjQ2NTc4OTY3MTk4NzI5NSwgLTAuMDQxMTgyNjE0ODYyOTE4ODU0LCAwLjEyNDYxNzk5MzgzMTYzNDUyLCAtMC4wMjc4OTcxNzcyNjQwOTQzNTMsIDAuMTQ3MDY4Nzk4NTQyMDIyNywgMC4xNzk4MzY0NjY5MDg0NTQ5LCAwLjEyMDUzNDc1NTI4OTU1NDYsIDAuMjIzMzEyODg0NTY5MTY4MSwgMC4wMjExNDAwNTM4NjgyOTM3NjIsIC0wLjAwODYzNjcxMDIzMzk4NjM3OCwgLTAuMDM2NDA2MzE1ODYzMTMyNDgsIC0wLjA2NzIyMjAxNDA2OTU1NzE5LCAtMC40NDk2Mzc3MTEwNDgxMjYyLCAwLjIzMjQxMDc4ODUzNjA3MTc4LCAwLjQyNDMyNzI1NDI5NTM0OTEsIDAuMTcyMzA0MTA4NzM4ODk5MjNdLCBbMC4wMjA1Mjg0MDQwNDIxMjQ3NDgsIC0wLjI3MDMzMjgxMzI2MjkzOTQ1LCAtMC4wNDYyMTQ3ODE3MDE1NjQ3OSwgMC4xODMxODczOTUzMzQyNDM3NywgLTAuMDcwMTE3NDg4NTAzNDU2MTIsIC0wLjA3MDQzODM0MDMwNjI4MjA0LCAtMC4wNzg4NzY3NzEwMzI4MTAyMSwgMC41MTczODk4MzM5MjcxNTQ1LCAtMS44MjYyMjk4MTA3MTQ3MjE3LCAtMC4yMDg2MDgyOTk0OTM3ODk2NywgLTAuMTIyNTI0MzA2MTc4MDkyOTYsIDAuMDg3NzAwNzk5MTA3NTUxNTcsIC0wLjAwNzUwNjk4ODAxMTMwMDU2NCwgMC4yMjI3NjI2MTQ0ODg2MDE2OCwgMC4yMzU4MzgyNjQyMjY5MTM0NSwgMC4xNDg5MDc1MTI0MjYzNzYzNCwgMC4wMDQ1MzU0ODI3MzA3MTY0NjcsIDAuMTI5NjY0Mzc2Mzc4MDU5NCwgLTAuMDIwNDM2ODU2ODk1Njg1MTk2LCAwLjQ3MDMyMDQzMzM3ODIxOTYsIDAuMDM3NjMwNDg3MjMzNDAwMzQ1LCAtMS40ODQ3NjY4NDA5MzQ3NTM0LCAwLjAyODQ0MDc5OTU2NDEyMzE1NCwgLTAuMzQyMzkyNzQyNjMzODE5NiwgMC4zNjk3ODM0NjEwOTM5MDI2LCAtMC40OTYyMTA0MjYwOTIxNDc4LCAtMC4wODA0NjIyMzk2ODI2NzQ0MSwgMC4yMzA1NTQ3ODkzMDQ3MzMyOCwgMC4wMjMwMjk1ODI1NzQ5NjM1NywgMC4xNzY4MjcwNzMwOTcyMjksIDAuNDU1MzkwMjc0NTI0Njg4NywgLTAuMDQ4NzgzNjc4NTYxNDQ5MDVdLCBbMC41MzY0NjE3NzA1MzQ1MTU0LCAtMS45OTExNDIwMzQ1MzA2Mzk2LCAtMC4xNjIwNTI1NDE5NzEyMDY2NywgLTAuMDc3MzkwOTI0MDk2MTA3NDgsIC0wLjQwMzYzODc4MDExNzAzNDksIDAuMDI2NDA3NjY2NTA0MzgzMDg3LCAtMS41MDIyOTIyNzU0Mjg3NzIsIDEuNTE3MjA3MDI2NDgxNjI4NCwgMS4xMzM1NjUxODc0NTQyMjM2LCAtMy44ODE2OTI4ODYzNTI1MzksIC0yLjI5MDEzODcyMTQ2NjA2NDUsIDAuNDM3MjE2NDYwNzA0ODAzNDcsIDEuNDIwNjEyNDU0NDE0MzY3NywgMS4xNTYxNTY2NTkxMjYyODE3LCAtMC40NzYxNTY5NDk5OTY5NDgyNCwgMS4yNTQzMzgyNjQ0NjUzMzIsIC0yLjk4MzgyODA2Nzc3OTU0MSwgLTAuOTI1NjgxMjMzNDA2MDY2OSwgLTEuMzc2Mzk5Mzk3ODUwMDM2NiwgMC4yMjQ4NjE4MDA2NzA2MjM3OCwgLTEuMzkwODg3MjYwNDM3MDExNywgLTAuNjUwNTk5MDAyODM4MTM0OCwgMS4wODgzNDU0MDg0Mzk2MzYyLCAwLjU1NjI4MDQ5MzczNjI2NzEsIDAuMzUxMDQxMDc4NTY3NTA0OSwgMS44NjQ2NjQwNzc3NTg3ODksIDAuOTA3ODI2NjYyMDYzNTk4NiwgLTAuMDc0MDYyNzM0ODQyMzAwNDIsIDAuNzcyNTQ2NDEwNTYwNjA3OSwgLTMuMjg2NzU2NTE1NTAyOTI5NywgMS40MDkxMTAwNjkyNzQ5MDIzLCAtMC43MzEyMTYzMTE0NTQ3NzNdLCBbLTAuMzkzMTc1NjAxOTU5MjI4NSwgMC40ODMzMjU2MDA2MjQwODQ1LCAtMC4wODg1NzkzNDE3NjkyMTg0NCwgMC4wNTQzOTkwMzIxNDU3Mzg2LCAtMC4xODMxMzUxNTE4NjMwOTgxNCwgLTAuMDQ2NTExMTU0NjIxODM5NTIsIDAuOTMwMjE1MTIwMzE1NTUxOCwgLTAuMzcyMzg3MTExMTg2OTgxMiwgMC44OTMwNTMwNTQ4MDk1NzAzLCAtMC4yNjkzMjQ2MDA2OTY1NjM3LCAtMC4zNTY5ODM4NDA0NjU1NDU2NSwgMC4zMDc1NzI1NDM2MjEwNjMyMywgLTAuMjEwMTg1MDUwOTY0MzU1NDcsIC0wLjYwOTgxOTE3MzgxMjg2NjIsIDAuMjY1MjE1OTAzNTIwNTg0MSwgMC4xNTU1Nzc0ODA3OTI5OTkyNywgLTAuNzEyNzY5Njg3MTc1NzUwNywgLTAuMjIzNzUxMDgzMDE2Mzk1NTcsIC0wLjQ5NzMxMzg1NzA3ODU1MjI1LCAwLjUzMjEyMjQzMzE4NTU3NzQsIDAuNjg3NDc0MTMxNTg0MTY3NSwgLTAuOTIxNjg4NzM1NDg1MDc2OSwgLTAuNzg0MTM2NTMzNzM3MTgyNiwgMC4yODY0NTYxMzc4OTU1ODQxLCAtMC4wNzE1ODY4MDI2MDE4MTQyNywgLTAuMzA1MDExMjQyNjI4MDk3NTMsIDAuMTExNjQyMDcwMTE0NjEyNTgsIDAuNDQ0NzU4NDc0ODI2ODEyNzQsIDAuMTcyMzg3MjQyMzE3MTk5NywgLTAuMzc1ODk5NzkxNzE3NTI5MywgLTAuMjEzODk4NTY5MzQ1NDc0MjQsIC0wLjE0MjA2MzI2MDA3ODQzMDE4XSwgWy0xLjM4ODY3MjU5MDI1NTczNzMsIDAuMTg0NDYxMjk1NjA0NzA1OCwgMC4yNjA4NDYzNzY0MTkwNjc0LCAwLjE1MTcxMDE4MjQyODM1OTk5LCAtNC4wMjgxNTI5NDI2NTc0NzEsIDAuMzkxMDg1MjY3MDY2OTU1NTcsIDAuMTU2MTY3MTE5NzQxNDM5ODIsIC0wLjYzMDY0Mzg0NDYwNDQ5MjIsIDAuMTU3OTc5MTAwOTQyNjExNywgLTQuMTIzOTM2MTc2MzAwMDQ5LCAtMC4wOTI2MjE4Nzc3ODk0OTczOCwgMC42NjAzNTcxMTc2NTI4OTMxLCAtMC41ODE1MDM4NjgxMDMwMjczLCAtMS4yMTgyMjU4MzY3NTM4NDUyLCAyLjAyMzU1MTk0MDkxNzk2ODgsIC0wLjI1MjUxODg5MjI4ODIwOCwgMC4wMTk2MzgxMzc4OTE4ODg2MiwgLTQuMjE4NzAyMzE2Mjg0MTgsIDAuMDM4Mzg0NDIyNjU5ODczOTYsIDAuNTAwMjQzMTI3MzQ2MDM4OCwgMC4wODQ3NjY3NzUzNjk2NDQxNywgLTAuNDMyNTkxNzM2MzE2NjgwOSwgLTEuNzUxNTczODAxMDQwNjQ5NCwgLTAuMDM2NTM2NDQwMjUzMjU3NzUsIDAuMDU1Mjc3NjQ1NTg3OTIxMTQsIC0xLjAxOTI5NTQ1NDAyNTI2ODYsIDAuMjYxMjEzMTgzNDAzMDE1MTQsIDEuMDU1Mzc2NzY4MTEyMTgyNiwgMC41ODkxMTEzODc3Mjk2NDQ4LCAtMC4xNDE4ODIwNjE5NTgzMTMsIDAuMzgxNzI5NjkyMjIwNjg3ODcsIC00LjAzNjU3MjkzMzE5NzAyMTVdLCBbMC4yNTI5MTIxOTM1MzY3NTg0LCAtMC4wMDUyNjA3MTU3MjY3NjMwMSwgLTAuMDA5ODc2NTU1NzYzMTg1MDI0LCAtMC4xMDI0NDExMTcxNjc0NzI4NCwgMC4wNjI0NDkwMjMxMjc1NTU4NSwgLTAuMjg2NDE2NjIwMDE2MDk4LCAtMC4wNDM1MzE3OTQxMDA5OTk4MywgMC41NDIyODg3ODAyMTI0MDIzLCAwLjI0NTcxNDU4OTk1MzQyMjU1LCAwLjEzNDg2NDg4MTYzNDcxMjIyLCAwLjE2ODA0MjcxOTM2NDE2NjI2LCAtMC40NTUyNzM3NDc0NDQxNTI4MywgMC4wMzgzMDkyOTQ3MzA0MjQ4OCwgMC4yNDg4MTQwNDYzODI5MDQwNSwgMC4xMDYyNDE3NDc3MzY5MzA4NSwgMC4yNzE2NjU1NDMzMTc3OTQ4LCAwLjE3MDU0NDQ5MDIxODE2MjU0LCAtMC4wMTkzOTYwNjY2NjU2NDk0MTQsIC0wLjQwNTc2OTM3Nzk0Njg1MzY0LCAtMC4wMDU2MzI0OTY5MDQ1ODE3ODUsIC0wLjY1NjI0MjYwOTAyNDA0NzksIDAuMjMyODY0MjMwODcxMjAwNTYsIDAuMjU0ODQ4ODk3NDU3MTIyOCwgMC4wNjYxNzE1MTk0NTgyOTM5MSwgMC4zMTY4ODc3OTU5MjUxNDA0LCAwLjIwNzc5NDY5NjA5MjYwNTYsIDAuMDU0MjgxNTEwNDEyNjkzMDI0LCAwLjAzNTMyMDk0NTA4NDA5NSwgLTAuMTkwOTc3OTc1NzI2MTI3NjIsIDAuMDgwMjU3NTk0NTg1NDE4NywgMC44NzkzNDM5ODY1MTEyMzA1LCAtMC4xMDk1MzM1MTg1NTI3ODAxNV0sIFswLjI2NzQxMzAyMDEzMzk3MjE3LCAtMC4xNzk0MDYyMjU2ODEzMDQ5MywgMC4wMTM4MTgzNjA4NjUxMTYxMiwgMC4yMjYyOTc3MDYzNjU1ODUzMywgMC4zOTE5Mjc2NTk1MTE1NjYxNiwgLTAuMzc3ODIxOTgxOTA2ODkwODcsIC0wLjEwNTAxODkxMzc0NTg4MDEzLCAtMC4wMjAyODQwMTk0MTA2MTAyLCAwLjA3MjA0MTAxOTc5NzMyNTEzLCAwLjI1NzQyOTQ4MDU1MjY3MzM0LCAtMC42ODQ4NTk5MzE0Njg5NjM2LCAtMC45MzA0MDYwOTM1OTc0MTIxLCAtMC4wMzI2NTcyNTgyMTI1NjYzNzYsIDAuMTYwNzIyNzYyMzQ2MjY3NywgMC4wMzIyNjk5Mzk3ODAyMzUyOSwgMC4wMDQ2MTU1NzEzNDk4NTkyMzgsIC0xLjQxMDA3MDg5NjE0ODY4MTYsIDAuMjc1NzMxMDI3MTI2MzEyMjYsIC0wLjMzNzE0OTk3NzY4NDAyMSwgLTAuMTI1MTEyOTY1NzAzMDEwNTYsIC0wLjE3NzIzMzgzMDA5NDMzNzQ2LCAwLjEwMDA4NDU4NzkzMTYzMywgMC4xNzU5ODk2Mjc4MzgxMzQ3NywgLTAuMjI5MDY1NTUyMzUzODU4OTUsIC0wLjIxMzU5NDg2ODc3OTE4MjQzLCAwLjA2MTUyMTk1NDgzNDQ2MTIxLCAwLjE1MTE1NDU3NzczMjA4NjE4LCAwLjAxNjQyMjAwNzIzMjkwNDQzNCwgLTAuNTYyNDY1MjUwNDkyMDk2LCAtMC43MjU5MDg5OTQ2NzQ2ODI2LCAtMC4yMDY1MDE5OTA1NTY3MTY5MiwgMC4zNDgwMDExMjI0NzQ2NzA0XSwgWzAuMDQ4NTgwMDA1NzY0OTYxMjQsIDAuMTcyNTM4ODE2OTI4ODYzNTMsIDAuMDgwMTU2NTc5NjEzNjg1NjEsIDAuMDQ2MTk0NzU0NTQwOTIwMjYsIDAuMDM1NzE2NjY3NzcxMzM5NDE3LCAwLjA1MTU2NjQ4OTA0MDg1MTU5LCAwLjIxNjY0MzM2MzIzNzM4MDk4LCAtMC4xMTczMDUxMjIzMTU4ODM2NCwgLTAuMTUxMDY0NjA0NTIwNzk3NzMsIDAuMjcyNzYzNzU4ODk3NzgxMzcsIDAuMjYzMTQxMzYzODU5MTc2NjQsIC0wLjc2OTE5MjAzOTk2NjU4MzMsIDAuMDQ5MzEyNDI3NjM5OTYxMjQsIDAuMDkxMzI4NDg2ODAwMTkzNzksIDAuMDk0NDYzODEwMzI0NjY4ODgsIDAuMjc5ODc0MjA1NTg5Mjk0NDMsIDAuMzI2ODAzOTgyMjU3ODQzLCAwLjEzMDU3MTEyNjkzNzg2NjIsIC0wLjE3MTMzNjYwNjE0NDkwNTEsIDAuMTUxNjQ5OTIyMTMyNDkyMDcsIDAuMDQzODEzNTYzODgzMzA0NTk2LCAwLjIzNDA2Mzk4Mjk2MzU2MiwgMC4wNjMxNTM0OTA0MjQxNTYxOSwgMC4wMDY0MDA3NDE2MzY3NTMwODIsIC0wLjA2OTA4NjI5ODM0NjUxOTQ3LCAwLjEwNTUwMjkzMzI2Mzc3ODY5LCAtMC4yMzY5MDA3NzY2MjQ2Nzk1NywgMC4wNTc2NzA4ODM4MzQzNjIwMywgLTAuNDIxNTg4MjQyMDUzOTg1NiwgMC4zNTMyODgxMTQwNzA4OTIzMywgLTAuMDE1MzI0MzA2Njc0MzAxNjI0LCAwLjA4NjMxNTg4NTE4NjE5NTM3XSwgWy0wLjg3MTA5MDIzMzMyNTk1ODMsIDAuMzYxNjA4NTY0ODUzNjY4MiwgMC4yMDk1NDQxMjIyMTkwODU3LCAtMC4xNDgwNzQ1Mzc1MTU2NDAyNiwgLTEuMDYxNzU5OTQ4NzMwNDY4OCwgMS4wNjc3ODQ1NDc4MDU3ODYxLCAtMC4yMDgzMjkzMTk5NTM5MTg0NiwgMC4zMjA2Mzc0MzQ3MjA5OTMwNCwgMC4xNzA2Mzg3NDAwNjI3MTM2MiwgLTEuMTA0MzA1NjI0OTYxODUzLCAtMC40NDM0ODM2MjA4ODIwMzQzLCAxLjQwOTA2OTQxODkwNzE2NTUsIC0wLjUzMTI0NDk5MzIwOTgzODksIC0wLjYzNTQ5MTMxMTU1MDE0MDQsIDAuNDc2NzczMzIxNjI4NTcwNTYsIDAuMzg3MTY1MTU4OTg3MDQ1MywgLTAuOTk1NjE0NDY5MDUxMzYxMSwgLTAuNjg3MzQzODM1ODMwNjg4NSwgLTAuNTA0Mjk0MDM3ODE4OTA4NywgMC40NDYyMjkzMzg2NDU5MzUwNiwgLTAuMDA2MDcxMzg0OTk2MTc1NzY2LCAtMC4zMzkxOTQ1NjYwMTE0Mjg4MywgLTAuNTc3MDI3NDk5Njc1NzUwNywgMC4zOTY5NDMwMzI3NDE1NDY2MywgLTAuMDA0NTkxOTEyMDMxMTczNzA2LCAwLjA1OTMyNDU3NzQ1MDc1MjI2LCAwLjg5NDM0ODE0NDUzMTI1LCAwLjcwMDUwNzA0NDc5MjE3NTMsIDAuMzQ5ODQyMzY5NTU2NDI3LCAtMC42Mjk3NzMxMzk5NTM2MTMzLCAwLjkxMDg1Njg0Mjk5NDY4OTksIC0wLjM4OTYyNTI1MTI5MzE4MjRdLCBbMC4xMDY3NjcxNzc1ODE3ODcxMSwgLTAuMTMyMTAyODE3Mjk2OTgxOCwgLTAuMTkyOTI4NzkxMDQ2MTQyNTgsIC0wLjAwNjMyNTMyNjg1OTk1MTAxOSwgMC4xMzUxNTAyMjM5NzA0MTMyLCAtMC4wODQ0Nzg1ODY5MTIxNTUxNSwgLTAuMjg5MzU1NDU2ODI5MDcxMDQsIC0wLjE1MDE0MTI4Mzg2OTc0MzM1LCAtMC4xMDI2ODY0Nzk2ODc2OTA3MywgLTAuMDUyNDQ3NjA1ODc4MTE0NywgLTAuNjc5MzI4MjAzMjAxMjk0LCAwLjAwODMwMDcyMjU3NjY3NzgsIC0wLjA0NDUwNzg1MzY4NjgwOTU0LCAtMC4wMTE1Nzk3OTQ4MDkyMjIyMjEsIDguNTI0MTEwMzA3OTE2OTk5ZS0wNSwgLTAuMTA1NTA5NjIzODg1MTU0NzIsIC0xLjAyMzcyNzQxNjk5MjE4NzUsIDAuMTYxMjQ2NDE4OTUyOTQxOSwgLTAuODgxNTA3NDU2MzAyNjQyOCwgLTAuMTIyNjEwNjEzNzAzNzI3NzIsIC0wLjE4ODcxOTYwMDQzOTA3MTY2LCAwLjExMDQ0NTE1NjY5MzQ1ODU2LCAwLjA5MDYwMzIzMjM4MzcyODAzLCAtMC4wNTUxNzA5MTYwMjA4NzAyMSwgMC4wMjUzNTY5MTExMjI3OTg5MiwgLTAuMDE4NDY1MTAxNzE4OTAyNTg4LCAwLjExMTEzMzgwNjQwNzQ1MTYzLCAtMC4xNTA5NzYwNjE4MjA5ODM5LCAtMC4wNzg0MjQ2NjIzNTE2MDgyOCwgLTEuMTg2MjM4NTI3Mjk3OTczNiwgMC4wMzAxNzgwODY4MzIxNjU3MTgsIC0wLjA5NTQ4MDA5OTMyMDQxMTY4XSwgWzAuMDY5NDMzMjc5MzM1NDk4ODEsIC0wLjAwMzk3MzQ5MDA5MjkwMzM3NiwgMC4wMDM3ODkwMTg2MDY3NjcwNTg0LCAtMC4wMTM0MDg3ODY2MTcyMTk0NDgsIDAuMDEzMDE5NzQ0MzA2ODAyNzUsIC0wLjAxMjcxMTg1Mjc4ODkyNTE3MSwgMC4wNTI3NjI5NDA1MjYwMDg2MDYsIDAuMDE4ODc3ODQxNTMyMjMwMzc3LCAtMC4wNDQ1MjQ2NDM1NzAxODQ3MSwgMC4wMjM3NTY4MzU2MDk2NzQ0NTQsIC0wLjI0ODM4Nzg3MzE3Mjc2LCAwLjAxNTQ4NzA2OTI2NDA1NDI5OCwgMC4wMDQ2NjkwNTQ0MTEzNTE2ODEsIDAuMDAyNzY5MTkxMDUwOTAyMDA5LCAtMC4wMDQ3MTU3NjAyMzg0Njg2NDcsIC0wLjAwMTEzOTAyNzk5Nzg1MTM3MTgsIC0wLjQxMzIzMzMzOTc4NjUyOTU0LCAwLjAwODY4OTMzMjc1MzQxOTg3NiwgLTAuMDM3Nzc5MTc0NzQ1MDgyODU1LCAwLjA1MTM2NDEzMTI3MTgzOTE0LCAwLjA5OTg5OTI5MTk5MjE4NzUsIC0wLjAxNjU2MTgwOTkyNzIyNTExMywgLTAuMDc3MTAwNzgzNTg2NTAyMDgsIC0wLjA2NjU4NDcyODY1ODE5OTMxLCAwLjA2NzU2NzI1MTYyMjY3Njg1LCAwLjAxNTU2NTY2NjM3MDA5MzgyMiwgLTAuMDk1NjU4NTMzMjc1MTI3NDEsIDAuMDAzODU4Njc3NTc3MjI3MzU0LCAwLjAxOTY5NTc1MzIzMTY0NDYzLCAtMC4zMDE5MzMzNDgxNzg4NjM1LCAwLjAxOTY3NTg5NzQzNDM1MzgzLCAwLjAxNDc1MDI1NzEzNDQzNzU2MV0sIFstMC4wMDkxODQ4NzgzMTk1MDE4NzcsIDAuMDEwOTU1NTQ2MDUxMjYzODEsIC0wLjAwNTA3Mzg1NjU2MjM3NjAyMiwgMC4wMjg2NDA3Njc1NTk0MDkxNCwgLTAuMDEzODU3Mjg2NDIzNDQ0NzQ4LCAwLjAwNjYwNjY2NjM3MTIyNjMxMSwgLTAuMDE4OTc2NDU1NTU0MzY2MTEyLCAtMC4wMjU4NDk0MDAwODgxOTEwMzIsIC0wLjAxMzk1Njg4MDE5NjkyODk3OCwgMC4wMDgzMjQwOTEzMjI3MjAwNSwgLTAuMjExNDY4Mjc5MzYxNzI0ODUsIDAuMDQ2Mjk2ODUzNTcyMTMwMiwgMC4wNTA3MzcwNzE3ODIzNTA1NCwgLTAuMDI1ODU4ODQ1NTYxNzQyNzgzLCAtMC4wMDk0Mzg5NTI0MzEwODI3MjYsIC0wLjAxNzUyOTY5NjIyNjExOTk5NSwgLTAuMTU5NjgzNzYzOTgwODY1NDgsIDAuMDA1MDIyODIxNDgyMjcwOTU2LCAtMC4wMzk0MDMyNzA5MzAwNTE4MDQsIC0wLjA4NDQ0MDEwNDY2MzM3MjA0LCAwLjAyOTM2OTE4NjYwOTk4MzQ0NCwgMC4wMTU1ODI4NzcyMTEyNzI3MTcsIC0wLjE2MzA2ODIyMDAxOTM0MDUyLCAwLjE3MDAwODE5NzQyNjc5NTk2LCAwLjAwODY3MjQzMjA0MjY1ODMyOSwgLTAuMDI5ODEyNzA2NjM0NDAyMjc1LCAtMC4xMzIxNTI0OTc3Njg0MDIxLCAwLjAwNDAzOTA4MzYwNzQ5NDgzMSwgLTAuMDQxNDc0ODcxMzM3NDEzNzksIC0wLjA3NjA3NDAxOTA3NDQ0LCAwLjA1ODgwOTg1NzgxNTUwNDA3NCwgLTAuMDEyMzU2Mjc3NTU1MjI3MjhdLCBbLTAuMTQyNzUxMTI3NDgxNDYwNTcsIC0wLjA1MzI0NzI3Mjk2ODI5MjIzNiwgMC4wODEzNzk2MTQ3NzA0MTI0NSwgLTAuMDc1MTMzODAwNTA2NTkxOCwgLTAuMjI3OTA2NTQwMDM2MjAxNDgsIC0wLjA2MDA5MjA0MzEzMTU4OTg5LCAtMC4wMDQ4MjMzNjc1NzcwNDYxNTYsIC0wLjA1NDAzNzEyMzkxODUzMzMyNSwgLTAuMDUwMTc5MDU2ODIzMjUzNjMsIC0wLjAxNTk5MDE3OTAzMjA4NzMyNiwgLTAuMjEyMjgyODk2MDQxODcwMTIsIC0wLjAyMDc4NjI0ODE0NzQ4NzY0LCAwLjAzMTM4Mjk5Mjg2MzY1NTA5LCAtMC4xMDAwOTY4MDY4ODM4MTE5NSwgMC4wNTI2MTU1MjcwNjM2MDgxNywgLTAuMTMwNjEzOTk3NTc4NjIwOSwgLTAuMTQ5NTQ5OTQ2MTg4OTI2NywgLTAuMTQyOTY2ODA2ODg4NTgwMzIsIDAuMDIzMzQ4NDk5MDg5NDc5NDQ2LCAwLjEzMDA1NTgxNDk4MTQ2MDU3LCAtMC4wMTM5MjIzMjM0NzI3OTc4NywgLTAuMDQ1ODg0OTc0MzAwODYxMzYsIC0wLjA4ODQ4NzExODQ4MjU4OTcyLCAtMC4wMzM4NTUzMTE1NzI1NTE3MywgLTAuMTQ2ODk0MjMxNDM4NjM2NzgsIC0wLjAwODQ0OTM0Njc1ODQyNTIzNiwgLTAuMTk0NDgyMjIyMTk5NDQsIDAuMDczNTQyNDAxMTk0NTcyNDUsIDAuMDk3MjAzNjg2ODMzMzgxNjUsIC0wLjM5MzA2MjY1MTE1NzM3OTE1LCAwLjE1NzUyNzk4MzE4ODYyOTE1LCAtMC4wMjA5OTcxODE1MzQ3NjcxNV0sIFswLjA2NzQzNzM1MDc0OTk2OTQ4LCAwLjcyMjUzMzA0NzE5OTI0OTMsIC0wLjcyMzQxNzEwMzI5MDU1NzksIDAuNTgzMTg4NzcyMjAxNTM4MSwgMC41MzAzMzI4MDM3MjYxOTYzLCAtMC40ODMyNjY3MTEyMzUwNDY0LCAtMC4wODQ1MjYxNjYzMTk4NDcxLCAtMC4xODQ0MzQ0ODg0MTU3MTgwOCwgLTAuMzQ2NzE5OTgwMjM5ODY4MTYsIDAuOTI5Mzk4MTE5NDQ5NjE1NSwgMC4yMzI4MDkwMDcxNjc4MTYxNiwgLTAuMjMyODE5MTY5NzU5NzUwMzcsIC0wLjY4MzcwNzcxNDA4MDgxMDUsIDAuNDEwOTAzMjQ1MjEwNjQ3NiwgLTAuMjEyOTE3OTgzNTMxOTUxOSwgMC4xNTkxMzM5NzA3Mzc0NTcyOCwgMC4xMjIwMjY3MjY2MDM1MDgsIDAuMjU4ODA4OTEwODQ2NzEwMiwgLTAuMTE0NDg3NDU0Mjk1MTU4MzksIC0wLjc0NjU0OTc4NTEzNzE3NjUsIC0wLjU2MTc5ODg3MDU2MzUwNzEsIDAuMTUwMzg1ODU2NjI4NDE3OTcsIDAuMTAzMzk0MTY1NjM1MTA4OTUsIC0wLjM4ODczNzAyMjg3NjczOTUsIDAuNDMwNzE4NjAwNzQ5OTY5NSwgMC4wMDQ3MzY0MzAwMTE2ODk2NjMsIC0wLjc4MzgyMjI5ODA0OTkyNjgsIDAuMjc4NjY2ODgzNzA3MDQ2NSwgLTAuNDU5NzYxMzIxNTQ0NjQ3MiwgLTAuMTY2MzMwMzA3NzIyMDkxNjcsIC0xLjcwNjUyMDU1NzQwMzU2NDUsIDAuOTIwNjUyMjEwNzEyNDMyOV0sIFswLjQzMzQzNjYzMjE1NjM3MjA3LCAwLjk3NTEyNzIyMDE1MzgwODYsIC0wLjc0MTQzNzg1MjM4MjY1OTksIDAuOTkxNTIzOTIxNDg5NzE1NiwgMS4yMjk5OTI3NDczMDY4MjM3LCAtMC43NjA2ODA0MzcwODgwMTI3LCAwLjAzNzY2NDExMTcwMzYzNDI2LCAwLjA5NzY0NDQzMzM3OTE3MzI4LCAtMC4xODcxOTAyMDQ4NTg3Nzk5LCAxLjE5MjE2NDg5NzkxODcwMTIsIDAuMjk2NDI5ODcyNTEyODE3NCwgLTAuNTU0ODk1MjgxNzkxNjg3LCAtMC44ODcwNDUyNjQyNDQwNzk2LCAwLjY5ODgyNDc2MzI5ODAzNDcsIC0wLjEzODQ2NjE2NDQ2OTcxODkzLCAwLjA5MDkzNTc5NjQ5OTI1MjMyLCAwLjAyNTYzNTYyOTg5MjM0OTI0MywgMC40ODIzNDA4MTI2ODMxMDU0NywgLTAuMjAxMjkzMzE5NDYzNzI5ODYsIC0xLjA1NTY3MzI0MTYxNTI5NTQsIC0wLjI1Mzk3MDE0NjE3OTE5OTIsIDAuNDMxODE2NTE4MzA2NzMyMiwgMC4zOTQwMTQ2ODYzNDYwNTQxLCAtMC43NTc1MDg2MzU1MjA5MzUxLCAwLjkyMjE0NDY1MTQxMjk2MzksIDAuMDY5ODMwNzgyNzExNTA1ODksIC0wLjQ5MzI4NDQzNDA4MDEyMzksIDAuMzQ5OTU4MjQwOTg1ODcwMzYsIC0wLjY4MjcxODI3Njk3NzUzOTEsIC0wLjEwMjQzNjQ2ODAwNTE4MDM2LCAtMS4xNDc2MDM5ODg2NDc0NjEsIDEuMTU4MjExMzUwNDQwOTc5XSwgWy0wLjI1MDA4ODg3MDUyNTM2MDEsIDAuNDQ0NzU5MTkwMDgyNTUwMDUsIC0wLjA0OTA0MTQ1MDAyMzY1MTEyLCAwLjE5NjUxOTgyMTg4MjI0NzkyLCAwLjM1MzQzNzMzNDI5OTA4NzUsIDAuMDE1Mjg3NTQ4MzAzNjA0MTI2LCAtMC4wMjYyNzA1NTE2MDcwMTI3NSwgLTAuNDU3Mjk4MjQ5MDA2MjcxMzYsIC0wLjY4ODc2NjI0MTA3MzYwODQsIDAuNTA2NDg1MDQ0OTU2MjA3MywgMC4xNDM1NzA4NzAxNjEwNTY1MiwgLTAuMTAxNjI0OTA2MDYzMDc5ODMsIC0wLjE1NTAzMDg0NjU5NTc2NDE2LCAwLjExODU3MjM0Njg2NjEzMDgzLCAwLjA2NTA2MjMwNjgyMTM0NjI4LCAtMC4wMjY5MzM4MjgzNjg3ODI5OTcsIC0wLjA1MDUzMDI5MjA5Mzc1MzgxNSwgMC4wNTI3Mjg3MzExODUxOTc4MywgLTAuMzIzMzYwOTE5OTUyMzkyNiwgLTAuMzAxNTY5ODc5MDU1MDIzMiwgLTAuMzMwMzk0MTE5MDI0Mjc2NzMsIC0wLjIyNjk0MTc5NDE1NzAyODIsIC0wLjM1NzgxNjkwNDc4MzI0ODksIC0wLjM2NTg5NDU4NTg0Nzg1NDYsIDAuMDUxODMxMTA3NTg2NjIyMjQsIDAuMTIxMDY2NzYzOTk3MDc3OTQsIC0xLjEzMDc4NTgyMjg2ODM0NzIsIDAuMjQ2MjQzNDc2ODY3Njc1NzgsIDAuMDUxMTE4NjQ5NTQyMzMxNjk2LCAwLjA2ODQ1NDI2NTU5NDQ4MjQyLCAtMS45MzAyNDIwNjE2MTQ5OTAyLCAwLjQ2MTMxNDIwMTM1NDk4MDQ3XSwgWy0wLjA2MjM2ODY0OTk4OTM2NjUzLCAtMC4xMjMwNTQ2NjgzMDczMDQzOCwgLTAuMDAwMTU3Mjc0MzA1ODIwNDY1MSwgLTAuMDU3MDIyODMyMzM0MDQxNTk1LCAtMC4wNDU3NTI1NTg4NTcyMDI1MywgLTEuMDI2MzgyNTY1NDk4MzUyLCAwLjI1Nzc3ODk3MjM4NzMxMzg0LCAwLjIwMDU2OTk1NzQ5NDczNTcyLCAtMi40Mzg2MjEwNDQxNTg5MzU1LCAtMC4wOTEyNjMzMDkxMjExMzE5LCAwLjE1MDgwOTEwOTIxMDk2ODAyLCAwLjAzMjYwOTA3MTU4MjU1NTc3LCAtMC4xNzEzMDgyNzkwMzc0NzU1OSwgLTAuMDMyNzY3MTMxOTI0NjI5MjEsIC0wLjAwODE4NzI1Njc1MzQ0NDY3MiwgMC40NDE0MDE5ODgyNjc4OTg1NiwgLTAuNzU3NTE4NTI5ODkxOTY3OCwgLTAuMDMyMjM5NjkwNDIzMDExNzgsIC0wLjQ5NjI2MTQ3NzQ3MDM5Nzk1LCAwLjAyNjMxMTM4MDc4ODY4Mzg5LCAwLjA1Nzc3NDkzMTE5MjM5ODA3LCAtMC44Nzc3MzI4NzI5NjI5NTE3LCAtMC4xMTE0MDU0NzY5Mjc3NTcyNiwgLTAuMjgzOTAxNjYxNjM0NDQ1MiwgMC4xNzEyNjUzOTM0OTU1NTk3LCAtMC4xMjE1MDE4Nzc5MDM5MzgzLCAtMC4xMTAyNTYxNTc4MTU0NTYzOSwgLTAuMDEwMzI2ODUzOTUzMzAxOTA3LCAwLjA5MDA3MDc5ODk5MzExMDY2LCAwLjMyOTcyMzcxNTc4MjE2NTUsIC0wLjAzMDE0MDg1ODE0MzU2ODA0LCAtMC4wODc0MDY0MzQxMTg3NDc3MV0sIFswLjA1MDU1NTA1NDA5ODM2NzY5LCAwLjAxNTQ5OTU0NTI2MTI2Mzg0NywgMC4xMzk1OTA4NzQzMTQzMDgxNywgLTAuNDQzODE3Njc1MTEzNjc4LCAtMC4zMjg4OTQ5MTMxOTY1NjM3LCAxLjAxOTI2MTI0MDk1OTE2NzUsIC0wLjA0OTcxMzY0ODg1NTY4NjE5LCAtMC4zODU5Mjg4Mzk0NDUxMTQxNCwgLTAuMTczNDgxNjEzMzk3NTk4MjcsIC0wLjI3NDIxNzkzMzQxNjM2NjYsIDAuNjgyMDUyODUwNzIzMjY2NiwgLTAuMDgwNjMxMzYwNDExNjQzOTgsIC0wLjIwOTIzMDA1MDQ0NDYwMjk3LCAtMC4yNjMwMTM0ODIwOTM4MTEwNCwgLTAuNTQwNzk2NjM3NTM1MDk1MiwgMC4zOTMwMTgwMDcyNzg0NDI0LCAwLjc5NjU4NjAzNjY4MjEyODksIC0yLjA3NTM5OTYzNzIyMjI5LCAtMC43MjM1MDg1OTY0MjAyODgxLCAtMC4xMjc0MzkwNTE4NjY1MzEzNywgMC4wMDM4NjgyNjgzMzcxMDA3NDQyLCAwLjE3NzExMTExOTAzMTkwNjEzLCAtMC40MzIzMjA2MjQ1ODk5MjAwNCwgMC4yMzk4ODExNTc4NzUwNjEwNCwgMC4yNzU2ODk0MjMwODQyNTkwMywgLTAuNzIxMjg5OTkyMzMyNDU4NSwgMC4wMDMxMjI2NzYxNjM5MTE4MTk1LCAxLjA3MTkxNDc5MjA2MDg1MiwgLTAuMTQ3MjM2OTI4MzQzNzcyOSwgMS4wMzQ2ODA2MDQ5MzQ2OTI0LCAwLjI0NDE2ODU5NDQ3OTU2MDg1LCAtMC40MDE3MTg1ODY2ODMyNzMzXSwgWzAuMDkwMDUzMTcwOTE5NDE4MzMsIC0wLjU3Mzc2NzU0MjgzOTA1MDMsIDAuMTU5MzE0OTMwNDM4OTk1MzYsIC0wLjExNzg4MDE1ODEyNjM1NDIyLCAwLjA5NjI2MTIxODE5MDE5MzE4LCAtMC41MTc0OTEyMjE0Mjc5MTc1LCAwLjAyNzI3MDg3OTU5NjQ3MTc4NiwgMC4wOTQ5MDQxNTQ1MzkxMDgyOCwgMC4xMDM4NTUxMDMyNTQzMTgyNCwgMC4yMDUxNjIzNDYzNjMwNjc2MywgMC4wMTgzODk4MDk4NzY2ODAzNzQsIDAuMTk5MjIxNTIxNjE1OTgyMDYsIC0wLjEyNTIyMTkwODA5MjQ5ODc4LCAtMC4yNDg4MTk5MTc0NDA0MTQ0MywgMC4zMjg4MDg1MTYyNjM5NjE4LCAwLjAyODQ2ODEwOTY2NzMwMTE3OCwgLTAuMjI0MTI2NjY2Nzg0Mjg2NSwgLTEuNzkyMzY2NzQzMDg3NzY4NiwgMC4yNDcyNzU3OTk1MTI4NjMxNiwgLTAuMDc4OTI1Nzg4NDAyNTU3MzcsIDAuMzY1NDUzMjQzMjU1NjE1MjMsIC0wLjA3NTc1MTI5NzE3NTg4NDI1LCAtMC4zNjczNjUxODE0NDYwNzU0NCwgMC42MzA1OTcyMzM3NzIyNzc4LCAtMC4yOTQxNzA0OTg4NDc5NjE0LCAtMS4wMDg5Nzk2NzgxNTM5OTE3LCAwLjEyMTM5NjkyMTU3NTA2OTQzLCAtMC45MjQyMDY2MTQ0OTQzMjM3LCAwLjA0NDUyMDIxNzkyNTMxMDEzNSwgLTAuMjA1NzU0NTQ4MzExMjMzNTIsIDAuMTY4MDQxNTg2ODc1OTE1NTMsIDAuMDkzNTcwMjkxOTk2MDAyMl0sIFstMC4xMDA4ODQ0MjI2NTk4NzM5NiwgLTAuNzIyNzAwMTc4NjIzMTk5NSwgMC4wMzMzNDk4NjA0NTk1NjYxMTYsIC0wLjE3NzgzMjIxNjAyNDM5ODgsIC0wLjE3NDUyNTc4MjQ2NTkzNDc1LCAwLjQxMzU0MzY0MTU2NzIzMDIsIC0wLjE1MjMwMTQ2MDUwNDUzMTg2LCAtMC4wNjk4NDM5NjI3ODg1ODE4NSwgMC4xMTUyODM5MzYyNjIxMzA3NCwgLTAuMjk0NjUzMDU4MDUyMDYzLCAwLjAyNDc5NDQ1MTg5MjM3NTk0NiwgMC4yMTI0OTkzMjA1MDcwNDk1NiwgMC4wODk2Mzg3MTAwMjE5NzI2NiwgLTAuMTA1NDk5NTA1OTk2NzA0MSwgLTAuMjIyODU0MTM3NDIwNjU0MywgLTAuMjAzMTcwNTUyODQ5NzY5NiwgMC4xMDk2MjQ1NjQ2NDc2NzQ1NiwgMC4yOTc4OTczMDkwNjQ4NjUxLCAtMC4wMTU5NzkxNzQ1MjQ1NDU2NywgMC40NzU0MDIwNTcxNzA4Njc5LCAwLjM4MDE3OTU1NDIyNDAxNDMsIC0wLjE5MzEyMTY0MTg3NDMxMzM1LCAtMC4wODU2MjY2OTE1Nzk4MTg3MywgMC4yNTc0MzM2ODI2ODAxMywgLTAuMjAzMzMzNTU2NjUyMDY5MSwgLTAuMDY5Njc5NzA3Mjg4NzQyMDcsIDAuMDAzODkwNDg0NTcxNDU2OTA5LCAwLjA4MTA1NTY2MzUyNjA1ODIsIDAuNDcyNTU4Njc3MTk2NTAyNywgLTAuMTY3NzEwNTU3NTc5OTk0MiwgLTAuMDk5MjcxMTkzMTQ2NzA1NjMsIC0wLjIzODU1NTcyOTM4OTE5MDY3XSwgWzAuNDEwMjcxNTI1MzgyOTk1NiwgMC40OTE5MzYxMTc0MTA2NTk4LCAwLjM5NzU0MzM0MDkyMTQwMiwgLTAuMTc2MjYyOTQ0OTM2NzUyMzIsIDAuMjU5NzIyOTQ4MDc0MzQwOCwgLTAuMTc2NjA1MDkwNDk4OTI0MjYsIDAuMjk3MjIyNzkzMTAyMjY0NCwgLTAuMzMyMzkzMjI5MDA3NzIwOTUsIDAuMTczMjE2MDQ0OTAyODAxNSwgMC4xMTMzOTM2MDQ3NTU0MDE2MSwgLTAuMzY3NjQ5NDA2MTk0Njg2OSwgLTAuNzc2MTI3MzM4NDA5NDIzOCwgMC41MjI0MTc4NDMzNDE4Mjc0LCAwLjE3NzUzNDIyMjYwMjg0NDI0LCAwLjY0MDc3MDMxNjEyMzk2MjQsIDAuMTgwNTI0ODg1NjU0NDQ5NDYsIC0wLjMzNDc3MDY3OTQ3Mzg3Njk1LCAtMC4wMjQ4NjU5MTk3MjQxMDY3OSwgLTAuMDkwNzUyMTk5MjkyMTgyOTIsIDAuMDAxNjk3Mjg1MTAwODE3NjgwNCwgMC4yNDcyNDU4Nzc5ODExODU5LCAwLjIyOTQ0MzY2OTMxOTE1MjgzLCAwLjI1MDI3MzY3NDcyNjQ4NjIsIDAuNDYzNjIyMTgyNjA3NjUwNzYsIC0wLjI0NDA3Nzg5MTExMTM3MzksIDAuMzU5OTMwODEzMzEyNTMwNSwgMC4yNTQ2OTMyNjk3Mjk2MTQyNiwgMC4wOTg0MDQwNzk2NzU2NzQ0NCwgLTAuNTA5NjcxMzkwMDU2NjEwMSwgMC4wMzg3OTA1NzYxNTk5NTQwNywgMC40NzAyOTkzNjMxMzYyOTE1LCAwLjAwMjk1OTYwNzE2OTAzMjA5N10sIFstMC4xNzk2ODg4MTEzMDIxODUwNiwgLTAuMzgwNjMxOTgzMjgwMTgxOSwgMC4yNzMxNjgzNTUyMjY1MTY3LCAtMC4zNDUzMDc2NDgxODE5MTUzLCAwLjM4NjYzOTE0Nzk5NjkwMjQ3LCAwLjI2MDU1OTExMTgzMzU3MjQsIDAuMTY0NzQwMDI1OTk3MTYxODcsIC0wLjU5MjA5NDY1OTgwNTI5NzksIC0wLjM4MjM0Nzc2MjU4NDY4NjMsIDAuNjE1MjQ2ODkxOTc1NDAyOCwgLTAuMTc3MzEyNDMzNzE5NjM1LCAwLjA4MzA2OTEyMzMyNzczMjA5LCAwLjYwNjMyNjkzNzY3NTQ3NjEsIDAuMDAzNDY5OTUyMzgyMTQ3MzEyLCAwLjAxMjY0MzMzMjU5MzE0Mjk4NiwgLTAuMzIyNzQ0MTYwODkwNTc5MiwgMC4wOTM3ODcwNDQyODY3Mjc5LCAwLjMyOTEzMDA4MzMyMjUyNSwgMC4yNDgzMTk1OTYwNTIxNjk4LCAwLjE5NjE1MzA0NDcwMDYyMjU2LCAtMC4zMTUxMjU3MDM4MTE2NDU1LCAtMC4xMDkwODc3ODAxMTc5ODg1OSwgLTAuMDE1MzMwNjE4MjQ3Mzg5NzkzLCAtMC4yMDQyMzQ0ODA4NTc4NDkxMiwgLTAuNDA1NzQ2OTk2NDAyNzQwNSwgMC4wMDY5NTU3MTY3NTg5NjY0NDYsIC0wLjA2NzU1NTgzNzMzMzIwMjM2LCAwLjI1MTA1MjQzOTIxMjc5OTEsIDAuMDIzODUyMTU0NjEyNTQxMiwgLTAuMTA0MzAzODM2ODIyNTA5NzcsIC0yLjEzODM0ODEwMjU2OTU4LCAwLjMzNDMyNDk1NTk0MDI0NjZdLCBbMC4xMTk3NTgwMzk3MTI5MDU4OCwgMC4wNjg0Mzg0OTI3MTUzNTg3MywgMC4wNDkwMzU4ODQ0Mzk5NDUyMiwgMC4yNDM5MzQ3NjU0NTgxMDcsIC0wLjE5MTY2NDI3ODUwNzIzMjY3LCAwLjIwMDE5Njc0MzAxMTQ3NDYsIDAuMTM1OTI1MTI5MDU1OTc2ODcsIDEuMjE1ODI4NDE4NzMxNjg5NSwgMC42MDg5MjUyMjMzNTA1MjQ5LCAtMC4wNjE0NTEyNjAwMDA0NjczLCAwLjAxNzUwNzU3OTE3NzYxODAyNywgMC4xMzAxMjY1NTA3OTM2NDc3NywgLTAuNDQ1NjUwNTc3NTQ1MTY2LCAtMC4yNTQwMzA2MTUwOTEzMjM4NSwgMC4wOTgyODA1OTM3NTI4NjEwMiwgMC4xODM3NjQ0Mjc5MDAzMTQzMywgMC4xODYwOTg1MzA4ODg1NTc0MywgLTAuNjk5MDU2MDI5MzE5NzYzMiwgMC4wNTk5NzQzMTI3ODIyODc2LCAwLjE1MDQxODc0MzQ5MTE3MjgsIDAuMTQ0MjIwNTMwOTg2Nzg1OSwgLTAuNDE2MDAyOTI5MjEwNjYyODQsIC0wLjI1MzI0MTUwOTE5OTE0MjQ2LCAtMC4wMzI1Njg5MzE1Nzk1ODk4NDQsIDAuMjkwMzYyNzc1MzI1Nzc1MTUsIC0wLjE2NjEzNjUzMzAyMTkyNjg4LCAwLjA2MTgxMDk0MDUwNDA3NDEsIDAuMTQwNjA3OTk3Nzc1MDc3ODIsIC0wLjAwMTY5ODgwOTIxMDIxMTAzODYsIDAuMDgwNzM3OTI2MDY1OTIxNzgsIDAuMTUyNzUzMjMzOTA5NjA2OTMsIC0wLjAyOTk5NjA4MjE4NjY5ODkxNF0sIFswLjExODc0NDkxNzIxMzkxNjc4LCAwLjA0MDY4MDE5OTg2MTUyNjQ5LCAwLjU5OTg4ODgwMTU3NDcwNywgMC4wNzIyMzk5Mjc5NDc1MjEyMSwgMC4yNDYzNjUyNDkxNTY5NTE5LCAtMC41MTQ0MjMzNzAzNjEzMjgxLCAwLjcwMjA1MjU5MzIzMTIwMTIsIC0wLjM1NzU3Mjg1MzU2NTIxNjA2LCAtMC4wNjk2OTc3MjI3OTI2MjU0MywgMC4zNzkwNzc3MzI1NjMwMTg4LCAtMC44MzYzMDgxMjE2ODEyMTM0LCAtMC42NTczMTEyMDEwOTU1ODEsIDAuMTQ1MTE5MzgzOTMxMTU5OTcsIDAuMDg5MTEwNzc2NzgyMDM1ODMsIDEuNTc4ODY1NTI4MTA2Njg5NSwgMC4wOTQxNTAwMTQyMjE2NjgyNCwgLTAuMjczMzYxODYxNzA1NzgwMDMsIDAuMzU2NDgxMDE1NjgyMjIwNDYsIC0wLjIxODc5NTU2Nzc1MDkzMDgsIDAuMDcyMzM4OTA4OTEwNzUxMzQsIDAuMzE1MDY2OTkzMjM2NTQxNzUsIC0wLjAwODQ0Nzk4Nzk1ODc4ODg3MiwgLTAuMTMwMTg4ODUyNTQ4NTk5MjQsIC0wLjE3OTA1NDE4NTc0ODEwMDI4LCAwLjE3ODEzNzI0Mjc5NDAzNjg3LCAwLjQ1NDcwOTg4NzUwNDU3NzY0LCAtMC4wNDgxMDU1MTU1Mzk2NDYxNSwgLTAuMDI4ODc5MDUyMDI4MDU5OTYsIC0wLjE0Nzg0MzI3MTQ5MzkxMTc0LCAtMC4xODI3NjQ1NTk5ODQyMDcxNSwgLTAuMzg1ODc1ODIxMTEzNTg2NCwgMC4yNzU4MzkzODgzNzA1MTM5XSwgWy0wLjgwMjg3MDE1NDM4MDc5ODMsIDAuMTM0MzkyOTkxNjYyMDI1NDUsIDAuNTM5NTc3MjQ1NzEyMjgwMywgLTEuMTI3MjI4OTc1Mjk2MDIwNSwgLTAuMDg2Mzk3MDUxODExMjE4MjYsIDAuNTI2MDM5Nzc5MTg2MjQ4OCwgMC42NTc2MzQxMzkwNjA5NzQxLCAtMS41NTk5ODA5ODg1MDI1MDI0LCAtMC4zODYxOTU4NjgyNTM3MDc5LCAtMC4wMjg4OTMzNTkwMDU0NTEyMDIsIDAuNDYxNTQyOTA0Mzc2OTgzNjQsIC0wLjY1NzkxMTQxOTg2ODQ2OTIsIDEuNTUxODgyNzQzODM1NDQ5MiwgMC4yODM3Njk2MDc1NDM5NDUzLCAwLjE1NDU4NzY4NjA2MTg1OTEzLCAtMS4zNDcxNTA2ODM0MDMwMTUxLCAxLjE3MDc4ODUyNjUzNTAzNDIsIC0wLjY4NzQxNjkxMTEyNTE4MzEsIDEuMzIyODI5NjA0MTQ4ODY0NywgLTAuMTkzMzk0ODk5MzY4Mjg2MTMsIDAuOTE3MDM4MzIxNDk1MDU2MiwgMC41MjI1ODIzNTIxNjE0MDc1LCAwLjAzMzI3MTYwMzI4NjI2NjMzLCAwLjUwOTE1NDU1ODE4MTc2MjcsIC0wLjc5OTk1MjI2ODYwMDQ2MzksIDAuMTcxOTMxODYyODMxMTE1NzIsIC0xLjQxNzExNjI4NDM3MDQyMjQsIDAuMTI0MTI1NDgwNjUxODU1NDcsIDAuNDAwODE3OTMwNjk4Mzk0OCwgMS40MjY4MjQyMTIwNzQyNzk4LCAtMC4wMDE0ODc0NjkzMDA2Mjc3MDg0LCAtMC42NTE3OTAyMDE2NjM5NzFdLCBbMC4wMzkwMzMxNDQ3MTI0NDgxMiwgMC4yNzc0ODA4MTA4ODA2NjEsIC0yLjIzNDcyNzg1OTQ5NzA3MDMsIDAuOTU4MjEyMjU2NDMxNTc5NiwgMC4zNzc1MjcyOTY1NDMxMjEzNCwgMC4yNzU4MDM5MjM2MDY4NzI1NiwgLTAuNzA5MTI2MjkzNjU5MjEwMiwgLTAuMTA1Mjc0MDE0MTc0OTM4MiwgLTAuNjAzMzM5MDc2MDQyMTc1MywgMC40ODYwNTA2NjUzNzg1NzA1NiwgMC42NTgyMDMzNjM0MTg1NzkxLCAtMy41MDY3ODMwMDg1NzU0Mzk1LCAtMC45MjM3MjA0MTk0MDY4OTA5LCAtMC4wMjY1OTAwMzgwOTA5NDQyOSwgLTQuNDI4NTI5NzM5Mzc5ODgzLCAtMC4wMzg2NDEwODc3MTA4NTczOSwgMC41NjE0NDkxNzAxMTI2MDk5LCAwLjM5NjY2MDMyNzkxMTM3Njk1LCAwLjQ2NDU1MDczMzU2NjI4NDIsIC0xLjY0MjEwMDU3MjU4NjA1OTYsIDAuNDU5NzAwNDA1NTk3Njg2NzcsIC0wLjEyNzA4MDQ4NTIyNDcyMzgyLCAwLjEwMjM5Nzk4NTc1NjM5NzI1LCAtMC41MzI2NzAyNTk0NzU3MDgsIDAuODI1Nzc2MjE5MzY3OTgxLCAwLjA0Mzg2NjU5NzExNTk5MzUsIC0wLjE0NzQwMjMxNjMzMTg2MzQsIC0wLjcxMzY4MDI2NzMzMzk4NDQsIC0wLjM0ODc2ODQ3MjY3MTUwODgsIDAuNTU5NDE2ODkwMTQ0MzQ4MSwgLTAuNDIzMTY3MDQ5ODg0Nzk2MTQsIDAuNDcyMTUzNjkzNDM3NTc2M10sIFswLjA1NDYxMTg3NjYwNjk0MTIyLCAwLjA0MTYxOTU5ODg2NTUwOTAzLCAwLjA1ODgzNjgxMDI5MDgxMzQ0NiwgMC4wMDgyNjg0MDAwOTU0MDMxOTQsIC0wLjA2MDc0MTA3NDM4MzI1ODgyLCAwLjEwMzc1MDEwOTY3MjU0NjM5LCAtMC4wMTM3ODMzMzU2ODU3Mjk5OCwgLTAuMDE2NDIzMDQyODYzNjA3NDA3LCAwLjAwNzcwMzc2NzYyMzc1MjM1NiwgMC4wOTA4ODY0NTg3NTQ1Mzk0OSwgLTAuMDA1OTI1OTM3NTU1NzMwMzQzLCAwLjAzMDU0ODgyNTg2MDAyMzUsIDAuMTIxMTE3NzQwODY5NTIyMSwgLTAuMTk4NzE2MDc0MjI4Mjg2NzQsIC0wLjA4MTgyOTEzODEwMDE0NzI1LCAwLjE4Mjk5MDI1Mjk3MTY0OTE3LCAwLjEyNDYyMTgzMDg4MDY0MTk0LCAwLjEwMjc3MzA3Nzc4NTk2ODc4LCAtMC4wMjAxNTUyNTg0NzY3MzQxNiwgLTAuMjE2ODAyOTg0NDc2MDg5NDgsIDAuMjY4MzMwMTU2ODAzMTMxMSwgLTAuMjY3MDczOTU5MTEyMTY3MzYsIDAuMDQwMTc2OTM5MjE5MjM2Mzc0LCAwLjAzMTcxNDk2NDY1ODAyMTkzLCAtMC4wOTg0ODIxOTkwMTMyMzMxOCwgMC4xNTk0MTY5MTM5ODYyMDYwNSwgLTAuMDQ3NTU1NDQ2NjI0NzU1ODYsIDAuMDE3MjcyODYzNTM3MDczMTM1LCAtMC4wMzI3NzU2MzY3NjIzODA2LCAwLjAwMjAxMTE2MzE2MDIwNDg4NzQsIC0wLjExMDk4ODExMDMwMzg3ODc4LCAtMC4xODg4NDI0OTAzMTU0MzczMl0sIFswLjA3NDU0MjYzNDE4OTEyODg4LCAwLjAwNTc4NTI5NDgwODQ0NzM2MSwgLTAuMTI3OTg2NzU4OTQ3MzcyNDQsIC0wLjA1NzEwMjU4MzM0ODc1MTA3LCAwLjE3MDM0MTI2ODE4MTgwMDg0LCAwLjExOTYxOTI4NzU1MDQ0OTM3LCAtMC4xMTE3MTY0MDQ1NTcyMjgwOSwgMC4wNzgwMzA3NTAxNTU0NDg5MSwgLTAuMDMyOTA3OTQ3ODk3OTExMDcsIC0wLjA3MzE0MzE3NjczNDQ0NzQ4LCAtMC4wNzg3MDU3MjA2MDM0NjYwMywgLTAuMTEwMjM5Mzk0MDA5MTEzMzEsIDAuMDgzODk1ODk5MzU1NDExNTMsIDAuMDk0ODAyNTI4NjE5NzY2MjQsIC0wLjAwMzgwOTM4MzgzNzUwNjE3NSwgLTAuMDcxMTE4NzEyNDI1MjMxOTMsIC0wLjAzMTgwNTg1ODAxNjAxNDEsIDAuMDAyMjk3NjM0MjU4ODY2MzEsIC0wLjA3NDY5MjE1OTg5MTEyODU0LCAtMC4wMTM2NzM2MTAwNTM5NTY1MDksIDAuMTIzNTIxNjI1OTk1NjM1OTksIC0wLjI5Nzk2MzYxOTIzMjE3NzczLCAwLjAxNTgyMzI4Nzg4OTM2MTM4LCAtMC4wMTgzODc4MTMxMjEwODA0LCAtMC4wNzg2Mjk1MDg2MTQ1NDAxLCAtMC4xMTUzOTQ4MjMyNTMxNTQ3NSwgMC4wNjUxMjIyMDIwMzg3NjQ5NSwgLTAuMDQ2OTIyNTk4MDM0MTQzNDUsIDAuMTM5MDUzMjg1MTIxOTE3NzIsIC0wLjE1MTg2NjEzNzk4MTQxNDgsIDAuMjQ5Mzc5MjMyNTI1ODI1NSwgLTAuMzM1Mjc0NDU3OTMxNTE4NTVdLCBbMC4zMDg3NjYxODYyMzczMzUyLCAtMC40OTM5NzQ4MzQ2ODA1NTcyNSwgLTAuNDU2NTQ2MDM4Mzg5MjA1OTMsIDAuMDczNTczODM1MTk0MTEwODcsIDAuMTI4MzkxMzU1Mjc2MTA3OCwgLTAuNDE1NDUyNDgwMzE2MTYyMSwgLTAuMjg3OTE0ODEyNTY0ODQ5ODUsIDAuMTgzNjQ4NDk2ODY2MjI2MiwgMC4wNDMxMDYwNDE4NDg2NTk1MTUsIDAuMjM2NTY2ODExODAwMDAzMDUsIDAuMDkzMzQ2MTA0MDI1ODQwNzYsIC0wLjIyMTgxOTU3OTYwMTI4Nzg0LCAtMC4yNTQxNjk0OTM5MTM2NTA1LCAwLjQwODE3Mjg0NTg0MDQ1NDEsIC0wLjA3OTIwNDE3MTg5NTk4MDgzLCAwLjE3NTQwNjMyMTg4MzIwMTYsIC0wLjAzOTEzNjUyODk2ODgxMTAzNSwgLTEuNjU3MjgyNTkwODY2MDg4OSwgLTAuMDY1MTg2NDg1NjQ4MTU1MjEsIC0wLjI0ODM3OTk3NTU1NzMyNzI3LCAwLjQzNzg2NzUyMjIzOTY4NTA2LCAwLjIwODY3MTc0ODYzODE1MzA4LCAtMC4xMzE2MDg2MDUzODQ4MjY2NiwgLTAuMTA1OTU0NDgzMTUxNDM1ODUsIDAuMTA0MDUzNzM1NzMzMDMyMjMsIC0wLjkxNTA4MDY2NjU0MjA1MzIsIDAuMDgzMDAxNjg4MTIyNzQ5MzMsIC0wLjk0Njk1MjU4MTQwNTYzOTYsIC0wLjAwNzQyMzE2NTI1NDI5NDg3MiwgLTAuMDY1OTMwMjU0NzU3NDA0MzMsIDAuMDg4NzM4OTMzMjA1NjA0NTUsIDAuMTk5OTQ1NjI4NjQzMDM1OV0sIFstMC4wMjIzMDgwMzQ4MjIzNDQ3OCwgLTAuMTE2ODk1MTgzOTIwODYwMjksIC0wLjEwNTg2ODMyNDYzNzQxMzAyLCAwLjE1NDgyMDc5OTgyNzU3NTY4LCAtMC4wMjE0ODY3MDg4OTQzNzE5ODYsIDAuMTk4NDU0MjMxMDIzNzg4NDUsIDAuMTIxMjE4NTQ3MjI0OTk4NDcsIDAuMDM5MTcyMjMyMTUxMDMxNDk0LCAtMC4yMTQ3NTk2Nzc2NDg1NDQzLCAtMS44ODg0Nzc2ODMwNjczMjE4LCAtMC4wMDY0NjM2OTY3MTQ0OTA2NTIsIC0wLjAxMTUzMzc3NTM2Njg0Mjc0NywgMC4wNTk5NjcxNDUzMjM3NTMzNiwgLTAuMDUyNzgxNDkyNDcxNjk0OTQ2LCAtMC4yMTAyMDcyMjM4OTIyMTE5MSwgMC4yMjg2NjE5NTQ0MDI5MjM1OCwgLTAuMTE1OTc4NTk4NTk0NjY1NTMsIDAuMjkyNjMxMTE5NDg5NjY5OCwgLTAuMDc0MDk2MjQ3NTUzODI1MzgsIDAuMDIyNDI0NTAwNDM1NTkwNzQ0LCAwLjA3MDM1NTQ0NTE0NjU2MDY3LCAtMC4xNzk5ODc0OTAxNzcxNTQ1NCwgMC4yMDI1OTY3MjQwMzMzNTU3LCAtMC4wNTUyODk5MDkyNDM1ODM2OCwgMC4xNDY4NDgwMjI5Mzc3NzQ2NiwgMC45MTA1OTE1NDI3MjA3OTQ3LCAwLjEzMDI5NjUyODMzOTM4NiwgLTAuMDg1NzEyMDAwNzI3NjUzNSwgMC41MDA4NTU2ODQyODAzOTU1LCAtMC4wODA2NjQ5NDAxNzgzOTQzMiwgMC4wNTE2MzY5NDkxODE1NTY3LCAtMC4wMTcwNjczNzA5MzYyNzQ1M10sIFswLjIzMjI5NTU0Mjk1NTM5ODU2LCAxLjAzOTE2NDMwNDczMzI3NjQsIDAuODc0NzUzNTk0Mzk4NDk4NSwgLTAuNDgxNDAyMzM3NTUxMTE2OTQsIC0wLjAwOTQzNjk1MTk1MDE5MjQ1MSwgMC4wMTk3MDA2ODkyNDEyOTAwOTIsIDAuMzc4OTQ1NzM4MDc3MTYzNywgMC40NjQyMDYzOTc1MzM0MTY3NSwgMC4yNTQ3Mzc3MzQ3OTQ2MTY3LCAwLjA1NjE1NTMwNTM1NTc4NzI4LCAtMC4zMDM4OTc0NDA0MzM1MDIyLCAtMS4xMTQzODgyMjc0NjI3Njg2LCAwLjY2ODgwODEwMjYwNzcyNywgMC4xOTg5MjY0MzM5MjA4NjAzLCAwLjg0NjIzODYxMzEyODY2MjEsIC0wLjA1NTY4MDIzMDI1OTg5NTMyNSwgLTAuMTAyMDIyMTg1OTIxNjY5LCAtMC4yMDgwMTc5MTU0ODcyODk0MywgMC4yNzQ0MjMxMjI0MDYwMDU4NiwgMC4zNDgxMzY0MjUwMTgzMTA1NSwgMC4zMTM1OTQyNTE4NzExMDksIDAuMDQxMjI4NzMzOTU2ODEzODEsIDAuMzczNzYwNzU5ODMwNDc0ODUsIDAuNDQ5MTUxNjM1MTY5OTgyOSwgLTAuMjM4MTMxNDkzMzMwMDAxODMsIDAuMTY0MTIzOTk3MDkyMjQ3LCAwLjE5MjkzMDg3NzIwODcwOTcyLCAwLjI1ODE0MjQ0MTUxMTE1NDIsIC0wLjExMjQxOTczOTM2NTU3NzcsIC0wLjAwNDI1MjI3Njg0OTAwMTY0NiwgMC41MDk1NzM4MTcyNTMxMTI4LCAtMC4xNTU4MjY3MDI3MTM5NjYzN10sIFswLjI1NDI0NjU2MjcxOTM0NTEsIC0wLjEzOTY4Njc5MzA4ODkxMjk2LCAtMC4yMzgyNDgwODAwMTUxODI1LCAwLjA0MzI4MDIyODk3MjQzNSwgMC4xNjk0MDAxMjU3NDE5NTg2MiwgLTAuMTc4NDIzMTM2NDcyNzAyMDMsIC0wLjEyMTIyMjg1MzY2MDU4MzUsIDAuMzQ1MjcwNTE0NDg4MjIwMiwgMC40ODM1Njk2MjIwMzk3OTQ5LCAwLjI4MjgzNDE3MjI0ODg0MDMzLCAtMC4wNTM2MzcyMTQwMDQ5OTM0NCwgLTAuMDU0MTM0MzgzNzk3NjQ1NTcsIDAuMjI3MTA5NTY2MzMwOTA5NzMsIDAuMTE5Mzk3MjAwNjQ0MDE2MjcsIC0wLjEzOTY3NzI3MTI0NjkxMDEsIDAuMjA1NDc0MDc4NjU1MjQyOTIsIC0wLjA2NDYyMjU1ODY1MzM1NDY0LCAwLjE4Njk5MjMxNzQzODEyNTYsIC0wLjEyMzkzNDMyODU1NjA2MDc5LCAtMC4xODY3OTIzNDM4NTQ5MDQxNywgLTAuMTQwNTgyNjY1ODAxMDQ4MjgsIDAuMTc5MjQ4NjYwODAyODQxMiwgMC4yMjQzNTg1NTg2NTQ3ODUxNiwgLTAuMTEwMzIxMjIzNzM1ODA5MzMsIDAuMjgzMDQ5NTIzODMwNDEzOCwgLTAuMTg3MDI3OTkwODE4MDIzNjgsIDAuMjEzNzg1MjMxMTEzNDMzODQsIC0wLjE2MjU3NTUxMzEyNDQ2NTk0LCAwLjA4MjQzODI4MjY2ODU5MDU1LCAtMC4yMjExMDcwNjU2Nzc2NDI4MiwgLTAuMDE3MjAxMDYyMjkxODYwNTgsIDAuMTk5MjMwNzAwNzMxMjc3NDddXSwgWzAuMTAyMDA3NjU3Mjg5NTA1LCAwLjEzMjQwOTQwODY4ODU0NTIzLCAwLjEwNDEwNjE3MjkxOTI3MzM4LCAwLjExNzg4MTY1NTY5MzA1NDIsIDAuMDQ5NDI1MTEzOTQ2MTk5NDIsIDAuMTUyMTEzNDk3MjU3MjMyNjcsIC0wLjEzNjY4MjY1OTM4NzU4ODUsIDAuMTc4NjE4MzU2NTg1NTAyNjIsIDAuMjY5MjM4NjUwNzk4Nzk3NiwgMC4wMzM2NDE3NDQ0MDUwMzEyMDQsIDAuMDg1MjkwNjU1NDkzNzM2MjcsIDAuMTQzMDU2MTA5NTQ3NjE1MDUsIDAuMjcyOTg1NTc3NTgzMzEzLCAtMC4wNTMxMzAxMjM3NjQyNzY1MDUsIC0wLjAwNTQxNTUxNjkwNTQ4NjU4NCwgMC4wNzAyMzA2OTI2MjUwNDU3OCwgMC4xNzUwODIxMzIyMjAyNjgyNSwgMC4wNzE3OTUzMjk0NTE1NjA5NywgLTAuMDAzMzgzOTc5MjAxMzE2ODMzNSwgMC4xMTAzMjQ0NTcyODc3ODgzOSwgMC4wNTAyMTg0MzMxNDE3MDgzNzQsIDAuMDc3NzIwMjQ3MjA5MDcyMTEsIDAuMDEwODQ2NTc2NjUzNDIwOTI1LCAwLjA3ODM4NjIwMjQ1NDU2Njk2LCAwLjA3OTg3Mjg2MTUwNDU1NDc1LCAwLjAzMzIwMTIzNjI3NzgxODY4LCAwLjAzMjg1OTU0ODkyNjM1MzQ1NSwgMC4wMTg2NzQ5NjQwODUyMjEyOSwgMC4wNjE1MzgzNzk2MzkzODcxMywgMC4xMTEwOTU2NjY4ODUzNzU5OCwgLTAuMDAwNDA1MTE5MTQ5OTQ1Njc2MywgMC4wOTM0MDQzNjc1NjYxMDg3XSwgW1stMC4yMDM1OTgyOTA2ODE4MzksIDAuNDQ0OTM3NzY1NTk4Mjk3MSwgMC4xNTU3NTEzNDc1NDE4MDkwOCwgMC41NDIxMTE1MTU5OTg4NDAzLCAtMC4zMjY5MzY4NDEwMTEwNDczNiwgLTAuMTg1NDkzNDY5MjM4MjgxMjUsIDAuMzc4NDY5NDY3MTYzMDg1OTQsIDAuMzM3MjI1Mzc3NTU5NjYxODcsIC0wLjI1NTE3MTEyMDE2Njc3ODU2LCAtMC4wMjM3ODUyMzcyMjI5MDk5MjcsIDAuMzk4Nzk4MDE4NjkzOTIzOTUsIDAuMDgyODczNTE1Nzg0NzQwNDUsIC0wLjE5MDEyNTYxNDQwNDY3ODM0LCAwLjA5MDk1MzQ2MTgyNTg0NzYzLCAwLjI0ODgwNzkwNzEwNDQ5MjIsIC0wLjAyOTg1ODIyNDA5MzkxNDAzMl0sIFstMC4zNTkzMzU5NTg5NTc2NzIxLCAwLjI1NTgxMTc1MDg4ODgyNDQ2LCAtMC4wMjM3MDMyNTg0ODQ2MDE5NzQsIDAuMzg2MDQ2ODI2ODM5NDQ3LCAwLjQ3NTAxMzU1NDA5NjIyMTksIC0wLjIyNjkxMTM4MDg4NzAzMTU2LCAtMC4wNzEyODc4OTI3NTg4NDYyOCwgLTAuMjM1MzMzMDU1MjU3Nzk3MjQsIDAuNDI2NDUyMzk4MzAwMTcwOSwgMC40MTUyMDkwMjUxNDQ1NzcsIC0wLjMxMDIzNzMxODI3NzM1OSwgMC42MDMzNjk0MTQ4MDYzNjYsIC0wLjc5MTgwMDAyMjEyNTI0NDEsIDAuMTk2MjUxODk5MDAzOTgyNTQsIDAuMDQ3OTQ0NTg2NzI0MDQyODksIDAuMDQ3OTM5NjczMDY2MTM5MjJdLCBbLTAuMzg4OTYyNDQ3NjQzMjgwMDMsIDAuNzk4NTExMjY2NzA4Mzc0LCAtMC4yMzE5NzYyNDA4NzMzMzY4LCAwLjU4NjEyMTAyMjcwMTI2MzQsIDAuNjE0OTk4MzQwNjA2Njg5NSwgLTAuNDIxMjI4ODg1NjUwNjM0NzcsIC0wLjQ4NTczNzAyNTczNzc2MjQ1LCAtMC4yNTMyMDAzNTIxOTE5MjUwNSwgMC43Mzg0NzYzOTU2MDY5OTQ2LCAwLjcxNjM3OTIyNTI1NDA1ODgsIC0wLjcwNDI3ODI5MDI3MTc1OSwgMC41MTYwMjAxNzg3OTQ4NjA4LCAtMC40MTM3MDA5NjgwMjcxMTQ4NywgMC42Mzk0MjA4NjY5NjYyNDc2LCAtMC41NTM3MjYwNzcwNzk3NzMsIC0wLjQ2NjQ3MDM2MDc1NTkyMDRdLCBbLTAuNDA1MDcyNzE4ODU4NzE4ODcsIDAuNjAxMDEyMTcwMzE0Nzg4OCwgLTAuMTIyNzA0NTIwODIxNTcxMzUsIDAuNDczNzczMDMyNDI2ODM0MSwgLTAuNDk0NzgxNjEzMzQ5OTE0NTUsIC0wLjc0MDE5NjIyODAyNzM0MzgsIC0wLjI2NzY2MzAzMTgxNjQ4MjU0LCAtMC41MTY1MjQyNTUyNzU3MjYzLCAwLjQ2MzIxMjY2ODg5NTcyMTQ0LCAtMC41MTcwNjExNzM5MTU4NjMsIC0wLjEyMTk0ODEyMjk3ODIxMDQ1LCAtMS4xMTIxNjU1NzAyNTkwOTQyLCAtMC43NDU0MTAxNDQzMjkwNzEsIC0wLjM3MTE1NzQwNzc2MDYyMDEsIC0wLjE2MjkxMjE0NTI1Njk5NjE1LCAtMC4zNzk4NjE0MTQ0MzI1MjU2M10sIFswLjEyODUwMjgxNTk2MTgzNzc3LCAwLjIxMzEzNDczNTgyMjY3NzYsIC0wLjA1MDY5MDYwMjUxMTE2NzUyNiwgLTAuMTIwNDIxNjU1NDc2MDkzMjksIC0wLjI5OTQxOTczMDkwMTcxODE0LCAtMC4xOTY0ODk3MDY2MzU0NzUxNiwgMC4wMDM3MjkwNTIxNDMxNzE0Mjk2LCAtMC4xNDY4Nzg5NzI2NDk1NzQyOCwgLTAuMDQ2MDkyNjAzMzU1NjQ2MTMsIC0wLjQ4Njk1OTY5NTgxNjA0MDA0LCAwLjI4ODc0MjEyNTAzNDMzMjMsIC0wLjM0NDc5NDI3MzM3NjQ2NDg0LCAtMC4xNDg4MjI0MjY3OTU5NTk0NywgMC4wMzU5OTQyMjA1MjUwMjYzMiwgLTAuMDAyOTc0OTA2MDA0OTY1MzA1MywgMC4xMjYxODAwMjI5NTQ5NDA4XSwgWy0wLjM0MDQ1NDgxNjgxODIzNzMsIDAuNDYzOTQ0NjEzOTMzNTYzMjMsIC0wLjM1NzQxMTk4MDYyODk2NzMsIDAuNjAzNzI1MzE0MTQwMzE5OCwgMC43NTYzMDc2MDE5Mjg3MTA5LCAtMC40MzczODkwNzU3NTYwNzMsIC0wLjM5Mjk0MDUyMTI0MDIzNDQsIC0wLjI4MDM0OTM3MzgxNzQ0Mzg1LCAwLjc3MTc4ODgzNTUyNTUxMjcsIDAuNDkxOTc3MDM1OTk5Mjk4MSwgLTAuMjEwMzc3NzUyNzgwOTE0MywgMC41NjM0MTc2MTM1MDYzMTcxLCAtMC4yOTk0Mzc4ODA1MTYwNTIyNSwgMC40NTc1NTAxNjgwMzc0MTQ1NSwgLTAuNTUwMjI1Nzk0MzE1MzM4MSwgLTAuMTU4NjA0MzgzNDY4NjI3OTNdLCBbLTAuOTQ5NTA5MjYzMDM4NjM1MywgMS4yOTAxNDcwNjYxMTYzMzMsIC0wLjkxNDEzODg1MzU0OTk1NzMsIDAuOTg5MzkwNDMyODM0NjI1MiwgMS4zNjk0MDc4OTIyMjcxNzI5LCAtMC45MDcwNDcyMTIxMjM4NzA4LCAtMS4wMTAzMTk0NzEzNTkyNTMsIC0wLjc0NDYyMDA4NDc2MjU3MzIsIDEuMjM3NjQzMjQxODgyMzI0MiwgMS4zOTcyNTE4NDQ0MDYxMjgsIC0xLjA1NDg5OTkzMDk1Mzk3OTUsIDEuMTEyMzg5MzI2MDk1NTgxLCAtMC40OTAxMzU2Njk3MDgyNTE5NSwgMS4xODM0ODc4OTIxNTA4NzksIC0xLjA1OTUyNzg3Mzk5MjkyLCAtMS4wNjIwMzgxODMyMTIyODAzXSwgWzAuNjE1MDgxNDI5NDgxNTA2MywgLTAuNzQ1NDgxMTMzNDYwOTk4NSwgMC42MDI3MTc4NzY0MzQzMjYyLCAtMC43MTI2ODUzNDY2MDMzOTM2LCAtMC40NTI1Mjc5OTk4Nzc5Mjk3LCAwLjM2NTkyMTE2OTUxOTQyNDQ0LCAxLjE4NzMyNTU5NjgwOTM4NzIsIDAuMDE4NTY0NTEyOTUzMTYyMTkzLCAtMC4zMTkyNTgxMjM2MzYyNDU3LCAtMC43NDY1ODQ0MTU0MzU3OTEsIDEuMTk4NTQ1MDk4MzA0NzQ4NSwgLTEuNDU3OTQ0ODY5OTk1MTE3MiwgMC4xOTYzMzAxMzAxMDAyNTAyNCwgLTAuODAwMTQ4NTQ2Njk1NzA5MiwgMS4wMDAwOTAwMDMwMTM2MTA4LCAwLjU2NDc2NzM2MDY4NzI1NTldLCBbMS45OTU3MDAxMjA5MjU5MDMzLCAtMS44MDcxMTc0NjIxNTgyMDMxLCAxLjc0MzY0MzA0NTQyNTQxNSwgLTEuOTMyNDA1MTE0MTczODg5MiwgLTIuMDE4ODY4NDQ2MzUwMDk3NywgMS41MjAxMjIwNTEyMzkwMTM3LCAyLjM4NTQxNTMxNTYyODA1MTgsIDEuMDgzMjE3NTAxNjQwMzE5OCwgLTEuNjEyOTE2OTQ2NDExMTMyOCwgLTEuODM3NjMwMjcxOTExNjIxLCAyLjI0ODk4NDMzNjg1MzAyNzMsIC0yLjc0NDA2MzM3NzM4MDM3MSwgMS43ODQxNTQ2NTM1NDkxOTQzLCAtMi4xNTc3NzEzNDg5NTMyNDcsIDIuMjIwNzM4MTcyNTMxMTI4LCAxLjU5MjQwNjc0OTcyNTM0MThdLCBbMC40NTE2OTEyNjk4NzQ1NzI3NSwgLTAuODA0NDI1ODM1NjA5NDM2LCAwLjE1MDY3MjU4NDc3MjEwOTk5LCAtMC43MTI5NDgzODE5MDA3ODc0LCAtMC42Nzg5MTkzMTUzMzgxMzQ4LCAwLjU5MDc4NzgyNzk2ODU5NzQsIDAuMzM3MDAzMDUyMjM0NjQ5NjYsIDAuMjE3NjIwMTA0NTUxMzE1MywgLTAuNDU5MDkzMTUzNDc2NzE1MSwgLTAuODI4MjczNzEzNTg4NzE0NiwgMC42ODQ1NjkzNTg4MjU2ODM2LCAtMC41NTI3MjQxODI2MDU3NDM0LCAwLjc5MjMwMjI1MDg2MjEyMTYsIC0wLjE4OTI5MjQ5MDQ4MjMzMDMyLCAwLjQxNzA1NzAzNzM1MzUxNTYsIDAuMjIxOTYzNTA5OTE3MjU5MjJdLCBbLTAuODI1NDk0NzA2NjMwNzA2OCwgMC42Mjc3MDk1MDc5NDIxOTk3LCAtMC41MDA5NzUwMTI3NzkyMzU4LCAwLjU3MDA0OTUyNDMwNzI1MSwgMC44MzIxMTg5Mjg0MzI0NjQ2LCAtMC40Mjc1ODY3MDQ0OTI1Njg5NywgLTAuMTM1NDYyMzQzNjkyNzc5NTQsIC0wLjIxNDMwODIwMjI2NjY5MzEyLCAwLjQ4NjQzNzg1NzE1MTAzMTUsIDAuNjI5NjgzNDk0NTY3ODcxMSwgLTAuNDA2NzY1MDQzNzM1NTA0MTUsIDAuMzMyMjkzNTEwNDM3MDExNywgLTAuNDc5NjcyODE5Mzc1OTkxOCwgMC40NDc0OTYzNTQ1Nzk5MjU1NCwgLTAuNDM2NjcyMzg5NTA3MjkzNywgLTAuMjIyOTg2OTY2MzcxNTM2MjVdLCBbLTAuNzc3MTE4MjA2MDI0MTY5OSwgMC45ODk4MjY3OTg0MzkwMjU5LCAtMC42OTM0MzM0MDM5Njg4MTEsIDAuNjk3NTAzMzI4MzIzMzY0MywgMC44NTQ2MjE3Njc5OTc3NDE3LCAtMC43NDAzNjM5NTU0OTc3NDE3LCAtMC45MjI2OTMwMTQxNDQ4OTc1LCAtMC4yNjYyMTM2NTU0NzE4MDE3NiwgMC40MzI0NTg4NDc3NjExNTQyLCAwLjU1NDMyNzI0OTUyNjk3NzUsIC0wLjkzMDIwNzAxNDA4Mzg2MjMsIDAuNjk2OTQ1OTY1MjkwMDY5NiwgLTAuNzM4MTk4MjgwMzM0NDcyNywgMC42ODE0MDEwMTQzMjgwMDI5LCAtMC43MzUwNDE5NzU5NzUwMzY2LCAtMC4xNTI4NDcyMzA0MzQ0MTc3Ml0sIFswLjM4MzQzODE0MDE1Mzg4NDksIDAuMjc5NjE5ODEyOTY1MzkzMDcsIDAuMTA5NzAwNDg2MDYzOTU3MjEsIDAuMTI2Mzc2OTg2NTAzNjAxMDcsIDAuMzQ5MjgwMTQ4NzQ0NTgzMTMsIDAuMTE4NjU4ODcwNDU4NjAyOSwgMC40MTk4MjUzMTU0NzU0NjM4NywgLTAuMDEyNDU3OTM1MTM5NTM2ODU4LCAwLjI2MjIwMTEwMDU4Nzg0NDg1LCAwLjM4ODc3MjYzNjY1MTk5MjgsIDAuMDY1NzgyNzQ4MTYyNzQ2NDMsIDAuMjUxMDA5NzAyNjgyNDk1MSwgMC4zMjMwMDYzMzE5MjA2MjM4LCAwLjE1NjQxNjIzNzM1NDI3ODU2LCAwLjQ0MjIyNjIwMTI5NTg1MjY2LCAtMC4wNzE4MTA0NjkwMzEzMzM5Ml0sIFswLjEyNTMzMDU5NzE2MjI0NjcsIC0wLjE1NjA3MDY2NDUyNTAzMjA0LCAtMC4zMzQwMDY5MDU1NTU3MjUxLCAwLjE1ODIyOTM4MDg0NjAyMzU2LCAtMC4yNTgzMjE3MzIyODI2Mzg1NSwgLTAuMDQwODAzNjI5OTA0OTg1NDMsIDAuMDExMTgwODM4NTY5OTk4NzQxLCAtMC4xMzUyNTc0MjI5MjQwNDE3NSwgMC4zMjI4MjgyMzMyNDIwMzQ5LCAwLjA2MzIzOTE2NDY1MDQ0MDIyLCAwLjAzOTYyMTI2NzQ2NzczNzIsIDAuMjgzMTUyMjIyNjMzMzYxOCwgMC4xMDg2ODk3NDc3NTA3NTkxMiwgMC41MjQzMjY0NDM2NzIxODAyLCAtMC4xNDE5MjM1MTY5ODg3NTQyNywgLTAuMzcwNTEwMjUwMzI5OTcxM10sIFstMS41MDE0NjQ4NDM3NSwgMS40ODQ5NjQ2MDkxNDYxMTgyLCAtMS40ODg0NzUzMjI3MjMzODg3LCAxLjQ0NzA4NTczODE4MjA2NzksIDEuMTQ1MjM5NzEwODA3ODAwMywgLTEuNTM4MTIxMjIzNDQ5NzA3LCAtMS43NjE5ODgxNjI5OTQzODQ4LCAtMS40MzM3MjM0NDk3MDcwMzEyLCAxLjMzNzYzNTk5Mzk1NzUxOTUsIDEuNTExMTY4NTk5MTI4NzIzMSwgLTEuNjQyMDIxODk0NDU0OTU2LCAxLjY4MjM1OTgxNDY0Mzg1OTksIC0xLjQ0MzIxMjk4NTk5MjQzMTYsIDEuNzAxNDYwODM4MzE3ODcxLCAtMS40NzE3Njc2NjM5NTU2ODg1LCAtMS4wMzU1MzU4MTIzNzc5Mjk3XSwgWzAuMzczNzQ0ODQ1MzkwMzE5OCwgLTAuNjU5NzI5MDAzOTA2MjUsIDAuNDYzNzE4NDE0MzA2NjQwNiwgLTAuNzU0NTgwNDM4MTM3MDU0NCwgLTAuODA0MTEwMDUwMjAxNDE2LCAwLjQzNTk0NTMzMjA1MDMyMzUsIDAuNTUyMjQ2MzkxNzczMjIzOSwgMC4yODI2MDU3NjcyNTAwNjEwNCwgLTAuNTk4NzI3ODIyMzAzNzcyLCAtMC40NTkyOTY0MzUxMTc3MjE1NiwgMC4zMDUyMTIzMTg4OTcyNDczLCAtMC44NTQ0Njc5ODgwMTQyMjEyLCAwLjA1NDczMjcyMTI5ODkzMzAzLCAtMC41ODUxMjE3NTA4MzE2MDQsIDAuNTYzMTEyNjc2MTQzNjQ2MiwgMC4yNjEzNzkxMjI3MzQwNjk4XSwgWy0wLjQzNjQ1NjM4MjI3NDYyNzcsIDAuODg1MjkzNDgzNzM0MTMwOSwgLTAuMTcwNTIyNzE5NjIxNjU4MzMsIDAuNjQxMjM3NjE2NTM5MDAxNSwgMC43MzMwNTc0MzkzMjcyNCwgLTAuNTI2MDU5MTUwNjk1ODAwOCwgLTAuMzEyMTgyNDg2MDU3MjgxNSwgLTAuNTA0Njg0MjY5NDI4MjUzMiwgMC43MDUxODY0MjY2Mzk1NTY5LCAwLjU2NzQzMTY4ODMwODcxNTgsIC0wLjYzMzc1NDQ5MTgwNjAzMDMsIDAuNDIyNjQ1ODA3MjY2MjM1MzUsIC0wLjY1NTQxMTg5OTA4OTgxMzIsIDAuNTM0MzU1MTAzOTY5NTc0LCAtMC40MDY0NjYxODYwNDY2MDAzNCwgLTAuMjE1NTg0OTMzNzU3NzgxOThdLCBbMC43NjI5NjE2MjYwNTI4NTY0LCAtMC41MDA4MjAzMzg3MjYwNDM3LCAwLjMzMDY0NDYwNzU0Mzk0NTMsIC0wLjYxNDc1OTM4NTU4NTc4NDksIC0xLjQwMzQwMzYzOTc5MzM5NiwgMC43MzIzMzMwNjQwNzkyODQ3LCAwLjc2ODg1MDgwMzM3NTI0NDEsIDAuNTE0NjkwNjM3NTg4NTAxLCAtMC41Njk2ODEzNDY0MTY0NzM0LCAtMS4xMTIxNzI4NDIwMjU3NTY4LCAwLjcxNjQwMzYwMzU1Mzc3MiwgLTAuNjY2ODYyNjY2NjA2OTAzMSwgMC41OTYxODk3MzczMTk5NDYzLCAtMC4zMTYxOTYzMjI0NDExMDExLCAwLjY0NzkzMjM1MDYzNTUyODYsIDAuNzI0OTQ0ODI5OTQwNzk1OV0sIFstMC4yNjkyODUwODI4MTcwNzc2NCwgMC4yMjQ5MjExOTY2OTkxNDI0NiwgLTAuMDQ1NjU0OTc0ODc3ODM0MzIsIDAuMjkxMjk2MzYyODc2ODkyMSwgMC41NTk2Mzk5MzA3MjUwOTc3LCAtMC4xMzAzMjI1NzU1NjkxNTI4MywgLTAuNDE5NTQ3NDA4ODE5MTk4NiwgMC4wNzEyODQ1NzcyNTA0ODA2NSwgMC40Mjc5NzI3MzM5NzQ0NTY4LCAwLjI5OTc2NzI4NTU4NTQwMzQ0LCAtMC4yODQzMzY2ODYxMzQzMzg0LCAwLjQ1Mjk5NzQ0NjA2MDE4MDY2LCAwLjAxNzQ0MDQ5NjAxMjU2ODQ3NCwgMC40NDQxMTA1NDI1MzU3ODE4NiwgLTAuMzEwODcxMDY0NjYyOTMzMzUsIDAuMDQyMzAwMDUyOTQwODQ1NDldLCBbMC4yNzExMDMzMjI1MDU5NTA5LCAwLjEyMjUxOTY0MjExNDYzOTI4LCAwLjAyODA3MzE4NDE5MjE4MDYzNCwgLTAuMDU5NTExOTE0ODQ5MjgxMzEsIDAuNTk0ODEyMjczOTc5MTg3LCAwLjE4NzYxNTQ1NDE5NjkyOTkzLCAtMC4wOTE1Njg4MDUyNzczNDc1NiwgMC40MjIwODE2MTk1MDExMTM5LCAtMC4wMzkyNDUzNTU4NzQzLCAwLjQxOTQ4NDU1NTcyMTI4Mjk2LCAtMC4yMzYxNjAwMzk5MDE3MzM0LCAwLjQxMDY5NTUyMzAyMzYwNTM1LCAwLjMyMDU2OTM5NjAxODk4MTkzLCAwLjM4NDYzNDI4NjE2NTIzNzQsIC0wLjIyMTczOTIzMjU0MDEzMDYyLCAwLjIxNzk1NDA5OTE3ODMxNDJdLCBbMC4wMDUxNjQ4MTMyNTAzMDMyNjgsIDAuMzIzMzQ4MTA0OTUzNzY1ODcsIC0wLjA3MDMxMzkyMzA2MDg5NDAxLCAwLjQ3MjI5MTY0ODM4NzkwODk0LCAwLjA2NDg0NDc4NzEyMDgxOTA5LCAtMC4wOTU5MzIzNjQ0NjM4MDYxNSwgLTAuNDc2NTA2NDQxODMxNTg4NzUsIC0wLjE1ODQyMzQ1MzU2OTQxMjIzLCAwLjAxNjg5MTg4OTI3NDEyMDMzLCAwLjI0NDE5NDQ0Nzk5NDIzMjE4LCAtMC4wNzQ0MDAyMzg2OTI3NjA0NywgMC41NDU4ODc4ODc0Nzc4NzQ4LCAtMC4wOTMwNDgyMTQ5MTI0MTQ1NSwgMC42NTc1MzA2MDU3OTI5OTkzLCAtMC41NzM1ODcwMDAzNzAwMjU2LCAwLjA5NzI4MzQ2MDE5OTgzMjkyXSwgWzAuMjE5OTYwNDY2MDI3MjU5ODMsIC0wLjUxMTk4NjEzNjQzNjQ2MjQsIC0wLjIxODA4MjI0OTE2NDU4MTMsIC0wLjAzMjk4MjUwOTU4MzIzNDc5LCAtMC4yMTYzNTc3Mzc3Nzk2MTczLCAwLjUyMTU3NDg1NDg1MDc2OSwgLTAuMDUzOTA2MDIzNTAyMzQ5ODU0LCAwLjA5OTU2OTkzMTYyNjMxOTg5LCAwLjEyNDg3NzkxNDc4NjMzODgsIC0wLjIyNDkyNjg4ODk0MjcxODUsIDAuMDI0MTcyMDk1NTgxODg5MTUzLCAtMC4xNjI3NDg0ODU4MDM2MDQxMywgLTAuMDMwMDQ1OTE1Mzk1MDIxNDQsIC0wLjE4MTUwODI1Nzk4NTExNTA1LCAtMC4wODE5NTk1MDgzNTk0MzIyMiwgMC4wODUwMzMxMTg3MjQ4MjNdLCBbLTAuMTU1NTM0NDkwOTQyOTU1MDIsIDAuMTAzOTE4MjM5NDc0Mjk2NTcsIC0wLjAyMDAyNzc3NTMxNzQzMDQ5NiwgMC4wNTMyNDA3OTA5NjMxNzI5MSwgLTAuMjc4NDIwNzQ2MzI2NDQ2NTMsIDAuMTY4MzIzNDcyMTQyMjE5NTQsIC0wLjAyNTgwNzA3ODkyNzc1NTM1NiwgMC4xODA3MDI2NTY1MDc0OTIwNywgLTAuMzg0NjA5NjM5NjQ0NjIyOCwgLTAuMTU5MDUyNDkxMTg4MDQ5MzIsIDAuMzQ4MjcxNjM4MTU0OTgzNSwgMC41MzYxMjc4NjUzMTQ0ODM2LCAwLjA5NTk4Nzg1NjM4ODA5MjA0LCAwLjM5MDMyODgyNDUyMDExMTEsIDAuMDE5MDk3OTU0MDM0ODA1Mjk4LCAwLjE1MTM0NTc4OTQzMjUyNTYzXSwgWzAuMDMwMjEwNDYxNDY3NTA0NSwgLTAuMTA4MDAwOTM0MTIzOTkyOTIsIDAuMjMzNTYwODQ1MjU1ODUxNzUsIDAuMTM0NTQwMDgxMDI0MTY5OTIsIDAuMzE5ODU1NTExMTg4NTA3MSwgMC4xNzUyOTg3MzU0OTkzODIwMiwgMC4yMTczNTU4OTIwNjIxODcyLCAwLjQxMjc1OTg0MDQ4ODQzMzg0LCAtMC4yOTU1MzkyODk3MTI5MDU5LCAwLjA2OTA0ODUzODgwNDA1NDI2LCAwLjA3ODU1OTAyNjEyMjA5MzIsIDAuMzEzMjA3MDMwMjk2MzI1NywgMC4xMzI2MDA3NTQ0OTk0MzU0MiwgLTAuMDExMDI5OTkwMzg5OTQzMTIzLCAwLjE5NTQ5MjQwMTcxOTA5MzMyLCAwLjM4Njk1MTE0ODUwOTk3OTI1XSwgWy0wLjAzNDI2NjgzMzIxNTk1MTkyLCAwLjA5ODcwODkwNTI3OTYzNjM4LCAwLjA3NzMxMTMzNjk5NDE3MTE0LCAwLjA2MTg2NjE3OTEwODYxOTY5LCAtMC4zOTUyMDc1ODM5MDQyNjYzNiwgLTAuNzMxNTgyNjQxNjAxNTYyNSwgLTAuMDE1MDI0MDgyNzM1MTgwODU1LCAtMC4yNzM1MDQ3OTM2NDM5NTE0LCAwLjQ0MzgxMDU4MjE2MDk0OTcsIC0wLjM3MTg0NjYxNjI2ODE1Nzk2LCAwLjA2OTIyNDgxOTU0MDk3NzQ4LCAtMC44MzEzMDUwMjcwMDgwNTY2LCAtMC42NTA0NDEwNTA1Mjk0OCwgLTAuMjYyMDczOTYzODgwNTM4OTQsIDAuMDA1NTE5ODc0MzkzOTM5OTcyLCAtMC4yNjM5ODY4ODU1NDc2Mzc5NF0sIFswLjc4MTc2NjUzMzg1MTYyMzUsIC0wLjczNTM2OTQ0Mzg5MzQzMjYsIDAuNDA1MDMzMjkwMzg2MTk5OTUsIC0wLjU3NzM3NTM1MjM4MjY1OTksIC0wLjI1MzkyMjkzOTMwMDUzNzEsIDAuNDY2MzY0NTMyNzA5MTIxNywgMC4xOTQ1MTc5OTk4ODc0NjY0MywgMC4yNzI3NzI1NTA1ODI4ODU3NCwgLTAuMzY3ODEwOTk0Mzg2NjczLCAtMC4zNjMzMjk3MzgzNzg1MjQ4LCAwLjc2NDQwNTQ4ODk2Nzg5NTUsIDAuMDI0MjA2NTAyMzYzMDg1NzQ3LCAwLjIxNzAxMzgwNjEwNDY2MDAzLCAtMC42MDIyNjA3Njg0MTM1NDM3LCAwLjI0MzIwNjYyMDIxNjM2OTYzLCAwLjU2MjYyMjQ4NzU0NTAxMzRdLCBbMC4zODUzODEzNzA3ODI4NTIyLCAtMC40NzgxODI2MTM4NDk2Mzk5LCAwLjAyMTA3NjEzNTMzNzM1Mjc1MywgLTAuMTIzNTI1ODg3NzI3NzM3NDMsIC0wLjEyMzk5NTA5NTQ5MTQwOTMsIDAuMjg0OTUyNDYxNzE5NTEyOTQsIDAuMjUzOTE5NTEyMDMzNDYyNSwgLTAuNDIzNjExMjIzNjk3NjYyMzUsIDAuMDA4MDg5ODc0ODcxMDc1MTUzLCAwLjA3MTE1NzA5NzgxNjQ2NzI5LCAwLjMxMTcwMjMxMTAzODk3MDk1LCAtMC4zMjg2MTMwNDI4MzE0MjA5LCAtMC4zMjQzNzY4ODExMjI1ODkxLCAtMC40ODAyOTY0MDMxNjk2MzE5NiwgMC4zMDgyMjcwNjIyMjUzNDE4LCAwLjExMDUyMDE3NjU4OTQ4ODk4XSwgWy0wLjgyODQ4MTQzNTc3NTc1NjgsIDAuMzU5OTEyMjE2NjYzMzYwNiwgMC4zNTA4ODUxMjMwMTQ0NTAxLCAwLjY1NDM5NDY4NjIyMjA3NjQsIDAuMjUxNzMzMjEzNjYzMTAxMiwgLTAuNjg5MjE2MDE3NzIzMDgzNSwgLTAuODIwNjQ5NzQzMDgwMTM5MiwgMC4yNjQ5MjEwOTg5NDc1MjUsIDAuMTMwODEzNTY4ODMwNDkwMSwgMC4zODc3ODQ4Mzg2NzY0NTI2NCwgLTAuNTA5MDAwNjU4OTg4OTUyNiwgMC4yODA3NjI3NjE4MzEyODM1NywgLTAuMzAxMjUyMjQ1OTAzMDE1MTQsIDAuMTIwMjcwNjc2OTEwODc3MjMsIC0wLjg2NDY0NjQzNDc4MzkzNTUsIC0wLjQ3NTY2NzQ3NjY1NDA1MjczXSwgWy0wLjEwNTE5ODc3MDc2MTQ4OTg3LCAwLjIyMjk1NTUyNDkyMTQxNzI0LCAwLjExMjUyNTczODc3NTczMDEzLCAwLjE5NTMzMTIxNTg1ODQ1OTQ3LCAwLjQxMjA5MTg1MTIzNDQzNjA0LCAwLjA3NjQ5OTU1MTUzNDY1MjcxLCAtMC4wNTIwMTg2NzU5NTMxNDk3OTYsIC0wLjAyMTYxMDU1MjQ0NTA1NDA1NCwgMC40MTc3NTA2NTY2MDQ3NjY4NSwgMC4xNzI5MTc1NDQ4NDE3NjYzNiwgMC4yNDM4NDkzNjY5MDMzMDUwNSwgLTAuMDE2MTEwOTc1Mjk1MzA1MjUyLCAwLjE0Mjg3OTQyNjQ3OTMzOTYsIDAuMDk3MjQ2OTgyMTU3MjMwMzgsIDAuMjI4NjYyNzI5MjYzMzA1NjYsIC0wLjA3ODc2MDgyNTA5NzU2MDg4XSwgWy0wLjAwOTY2NjkyMzQzMzU0MjI1MiwgMC4yNzMxNjAyMTkxOTI1MDQ5LCAtMC4zMTE0MDUyNDE0ODk0MTA0LCAwLjI0Mzc5ODY0MzM1MDYwMTIsIDAuMjI4MDMzNTU3NTM0MjE3ODMsIC0wLjIyNTgwMzQ3OTU1MjI2ODk4LCAtMC4xNzM5MDk3MjM3NTg2OTc1LCAtMC4wNzE2NjY5NzgyOTk2MTc3NywgMC40ODU4Nzg3MDU5NzgzOTM1NSwgMC40NTkwNzg2MDk5NDMzODk5LCAtMC40NzU2ODM5ODcxNDA2NTU1LCAwLjI0OTEwMzM2NzMyODY0MzgsIDAuMDc3NjQwMzk5MzM2ODE0ODgsIDAuNDM4MDM1Nzg2MTUxODg2LCAtMC4xMzEzODQ0MDI1MTM1MDQwMywgLTAuMDU4MTExNDY2NDY3MzgwNTI0XSwgWzIuOTI3ODc2NDcyNDczMTQ0NSwgLTIuNDEwMzIwOTk3MjM4MTU5LCAyLjI1MTAxNjYxNjgyMTI4OSwgLTIuMzEyNTgyNDkyODI4MzY5LCAtMi4wNjA1MzAxODU2OTk0NjMsIDIuNjYzOTAxMDkwNjIxOTQ4MiwgMi43MzkwMTM0MzM0NTY0MjEsIDEuODA5Njk3Mzg5NjAyNjYxMSwgLTEuNjg0MTU2NDE3ODQ2Njc5NywgLTEuNzM5NTc0OTA5MjEwMjA1LCAyLjgxMDA0NDI4ODYzNTI1NCwgLTEuNjg0NjcxNDAxOTc3NTM5LCAtMC41NTkwOTIxNjQwMzk2MTE4LCAtMS45OTUyNTk1MjMzOTE3MjM2LCAyLjc1MjkwMTU1NDEwNzY2NiwgMi4wNTEwMTEzMjM5Mjg4MzNdLCBbLTAuMTQ4MjMzMzY4OTkyODA1NDgsIDAuMzYyMjIzNTA1OTczODE1OSwgMC4xMTQ5NjY5NDM4NjAwNTQwMiwgMC4yMDExMTgyOTA0MjQzNDY5MiwgLTAuNDU3MTU0NTcyMDEwMDQwMywgLTAuMDkyNDE3MDc2MjMwMDQ5MTMsIDAuMjA2NTc1ODcwNTEzOTE2MDIsIC0wLjIwOTYyMDM1NjU1OTc1MzQyLCAwLjA4MTg2NTExNjk1Mzg0OTc5LCAtMC41MDA0MDE3MzUzMDU3ODYxLCAwLjMzNjU3ODAxMTUxMjc1NjM1LCAtMC44OTEzMTY3NzE1MDcyNjMyLCAtMC4yNzcxOTMzMzc2Nzg5MDkzLCAtMC41MzE4NjI3MzU3NDgyOTEsIDAuMTkzNTk0MzY2MzEyMDI2OTgsIDAuMjAzMTU2MjkyNDM4NTA3MDhdXSwgWzAuMDY0NDgyMDAzNDUwMzkzNjgsIDAuMTU4Mzg2MDIxODUyNDkzMywgMC4wNDc1NjYxMDg0MDU1OTAwNiwgMC4xNTU4OTAwMTc3NDc4NzkwMywgMC4xNTc0NTQ3NTg4ODI1MjI1OCwgMC4xNDk0NDQxNDc5NDQ0NTAzOCwgMC4wMjcwODA1NzMxNDE1NzQ4NiwgMC4xMDMxNDMwNjYxNjc4MzE0MiwgMC4xMTk1OTAyOTczNDEzNDY3NCwgMC4xNDM5MDQ4NDk4ODY4OTQyMywgMC4wOTI2MDE1NDUxNTUwNDgzNywgMC4wNjM0MDQyMzk3MTQxNDU2NiwgMC4wOTIxOTg2MjUyMDY5NDczMywgMC4wODc5NDE0MjMwNTg1MDk4MywgMC4wMjY3NTA0MjMwMTQxNjM5NywgMC4wODQ4NjExNTE4NzQwNjU0XSwgW1stMS44MTEzNjU0ODUxOTEzNDUyXSwgWzEuMTU4MDgxNTMxNTI0NjU4Ml0sIFstMS4zNDg3OTk5NDM5MjM5NTAyXSwgWzEuMjE5MTA5Mjk2Nzk4NzA2XSwgWzIuMzM1Mjk3MzQ2MTE1MTEyM10sIFstMS44MDgxNjMyODUyNTU0MzIxXSwgWy0xLjY3NzIwMDA3ODk2NDIzMzRdLCBbLTAuOTIwMTQwMDI3OTk5ODc3OV0sIFswLjYyMzIwMDg5MzQwMjA5OTZdLCBbMS45MjI0MTQwNjQ0MDczNDg2XSwgWy0xLjUwOTgyMjQ4NzgzMTExNTddLCBbMi42MDE5Njk3MTg5MzMxMDU1XSwgWy0yLjEyODkyNTMyMzQ4NjMyOF0sIFswLjk3NzUwNzIzMzYxOTY4OTldLCBbLTEuNjQ4Nzk0MTc0MTk0MzM2XSwgWy0wLjg2ODg4MTIyNTU4NTkzNzVdXSwgWzAuMTE4NjE5NTMxMzkzMDUxMTVdXQ==", "metrics": {"loss": 0.135158, "accuracy": 0.944792, "auc": 0.989375, "precision": 0.969622, "recall": 0.922958}}