{"round": 5, "weights_b64": "W1tbMC4xODA0Mzc0NDU2NDA1NjM5NiwgMC4yMDUwNTE3MjAxNDIzNjQ1LCAwLjAwMjg5MzYzNTUzNzQ3NTM0NzUsIDAuMDY5MzU5MDc5MDAzMzM0MDUsIC0wLjE5MDI4MzAzMDI3MTUzMDE1LCAwLjE0NDk4MTU2MzA5MTI3ODA4LCAtMC4wMTIzODAxMjg3MjYzNjMxODIsIC0wLjE0MDg5MTkzOTQwMTYyNjYsIC0wLjAyMTQzODQyNzI2OTQ1ODc3LCAwLjA2NzUxNDQ3MTcwOTcyODI0LCAwLjAwNDg3NTk1MTQ0NjU5MjgwOCwgMC4yMzk5MjQ0NjA2NDk0OTAzNiwgLTAuMDczODYzMDI5NDc5OTgwNDcsIC0wLjAxMTYwMDkwMjMwNDA1MzMwNywgMC4xNTg1OTcyMTYwMTAwOTM3LCAtMC4wNzI2NzgyNjc5NTU3ODAwMywgLTAuMDY5MDM0Mzk3NjAyMDgxMywgMC4wNjI4MzM2OTY2MDM3NzUwMiwgLTAuMjE2NDc3NzM2ODMwNzExMzYsIC0wLjA1MTE1MzMyNDU0NDQyOTc4LCAtMC4wNzg0ODU3MzQ3NjA3NjEyNiwgLTAuMDQyMTQ0NTg5MTI2MTEwMDgsIDAuMjMzMzIwMDU3MzkyMTIwMzYsIC0wLjMwOTQxMjE4MTM3NzQxMDksIDAuMTQ5Mjg2NzE3MTc2NDM3MzgsIDAuMDY5MDc0MDY0NDkzMTc5MzIsIDAuMjg4MTk3MDQwNTU3ODYxMzMsIC0wLjE4OTAwMjI3NTQ2NjkxODk1LCAwLjA4NDE4MTExNTAzMTI0MjM3LCAtMC40NTY3MTMyNTkyMjAxMjMzLCAwLjAyNDQ2NzI3ODI3MTkxMzUzLCAwLjA0OTI2NzkxMDQyMDg5NDYyXSwgWzAuOTA4NDIyNzA4NTExMzUyNSwgLTAuMzk2MTM0Mjg3MTE4OTExNzQsIDAuMjY2NzM5NjM2NjU5NjIyMiwgMC4yMjg3NTE5NzIzMTc2OTU2MiwgMS42NjQ5NzE1OTAwNDIxMTQzLCAtMC4xMDM4NzgwOTU3NDYwNDAzNCwgMC4yNzM3MTc2MTIwMjgxMjE5NSwgMC4yMDYxNDU3NjMzOTcyMTY4LCAtMC4xNzcyMjk4NjYzODU0NTk5LCAtMC4wNDAwNDQxMDY1NDMwNjQxMiwgLTAuMjAwMzAyNDgxNjUxMzA2MTUsIDEuMzM2NjI3NDgzMzY3OTIsIDEuNjc3NjY5Mjg2NzI3OTA1MywgLTAuNTA5NDQyMjY5ODAyMDkzNSwgMC41MTI1NzQ1NTM0ODk2ODUxLCAtMC4zMjI5MTc0OTExOTc1ODYwNiwgLTAuMDg4ODM5MjYyNzIzOTIyNzMsIDAuMjE3Nzk3ODE1Nzk5NzEzMTMsIDEuOTY1MTY3Mjg0MDExODQwOCwgLTAuMjg1MjQ5MDg0MjM0MjM3NjcsIC0wLjI4MjcwMDk4NTY3MDA4OTcsIDAuMTQ0NjU4MzI3MTAyNjYxMTMsIDEuMTczOTE1MTQ3NzgxMzcyLCAwLjA3NzM1NjUxNzMxNDkxMDg5LCAtMC4yMTA2OTk5MTU4ODU5MjUzLCAtMC4wOTk4MTA5NTc5MDg2MzAzNywgMS4xNzIzMDc4NDg5MzAzNTg5LCAyLjIzMDA5MjUyNTQ4MjE3NzcsIC0wLjQyMDU3NTc5NzU1NzgzMDgsIC0wLjI1NDczNTk0NjY1NTI3MzQ0LCAwLjc3NzA4OTQ3NjU4NTM4ODIsIDAuNDQ1NTk3ODI3NDM0NTM5OF0sIFswLjQ3MTI4ODIwNDE5MzExNTIzLCAtMC4yNzMxMTg1NTU1NDU4MDY5LCAwLjI3NTM4OTI4Mzg5NTQ5MjU1LCAwLjA0NjAzMjQwNjM4OTcxMzI5LCAwLjEzNDM2NDAzODcwNTgyNTgsIC0wLjI5NTAyNDk2MTIzMzEzOTA0LCAwLjI1ODY4OTcwMTU1NzE1OTQsIDAuMjY0OTc1OTA1NDE4Mzk2LCAwLjEwODU0NjI0MjExNzg4MTc3LCAtMC4wMzM2NTM5MjIzNzkwMTY4NzYsIDAuMjI5MTg1OTY4NjM3NDY2NDMsIDAuNjM4OTEwODMwMDIwOTA0NSwgMC4zODg3NTIwNDMyNDcyMjI5LCAtMS4wNzQwOTMzNDE4MjczOTI2LCAwLjM4MjUxNDg2NDIwNjMxNDEsIC0wLjQ0NjUyODkxMTU5MDU3NjE3LCAwLjAyODEwNTQ2NzU1NzkwNzEwNCwgMC4wNTc1Mzg2MzYwMjg3NjY2MywgLTAuMjgwNDY1MzY0NDU2MTc2NzYsIDAuMDMxODE3NjQ0ODM0NTE4NDMsIC0xLjI4Njg1MDY5MDg0MTY3NDgsIC0wLjAzMDIzNjYyOTc2OTIwNjA0NywgLTAuMTM1MTM2OTMyMTM0NjI4MywgLTAuMTYxNzkzMzY2MDc0NTYyMDcsIC0wLjAyNjUwMzc1MTA1NDQwNjE2NiwgLTAuMDY0ODEyMzQ3MjkyOTAwMDksIDAuMjM0MzY3NjA5MDI0MDQ3ODUsIC0wLjM3NDMzNTg1NTI0NTU5MDIsIC0wLjU4NDQxMDE5MDU4MjI3NTQsIC0xLjE3ODk1NDI0MzY1OTk3MzEsIDAuMjUxOTcxNDIzNjI1OTQ2MDQsIDAuMzc2MDc4NjA1NjUxODU1NDddLCBbMC44MDM1MDIwODI4MjQ3MDcsIC0wLjMzMDA1MzUzODA4NDAzMDE1LCAtMC4xMjQ4NDcyNDA3NDYwMjEyNywgLTAuNTM5Mjg2NDk0MjU1MDY1OSwgMC45MDE1NjU2MTEzNjI0NTczLCAtMC4zMzA0OTIzNzcyODExODg5NiwgMC4xODI2NTY0NjY5NjA5MDY5OCwgLTAuMTQ0NzQ2ODY5ODAyNDc0OTgsIC0wLjcyMDcwNjcwMTI3ODY4NjUsIC0wLjQ0NDI2MTkwODUzMTE4ODk2LCAtMC41NjMyOTI4NjA5ODQ4MDIyLCAwLjk1MDUzNDY0MTc0MjcwNjMsIDAuODMwMzc4MTc0NzgxNzk5MywgMC4wMzQ1MTczMDMxMDkxNjkwMDYsIDAuMTY1NzE5MTY2Mzk4MDQ4NCwgLTAuNTc5MzU4OTk0OTYwNzg0OSwgLTAuMTE2OTk2MjM2MTQ1NDk2MzcsIDAuMDA4NzY3OTU1MDA1MTY4OTE1LCAwLjY1MDY5NDQ4OTQ3OTA2NDksIC0wLjc3NTAzMzcxMjM4NzA4NSwgMC4yMTUxOTYzNTYxNzczMzAwMiwgLTAuMjM2MjM4MDYyMzgxNzQ0MzgsIDAuOTE5MjY4NzI3MzAyNTUxMywgMC4xNDEyMDg1Mjk0NzIzNTEwNywgLTAuNTMzNTE5NzQ0ODczMDQ2OSwgLTAuMzA2NzczNzgxNzc2NDI4MiwgMC44OTA4NDA1OTAwMDAxNTI2LCAxLjE3NjMwMzg2MzUyNTM5MDYsIDAuNDQ0ODIzNTYzMDk4OTA3NDcsIDAuMjM4NjI3ODIxMjA3MDQ2NSwgMC40NzUzNTYyMjExOTkwMzU2NCwgMC4zODg0Mjk2NzE1MjU5NTUyXSwgWzAuNDc5NDA1MjI0MzIzMjcyNywgMC4yNjMwODkyNjkzOTk2NDI5NCwgLTAuMTIxMjUwNDgwNDEzNDM2ODksIDAuMDM3NDE3NTc1NzE2OTcyMzUsIDAuMTQxNzkwMDYyMTg5MTAyMTcsIC0wLjEwMDgzNTM1MzEzNjA2MjYyLCAwLjA5MTMxNDg1MjIzNzcwMTQyLCAwLjE0NTQyODgzNjM0NTY3MjYsIDAuMDg1OTE1MDQzOTUwMDgwODcsIDAuMTUyMTI3ODE3MjczMTM5OTUsIDAuMTM1OTk4MDEwNjM1Mzc1OTgsIDAuMzM5NTc1MTcxNDcwNjQyMSwgMC4xODEyNTc3NTQ1NjQyODUyOCwgLTEuMzQyNDgxMDE3MTEyNzMyLCAtMC4xMTcyMDk5MTEzNDY0MzU1NSwgLTAuMTY4MjM5NDU5Mzk1NDA4NjMsIC0wLjAzMTg1ODEwNTIxMjQ1MDAzLCAwLjA1NTY1NjEyNzYzMTY2NDI3NiwgLTAuMjA2ODUyODIzNDk1ODY0ODcsIC0wLjA0NjA0ODU3NDE0OTYwODYxLCAtMS4yNjkyOTU2OTI0NDM4NDc3LCAwLjIyNzYxMjQzNTgxNzcxODUsIDAuMjAwOTUwODMxMTc0ODUwNDYsIDAuMDg0NTk1NTAxNDIyODgyMDgsIDAuMDcxNjYyMDA4NzYyMzU5NjIsIDAuMDc4NjIzNzc5MTE4MDYxMDcsIDAuMTUwNTg5NTU1NTAxOTM3ODcsIC0wLjE0MTI2NTQ2NjgwOTI3Mjc3LCAtMC4xMTMzMjczNjE2NDMzMTQzNiwgLTIuMjAwOTc4NzU1OTUwOTI3NywgLTAuMTA0NjE2Mjk5MjcxNTgzNTYsIDAuMTMyNDE3MzUxMDA3NDYxNTVdLCBbMC4xMTk2NDY1MzQzMjM2OTIzMiwgMC4wMTQ2MTk1ODMyNjM5OTMyNjMsIC0wLjE2NjczMjc4ODA4NTkzNzUsIDAuMzExMDIyNjM5Mjc0NTk3MTcsIDAuMTcyOTU1MzE5Mjg1MzkyNzYsIC0wLjA0NzgwMjcyMDIxODg5Njg2NiwgLTAuMDE0MTAzNjI2ODMyMzY1OTksIDAuMTkzNjUxNTEyMjY1MjA1MzgsIDAuMDE2MDQ2NjIwOTA1Mzk5MzIzLCAtMC4wODY0Mjk3NTI0MDk0NTgxNiwgMC4yNTE2MzUxNjQwMjI0NDU3LCAwLjAzMDMzNzQ3NTI0MDIzMDU2LCAtMC4wMTMzNjAyMzU4NDAwODIxNjksIDAuMDc4OTM3NDU2MDExNzcyMTYsIC0wLjE5MzI0ODg4Mjg4OTc0NzYyLCAwLjA0NzU2MDE2Mjg0MjI3MzcxLCAtMC4wNTA4Mzc1OTg3NDEwNTQ1MzUsIDAuMDg3NjAzMDI1MTM4Mzc4MTQsIDAuMTE4NDU2NDYwNTM1NTI2MjgsIDAuMjA5NDk4ODgyMjkzNzAxMTcsIDAuMjYzNDkxNzE5OTYxMTY2NCwgLTAuMTE1OTQ4MDk1OTE3NzAxNzIsIC0wLjEyNDkzNzQ0NDkyNTMwODIzLCAwLjAwNDgzNzgwNjgwMjI0Mjk5NCwgMC4wMDUwMTc4MDc3MDcxOTA1MTQsIDAuMDQ3MzI1MDgyMTIzMjc5NTcsIC0wLjAyMDI3ODIwMDUwNzE2NCwgLTAuMDA4MDAyMjEyMjcxMDk0MzIyLCAwLjMwODE2ODU5MDA2ODgxNzE0LCAwLjI4OTk1NTg4NDIxODIxNTk0LCAtMC4yMTIyMTE3NTc4OTgzMzA3LCAwLjA2NjYzODc5NzUyMTU5MTE5XSwgWy0wLjA1MDE4NjQ3NzYwMTUyODE3LCAtMC4xMDI2NjU0NTQxNDkyNDYyMiwgMC4xMDM2ODI0MDYyNDY2NjIxNCwgMC4zMjY5NTAwMTM2Mzc1NDI3LCAtMC4wMzcyODI4NDY4NjgwMzgxOCwgLTAuMDkwNTU4Njc3OTExNzU4NDIsIDAuMDg2NjAxMTgyODE4NDEyNzgsIDAuMTkxNDgyNjYzMTU0NjAyMDUsIC0wLjA4MDc1NjU2NzQxODU3NTI5LCAtMC4yNTA2OTYwNjMwNDE2ODcsIDAuMDk0MjQxNjQxNDYxODQ5MjEsIDAuMTE4OTkxOTI2MzEyNDQ2NiwgMC4wOTcxNjYyNDAyMTUzMDE1MSwgLTAuMTE5MTM1ODc4OTgwMTU5NzYsIDAuMTMwNjM5MDQ2NDMwNTg3NzcsIDAuMDk1OTE5NzI4Mjc5MTEzNzcsIC0wLjIyOTUzNzEyOTQwMjE2MDY0LCAwLjE1NTYzMDQyNDYxODcyMSwgMC4xNDU2NTcxNTE5Mzc0ODQ3NCwgMC4xODMzOTQzNDI2NjA5MDM5MywgLTAuMzMwMTE5NjM5NjM1MDg2MDYsIDAuNTU5NjczODQ1NzY3OTc0OSwgMC4yMDM0MDk4MzU2OTYyMjA0LCAwLjA0NzUwNzY2OTc3NjY3ODA4NSwgMC4zMTkzMDQ0MDY2NDI5MTM4LCAwLjA1NzY1MjQxMzg0NTA2MjI1NiwgLTAuMDI1MDAxMTA4NjQ2MzkyODIyLCAwLjE1NzY2MjAzNDAzNDcyOSwgLTAuMjE4NjUxMzI0NTEwNTc0MzQsIC0wLjE3OTEwMDMxOTc0MzE1NjQzLCAtMC4wOTMzNDk2NTA1MDIyMDQ5LCAtMC4wNzM3Nzc3ODczODczNzEwNl0sIFstMS40MTY4MzU1NDY0OTM1MzAzLCAwLjc0MTAxMDE4OTA1NjM5NjUsIDEuODUxMzkzMzQyMDE4MTI3NCwgMS40MTc5NDMxMjAwMDI3NDY2LCAtMS4zMTMzODI3NDQ3ODkxMjM1LCAwLjYzMTM2NTIzOTYyMDIwODcsIDAuNjE5MDAxNzQ2MTc3NjczMywgMS41ODEzOTUxNDkyMzA5NTcsIDAuOTcwOTQ2NjY5NTc4NTUyMiwgMy4xOTI1ODU0NjgyOTIyMzYzLCAxLjQ0MDgxOTYyMTA4NjEyMDYsIC0wLjczMzM5NTgxNDg5NTYyOTksIC0xLjg0MDI4NjI1NDg4MjgxMjUsIDAuOTY2MjYzMjk0MjE5OTcwNywgLTAuMDYxNjU1ODM4MDQyNDk3NjM1LCAyLjYxMDk2MjYyOTMxODIzNzMsIDAuODM3NjYwMTMzODM4NjUzNiwgMS42NzQ0Nzg0MTE2NzQ0OTk1LCAtMS43NDI5MTI1MzA4OTkwNDc5LCAtMC4yNjQ0ODI0OTgxNjg5NDUzLCAtMi4wNjA2MzM2NTkzNjI3OTMsIDEuMjQyNjczODczOTAxMzY3MiwgLTMuODkxNTU4MTcwMzE4NjAzNSwgLTEuMjc0MjgwNDI4ODg2NDEzNiwgMS4xNjMwNTY2MTIwMTQ3NzA1LCAwLjk0NTc0Nzg1MjMyNTQzOTUsIC0yLjU1NTk5MDIxOTExNjIxMSwgLTEuNjA4MjgyODA0NDg5MTM1NywgLTEuNTA5OTI4NDY0ODg5NTI2NCwgMy4xOTQ1OTgxOTc5MzcwMTE3LCAtMC4xMzgyODE0MzQ3NzQzOTg4LCAtMC43MDY3NTQ3NDQwNTI4ODddLCBbMC4wMTY5NTk3MDgxODQwMDM4MywgLTAuNTY5OTQ4OTExNjY2ODcwMSwgMC4yOTQ0NzUxMzgxODc0MDg0NSwgLTAuNDM5ODg1NDM3NDg4NTU1OSwgLTAuMjkzNzg0OTE2NDAwOTA5NCwgLTAuMzYwMTkzNDAxNTc1MDg4NSwgMC4zMzI0NDQwNzE3Njk3MTQzNiwgLTAuMDE3NTgzODQ4OTA4NTQzNTg3LCAwLjExMDQyMTI0MDMyOTc0MjQzLCAtMC4zMjU1NzM4MDE5OTQzMjM3MywgMC4wODc1MjY0OTI3NzQ0ODY1NCwgMC4wNTUyMTAyOTIzMzkzMjQ5NSwgLTAuMjI0NDY2MTc0ODQwOTI3MTIsIC0wLjQwNjM4Njg4MjA2NjcyNjcsIDAuNjUxODU2NjYwODQyODk1NSwgLTAuMzM4MzE3MDk2MjMzMzY3OSwgLTAuMjYzMTgyNTgwNDcxMDM4OCwgMC4zODg3NDIzMjc2OTAxMjQ1LCAtMC40MjE1NjUyNjQ0NjM0MjQ3LCAtMC4zMzA2MDU3NDUzMTU1NTE3NiwgLTAuMDM0MzA5ODE1NjE1NDE1NTcsIC0wLjEzODE2MTY4OTA0MzA0NTA0LCAwLjAxMzE2MjcyNjUzNjM5MzE2NiwgLTAuMTM2MjMwNzA3MTY4NTc5MSwgLTAuMzc3NjYzOTY5OTkzNTkxMywgLTAuNDUwNTk4Nzc2MzQwNDg0NiwgMC4wNTg2MjU5MzY1MDgxNzg3MSwgLTAuNjM1OTMzNjk3MjIzNjYzMywgMC4wMjUxODcxMjcyOTIxNTYyMiwgLTAuMjg2MTMwODE1NzQ0NCwgMC4xMjUyNjc4NjMyNzM2MjA2LCAwLjUwOTg3MzA5MjE3NDUzXSwgWy0wLjA1ODU0OTQxMTU5NDg2NzcwNiwgLTAuMjI1MDQ0ODc2MzM3MDUxNCwgMC4wODg3MDAzOTg4MDI3NTcyNiwgMC4xMjUzMjI0NjExMjgyMzQ4NiwgLTAuMTM1MTY5NDc2MjcwNjc1NjYsIC0wLjcwODEyNzU1ODIzMTM1MzgsIDAuMTAwMjQ4ODQzNDMxNDcyNzgsIDAuMjM0NTA1OTA2NzAxMDg3OTUsIDAuMDY4MTgwMzY3MzUwNTc4MzEsIDAuMDAxNjc4Njc2ODEwMTE1NTc1OCwgMC4xNDg4MDMyOTM3MDQ5ODY1NywgLTAuMDk2MzI5NDY1NTA4NDYxLCAtMC4xODYwNTkxNjIwMjA2ODMzLCAtMi41NDc0MTQ3Nzk2NjMwODYsIDAuNDc5NDA4OTc5NDE1ODkzNTUsIC0wLjkxNTU2OTQyNDYyOTIxMTQsIC0wLjEzMzk3Njg3NjczNTY4NzI2LCAwLjA5OTIwMzg1NDc5OTI3MDYzLCAtMC4xMjcxOTEzMDUxNjA1MjI0NiwgMC4wMTY0Mzg1MjMzMDc0NDI2NjUsIC0yLjQwMTI0NDg3ODc2ODkyMSwgMC4xNzUwNDU3NTg0ODU3OTQwNywgLTAuMDc3NDE3NjEyMDc1ODA1NjYsIDAuMTQ3ODk2MDgxMjA5MTgyNzQsIC0wLjAzNzg3OTY0NTgyNDQzMjM3LCAtMC4yNDY1Mzc3MTUxOTY2MDk1LCAtMC4xNDkwMDE1NTM2NTQ2NzA3MiwgMC4yODc3NTI2NTgxMjg3Mzg0LCAtMS4wNTcyNjIzMDE0NDUwMDczLCAtMi4zODkwODc2NzcwMDE5NTMsIDAuMTkxODM5MzY3MTUxMjYwMzgsIDAuNTIwNzEwNTg3NTAxNTI1OV0sIFstMC43MjAzNjA4NzUxMjk2OTk3LCAwLjA3MTc4NDE0NjEzMDA4NDk5LCAtMC4yMDA4MzQ2MDIxMTc1Mzg0NSwgMC41NDA4MTM2ODQ0NjM1MDEsIC0wLjAwMTA3NDYzOTYxNDY3MTQ2ODcsIDAuMzIzNTE4MjE2NjA5OTU0ODMsIC0wLjA4NjAxMjQ3NTE5MjU0Njg0LCAwLjE4NjM3NzQ5NTUyNzI2NzQ2LCAwLjQwNDc0MDYzMTU4MDM1MjgsIDAuMTk5NTMwNDIyNjg3NTMwNTIsIDAuMzY4NjAwODE1NTM0NTkxNywgLTAuMDY1MzE3ODU0Mjg1MjQwMTcsIC0wLjI4NDkyNDM1ODEyOTUwMTM0LCAwLjE2NTMxNTM1OTgzMDg1NjMyLCAtMC4wNDI1NDEyMDk2MDgzMTY0MiwgMC40ODU3MjkxNTc5MjQ2NTIxLCAwLjE5Njc1NzgwODMyNzY3NDg3LCAwLjE0OTgyOTQxNzQ2NzExNzMsIDAuMTE5MzM1MDQwNDUwMDk2MTMsIDAuMDM1NjU2ODI0NzA3OTg0OTI0LCAwLjA4NzE5MDM0NDkyOTY5NTEzLCAwLjA0Mjk4Nzg0MjExMjc3OTYyLCAwLjAxODQ2NzA2MTIyMTU5OTU4LCAtMC4wNzM5MzQ1MDI4OTk2NDY3NiwgMC4zODM1OTkxOTE5MDQwNjgsIDAuMzgyOTExOTgwMTUyMTMwMSwgLTAuMDQxMTA3NzM2NTI3OTE5NzcsIDAuMTI5NDg1NzI2MzU2NTA2MzUsIC0wLjA3NTY4Njg5NDM1NzIwNDQ0LCAtMC4wMzA0MDkzMzk4MTUzNzgxOSwgMC4xOTYyNTQxOTM3ODI4MDY0LCAtMC4xNzA4MjIxNzMzNTcwMDk5XSwgWzAuMzI4ODYwMTYzNjg4NjU5NjcsIDAuMTU1NDk2NDMzMzc3MjY1OTMsIC0wLjA4NDUyNjY4Nzg2MDQ4ODg5LCAtMC4xMDE2MDYxMTU2OTg4MTQzOSwgLTAuMDU5Mjg1MzMxNTE3NDU3OTYsIC0wLjAwMDU1NjgyMTkzNDg3ODgyNjEsIC01LjY4NTkxMDU4MjU0MjQxOTRlLTA1LCAtMC4xNDA5OTQwNTcwNTkyODgwMiwgLTAuMDYyMTQ0NTMyNzk5NzIwNzY0LCAwLjEwMTI2NTY1Mzk2Nzg1NzM2LCAtMC4xNTExNTg3NTAwNTcyMjA0NiwgLTAuMDM1MDU1Njg5NTEzNjgzMzIsIC0wLjA4NjcxNjk3MjI5MTQ2OTU3LCAtMC4xMTE1MzA0MzgwNjU1Mjg4NywgMC4wNjk2MTEyMjE1NTE4OTUxNCwgMC4wMTAyMzUyNTc0NDY3NjU5LCAwLjAwNzYwOTE0NzU3ODQ3Nzg1OTUsIDAuMjAxNjE3ODM2OTUyMjA5NDcsIC0wLjY3MjY5MDk4NzU4Njk3NTEsIDAuMDM3OTk4Nzk5MjM0NjI4NjgsIDAuMTQ2Mzg2NjA4NDgxNDA3MTcsIC0wLjEyNjg1NzE5MTMyNDIzNCwgLTAuMjY2MjU2MjcyNzkyODE2MTYsIC0wLjEzNTg3NzI2NjUyNjIyMjIzLCAwLjE2MDcwMjY0NTc3ODY1NiwgMC4xNDM1NTY0NDU4MzcwMjA4NywgLTAuMTQzMzk1OTQ1NDI5ODAxOTQsIC0wLjY3NTMyMzY2NTE0MjA1OTMsIDAuMTI0MTA0NDU1MTEzNDEwOTUsIDAuMTg4MTE0MDE3MjQ4MTUzNywgMC4wNTgxODgyNzgyMjgwNDQ1MSwgLTAuMTUwNDUxNzE5NzYwODk0NzhdLCBbMC4wMDMwOTExMDcxMjI2MDAwNzg2LCAtMC4wNjY5MTg1MDcyMTgzNjA5LCAwLjEwOTIxOTMyNzU2OTAwNzg3LCAtMC4wNTg3MTExNDEzNDc4ODUxMywgMC4zNzU2MzkwODEwMDEyODE3NCwgMC4wODY4MTkxNDIxMDMxOTUxOSwgLTAuMTMxMjA1ODEyMDk2NTk1NzYsIDAuMDEyNzM4MTQ0OTU2NTI5MTQsIC0wLjA5MDI4OTI3OTgxODUzNDg1LCAwLjEwOTEyNDI0MzI1OTQyOTkzLCAwLjA3NjQ0NjM2OTI5MDM1MTg3LCAwLjM2ODIwNTE1OTkwMjU3MjYzLCAwLjE2ODM2MjczNjcwMTk2NTMzLCAwLjE1MzA0Mjk0MjI4NTUzNzcyLCAtMC4wODkxMzU5Mjk5NDIxMzEwNCwgLTAuMDY4NzcwMDY1OTAzNjYzNjQsIDAuMDI1MzA1NjkyMTA2NDg1MzY3LCAwLjA4MDM3MDY2NDU5NjU1NzYyLCAtMC4xNDgwMjgxMzUyOTk2ODI2MiwgMC4wMzkyNzMyOTU1NTE1Mzg0NywgMC4xNDk5Njk1NjI4ODgxNDU0NSwgMC4wNDQ0NTM1MTI4NzcyMjU4NzYsIDAuMTE1MTYyMDUyMjE0MTQ1NjYsIC0wLjAxOTczNjY5Nzg5NzMxNTAyNSwgLTAuMTMwNTQzMjYxNzY2NDMzNzIsIC0wLjAzNjk4NTM3NDk4NzEyNTQsIDAuNDAwNDU3NTkwODE4NDA1MTUsIDAuMDUzOTY0ODMwOTM1MDAxMzcsIC0wLjA2MjE2MzIyNjMwNjQzODQ0NiwgMC4xMTM0MjIyNDQ3ODcyMTYxOSwgMC4xOTc2MjA2ODk4Njg5MjcsIDAuMTE0NjcwNDYyOTA2MzYwNjNdLCBbMC4xMjA1NzgyNzQxMzA4MjEyMywgLTAuMTU3MjI5Mjc0NTExMzM3MjgsIDAuMDcyODYyMzk0MTU0MDcxODEsIDAuNTU4NDUxNzcxNzM2MTQ1LCAtMC4yNTIzNjgyMTE3NDYyMTU4LCAtMC40MDMzMTczMzIyNjc3NjEyMywgMC4yNTk1NTM3MzA0ODc4MjM1LCAwLjI0NjQ2NTE2MTQ0Mjc1NjY1LCAwLjI5OTE5ODc0NjY4MTIxMzQsIC0wLjE1NjE2NzgyMDA5NjAxNTkzLCAwLjMwMTkxNjM5MDY1NzQyNDksIC0wLjIwOTM4MDE5NDU0NDc5MjE4LCAtMC4yNTc5OTk4MDc1OTYyMDY2NywgLTAuNjMxNjg5NjY3NzAxNzIxMiwgMC4yNDEyMDM2MzU5MzEwMTUwMSwgLTAuMTY3MzY0NTM3NzE1OTExODcsIC0wLjM4MjM2NDU3MTA5NDUxMjk0LCAwLjE5MzAzOTI4MzE1NjM5NDk2LCAtMC41OTA2MzI0Mzg2NTk2NjgsIDAuMjY3OTg3MTMyMDcyNDQ4NzMsIC0wLjc5MDE2NDU4OTg4MTg5NywgMC4wOTMwMDY0NjE4NTg3NDkzOSwgLTAuMjc4OTc4NzA1NDA2MTg4OTYsIC0wLjExMjU0Mjk0OTYxNjkwOTAzLCAtMC4yMTY3MDUyNjI2NjA5ODAyMiwgLTAuMjMzNzE0NjEwMzM4MjExMDYsIC0wLjA1NzgwMDEzNjUwNjU1NzQ2NSwgLTAuNDEwOTQ4OTAyMzY4NTQ1NTMsIC0wLjI5MzEzODAyNzE5MTE2MjEsIC0wLjQyNjg5OTI1NDMyMjA1MiwgLTAuMDU0NTQyNDgxODk5MjYxNDc1LCAwLjI5NzMzNDcwMDgyMjgzMDJdLCBbLTEuMTMyODA3ODUwODM3NzA3NSwgMC4xNDQ1NzE5MzAxNzAwNTkyLCAwLjE3Nzg0MTE4NjUyMzQzNzUsIDAuMDExODIzMzk4OTkyNDE5MjQzLCAtMC42NDcwNzgxNTY0NzEyNTI0LCAtMC4wMDUyNDgyOTA0ODY2MzM3NzgsIDAuMTM5Mzc3Nzg3NzA5MjM2MTUsIDAuMDU0NzMyNTY4NTYyMDMwNzksIC0wLjAzMjAzOTc2ODk5Mzg1NDUyLCAwLjA4MTY1OTg2MDkwODk4NTE0LCAtMC4wMDMzMjEzODAzNTQ0NjQwNTQsIC0wLjc2NjcyOTcxMjQ4NjI2NzEsIC0wLjY4MTQ5NjI2MjU1MDM1NCwgMC4xMzU4ODA2OTM3OTMyOTY4MSwgLTAuMDA1ODY1MzE3MzAzNjg3MzM0LCAtMC4wMTExNDg4NzQ2NDc5MTUzNjMsIDAuMDYxMjkzOTcwNzkzNDg1NjQsIDAuMDA1MDg0OTQzOTU3NjI2ODIsIC0wLjk0Njg0NzA4MTE4NDM4NzIsIC0wLjA5MzgxNTM0MTU5MTgzNTAyLCAwLjA3NDk5MDA3ODgwNjg3NzE0LCAtMC4xMzYyNDQ1OTUwNTA4MTE3NywgLTAuNjAxMjcxODY3NzUyMDc1MiwgLTAuMDc1MTQ1NzUxMjM3ODY5MjYsIDAuMDQwMjU3NTg4MDI4OTA3Nzc2LCAwLjE5MTQyOTMwMjA5NjM2Njg4LCAtMC41NDc4MDc3NTMwODYwOTAxLCAtMS4xMTg4OTgzOTE3MjM2MzI4LCAwLjAwMjQzNjc3NjY0NTQ4MTU4NjUsIDAuMDUwNDU5ODc2NjU2NTMyMjksIC0wLjE3MjE2MTQ4OTcyNTExMjkyLCAtMC4xNzg1MTAwOTk2NDk0MjkzMl0sIFstMC4wMDE3NDQ5MTcxMjgyMzUxMDE3LCAwLjE1MTIxNTUyMzQ4MTM2OTAyLCAtMC4wMTQzMDI2NzAwMjQzMzUzODQsIDAuMDAxMzc2MTgzMjM3ODgwNDY4NCwgLTAuMDAzMjU1OTMxNDI3NzAyMzA3NywgMC4wNTcxODg3NzkxMTU2NzY4OCwgMC4xMzQyNjM3NTM4OTA5OTEyLCAtMC4wMDQ4MDQ3Mzc0MDAyNjM1NDgsIC0wLjAxNDY2OTIwNTk5MzQxMzkyNSwgMC4wMTgzNzU3MzAxNDE5OTczMzcsIDAuMDM0Njk4MjU5MDg1NDE2Nzk0LCAwLjA3MDQ4NjY0OTg3MDg3MjUsIC0wLjIyNDA0NjE3MDcxMTUxNzMzLCAwLjAyMzg4NDY4MDEyMjEzNzA3LCAwLjIxMjE4NDQyOTE2ODcwMTE3LCAtMC4wOTgwOTcwNTYxNTA0MzY0LCAtMC4xMzYxMjQ1NTEyOTYyMzQxMywgMC4wODc4NzQyNDg2MjM4NDc5NiwgLTAuMDMyNzgwNDkwODE1NjM5NDk2LCAwLjAwMTY5MDQwMjE2MTMyOTk4NDcsIDAuMDA5NTY0NzIwMDk0MjAzOTQ5LCAtMC4wMTE5ODUwNzI4NjYwODIxOTEsIC0wLjE3ODYzNDM3NTMzMzc4NiwgMC4wMTAyNzc1NjQ2MzczNjI5NTcsIDAuMDA2MjM0MjcxNDUxODMwODY0LCAwLjEwMzg4MjAxNDc1MTQzNDMzLCAwLjAzMzI3Nzk2NjA4MjA5NjEsIC0wLjI1MzI2MzIwNTI4OTg0MDcsIDAuMDY3NTE3OTUxMTMwODY3LCAwLjAwMTUyODMxNTI0NjEwNTE5NCwgLTAuMDAwODIwMTkyMjc1NTY4ODQyOSwgMC4wMzYwMzE1NjI4MzQ5NzgxMDRdLCBbLTAuMDIzNDY3NTU3NTA0NzczMTQsIDAuMDg4MTU2NDQ2ODE0NTM3MDUsIDAuMDE0MzIwNDM4NzI3NzM2NDczLCAwLjA1NzA0Njg0NTU1NTMwNTQ4LCAtMC4xMDkwODgxNTI2NDcwMTg0MywgMC4wNjQ4MjgyNDY4MzE4OTM5MiwgMC4xMDkwNTM4MzUyNzI3ODksIDAuMDA4ODU3OTA1ODY0NzE1NTc2LCAwLjAwNTQ3NDYwNDIwMDU3MTc3NTQsIDAuMDU1OTAyNjMwMDkwNzEzNSwgMC4wMTk1MTM3NzY1MjU4NTUwNjQsIC0wLjAyMzA3ODQwNDM2Njk3MDA2MiwgLTAuMDYzNTg2NDA2NDA5NzQwNDUsIC0wLjAyNzEzMzU0ODYzMjI2NDEzNywgMC4wODI4OTAxOTc2MzQ2OTY5NiwgLTAuMDY1MzI3NTU0OTQxMTc3MzcsIDAuMDUzMjQwODAyMTM5MDQzODEsIDAuMDYwODE2MjUwNzQxNDgxNzgsIC0wLjI1MzMzODg0MzU4NDA2MDY3LCAwLjAwNzYwMjkwMTE5Nzk2OTkxMzUsIDAuMDA2MDQxNzY5ODY5NjI1NTY4LCAtMC4wMTg3MjM3MzM3MjMxNjM2MDUsIC0wLjA5NjAwNDc1NDMwNDg4NTg2LCAtMC4wMTg4NTQ3MDAwMjg4OTYzMzIsIC0wLjAxMjQ5MTk4NjE1NTUwOTk0OSwgLTAuMTEzNjk1NDg3MzgwMDI3NzcsIC0wLjMwMzIzNjc4MjU1MDgxMTc3LCAtMC4xNTY3MDU1MTM1OTY1MzQ3MywgMC4wNTAyNDMwNDk4NjAwMDA2MSwgMC4wMTgxOTM0MTgxNjAwODA5MSwgMC4wMDI3NjM5MzkzMjI5MDM3NTIzLCAtMC4wMDU1NzcxODk4NDc4MjY5NThdLCBbLTAuMDA4ODAyODk3Mjk2ODQ1OTEzLCAtMC4yMTY2NDQyNTczMDcwNTI2LCAtMC4wMDEyODcyNzQyOTU0NjQxNTgsIDAuMTIxNTM5MTYwNjA5MjQ1MywgLTAuMDU5ODY4NzM4MDU1MjI5MTksIDAuMDA3Njg2ODMzODUxMDM5NDEsIDAuMDM5NzE4MTU4NTQzMTA5ODk0LCAwLjEwMjc1NjcyMzc2MTU1ODUzLCAtMC4xMjQ2NjgzMDc2MDI0MDU1NSwgMC4wNzUwNjU3OTkwNTc0ODM2NywgMC4wODk1MTc5ODA4MTM5ODAxLCAtMC4wNjIxNTIxNzcwOTU0MTMyMSwgLTAuMTgxMDM1MTYxMDE4MzcxNTgsIC0wLjIwODE1NTE0MDI4MDcyMzU3LCAwLjE1MTk3MzYzNDk1ODI2NzIsIDAuMTQzMDM4MTIzODQ2MDU0MDgsIDAuMDIzNzk2MDcwMzY3MDk3ODU1LCAtMC4wMzcxNDc4NjA5NzQwNzM0MSwgMC4wODI4OTE1MDg5MzY4ODIwMiwgMC4wMjQ0Njg1NTk3NzE3NzYyLCAtMC4wNzg5NjQ3Njk4NDAyNDA0OCwgLTAuMDc2MjIxODIzNjkyMzIxNzgsIC0wLjIxMTYzODQwNTkxOTA3NSwgMC4wNzA5NTY4NDExMTExODMxNywgLTAuMDIyNDA5MTg3NjI5ODE4OTE2LCAtMC4wNTI4MTQzMTIyNzkyMjQzOTYsIC0wLjA5MDQxNjI2NzUxNDIyODgyLCAwLjExMTA3MzUzODY2MTAwMzExLCAtMC4wMjkzNTI1MTk2NjExODgxMjYsIC0wLjEyMzM1ODU5MjM5MTAxNDEsIDAuMDkyNzAyMzY2NDExNjg1OTQsIDAuMTI1Njk0NjQ3NDMxMzczNl0sIFstMC4wMTk0MTg5NDM2NzMzNzIyNywgMC42MjI4ODE4ODkzNDMyNjE3LCAtMC4xNDQyODUzOTU3NDE0NjI3LCAtMS45NDE0OTI0MzgzMTYzNDUyLCAtMC4wMDQ2MTU1NDI0Nzg4NTk0MjUsIDAuMzc1MDE1NTI3MDA5OTY0LCAtMC4yNjYzMzAwOTMxNDUzNzA1LCAtMC4yNjQ1MDM4OTYyMzY0MTk3LCAtMC45NjcyOTAwNDM4MzA4NzE2LCAwLjE5MTE1MTIwMTcyNTAwNjEsIC0xLjAzMjU3MzkzODM2OTc1MSwgMC4yMjE3MDY2ODg0MDQwODMyNSwgLTAuMDAzODYxNDY1NDkxMzU0NDY1NSwgMC42NzU4MDM4OTk3NjUwMTQ2LCAtMC4yMDY5OTg4OTk1NzkwNDgxNiwgMC4yNjIzMTM1MTQ5NDc4OTEyNCwgMC4yNzIyOTg1MTQ4NDI5ODcwNiwgLTAuMTA5NzUyMDI5MTgwNTI2NzMsIDAuMDE4OTE1MTg1NzA0ODI3MzEsIDAuNDA3NjYyMDkzNjM5MzczOCwgMC42MDM4NDg5MzQxNzM1ODQsIC0wLjI2ODA5MzE5ODUzNzgyNjU0LCAwLjAzMTE0NDgyNzYwNDI5MzgyMywgLTAuMzE3NDQ4Mjg4MjAyMjg1NzcsIC0wLjA2MzIwNDg2MjE3NzM3MTk4LCAwLjE3MDUxODYzNjcwMzQ5MTIsIC0wLjE3ODkwNDA1NjU0OTA3MjI3LCAwLjI0ODg2MzMzOTQyNDEzMzMsIDAuMjkxNzg2MTkzODQ3NjU2MjUsIDAuMjM3MDAyNjExMTYwMjc4MzIsIDAuMzIyMjc0NjU1MTAzNjgzNDcsIC0wLjI3MTU5NzQ0NTAxMTEzODldLCBbLTAuMDUyMTUzMzYwMDk4NjAwMzksIDAuODAyMTQ2OTExNjIxMDkzOCwgLTAuMTEzNzg0Mjk4MzAwNzQzMSwgLTEuNjU1NTYyMDQzMTkwMDAyNCwgMC4xOTA2MjA0ODE5Njc5MjYwMywgMC41NDg0Nzc4Mjg1MDI2NTUsIC0wLjI5Mjg5ODc0NDM0NDcxMTMsIC0wLjE2NDQ3OTYyODIwNTI5OTM4LCAtMC43MzYzNzE4NzQ4MDkyNjUxLCAwLjQzNzE5MDQxMzQ3NTAzNjYsIC0wLjY4NDYwMTkwMjk2MTczMSwgMC4zNDYzNjI4MjkyMDgzNzQsIC0wLjQwODE0NDg5MTI2MjA1NDQ0LCAwLjkxODEyMjY0OTE5MjgxMDEsIC0wLjY1MTc0NDcyMzMyMDAwNzMsIDAuNTU4ODc0ODQ1NTA0NzYwNywgMC41MTk5NzY2NzU1MTA0MDY1LCAtMC4zNzQzOTg4NTczNTUxMTc4LCAwLjA1OTYwMjA4MTc3NTY2NTI4LCAwLjQxMTAzMTgxMjQyOTQyODEsIDAuOTI4MDEzODAxNTc0NzA3LCAtMC4wMTQ0MDg0ODU5NjM5NDA2MiwgLTAuMDQ4MTQ2ODU1MDg2MDg4MTgsIC0wLjI3NjQwMTc4Nzk5NjI5MjEsIDAuMjM0MjEzODg4NjQ1MTcyMTIsIDAuNTYzODU2NjAxNzE1MDg3OSwgLTAuMTg2OTAzODM0MzQyOTU2NTQsIDAuMDc4MTg4NDc4OTQ2Njg1NzksIDAuMDM4NDIxMzMyODM2MTUxMTIsIDAuMjQ1ODcwOTMyOTM2NjY4NCwgMC4yNzMyMDkzNjMyMjIxMjIyLCAtMC40MDY1Nzg0MjE1OTI3MTI0XSwgWzAuMTI4OTA3MzIyODgzNjA1OTYsIDAuMTI0NDE4MzkyNzc3NDQyOTMsIDAuMDM3ODUwOTkwODkxNDU2NjA0LCAtMS45MTcyNDYzNDE3MDUzMjIzLCAwLjAzNDYyNTQxODQ4NDIxMDk3LCAtMC4xMDQyOTk0NzA3ODIyNzk5NywgLTAuMTU1MDU2NjU1NDA2OTUxOSwgLTAuNDMzMjYyMDUwMTUxODI0OTUsIC0wLjk5MDQxODU1MzM1MjM1NiwgLTAuMDQxMjc5NDYxMjM0ODA3OTcsIC0xLjE2NzA4MjQyODkzMjE5LCAwLjA2NDg5Mzc4OTU4OTQwNTA2LCAtMC4wOTIwMzkxODI3ODIxNzMxNiwgMC4yNjk0ODgwMzY2MzI1Mzc4NCwgLTAuMDc0Mzc1ODQ1NDkxODg2MTQsIC0wLjE1NTk5NzM2NTcxMzExOTUsIC0wLjA3NTE5OTUyOTUyODYxNzg2LCAwLjAwNzQ2MDQ5OTE4MjM0MzQ4MywgLTAuMjQyNDE5NTcwNjg0NDMyOTgsIDAuMzQ2NTYxNzAwMTA1NjY3MSwgMC4yNDg1MDI3MDE1MjA5MTk4LCAtMC4yNTM4ODU5MjQ4MTYxMzE2LCAtMC4wMzU4ODUwNTA4OTI4Mjk4OTUsIC0wLjI5Mzk3MjcwMDgzNDI3NDMsIC0wLjE0MjMyNzk0OTQwNDcxNjUsIC0wLjE5NDkyNDM1NDU1MzIyMjY2LCAwLjAwNzQwNzAzMzM1MDMxODY3LCAtMC4wMDIzNjY4Mzg1MTEwNzk1NSwgMC4wMTQyMjc1NTIzMzk0MzQ2MjQsIDAuMTgyMzUyNjMyMjg0MTY0NDMsIDAuMDUwODU1MjU2NjE3MDY5MjQ0LCAwLjAwMTg0MDIwNDkzMTc5NTU5N10sIFswLjA4MjE1NDIwNjkzMTU5MTAzLCAwLjE3NjQwNTIyMTIyMzgzMTE4LCAtMC4xNjA4MDY0NDcyNjc1MzIzNSwgLTAuMTE5MjA3NzEwMDI3Njk0NywgLTAuNDExNDYxNDcyNTExMjkxNSwgLTAuMTI1ODMwNDcxNTE1NjU1NTIsIC0wLjAxOTcyODc5ODQxOTIzNzEzNywgMC4wMzA4MTMwNzM3Mzk0MDk0NDcsIC0wLjE5MDMzNzE1MTI4ODk4NjIsIC0wLjMxMTA4NTgyMDE5ODA1OTEsIC0wLjE3ODE5MjA0OTI2NDkwNzg0LCAwLjEyMjQzMTkzMzg3OTg1MjMsIC0wLjEyNjMzNTI3ODE1MzQxOTUsIC0wLjA1MjE1NDg4Mzc0MjMzMjQ2LCAwLjA4MzIzNTMyMzQyOTEwNzY3LCAtMC4wMzI4MzA0NDY5NTg1NDE4NywgLTAuMTY3MDc1MTg2OTY3ODQ5NzMsIC0wLjA1MTMwNDY3NTYzODY3NTY5LCAtMC4zOTA3Nzg2NjA3NzQyMzA5NiwgLTAuMjQ2OTI3MzUwNzU5NTA2MjMsIC0wLjA3Mzc0OTAyMDY5NTY4NjM0LCAwLjQ3NDg3MjIzMTQ4MzQ1OTUsIDAuMjI3NDkxODcwNTIyNDk5MDgsIDAuMDAxNjgyNTkxMTU4ODk2Njg0NiwgLTAuMDYwMzM1NjY1OTQxMjM4NCwgLTAuMTA4NjExMTA2ODcyNTU4NiwgMC4zNzIyOTQyNzY5NTI3NDM1MywgLTAuMzE0MTU2ODAwNTA4NDk5MTUsIC0wLjAyMDI1ODUzNDY5OTY3ODQyLCAtMC4wMzc4NDAwNzk1MTYxNzI0MSwgLTAuMDI2NDUxOTMwNDAzNzA5NDEsIDAuMDI4ODI3MDQ1MTEyODQ4MjgyXSwgWy0wLjI1MjUxMDE2MDIwNzc0ODQsIC0wLjAwMzYyNDQzOTcwNTE2MzI0MDQsIC0wLjI3NTM5NTQ1Mjk3NjIyNjgsIDAuMTAzMzkzNzc4MjA0OTE3OTEsIC0wLjEyMDk1MjM5NzU4NDkxNTE2LCAtMC4yMjczNTc0MDI0NDM4ODU4LCAtMC4wMTc3OTQ1MjMzODgxNDczNTQsIDAuMTYzNTk2ODY4NTE1MDE0NjUsIC0wLjA2ODM0Mzk2NzE5OTMyNTU2LCAtMC4yMTIyOTQwNzE5MTI3NjU1LCAwLjAxMTExODk2MjQyOTQ2Mzg2MywgMC4zNDM4ODIwODM4OTI4MjIyNywgMC45MjcyMzM5MzQ0MDI0NjU4LCAtMC4zNDY2ODIzNjk3MDkwMTQ5LCAtMC4wMjQ3NzU0ODQ1NzY4MjEzMjcsIC0wLjQwMDM1OTc3OTU5NjMyODc0LCAwLjA3ODM0Njg3ODI5MDE3NjM5LCAtMC4wODEyNTAyODAxNDE4MzA0NCwgLTAuNTY1ODI4MTQ0NTUwMzIzNSwgMC45ODI4MDM1ODMxNDUxNDE2LCAtMC4xNjI5MDE4OTMyNTgwOTQ4LCAwLjA2NzIzNTQ0MDAxNTc5Mjg1LCAwLjcxNTU4NDk5MzM2MjQyNjgsIC0wLjEyNzU2MDQ2NjUyNzkzODg0LCAwLjA1NzYyNjg3MzI1NDc3NiwgLTAuMDU4MTMyNTM2NzA5MzA4NjI0LCAwLjQ3NzkzNDUzOTMxODA4NDcsIC0wLjc3OTc0NjUzMjQ0MDE4NTUsIDAuMDMyMTE2NjIxNzMyNzExNzksIC0xLjI3OTkzODY5NzgxNDk0MTQsIC0wLjAzNTYxMzkwOTM2Mzc0NjY0LCAwLjE0MzM0MDQ5ODIwODk5OTYzXSwgWy0wLjEwNjM2NTE4ODk1NjI2MDY4LCAtMC4yMzYwNTE5MzE5NzcyNzIwMywgLTAuMDY0MDM2MTE2MDAzOTkwMTcsIDAuMDI0NDM3NjE1NjQ3OTEyMDI1LCAtMC4xNjYyNjI5NTQ0NzM0OTU0OCwgLTAuMjE2Nzk3NzU0MTY4NTEwNDQsIDAuMDc2NDIyNDIzMTI0MzEzMzUsIDAuMDAzNjk1MjA2MjUwOTk1Mzk3NiwgMC4wMTU2NTM3MzY4ODkzNjIzMzUsIC0wLjAyNTE4MTY4NDY0MzAzMDE2NywgLTAuMTI5Mjk2MTgzNTg2MTIwNiwgMC4xNDU4ODE2Mzc5MzA4NzAwNiwgLTAuMDE4MjE4Mjc1MTU5NTk3Mzk3LCAtMC4xNzM0NzA0MDc3MjQzODA1LCAwLjE4Nzg5NTEzNDA5MTM3NzI2LCAtMC4zNTk0OTc4MTUzNzA1NTk3LCAtMC4yNDQwMTk0MzM4NTYwMTA0NCwgMC4wNTQ2NzMyMzIxMzgxNTY4OSwgMC4xMTU0MzQwNTgwMTA1NzgxNiwgLTAuNjQ5MzUyMzcxNjkyNjU3NSwgLTAuMTAyODM3Mjk0MzQwMTMzNjcsIC0wLjEzMTAxNTg1MjA5MzY5NjYsIC0wLjAyOTYyNjU1OTQ2NjEyMzU4LCAwLjAxMjQxNzY5ODI3OTAyMzE3LCAtMC4wNDc1NjA5Mzc3MDI2NTU3OSwgLTAuMTQ3NDk5NDcxOTAyODQ3MywgLTAuMDI1Mzk5Mjk1NjEzMTY5NjcsIC0wLjA0NTEyNTEwNDQ4Njk0MjI5LCAtMC4xNDI0NjQyODAxMjg0NzksIC0xLjE2MTk4NjM1MTAxMzE4MzYsIC0wLjAxNDIwNDk5Mzg0NDAzMjI4OCwgMC4xMTg5NDQyNzk4NDk1MjkyN10sIFstMC4wMDcyMDMwOTI3OTg1OTA2NiwgLTAuMDcwMzU1NzY1NTIxNTI2MzQsIDAuMDEyNTMwODA2NDc0Mzg3NjQ2LCAwLjAyMjU3MzA0NjM4NjI0MTkxMywgLTAuMDI3MDM0NjY2Mzg5MjI2OTEzLCAtMC4yMDI3MTkyNzExODMwMTM5MiwgMC4xODE0NjQwMDE1MzYzNjkzMiwgMC4wMTk5NTE1MjQyMTI5NTY0MywgMC4xMTY4MTY2Mzk5MDAyMDc1MiwgMC4xMTE3MjAzODMxNjcyNjY4NSwgMC4wNjU4ODU3NzQ3OTEyNDA2OSwgLTAuMDI1MTY5OTUzNzAzODgwMzEsIC0wLjAzNDAwNTYwODQwOTY0MzE3LCAtMC4yOTEwNDcwMzY2NDc3OTY2MywgMC4xMjI4MTUzMTA5NTUwNDc2MSwgLTAuMjIzNzUyNzM3MDQ1Mjg4MDksIDAuMDk3NDg1NTU3MTk4NTI0NDgsIDAuMTI1NjgyNTMyNzg3MzIzLCAwLjEwMjY4OTcxMzIzOTY2OTgsIDAuMDE0MTQyMjk2Mjc2OTg2NTk5LCAwLjIzNTYwMzc3OTU1NDM2NzA3LCAtMC4wMjA3NjgwMjAzMDIwNTcyNjYsIC0wLjE2NTY5NDYwOTI4NDQwMDk0LCAwLjUxNzg5NTIyMTcxMDIwNTEsIDAuMDI4OTMzNDY3MzQzNDQ5NTkzLCAtMC4wMDY4NjM3ODU5MDc2MjYxNTIsIC0wLjAwNTgyODExMTQzMjQ5MjczMywgMC4yMDc3NTE2MDE5MzQ0MzI5OCwgLTAuMjUwMTUzNjAxMTY5NTg2MiwgLTAuMDIyNTY2NzgwNDQ3OTU5OSwgLTAuMjcxMjEwNDkxNjU3MjU3MSwgLTAuMDE4NTAwNjE4NjM2NjA4MTI0XSwgWzAuMTg3NTEyNTQ2Nzc3NzI1MjIsIDAuMTMzMzA4NDQwNDQ2ODUzNjQsIDAuMjY5MjIwMzgxOTc1MTczOTUsIDAuMjU5MjY5NDc1OTM2ODg5NjUsIC0wLjM0NjMyOTI0MTk5MTA0MzEsIDAuMTYzNDgzNTE1MzgxODEzMDUsIDAuMjE1NTYzMDU4ODUzMTQ5NDEsIDAuMjI2MDM1MDg4MzAwNzA0OTYsIDAuMjQ4NDE2MzM0MzkwNjQwMjYsIDAuNTI3MzE1NjE2NjA3NjY2LCAwLjEyNDc5NzY4NjkzNDQ3MTEzLCAwLjE0OTk0NDk2MTA3MTAxNDQsIC0wLjA5MTU5ODkxMzA3MzUzOTczLCAwLjA4OTg4MzkzMDk4MTE1OTIxLCAtMC4wODQ0NTM4ODA3ODY4OTU3NSwgMC40Njc5MjE4NTMwNjU0OTA3LCAwLjM1NDQxOTQ2OTgzMzM3NCwgMC42Mzc2MzQ2MzQ5NzE2MTg3LCAtMC4xNDA2MjE3ODEzNDkxODIxMywgMC4yNzc3NDI4MDMwOTY3NzEyNCwgMC4wNDE3MjM4MTc1ODY4OTg4MDQsIDAuMDcwNjU4OTA3Mjk0MjczMzgsIC0wLjIzMjc5OTkzMjM2MDY0OTEsIDAuNDE0NzExMzU2MTYzMDI0OSwgLTAuMDA0OTMxNDc3MzY0MTUyNjcsIDAuMjM3MDgyMjcyNzY4MDIwNjMsIC0wLjA2NzU1MjQwMjYxNTU0NzE4LCAwLjEyMjk2MzU3NzUwODkyNjM5LCAtMC4zMTYyNjA3NTUwNjIxMDMyNywgLTAuMDYxMjQ4NTAzNjI1MzkyOTE0LCAwLjg0NTI3ODg1OTEzODQ4ODgsIC0wLjEzNzAwODc3MTMwMDMxNTg2XSwgWzAuMDE0MjM3NzE1ODYyNjkxNDAyLCAtMC4xOTU4NDg0MDUzNjExNzU1NCwgMC4wNDg3MDAxMDE2NzM2MDMwNiwgLTEuNTI3MjQwNTE0NzU1MjQ5LCAwLjIwMjI4NzM2MTAyNTgxMDI0LCAtMC4yMTkxNTMzMTQ4Mjg4NzI2OCwgMC4wMjM3NDg5NDE3MTk1MzIwMTMsIC0xLjAxNTAwOTk5OTI3NTIwNzUsIC0wLjY4Mjg2NTkxNzY4MjY0NzcsIDAuMTIwMTg0NjgyMzA5NjI3NTMsIC0xLjE4ODg0NjExMTI5NzYwNzQsIDAuMTI2OTk0OTY3NDYwNjMyMzIsIDAuMDcxOTI4NjA1NDM3Mjc4NzUsIDAuMzcxMzI0MTIxOTUyMDU2OSwgLTAuMDA3NzEwMTA5NDY0ODI0MiwgLTAuMDYwNDc2NjgzMDgwMTk2MzgsIC0wLjA2Njc4OTc3NjA4NjgwNzI1LCAwLjQ3NDk4MTQ4Njc5NzMzMjc2LCAwLjEyNjA0MDI3OTg2NTI2NDksIDAuMDcwNTU0MTY3MDMyMjQxODIsIDAuNDk3Mzk1ODEzNDY1MTE4NCwgLTAuNDIzNTcxODI1MDI3NDY1OCwgMC4zNDMzNTk2NDkxODEzNjU5NywgLTAuMTYzMjU0MzM1NTIyNjUxNjcsIC0wLjc4MjU5MDg2NjA4ODg2NzIsIC0wLjIzMTU0ODMzOTEyODQ5NDI2LCAwLjIxNjMzMjczMzYzMTEzNDAzLCAwLjIzOTU2MzY0MzkzMjM0MjUzLCAwLjUwMTAxOTE3OTgyMTAxNDQsIDAuNTU2NzY4ODM0NTkwOTExOSwgLTAuMDQxOTk0NDMwMTI0NzU5Njc0LCAwLjI3NzMwNTYzMjgyOTY2NjE0XSwgWy0wLjA0MTI1NTE3MjM0MjA2MTk5NiwgMC4xMTY1NjAxMTY0MTAyNTU0MywgMC4zMTI3OTk1MTMzMzk5OTYzNCwgMC4yMjIzNTMwNTYwNzMxODg3OCwgLTAuMjU4ODM5MzY4ODIwMTkwNDMsIDAuMjQ5MDkxNTA2MDA0MzMzNSwgMC4yNzEzNTkyMDUyNDU5NzE3LCAwLjczMjA2NTkxNjA2MTQwMTQsIDAuOTA1MzUyNzcxMjgyMTk2LCAwLjEyNjE2OTg5MDE2NTMyODk4LCAwLjAxNjkxOTQ2NTczNTU1NDY5NSwgLTAuMjUyMDc4ODMxMTk1ODMxMywgLTAuMTY0NzAzNjA3NTU5MjA0MSwgMC4wMTcxMjI0MzI1ODk1MzA5NDUsIDAuMDE0MDQzMjQyNjcwNTk1NjQ2LCAwLjExNjQ4NzYzNzE2MjIwODU2LCAtMC4wNDY4MzAzNzg0NzI4MDUwMiwgMC4xMjE0NDc5OTUzMDUwNjEzNCwgMC4wMzAwODAxNjE5ODg3MzUyLCAwLjA0NDUyODQwMjM4ODA5NTg1NiwgLTAuNTE1MjAwNzM0MTM4NDg4OCwgMC4xNDcyMzE2NTMzMzI3MTAyNywgLTAuMDU3NTcyMjMwNjk2Njc4MTYsIDAuMTk5NjY2OTQ3MTI2Mzg4NTUsIDAuMDk0MzI3MjYzNTM0MDY5MDYsIDAuMTQ4ODA2Nzk1NDc3ODY3MTMsIC0wLjA2NTU0NDE5NTQ3MzE5NDEyLCAtMC4wOTk3OTEyODgzNzU4NTQ0OSwgLTAuMzAzNDQzMTkzNDM1NjY4OTUsIC0wLjMyMTYxODI1ODk1MzA5NDUsIDAuMDAxODkzNDE2OTc4NDE4ODI3LCAtMC4wOTU0MDkxNjk3OTMxMjg5N10sIFstMC4yNzMzNjE0NzQyNzU1ODksIDAuMDI3NzIyMDgzMDMyMTMxMTk1LCAwLjE3MDk4NTMxMTI2OTc2MDEzLCAtMC4zODc0OTc3MjMxMDI1Njk2LCAtMC4xNTQ3NDY4MzA0NjM0MDk0MiwgMC4wODA5MzA2MDU1MzA3Mzg4MywgMC40MzE0NDcyMDc5Mjc3MDM4NiwgLTAuNDczMzkwNjk4NDMyOTIyMzYsIDAuMDI3NzEwNTQ3NjcwNzIyMDA4LCAwLjE4MDI1ODEyNTA2Njc1NzIsIC0wLjE1MzE3MDUxMTEyNjUxODI1LCAtMC4xOTAwNDAwMjIxMzQ3ODA4OCwgMC4wOTU5MzUzMjk3OTQ4ODM3MywgMC4yNjQ2NzU4NTU2MzY1OTY3LCAtMC4wMzA0MjAxNzI5NTk1NjYxMTYsIDAuMjg5MjQ5MTgxNzQ3NDM2NSwgMC4yNzUzMzA0NTQxMTEwOTkyNCwgMC4wMzM5NDI4NjMzNDUxNDYxOCwgLTAuMjk0NTM5NjkwMDE3NzAwMiwgLTAuMTA5NTY2NjE0MDMxNzkxNjksIDAuMzM5NDIyNjQzMTg0NjYxODcsIC0wLjI2NDMxNTMwNzE0MDM1MDM0LCAtMC4wMTAyNzQwMDc5MTY0NTA1LCAwLjEyNjYyMjk4OTc3Mzc1MDMsIC0wLjI2OTA1MzI4MDM1MzU0NjE0LCAtMC4wNjAxNDIzNTMxNzcwNzA2MiwgLTAuMTg1NjkwMzQzMzc5OTc0MzcsIC0wLjE1MTQwODg4MDk0OTAyMDM5LCAtMC4yMzE0Njg5MDEwMzgxNjk4NiwgMC4zMzYzMTgxMzUyNjE1MzU2NCwgMC4xNjk5MjYyNDEwNDAyMjk4LCAtMC4zOTAyNzUwOTA5MzI4NDYwN10sIFsxLjAwNzYxMDQ0MDI1NDIxMTQsIC0wLjY2OTkyODE5MzA5MjM0NjIsIC0xLjEwMzYyMDg4NjgwMjY3MzMsIC0wLjA3NTYwMDQwODAxNzYzNTM1LCAxLjYwMDcyMzAyODE4Mjk4MzQsIC0wLjY4Njc0Nzc4OTM4MjkzNDYsIC0wLjQyNTE4ODYwMTAxNjk5ODMsIC0wLjQ2Nzk5OTkzNTE1MDE0NjUsIC0xLjcxMjUwNDc0NDUyOTcyNDEsIC0wLjY2NzEyMTg4NzIwNzAzMTIsIC0wLjM1NTUwMzkxNjc0MDQxNzUsIDAuODk0MDk3Njg1ODEzOTAzOCwgMS45MjIyNTQ1NjIzNzc5Mjk3LCAtMC4yMDA2NDM5NTY2NjEyMjQzNywgMC4wMjg5NDcyNjAyMzA3Nzk2NDgsIC0wLjAwNzQ4OTgzMzk4MDc5ODcyMSwgLTAuMzA5NDUxODE4NDY2MTg2NSwgMC4xNjkyNjM3NTAzMTQ3MTI1MiwgMS4zMTgxMTM2ODQ2NTQyMzU4LCAwLjYzNzA1NDA4NTczMTUwNjMsIC0xLjAxODAxMjg4MTI3ODk5MTcsIC0wLjc0MTcyMjY0MzM3NTM5NjcsIDEuMjgyOTczNTI3OTA4MzI1MiwgMC43NjkwMTkzNjUzMTA2NjksIC0wLjAxMDI3OTYyNzUxNjg2NTczLCAtMC43NjMzMzk2Mzg3MTAwMjIsIDEuMzE2MDY1MDczMDEzMzA1NywgMS43Njg3ODUxMTkwNTY3MDE3LCAwLjIwNTY1MzcyNzA1NDU5NTk1LCAtMC40MjMwNTM0NDM0MzE4NTQyNSwgMC4xMzE2ODEzMzc5NTI2MTM4MywgMC4yOTIzNDYzNTgyOTkyNTUzN10sIFswLjg1NDE2OTk2NDc5MDM0NDIsIDEuMTEzNDYxOTcxMjgyOTU5LCAtMi43NDA5Mzc5NDgyMjY5Mjg3LCAtMC40Nzk2ODAyNDAxNTQyNjYzNiwgMC42MDE4ODM2NDk4MjYwNDk4LCAxLjA5ODUyOTEwMDQxODA5MDgsIC0xLjg1MzI0MzM1MDk4MjY2NiwgLTAuNjMyOTU5MzY1ODQ0NzI2NiwgLTAuMTk2NzM3NTcyNTUwNzczNjIsIC0wLjM3NTg2Nzk2MjgzNzIxOTI0LCAtMC4yNzAzMTM0MTE5NTEwNjUwNiwgMC42MjMzOTUwMjU3MzAxMzMxLCAwLjI3ODgzMzAwMTg1MjAzNTUsIDEuMzM3MDk1OTc1ODc1ODU0NSwgLTIuOTM0MDM5MzU0MzI0MzQxLCAwLjI1NDQxMzUxNTMyOTM2MDk2LCAwLjM4ODc0ODc2NDk5MTc2MDI1LCAtMC42Mjc3MjM4MTMwNTY5NDU4LCAwLjg2MzU5Njg1NjU5NDA4NTcsIC0wLjAxMjgzNzUxOTg2OTIwODMzNiwgMS4xNDkzMjMyMjUwMjEzNjIzLCAwLjAwNzU1NTQxOTExMzQ4NzAwNSwgLTAuNTcwMTU2MDk3NDEyMTA5NCwgMC42OTQ3MjkzMjgxNTU1MTc2LCAwLjA5NTY3NTc3MzkxODYyODY5LCAwLjg4MTQyMTc0NDgyMzQ1NTgsIC0wLjIwNDcxMTEzOTIwMjExNzkyLCAwLjgxNTkzMTIwMDk4MTE0MDEsIDAuOTU1NjE2OTUwOTg4NzY5NSwgMC4xNzQyODM3NTc4MDU4MjQyOCwgLTEuMDIwNzYxMjUxNDQ5NTg1LCAtMi40MjE0NjU4NzM3MTgyNjE3XSwgWy0wLjExNTQyNjA5MzMzOTkyMDA0LCAtMC4wNzcwMjM2MDMwMjIwOTg1NCwgLTAuMDQ5NTk5MjE1Mzg4Mjk4MDM1LCAwLjA5ODA5MjgyNDIyMDY1NzM1LCAtMC4yMTI3MTU2ODUzNjc1ODQyMywgMC4xMzAzNjM2MTMzNjcwODA3LCAtMC4wNDE3NTg2MTkyNDg4NjcwMzUsIDAuMDI1Mzc4ODIzMjgwMzM0NDczLCAtMC4xNDI5ODU2ODY2NTk4MTI5MywgLTAuMTQyOTIyNzU5MDU2MDkxMywgMC4wNjg5NTE2MjE2NTE2NDk0OCwgLTAuMDk3MTU5MzI2MDc2NTA3NTcsIDAuMDkwOTc1Mzg4ODg0NTQ0MzcsIC0wLjAzMjIxMjU4ODkzNjA5MDQ3LCAwLjA5NjI5NzM2ODQwNzI0OTQ1LCAtMC4wMzY4NjI0MTgwNTU1MzQzNiwgLTAuMDU0MjQ4NzI3ODU4MDY2NTYsIC0wLjA4MjUwMjc4MjM0NDgxODEyLCAwLjA3NTM0NTU0NjAwNzE1NjM3LCAwLjEwMDE2NDY5NjU3NDIxMTEyLCAwLjExNzk2OTczNjQ1Njg3MTAzLCAwLjIwOTg4MDI2MjYxMzI5NjUsIDAuMDIyMzUyNTQyNzI4MTg1NjU0LCAwLjA0MDY4MjMzNDQ1Mjg2NzUxLCAtMC4wMTg3NjE3Njg5MzcxMTA5LCAtMC4wMzc2MTgyNDIyMDQxODkzLCAtMC4wNDcyNzQ1MDM4NTY4OTczNTQsIC0wLjA4NzYzMzA3MzMyOTkyNTU0LCAwLjExNDkxMTEzOTAxMTM4MzA2LCAwLjA5Nzk2MzUxMTk0MzgxNzE0LCAtMC4xMTUwNDE1ODM3NzY0NzQsIDAuMDgxNTQ1MDMyNTYwODI1MzVdLCBbMC4wNTUwOTg5MjQ3ODU4NTI0MywgMC4wNDQ2NTE1MzA2ODMwNDA2MiwgLTAuMjIwMTQ2MzI4MjEwODMwNywgMC4wMTAzOTc3NDkwMjE2NDkzNiwgMC4wODA0OTAxNTcwMDgxNzEwOCwgLTAuMTI3MTc1MjcxNTExMDc3ODgsIDAuMDU1ODMzNzkwNDUxMjg4MjIsIC0wLjAzMjAyOTI1NjIyNDYzMjI2LCAwLjExODYwMDg5NzQ5MDk3ODI0LCAtMC4xOTQyMzMyMDg4OTQ3Mjk2MSwgLTAuMDM1ODEyOTY2NTI1NTU0NjYsIDAuMDM1MDk0NDEwMTgxMDQ1NTMsIDAuMDg5OTMxMjk0MzIyMDEzODUsIDAuMDE5NTAwOTYxNTI3MjI4MzU1LCAwLjA0NDQ2NDc0NDYyNzQ3NTc0LCAtMC4xMTI5NTU1NTUzMTk3ODYwNywgLTAuMDI5MzU0NTA4OTY2MjA3NTA0LCAwLjA3MTk2MTA2NzYxNjkzOTU0LCAwLjAyMDYzOTY4Nzc3NjU2NTU1MiwgMC4wODM4NTk3NDE2ODc3NzQ2NiwgLTAuMDk4MjIzMTk0NDc5OTQyMzIsIDAuMDg1ODIzNTk1NTIzODM0MjMsIC0wLjA4NTQ1MjQ4MjEwNDMwMTQ1LCAtMC4wODM2OTA1OTg2MDcwNjMzLCAtMC4wNjY4MDYzMzEyNzY4OTM2MiwgMC4xMzQ3NTAwODMwODg4NzQ4MiwgMC4wMTU2OTQzNzYwODEyMjgyNTYsIC0wLjAzMTM0OTUwMjUwMzg3MTkyLCAwLjA0NjI5OTM0MjA2NjA0OTU3NiwgLTAuMDYwNjg5Njg3NzI4ODgxODM2LCAwLjA2MzE0ODI2NzU2NzE1Nzc1LCAwLjAwMjc5Nzg3MDY2MzkyNjAwNTRdLCBbLTAuMjAwMzA4MDg0NDg3OTE1MDQsIDAuMjYxMDMzNzEzODE3NTk2NDQsIC0wLjEyOTg2NzQ0OTQwMjgwOTE0LCAwLjA5MjYyMjY0NTE5OTI5ODg2LCAtMC4wNjEwNzgzODA3OTMzMzMwNTQsIDAuMjY0MTk3OTE1NzkyNDY1MiwgLTAuMDIxNTUwMjkyMTQ5MTg2MTM0LCAwLjAyNDI2MzA4MzkzNDc4MzkzNiwgMC4xNDcwNjU1Nzk4OTEyMDQ4MywgLTAuMTEzMDg3ODEwNTc1OTYyMDcsIC0wLjIwNjc5ODg1MTQ5MDAyMDc1LCAwLjAzODI3MDg1NzE4NTEyNTM1LCAtMC4wNzQ0ODA0MjkyOTE3MjUxNiwgMC4zNTY1NDMwOTM5MTk3NTQwMywgLTAuMDQ2MjQyMjU1NzE3NTE1OTQ1LCAtMC4wMTg0Njg5ODcxOTY2ODM4ODQsIDAuMTMxNjI3MzgwODQ3OTMwOSwgLTAuMDc5NzcxMzI0OTkyMTc5ODcsIDAuMDAzMzE0MjY0MzUxNTAyMDYxLCAtMC42NTYxNzM2NDY0NTAwNDI3LCAwLjE2MTE5ODkxNDA1MTA1NTksIDAuMTk2NjU4MjgzNDcyMDYxMTYsIC0wLjMwMTkzMzEwOTc2MDI4NDQsIDAuMTc5ODA3NzUyMzcwODM0MzUsIDAuMDcyNzYyNDA3MzYyNDYxMDksIDAuMjUxNzI2MDkwOTA4MDUwNTQsIC0wLjM0OTk3MzE3MTk0OTM4NjYsIDAuMjc1NjQ4OTIxNzI4MTM0MTYsIC0wLjA3MzA2NzEyMTIwNzcxNDA4LCAtMS4yNDMyNTk5MDY3Njg3OTg4LCAtMC4xODQ1MzY1OTExNzIyMTgzMiwgLTAuNDMxNzI1MjMzNzkzMjU4NjddLCBbMC4yMjM5MTk3NDkyNTk5NDg3MywgMC4yNTg5MzE5MzQ4MzM1MjY2LCAwLjEwMzk4OTg2OTM1NjE1NTQsIDAuMDc1NTM0MjM5NDExMzU0MDYsIC0wLjEwMzQyOTM3NzA3OTAxMDAxLCAtMC4zOTc0NzEyNDkxMDM1NDYxNCwgMC4yMTYwOTc1MzM3MDI4NTAzNCwgLTAuMDcwMDIwMzI1NDgxODkxNjMsIDAuMDUzMjk2NTIxMzA2MDM3OSwgMC4xOTQ2ODQ1MzUyNjQ5Njg4NywgMC4zODk4MjAzNjcwOTc4NTQ2LCAwLjIyOTg0MjUxMzc5OTY2NzM2LCAwLjA5MzE4NDc1NDI1MjQzMzc4LCAwLjA2NTQ3MjU0MzIzOTU5MzUsIC0wLjE5ODcxNTc3NjIwNTA2Mjg3LCAwLjA5OTk3NjIwNDMzNTY4OTU0LCAwLjEwMzg5NjY4NDk0NDYyOTY3LCAwLjAzNjQwNDkxNTE1Mzk4MDI1NSwgLTAuMDYxMTg3MzM0MzU4NjkyMTcsIC0wLjAzMjgyODA1OTA0NzQ2MDU1NiwgLTEuMjIyMDE1MTQyNDQwNzk2LCAwLjI2MTczMzIzMzkyODY4MDQsIDAuMTYwNjE3MzgxMzM0MzA0OCwgMC4xMTQ3ODIzOTI5Nzg2NjgyMSwgMC44MTM1OTg4MTE2MjY0MzQzLCAwLjAxMDE4NjYxNDQ2ODY5MzczMywgMC4xNzE0NTM3NDQxNzMwNDk5MywgMC4wNzMyODUzODU5NjYzMDA5NiwgMC4wMTUwMzEwNjM5MjkyMDAxNzIsIDAuMjg2NjU0MjMzOTMyNDk1MSwgLTAuMDg1MTYxOTA5NDYxMDIxNDIsIC0wLjA2MjM0OTg3ODI1MTU1MjU4XSwgWzAuNDIyNTA4NjU2OTc4NjA3MiwgMC4xMjAyNDgzMzI2MTk2NjcwNSwgMC40MzU1NDE3NDkwMDA1NDkzLCAwLjQzNTIyMDA2MjczMjY5NjUzLCAtMC4wNzc0NDQzMDAwNTU1MDM4NSwgMC4xMTg1MzExMjI4MDM2ODgwNSwgMC4yMzgxMTc3ODQyNjE3MDM1LCAwLjEwMzU4NzY5NDQ2NjExNDA0LCAwLjIyMjk4MzYyODUxMTQyODgzLCAwLjQyMjMxMzY5MDE4NTU0NjksIDAuMjUzNDY2ODc0MzYxMDM4MiwgMC4xNjUyNDcyNjE1MjQyMDA0NCwgMC4yNzM1ODY3MjAyMjgxOTUyLCAwLjAxOTI0ODcyOTU3MTcwMDA5NiwgLTAuMDQ0NTA4NDY0NjM0NDE4NDksIDAuNDIzODExMDc4MDcxNTk0MjQsIDAuMDAwNTkyMzcyMzgwMTk3MDQ4MiwgMC42MjYzMzAxMzcyNTI4MDc2LCAwLjA5NzY4NjY4NTYyMTczODQzLCAwLjQ3NDE5MjI2MTY5NTg2MTgsIC0wLjIwNTAxODg3Nzk4MzA5MzI2LCAwLjIyOTg5NDAxMjIxMjc1MzMsIDAuMDA2MjYyNjg0MjQwOTM3MjMzLCAwLjcyNTIwMTE4OTUxNzk3NDksIC0wLjEwMTMzMzUxMzg1NTkzNDE0LCAwLjIyMzkzMjM1NTY0MjMxODczLCAtMC4xOTIzNzc4OTUxMTY4MDYwMywgMC4yMTg4OTY1MDgyMTY4NTc5LCAtMC41OTg2NjU3MTQyNjM5MTYsIDAuMDAyODYwNDM2NDQ4ODI3Mzg2LCAxLjEyNTU2ODg2NjcyOTczNjMsIC0wLjIwNTI0ODk4MTcxNDI0ODY2XSwgWzAuMDA5NTg5NDUyMjk2NDk1NDM4LCAwLjIzNzcxMTIyMDk3OTY5MDU1LCAtMC4wNTMxNzg3Mjc2MjY4MDA1NCwgLTAuMDUxOTY2MjU3MzkzMzYwMTQsIC0wLjE1NDMxNjk2MTc2NTI4OTMsIDAuNjkxODE0MDA1Mzc0OTA4NCwgMC4yNjY2NDM5NzEyMDQ3NTc3LCAwLjU5MzQ1NzgxODAzMTMxMSwgMC41MDQzNDM0NTAwNjk0Mjc1LCAwLjM2Njk4NjUxMzEzNzgxNzQsIDAuNDQ3MzgzODIxMDEwNTg5NiwgLTAuMDYxNzY4NzEwNjEzMjUwNzMsIC0wLjEwNzYzNzk4NjU0MDc5NDM3LCAwLjYxMTU0NzM1MDg4MzQ4MzksIC0wLjIwOTI4NDU0Mzk5MTA4ODg3LCAwLjM0NDY4ODc3MzE1NTIxMjQsIDAuNTUwMDgwNzc2MjE0NTk5NiwgMC4yODU5ODk2NDIxNDMyNDk1LCAtMC4xNTczNDkyMjg4NTg5NDc3NSwgLTAuMDgzNzA2MjAwMTIyODMzMjUsIDAuMjc2MzY4MDgxNTY5NjcxNjMsIDAuMDE1Njk5MjMzODU5Nzc3NDUsIC0wLjIzNjYyMTUxMzk2Mjc0NTY3LCAtMC4wNDI3MDg1NzIwMDAyNjUxMiwgMC43MjM5ODQ0Nzk5MDQxNzQ4LCAwLjQ5ODYzNTQxMTI2MjUxMjIsIC0wLjE4NDE4NzY5NTM4NDAyNTU3LCAtMC4xMDkxNTY5MTQwNTUzNDc0NCwgLTAuMjIwNzI2ODAyOTQ1MTM3MDIsIDAuMzc2Njk2Njc2MDE1ODUzOSwgMC4wODQ2NDA1OTk3ODcyMzUyNiwgLTAuMjUyMzk5ODMyMDEwMjY5MTddXSwgWy0wLjA3Nzk1NTExMTg2MTIyODk0LCAwLjEwNTUwMDI0MzYwNDE4MzIsIDAuMDIyOTQxMjE0OTYzNzkzNzU1LCAtMC4wMDIwNTEzMTMxNzQ4ODg0OTE2LCAwLjA1ODQ0NTY3NzE2MTIxNjczNiwgMC4xMDM5NzY4ODI5OTQxNzQ5NiwgMC4xMjYxMDk5Mjc4OTI2ODQ5NCwgLTAuMDE3NzU2NjQ4MzYxNjgyODkyLCAwLjI1MTIyNDg3NTQ1MDEzNDMsIDAuMDA4Nzk3OTk1NzQ2MTM1NzEyLCAwLjAxNDczODE4MTYwNTkzNTA5NywgLTAuMDc2Mjc1Mzc4NDY1NjUyNDcsIC0wLjAzNzAzNTMwMTMyNzcwNTM4LCAwLjA0NzUxODM3MjUzNTcwNTU2NiwgMC4wOTEyOTM1MTM3NzQ4NzE4MywgMC4wNTAyNjMyNDA5MzM0MTgyNzQsIC0wLjAxNzM1MDE3MDc2MTM0NjgxNywgMC4wMjQyODAzNTgxMDU4OTc5MDMsIDAuMDUxMDk3Mjc3NTUxODg5NDIsIDAuMDEyMzQ1MjczOTc5MDA4MTk4LCAtMC4wNDE5MDI2MTY2MjAwNjM3OCwgMC4wODA2NDEyNjIyMzMyNTczLCAwLjEwNjk0NzY0NTU0NTAwNTgsIC0wLjAxNjkwMzU5OTcyNDE3MzU0NiwgMC4xMDIwNDI1ODU2MTEzNDMzOCwgMC4xNTM0NDIyNDg3MDIwNDkyNiwgMC4wMzY4ODkzNzQyNTYxMzQwMywgLTAuMDI5MjgyMjMyNzQ2NDgxODk1LCAwLjA1MDYwNDE2NDYwMDM3MjMxNCwgMC4wNzgzNTI3MDQ2NDQyMDMxOSwgMC4wNDE3MTU2ODkwMDM0Njc1NiwgMC4xMjEzNzQwMjU5NDA4OTUwOF0sIFtbMC4yODg4MjczMDAwNzE3MTYzLCAtMC4yMzAzODg3NjA1NjY3MTE0MywgMC41MDYyNDA4NDQ3MjY1NjI1LCAtMC4wMjY2NjMxMjQ1NjEzMDk4MTQsIC0wLjA0Mjk3ODM5NDc3NjU4MjcyLCAwLjM4ODI3OTM3ODQxNDE1NDA1LCAwLjMyMzY2MTIwODE1Mjc3MSwgMC41MDQ3ODI0MzgyNzgxOTgyLCAwLjc2NjIxMTc0ODEyMzE2OSwgLTAuMTY2ODE1NjM4NTQyMTc1MywgLTAuMzA3NDYxODU3Nzk1NzE1MzMsIDAuMDE3NDEwMjQ2NjU1MzQ0OTYzLCAwLjA2NTM1OTk2NDk2Njc3Mzk5LCAwLjUyNjgzNDk2NDc1MjE5NzMsIDAuMjEzODkyNTc5MDc4Njc0MzIsIC0wLjU2NTE0MDI0NzM0NDk3MDddLCBbMC4wMjcyMDM2OTM5ODU5MzkwMjYsIDAuMDY3MDM5MzQ4MTg1MDYyNDEsIC0wLjM1MzIzODQwMzc5NzE0OTY2LCAwLjIzMjI5MDg0OTA4OTYyMjUsIDAuNDI4MzkxODczODM2NTE3MzMsIC0wLjQyNTAzMTc4MTE5NjU5NDI0LCAtMC4xMzgzNzU4NzgzMzQwNDU0LCAtMC41MDMwNzMyNzUwODkyNjM5LCAtMC42MTE4NTI5NDM4OTcyNDczLCAwLjA1NjYxNDkxNjc3MTY1MDMxNCwgLTAuMDMwNDU1MTU5MDIzNDA0MTIsIC0wLjExODk1NzUxOTUzMTI1LCAwLjA3NjQ2MTczMjM4NzU0MjcyLCAtMC4yMjM4NDk1MDUxODYwODA5MywgLTAuMjQ4MTQ5MTI2NzY4MTEyMTgsIDAuMDA1NTgyNjExMDc2NTMzNzk0XSwgWy0wLjExODMxMzkzODM3OTI4NzcyLCAtMC4yMzg5MzgwMTg2Nzk2MTg4NCwgMC4zNjk4MjQ5NzU3Mjg5ODg2NSwgMC4wMzc5MDM4NTI3NjA3OTE3OCwgMC4wOTY3NDE3OTU1Mzk4NTU5NiwgMC40MjQzMDI1MTgzNjc3NjczMywgMC42ODQwNTA3OTg0MTYxMzc3LCAwLjQyNzExNTU1OTU3Nzk0MTksIDAuNDY4MDA5NzY5OTE2NTM0NCwgLTAuMjIxMzcxMjAzNjYwOTY0OTcsIC0wLjIyMTQ5MzIyOTI2OTk4MTM4LCAtMC4wODA0ODE5NjEzNjk1MTQ0NywgMC4xMTUyOTc0ODE0MTc2NTU5NCwgMC42MjE1NDY4MDQ5MDQ5Mzc3LCAwLjU5MTk0OTM0MzY4MTMzNTQsIC0wLjAzNzkwODk4OTkzNjExMzM2XSwgWy0wLjk2OTQwMzk4MjE2MjQ3NTYsIDEuOTMyNjQxMjY3Nzc2NDg5MywgLTEuMTU2OTA2MTI3OTI5Njg3NSwgMi4yMTMwNDM5MjgxNDYzNjIzLCAyLjI0MTA3MzEzMTU2MTI3OTMsIC0xLjA4NjY1NDQyNDY2NzM1ODQsIC0xLjI0NzI2MDA5MzY4ODk2NDgsIC0wLjc1ODAzMTg0NTA5Mjc3MzQsIC0wLjU0MTcwMTQzNjA0Mjc4NTYsIDEuODkyMzUwMTk2ODM4Mzc5LCAxLjcwMDM4MjU5MDI5Mzg4NDMsIDIuMTQxMDc0NDE5MDIxNjA2NCwgMi4wMzQyNDA3MjI2NTYyNSwgLTAuNzk2NDYxNTIyNTc5MTkzMSwgLTEuMzk2NjkwNjA3MDcwOTIyOSwgMS4yMzc5NTM2NjI4NzIzMTQ1XSwgWzAuNzE0NTM4MDk3MzgxNTkxOCwgLTAuNTkxMjkzMjE1NzUxNjQ4LCAwLjU2MjU4OTI4Nzc1Nzg3MzUsIC0wLjU2MTU1MzUzNzg0NTYxMTYsIC0wLjg4NDE3NzUwNTk3MDAwMTIsIDAuMTE2NzU0MTIyMDc4NDE4NzMsIC0wLjI2NTg4MDA0ODI3NDk5MzksIDAuMTE0MDIyMDYxMjI4NzUyMTQsIDAuMDk4MzUxOTcwMzE0OTc5NTUsIC0wLjQ3NzM4NzYwNzA5NzYyNTczLCAtMC40Mzc0MDM2NDkwOTE3MjA2LCAtMC45NTQ0OTcyMTgxMzIwMTksIC0wLjY5NjcyMzA0MzkxODYwOTYsIC0wLjEzNTQ5Nzk1NzQ2ODAzMjg0LCAwLjE0ODU5ODg5NDQ3Njg5MDU2LCAtMC4zNzU4NzAyODc0MTgzNjU1XSwgWzAuMjEwNzQwMTE5MjE4ODI2MywgMC4yMjE5NDU0NjQ2MTEwNTM0NywgLTAuNTExOTE3NTkxMDk0OTcwNywgMC4yNjIzODExMDY2MTUwNjY1MywgMC4xODA0NTE1MTIzMzY3MzA5NiwgLTAuNTMxNTM3NTkyNDExMDQxMywgLTAuNzE4NzM1Njk0ODg1MjUzOSwgLTAuNDMyNTUyNzI1MDc2Njc1NCwgLTAuNzI3OTIyMzIwMzY1OTA1OCwgMC40MDE4MDc2MzYwMjI1Njc3NSwgMC4yNjk0Njk5MTY4MjA1MjYxLCAwLjAzNjk3MDE1MzQ1MDk2NTg4LCAtMC4wMzkwNjAxODY1OTQ3MjQ2NTUsIC0wLjU3MDk4NzM0Mzc4ODE0NywgLTAuNTI5OTQzMDQ4OTU0MDEsIDAuNDE0ODc1OTg0MTkxODk0NTNdLCBbLTAuMTI4ODU5MzExMzQyMjM5MzgsIDAuMDA3MjkyNTE2OTk1MjIxMzc2LCAwLjQwODU3ODU3NDY1NzQ0MDIsIDAuMDA3Njg1ODk5NzM0NDk3MDcsIDAuMjAxNjYwNjYyODg5NDgwNiwgMC4xODE0MzAxMDEzOTQ2NTMzMiwgMC4zNzA2NzMwOTAyMTk0OTc3LCAwLjA0MDE0MzMyOTY1MDE2MzY1LCAtMC4wMjgyNjE0MzQyODY4MzI4MSwgLTAuMTY4MzE0MzA3OTI4MDg1MzMsIDAuMDcxMDU4MzMyOTIwMDc0NDYsIDAuMDA4MzcyNjI2MjY3MzczNTYyLCAwLjE0MzMyOTMzNzIzOTI2NTQ0LCAwLjEzOTk3NTYyMjI5NjMzMzMsIDAuMjYxNTM2Njg3NjEyNTMzNTcsIDAuMTY2MTI3NTE3ODE5NDA0Nl0sIFstMS4wNTA0NjYwNjA2Mzg0Mjc3LCAwLjk3ODg0MzY4ODk2NDg0MzgsIC0wLjUzMDk4NDgxODkzNTM5NDMsIDEuNjg2ODk4NDY5OTI0OTI2OCwgMS41Mzk4OTQxMDQwMDM5MDYyLCAtMC4yMTczMjM0ODIwMzY1OTA1OCwgLTAuNTA2ODkxNjA4MjM4MjIwMiwgLTAuMzQ1ODU5MTY5OTYwMDIyLCAtMC4wNjA4MjU5ODg2NTAzMjE5NiwgMS4wNzQyMDY1OTA2NTI0NjU4LCAxLjAwMjM1MTY0MTY1NDk2ODMsIDEuNDU2MDU4OTc5MDM0NDIzOCwgMS4zNTI5NjkxNjk2MTY2OTkyLCAwLjA4ODg5NTAzNzc3MDI3MTMsIC0wLjMzMzI1ODQyMDIyODk1ODEzLCAxLjI3MTMwMTAzMTExMjY3MV0sIFswLjE0NjE1MzA3NzQ4MzE3NzE5LCAwLjkyNjQ2MDQ0NDkyNzIxNTYsIC0wLjkwNzY2NTAxNDI2Njk2NzgsIDAuMjE4NTQ4NTUxMjAxODIwMzcsIDAuMjY0MjExMzg2NDQyMTg0NDUsIC0wLjgzMDMyNTQyNDY3MTE3MzEsIC0wLjM3NTIzNTM0ODkzOTg5NTYzLCAtMS4wMDI2OTQyNDkxNTMxMzcyLCAtMS4zNzYyOTY3NTg2NTE3MzM0LCAxLjE0MDkzNjM3NDY2NDMwNjYsIDAuOTk3MTU3OTMxMzI3ODE5OCwgMC4zOTY0OTQ4NjU0MTc0ODA0NywgMC4wOTY5ODI4ODE0MjY4MTEyMiwgLTEuMjgzMTQ1MDcwMDc1OTg4OCwgLTAuNTg2MTAwNTc4MzA4MTA1NSwgMS4wNTMxNDM5NzgxMTg4OTY1XSwgWy0wLjA1NjM0OTU5MDQyMDcyMjk2LCAwLjEyMjczMzQ0Mzk3NTQ0ODYxLCAtMC4wMDYxMjk2NTkyNDY2NTMzMTgsIDAuMDE1NzUxNTc0MTg4NDcwODQsIDAuMDIyNTg4ODEzNjc3NDMwMTUzLCAwLjMwOTg2NDg3ODY1NDQ4LCAtMC4wMDQxNzMwNTcxNTM4MjA5OTE1LCAtMC4xMjc5NTQzNzg3MjQwOTgyLCAwLjExNTk0MjA5MDc0OTc0MDYsIDAuMzQ4Mjg5NDMwMTQxNDQ5LCAwLjQ4NjI2NTQ4MDUxODM0MTA2LCAwLjA2MDUwNjc1NzM0ODc3NTg2NCwgMC4wNjMzODM3OTUzMjA5ODc3LCAwLjA5OTI0NTcyNzA2MjIyNTM0LCAwLjU0NTczNzE0NzMzMTIzNzgsIDAuNDY5NjI0NzU3NzY2NzIzNjNdLCBbMC4wMjg3ODIyNDEwNDY0Mjg2OCwgMS40NjIyODkwOTQ5MjQ5MjY4LCAtMC43OTk0MDQwMjUwNzc4MTk4LCAwLjQ5MDkyOTMwNTU1MzQzNjMsIDAuNjQ1MTE5MTkwMjE2MDY0NSwgLTAuNzYwNDEyMjc1NzkxMTY4MiwgLTEuNDI2MDM2NTk2Mjk4MjE3OCwgLTAuODM4MDE3NTgyODkzMzcxNiwgLTAuOTY4NjM5ODUwNjE2NDU1MSwgMS40NzE5MTEwNzI3MzEwMTgsIDEuNTY2NDQ0NjM1MzkxMjM1NCwgMC42MjY0NjA5MDk4NDM0NDQ4LCAwLjYwMDk2MjI4MTIyNzExMTgsIC0xLjQzMzI0OTIzNTE1MzE5ODIsIC0xLjA0NzUwMzcwOTc5MzA5MDgsIDEuNDIxMTk5MDgzMzI4MjQ3XSwgWzAuMjA4MDE1MjYzMDgwNTk2OTIsIC0wLjQyMDgzNzM0MjczOTEwNTIsIDAuNDMzMDU4MTcyNDY0MzcwNywgMC4xMDQ5MTI3NTc4NzM1MzUxNiwgMC4wODM5MjI3MDY1NDQzOTkyNiwgMC41NjU3MzcxMjgyNTc3NTE1LCAwLjE1MDg2NTk0MjIzOTc2MTM1LCAwLjAyMjU1MTIyNzM2MDk2MzgyLCAwLjIwMTI2MTI1MjE2NDg0MDcsIC0wLjMzNjc3OTYyNDIyMzcwOTEsIC0wLjQzNTE1OTQxNTAwNjYzNzYsIDAuMjU1ODE1NDE2NTc0NDc4MTUsIDAuMDY4Njk3NTE5NjAwMzkxMzksIDAuNDE4NjE4NjE5NDQxOTg2MSwgMC40OTk3MTAyNjE4MjE3NDY4LCAtMC4wMzI3OTI4NjYyMzAwMTA5ODZdLCBbMC4yMDExNDUyNzY0MjcyNjg5OCwgLTAuMTY5Mzk1Njg1MTk1OTIyODUsIDAuNTU3NjE4ODU2NDMwMDUzNywgLTAuMDM1MDM0NTAwMDYyNDY1NjcsIC0wLjE0NDA0Njc4MzQ0NzI2NTYyLCAwLjM0MTU2NzMwNzcxMDY0NzYsIDAuMTExOTE2ODk5NjgxMDkxMzEsIDAuNDU0MzIwNjA5NTY5NTQ5NTYsIDAuNzI2MTI1NTk3OTUzNzk2NCwgLTAuNDAwNzI5ODk0NjM4MDYxNSwgLTAuMzEwNTE3NjA5MTE5NDE1MywgLTAuMTgzNjAzMTgyNDM1MDM1NywgLTAuMDE3NjY3ODg1ODY5NzQxNDQsIDAuNjY3NTkxOTI5NDM1NzMsIDAuMjE4MDU1NjgwMzk0MTcyNjcsIC0wLjIwNDY0ODQwNTMxMzQ5MTgyXSwgWzAuMjU3NjU0MjQ5NjY4MTIxMzQsIDAuNTQ3Mzk4OTI0ODI3NTc1NywgLTAuNjM5MDAwNTk0NjE1OTM2MywgLTAuMDg4NDgwMTc0NTQxNDczMzksIDAuMTY2Mjc0OTY0ODA5NDE3NzIsIC0wLjcxOTM5NTA0MTQ2NTc1OTMsIC0wLjkzMTgzODYzMTYyOTk0MzgsIC0wLjQ5NjA2MDk2NzQ0NTM3MzU0LCAtMC42MDg3Njg1MjI3Mzk0MTA0LCAwLjI5ODYyNDM2NjUyMTgzNTMsIDAuMjg4NTk4MjM5NDIxODQ0NSwgMC4wNTMwNTUzMDUwMzM5MjIxOTUsIDAuMDgyMDExNDYxMjU3OTM0NTcsIC0wLjU1Mjc3NDYwODEzNTIyMzQsIC0wLjQ1Njg2MzM0MzcxNTY2NzcsIDAuMjY1MDYyNzQ5Mzg1ODMzNzRdLCBbMC4yMTMzMDkzMzI3MjgzODU5MywgLTAuMzkyMDgyODEwNDAxOTE2NSwgMC40NDIxNjA4NDQ4MDI4NTY0NSwgLTAuMDg0NzIzMzYwODM2NTA1ODksIC0wLjA4NjA1ODcwNjA0NTE1MDc2LCAwLjUwNDYxNTYwNDg3NzQ3MTksIDAuMzc5NjkwOTQ1MTQ4NDY4LCAwLjU2MTMxMTYwMjU5MjQ2ODMsIDAuNDA5MTA4OTY2NTg4OTc0LCAtMC4xODgyOTkwNTk4Njc4NTg5LCAtMC4xMjQwNDI3OTQxMDgzOTA4MSwgLTAuMDc5MTE5NTg1NDU0NDYzOTYsIDAuMTIzNzU2MDM2MTYyMzc2NCwgMC40NDA3ODA1MjA0MzkxNDc5NSwgMC41NTY3OTA1OTAyODYyNTQ5LCAwLjA3MzIxMjk1ODg3MjMxODI3XSwgWy0wLjA1MzQyODY5NDYwNTgyNzMzLCAtMC4wMDUxMTE2NTE0OTUwOTkwNjgsIC0wLjA2OTEwNDA1MzA4MDA4MTk0LCAwLjQ3NzMzOTc0NDU2Nzg3MTEsIDAuNjE4MzY5NDAwNTAxMjUxMiwgLTAuMTExNTM5NjMyMDgxOTg1NDcsIDAuMDA2MTk5NzIwNzgxMjk2NDkyLCAwLjE5ODExNTY0NjgzOTE0MTg1LCAwLjM4NTA2NDQyMzA4NDI1OTAzLCAwLjE1NDI3MjM5MjM5MjE1ODUsIDAuMDkwMzk2MDkxMzQxOTcyMzUsIDAuNDk1MjkwNTc3NDExNjUxNiwgMC4yNjk1MTU2MzM1ODMwNjg4NSwgMC4zMTk0NTQ4MTg5NjQwMDQ1LCAtMC4wODY2MTg5MzAxMDEzOTQ2NSwgMC4wMjE2NTU2NjAxMjI2MzI5OF0sIFswLjE4MzEyMDgxNjk0NjAyOTY2LCAwLjAyMTU2NTcxMjk4ODM3NjYxNywgLTAuMDExNzA3MDczMDc3NTU5NDcxLCAwLjAyNTg4NjE0ODIxNDM0MDIxLCAwLjA3ODg5ODIwNjM1MzE4NzU2LCAwLjEyNDY2MDAwMDIwNTAzOTk4LCAtMC4wMjgwMTUwNzcxMTQxMDUyMjUsIC0wLjIwMzM5MTQ2MjU2NDQ2ODM4LCAtMC4wOTg0NDM4NjU3NzYwNjIwMSwgLTAuMTY0NzI0MzA1MjcyMTAyMzYsIDAuMjg4NzM2NzAxMDExNjU3NywgLTAuMTgxMTU3MjkwOTM1NTE2MzYsIDAuMTg5Njc4MTYyMzM2MzQ5NSwgMC4wMzc4NDY5Nzg3NTM4MDUxNiwgLTAuMDQ0MTA5NjA1MjUyNzQyNzcsIDAuMTk4MTIwMTQ2OTg5ODIyNF0sIFstMC4wODI2NzQ5ODAxNjM1NzQyMiwgMC4zOTQ0NDg2OTc1NjY5ODYxLCAwLjAwNTgwMTY4Nzk0ODQwNTc0MywgMC42MDEwMzQ5OTg4OTM3Mzc4LCAwLjM4Mjk3MDk4ODc1MDQ1Nzc2LCAwLjAzNDc4NzY4MDk1Mzc0MTA3NCwgMC40MDk3OTMyNTc3MTMzMTc4NywgMC4zMzc1NjgxMDQyNjcxMjAzNiwgMC41NDg1NTY2ODU0NDc2OTI5LCAwLjI0NzU4OTQzOTE1MzY3MTI2LCAtMC4wODAwNzM2ODQ0NTM5NjQyMywgMC4xOTAxODIzMTMzMjMwMjA5NCwgMC4zNDcxMzM1NzY4Njk5NjQ2LCAwLjI3MDEzNDc3NjgzMDY3MzIsIDAuMDI4NTY2MzY3OTI0MjEzNDEsIDAuMDUzOTc4NzYzNTIwNzE3NjJdLCBbMC45NzkwOTYyOTM0NDk0MDE5LCAtMC4yNTE1MTE3NTI2MDU0MzgyMywgMC40MTU2NTYyMzg3OTQzMjY4LCAtMC4zMjA4ODgxMzE4NTY5MTgzMywgLTAuODIwMjg4NTM4OTMyODAwMywgMC4xMDQzMTg4NDIyOTE4MzE5NywgLTAuNDc3NTMzMDcyMjMzMjAwMSwgMC4yMDcxMDY1MzA2NjYzNTEzMiwgMC4yMzM3Njk4OTM2NDYyNDAyMywgLTAuMjM5MzQwNjYyOTU2MjM3OCwgLTAuMTcyMDM4MzE2NzI2Njg0NTcsIC0wLjQ2NjYyNDAyMTUzMDE1MTM3LCAtMC44NTc1ODg0MTAzNzc1MDI0LCAtMC4xMzkyMTQyNDc0NjUxMzM2NywgLTAuMTM3NTg1MDE0MTA0ODQzMTQsIC0wLjI2NzA1NzgzNjA1NTc1NTZdLCBbLTAuMDQ2NTkxMzM0MDQ0OTMzMzIsIC0wLjQ4MjU2NDU2ODUxOTU5MjMsIDAuNTgzNTI5NTMxOTU1NzE5LCAtMC4wMzY2NzQzNTQyMjUzOTcxMSwgLTAuMzk3NTk1MDQ3OTUwNzQ0NjMsIDAuNzExNjY0NDM4MjQ3NjgwNywgMC43OTk2NjUwOTM0MjE5MzYsIDAuNzkzMDgxODIwMDExMTM4OSwgMC40Mjg0NDQ5MjE5NzAzNjc0MywgLTAuNzA5NTgzNjQwMDk4NTcxOCwgLTAuNTk0NjUwNzQ1MzkxODQ1NywgLTAuNTYwNzA0MTEyMDUyOTE3NSwgLTAuNTUxMTg4NTg4MTQyMzk1LCAwLjY1NjQ4ODg5NTQxNjI1OTgsIDAuNjk0NzQxMzY4MjkzNzYyMiwgLTAuNjA1OTUwMjM2MzIwNDk1Nl0sIFswLjA4OTg3MDMxMTMxOTgyODAzLCAwLjY2MTU0NTM5NTg1MTEzNTMsIC0xLjMzMjU2NzIxNDk2NTgyMDMsIDAuMTU4NjY0NDk0NzUyODgzOSwgMC4zMTM0MzQ0NTE4MTg0NjYyLCAtMS4xNDMzODE1OTU2MTE1NzIzLCAtMS4zMDk4Njc5NzgwOTYwMDgzLCAtMC45NjUyMTQ0OTA4OTA1MDI5LCAtMS4zNDEzOTc1MjM4ODAwMDQ5LCAwLjU2NDc2OTk4MzI5MTYyNiwgMC45NTc1MzE0NTIxNzg5NTUxLCAwLjQ5NTgwNjE1NzU4ODk1ODc0LCAwLjIyMjgwNTk3Njg2NzY3NTc4LCAtMS4yMjI1MzA4NDE4MjczOTI2LCAtMS4yNzkwMjUzMTYyMzg0MDMzLCAwLjkxNzg0NDY1MzEyOTU3NzZdLCBbLTAuNDc4MzE1NTkxODEyMTMzOCwgMC42MzYxNzY4MjQ1Njk3MDIxLCAtMC4zNzM5MjE4NzExODUzMDI3MywgMC43NDM5MzI5MDI4MTI5NTc4LCAwLjc1MjIwNTQ5MTA2NTk3OSwgLTAuMzYyMjU2MDUwMTA5ODYzMywgLTAuMDc3NTc0MTkzNDc3NjMwNjIsIC0xLjM2MjE5NTAxNDk1MzYxMzMsIC0xLjE0NTYzNDQxMjc2NTUwMywgMC41ODQyMzU2MDg1Nzc3MjgzLCAwLjU4MTQ2NzA5MjAzNzIwMDksIDAuNTQxNDAwNTUxNzk1OTU5NSwgMC40OTMwNDI2NDc4Mzg1OTI1MywgLTAuNzY5NDAzMTAwMDEzNzMyOSwgMC4wODkzMTE4Njc5NTIzNDY4LCAxLjAxNTQ5NzgwMzY4ODA0OTNdLCBbMC4yNzAxMDgxMDM3NTIxMzYyMywgLTAuMzkyNTMyMzc4NDM1MTM0OSwgMC43NTAzNDM2ODAzODE3NzQ5LCAwLjAyMTkwNjE5NzA3MTA3NTQ0LCAtMC4wNzY4Njg2MzgzOTYyNjMxMiwgMC4yOTYyNDkzMzAwNDM3OTI3LCAwLjIxMjM0ODI1MjUzNDg2NjMzLCAwLjc0NTM1MDI0MTY2MTA3MTgsIDAuNTExMzA2MTY2NjQ4ODY0NywgLTAuNDAzMTMwMDU0NDczODc2OTUsIC0wLjMxNjczNTI5NzQ0MTQ4MjU0LCAtMC4wNDg4NjA0MzQ0NDI3NTg1NiwgMC4wMzA5MzM4MzA4ODcwNzkyNCwgMC4zOTg3Njg2NjM0MDYzNzIwNywgMC4xMzg5NjYwMjM5MjE5NjY1NSwgLTAuNjMxMTc0NzQzMTc1NTA2Nl0sIFswLjg1Njk1MTI5NjMyOTQ5ODMsIC0wLjMwODY1OTIyNTcwMjI4NTc3LCAwLjkwNjc4MTAxNzc4MDMwNCwgLTAuODY1ODYwODE5ODE2NTg5NCwgLTAuNTA4MTE0MDM5ODk3OTE4NywgMC43MjA1Mzk1MTAyNTAwOTE2LCAwLjYzMjg2ODU4Nzk3MDczMzYsIDAuNTM4MTgwMTEyODM4NzQ1MSwgMC40NDc3MzExOTY4ODAzNDA2LCAtMC4zMTM4Njg4MjA2NjcyNjY4NSwgLTAuMDIzMTY3MjUyNTQwNTg4MzgsIC0wLjkyMjYxMjE5MDI0NjU4MiwgLTAuODI4OTM4NDg0MTkxODk0NSwgMC40OTcwMDI5ODkwNTM3MjYyLCAwLjQ4NDk5MTkwODA3MzQyNTMsIC0wLjM5NDcwNDYzOTkxMTY1MTZdLCBbMC41MDQzMjQwMTg5NTUyMzA3LCAwLjQzMjIxNzU5Nzk2MTQyNTgsIC0wLjU5MTAwMjEwNjY2NjU2NDksIDAuMTM2Mzg4ODk3ODk1ODEzLCAwLjM1OTg2MTQ2MzMwODMzNDM1LCAtMC43NTg0MDU4MDQ2MzQwOTQyLCAtMC41ODQxMTU5MjI0NTEwMTkzLCAtMC45NDExOTYwMjQ0MTc4NzcyLCAtMC44NjgxOTYwMTA1ODk1OTk2LCAwLjQ4ODYwNDg0MzYxNjQ4NTYsIDAuNTgxMzAwMDc5ODIyNTQwMywgMC4yNjA3NjAxODgxMDI3MjIxNywgMC4wMjA0NzkzNTUwMDc0MTAwNSwgLTAuOTU5OTc0MTY5NzMxMTQwMSwgLTAuNDAwNjQ2MjY5MzIxNDQxNjUsIDAuNjMxMzM2NzQ4NjAwMDA2MV0sIFstMC4wNzY4MTc0MzA1NTU4MjA0NywgMC4yMzA2MjE5MzM5MzcwNzI3NSwgLTAuMjg0MzM5MzM4NTQxMDMwOSwgMC4zNjQ4NzAwNDE2MDg4MTA0LCAwLjI3ODQ4MDQxMDU3NTg2NjcsIC0wLjE0OTU0MTgyNTA1NjA3NjA1LCAwLjAxMDkwNjA0OTA1MDM5MDcyLCAtMC4xMzg2MTc4NzMxOTE4MzM1LCAtMC4wNDUyNTA3MDI2NDkzNTQ5MzUsIDAuMTY2NjI4ODY3Mzg3NzcxNiwgLTAuMjkyNDY2MjgyODQ0NTQzNDYsIDAuNDQ0Nzk1MzQwMjk5NjA2MywgMC41MTUxNDU4OTc4NjUyOTU0LCAtMC4xMzExODY1ODk1OTg2NTU3LCAtMC40MjAwMjAyODIyNjg1MjQxNywgLTAuMDk4MjAyNTQxNDcwNTI3NjVdLCBbMC40MTc1MDQ3ODc0NDUwNjgzNiwgLTAuMzE1Mzc0MDQ2NTY0MTAyMiwgMC41MjQxNTIzOTgxMDk0MzYsIC0wLjQwMTM5Mjk2NjUwODg2NTM2LCAtMC4zMzk2OTMzNjc0ODEyMzE3LCAwLjMxMTExOTEwOTM5MjE2NjE0LCAwLjMxMDAzOTIyMjI0MDQ0OCwgMC4xNTA2NTgyNjQ3NTYyMDI3LCAwLjA0NDE3MDQ5NTEyMjY3MTEzLCAtMC40MzAxMzQ3NzMyNTQzOTQ1MywgLTAuNDM0Mjk1ODkyNzE1NDU0MSwgLTAuMjIxMTQ1NjI5ODgyODEyNSwgLTAuMjUxNDY5NDAzNTA1MzI1MywgMC4wMTAxMjY5MTY2OTE2NjA4ODEsIDAuNDQ0ODE1NDU2ODY3MjE4LCAtMC4zNjgxNTk0MTMzMzc3MDc1XSwgWzAuNDU2NjQ3NTQ1MDk5MjU4NCwgLTAuNjE1ODc5NTM1Njc1MDQ4OCwgMC4zMTQ4MDkwMjQzMzM5NTM4NiwgLTAuMDM2Njc3NTI0NDQ3NDQxMSwgLTAuMjI2NDk2OTM0ODkwNzQ3MDcsIDAuMzY2NjQ0MjkzMDY5ODM5NSwgMC4xNjczNDY5MDk2NDIyMTk1NCwgMC4zNjM1MjEzOTcxMTM4MDAwNSwgMC40NzEyNTU4Njg2NzMzMjQ2LCAtMC42NzExMTIyOTg5NjU0NTQxLCAtMC4yNzgwMzk3MjM2MzQ3MTk4NSwgLTAuMzIwNTI0NzUyMTQwMDQ1MTcsIC0wLjA1NzkwNjIzNjQ5OTU0Nzk2LCAwLjQ0MzY4Nzc5NjU5MjcxMjQsIDAuMTU4ODA1ODkxODcxNDUyMzMsIC0wLjIzODY0ODY4MjgzMjcxNzldLCBbMC40OTY4ODQ4MjI4NDU0NTksIDAuMzgwNDc1NDYxNDgzMDAxNywgLTAuMDc3NjUzMzkzMTQ5Mzc1OTIsIC0wLjQ3NzUzMzk5NjEwNTE5NDEsIC0wLjUwODU3ODc3NzMxMzIzMjQsIDAuMDA3NzcxMTQyMjkyNzY3NzYzLCAtMC43MDc2OTkyOTg4NTg2NDI2LCAtMC4xNDc4OTU4ODc0OTQwODcyMiwgMC4wODMxNDM2NDQwMzQ4NjI1MiwgLTAuMjA3OTk1NjIzMzUwMTQzNDMsIDAuMzA2NzYxMDU2MTg0NzY4NywgLTAuMzI3Mzk3MDQ4NDczMzU4MTUsIC0wLjMxNzMxMjgzNjY0NzAzMzcsIC0wLjU0MDA5MzEyMzkxMjgxMTMsIC0wLjU0ODIzNzIwNDU1MTY5NjgsIDAuMTAxOTY3NjcwMDIzNDQxMzFdLCBbLTAuMzg0NDcwNzAxMjE3NjUxMzcsIDAuMzcwMjIyNjg3NzIxMjUyNDQsIC0wLjU4MDMwMjY1NTY5Njg2ODksIDAuNzYzNTI3NjMxNzU5NjQzNiwgMC43NjA0OTQ3MDkwMTQ4OTI2LCAtMC41MTEyODY0OTcxMTYwODg5LCAtMC40MzU5MDM1NDkxOTQzMzU5NCwgMC4wNjY4MDQ4ODU4NjQyNTc4MSwgMC4wNzAyNjAyMjY3MjY1MzE5OCwgMC42NTA0NDgzMjIyOTYxNDI2LCAwLjIxNjEyNjM1MjU0ODU5OTI0LCAwLjcwNzc0NjAyODkwMDE0NjUsIDAuNjI1NzQ2ODQ2MTk5MDM1NiwgLTAuMTc3MjI5ODIxNjgxOTc2MzIsIC0wLjcwNTQ4MjcyMTMyODczNTQsIDAuNDkyOTkwOTExMDA2OTI3NV0sIFswLjI0MTM2NTk2OTE4MTA2MDgsIC0wLjA4MjIyOTMzMTEzNTc0OTgyLCAwLjcwNjYxNTc0NjAyMTI3MDgsIDAuMDg3NDkyMjQyNDU1NDgyNDgsIDAuMTE2OTY2NTMwNjgwNjU2NDMsIDEuMDAyNTg3NDM3NjI5Njk5NywgMS4yMDc0MjUzNTU5MTEyNTQ5LCAwLjU5NDk0MjkyNzM2MDUzNDcsIDAuNDE0ODM1OTI5ODcwNjA1NDcsIC0wLjI1MjcyNDA1MTQ3NTUyNDksIC0wLjAzNjk1MTM5NjYxNDMxMzEyNiwgLTAuMTYxMjc3MDI1OTM4MDM0MDYsIC0wLjM0NDM3NjkyMTY1Mzc0NzU2LCAwLjgxMzAwNDY3MjUyNzMxMzIsIDEuMjM5MzA2Njg4MzA4NzE1OCwgLTAuMDAxNDYxNDU0MzE3OTA1MDA4OF0sIFswLjYxNzEyMDI2NTk2MDY5MzQsIC0wLjU4MTIwMzg3NzkyNTg3MjgsIDAuNjk4MjQ3NzkwMzM2NjA4OSwgLTAuMzgyNTY3NTg0NTE0NjE3OSwgLTAuNDk5MDcyNjcwOTM2NTg0NSwgMC41NjIwODc1MzU4NTgxNTQzLCAwLjg4MTEwMzc1NDA0MzU3OTEsIDAuODU2NjU5ODg5MjIxMTkxNCwgMC43NTAyMzU5MTUxODQwMjEsIC0wLjM3ODE5NTg4MTg0MzU2NjksIC0wLjcwMzk5MTY1MTUzNTAzNDIsIC0wLjU2ODA1NTE1Mjg5MzA2NjQsIC0wLjY4Mzg2NjAyNDAxNzMzNCwgMC43MjIzOTc1NjU4NDE2NzQ4LCAwLjcxNDMxMDM0ODAzMzkwNSwgLTAuNTQwMjg2MTgzMzU3MjM4OF1dLCBbMC4xMTEyNTA2MjQwNjA2MzA4LCAwLjA4MDA3NDE5ODU0NDAyNTQyLCAwLjE2NDM0MTE1MTcxNDMyNDk1LCAwLjA1NDAxMDU3NzQ5OTg2NjQ4NiwgMC4wNTQ0OTIxOTc5MzA4MTI4MzYsIDAuMTA4MTE2ODEzMDA0MDE2ODgsIDAuMDgwMDQxNjE3MTU1MDc1MDcsIDAuMTM1NDE5Mzk4NTQ2MjE4ODcsIDAuMTM3NTAyMDQ0NDM5MzE1OCwgMC4xMDY3Mjk3OTA1NjgzNTE3NSwgMC4wNjI1MjkwMjc0NjIwMDU2MiwgMC4wNTY5Mzc0Mzc1MDQ1Mjk5NSwgMC4wNDA5NTY5MjU2MDA3NjcxMzYsIDAuMDc0NDA1MzQ5NzkxMDQ5OTYsIDAuMTAzNjQ2NzI1NDE2MTgzNDcsIDAuMDM0NzM1ODM2MDg4NjU3MzhdLCBbWzAuNzA4MDA0NDc0NjM5ODkyNl0sIFstMC44NDQ2MDExNTQzMjczOTI2XSwgWzEuOTk0NjkyNjgzMjE5OTA5N10sIFstMC43NDEyNTA4MTMwMDczNTQ3XSwgWy0wLjU1MDIxMDIzNzUwMzA1MThdLCBbMi4xMjAwMTEzMjk2NTA4NzldLCBbMS4zODU2OTU4MTUwODYzNjQ3XSwgWzEuMjgxNzc3ODU4NzM0MTMwOV0sIFsxLjc0NDk0NTA0OTI4NTg4ODddLCBbLTAuOTUzMjY3MzM1ODkxNzIzNl0sIFstMC44NTA5MzIzNTk2OTU0MzQ2XSwgWy0xLjE2MzYyNzYyNDUxMTcxODhdLCBbLTAuNjkwNzI1ODAzMzc1MjQ0MV0sIFsxLjIyMjI2ODIyMzc2MjUxMjJdLCBbMS41NTQ4NjUxMjE4NDE0MzA3XSwgWy0wLjgxMjg2ODExODI4NjEzMjhdXSwgWzAuMDc4NTI0NjA0NDM5NzM1NDFdXQ==", "metrics": {"loss": 0.170232, "accuracy": 0.929487, "auc": 0.981667, "precision": 0.923679, "recall": 0.945527}}