{"round": 5, "weights_b64": "W1tbMC4wNjYxOTczMjA4MTg5MDEwNiwgMC4yMjI4MDU1NDQ3MzQwMDExNiwgLTAuMDU4OTc5NTExMjYwOTg2MzMsIC0wLjAxMjc0Njc0MTA2Mzg5Mjg0MSwgMC4wMjM2NzU0OTc2MjEyOTc4MzYsIC0wLjEwNzAyOTA5NTI5MjA5MTM3LCAwLjMwODgyMDc4NDA5MTk0OTQ2LCAwLjA1MjQ1MDM4ODY2OTk2NzY1LCAwLjA2MjYyOTkyMzIyNDQ0OTE2LCAwLjI0MzQzNzA4MTU3NTM5MzY4LCAwLjEzMjc1MDYwMDU3NjQwMDc2LCAwLjA3NTk1MDM0Njg4NzExMTY2LCAtMC4zNzE3NzY2NDA0MTUxOTE2NSwgMC4wMzc2MzM4ODA5NzI4NjIyNDQsIDAuMDk4MzI5OTMxNDk3NTczODUsIDAuMDI3MjE3MzA2MTk2Njg5NjA2LCAwLjE2NjU1ODk1MTEzOTQ1MDA3LCAtMC4wODA4Mjg2MTQ1MzI5NDc1NCwgLTAuMDQxNjA5NDY2MDc1ODk3MjIsIDAuMDAyNDE1OTE1OTUxMTMyNzc0NCwgMC4yNDA2OTIwMTk0NjI1ODU0NSwgMC4xODI2MjcyNjA2ODQ5NjcwNCwgLTAuMDEzMjc1MjMwMzAzNDA2NzE1LCAtMC4xMTg3NjI1Mzc4MzcwMjg1LCAwLjE2MDc1NjY3NzM4OTE0NDksIDAuMDE4Nzk5MTI5ODczNTE0MTc1LCAwLjA1NTA4NTcyOTgwNzYxNTI4LCAwLjA4MTA2MDg4NjM4MzA1NjY0LCAtMC4wOTYwODk4Mzk5MzUzMDI3MywgMC40Mjc2ODA4Nzk4MzEzMTQxLCAwLjEwOTI4MDE5ODgxMjQ4NDc0LCAwLjA3MDI2ODgwOTc5NTM3OTY0XSwgWy0wLjE0MDU3ODI5OTc2MDgxODQ4LCAwLjYyNjU4NDUyOTg3NjcwOSwgMC4xODc3MDUzNTI5MDI0MTI0MSwgLTAuMDE1NjI5MDE3NzI1NTg2ODksIC0wLjM4MzA4OTc4MDgwNzQ5NTEsIDAuMjM4NjAwNDE3OTcxNjExMDIsIDAuOTM0NzIwNzU0NjIzNDEzMSwgLTAuMjQzMTgzOTU1NTUwMTkzOCwgMC4yMTc5NTQzOTcyMDE1MzgwOSwgLTAuNDcwNDkzNTU1MDY4OTY5NywgMS4wMjc1MjM1MTc2MDg2NDI2LCAtMC4wMDM2MjQ0OTIzMjQ4ODg3MDYsIC0wLjIwMzAzOTU4NjU0NDAzNjg3LCAtMC4zMjc4NjI0NDE1Mzk3NjQ0LCAwLjY2MTAwMjMzNzkzMjU4NjcsIDAuMDUwNDI1NjM3NTEzMzk5MTI0LCAxLjgwMTA1MjY4OTU1MjMwNzEsIC0wLjU4NzA5NTM3OTgyOTQwNjcsIDIuMDY2OTYxNTI2ODcwNzI3NSwgMC4yNDIyNDExNDQxODAyOTc4NSwgMC43NjY5NzYxMTgwODc3Njg2LCAtMC40NjY5NTU1NDI1NjQzOTIxLCAtMC4xMDYxODUyMjAxODE5NDE5OSwgMC42MDI4NTczNTEzMDMxMDA2LCAwLjE1MDA4NzQxNjE3MjAyNzYsIC0wLjgzOTM3NTAxOTA3MzQ4NjMsIC0wLjA1MDc3MDM2ODQyNzAzODE5LCAwLjU1MjMwNDc0NDcyMDQ1OSwgMC4wNzQ0NDI5NTI4NzEzMjI2MywgMS40NzA5OTUxODc3NTkzOTk0LCAwLjI3MjMyNzkyOTczNTE4MzcsIC0wLjQwODQ3NTY2NzIzODIzNTVdLCBbLTAuMTYzNjg5ODM2ODU5NzAzMDYsIDAuMDc1MjE4NjkyNDIxOTEzMTUsIDAuMTcwNzAyOTY0MDY3NDU5MSwgLTAuMTg1OTA1NTQ1OTQ5OTM1OSwgLTAuOTcxMjMwNTA2ODk2OTcyNywgMC4wMzMxNDg5ODE2MzA4MDIxNTUsIDAuNDAyMzcwMzAzODY5MjQ3NDQsIDAuMzI3ODY2OTcxNDkyNzY3MzMsIDAuMTM2Mzk0NjQ5NzQ0MDMzOCwgLTEuMjE1NDUzMzg2MzA2NzYyNywgMC4zNDAyNTQwOTgxNzY5NTYyLCAwLjIxMTg1ODMzMjE1NzEzNSwgLTAuMDU3NTQ3NjIxNDI4OTY2NTIsIC0wLjY5NTUyMTM1NDY3NTI5MywgMC4wMTcyNjkxNDU2OTczNTUyNywgMC4yMjg3ODg1MjQ4NjYxMDQxMywgMC41NzQyNzAzMDgwMTc3MzA3LCAtMS4wOTg4ODQ4MjA5MzgxMTA0LCAtMC4yNTM3ODg2Nzk4MzgxODA1NCwgMC4xMjI4MjY3OTIyOTk3NDc0NywgMC40MTE1MjUwMTEwNjI2MjIwNywgLTAuMjM4NzEwOTk5NDg4ODMwNTcsIC0wLjM0NjkyNTUyNjg1NzM3NjEsIDAuMDg1NDczODk1MDcyOTM3MDEsIDAuMDA5NjYyMDYxOTI5NzAyNzU5LCAtMC4yODM1MTM0MjY3ODA3MDA3LCAwLjA0NjQ2MDY3MzIxMzAwNTA2NiwgMC4xMjcwMDI4NTAxNzQ5MDM4NywgMC4xNTMxMzg0NTg3Mjg3OTAyOCwgMC41MTE1NDM1MTIzNDQzNjA0LCAwLjA4MTkzMDQ4MDg5NzQyNjYsIC0wLjk4MzU1Nzk5OTEzNDA2MzddLCBbLTAuMTUwNTUyNzE5ODMxNDY2NjcsIDAuNDA3NzI0NTU5MzA3MDk4NCwgMC4zNDk3Nzc4NzczMzA3ODAwMywgLTAuMDYxNDc5Mjk2NTM1MjUzNTI1LCAtMC4xNjI0OTkwMTA1NjI4OTY3MywgMC4yMDY1OTYzNDQ3MDkzOTYzNiwgMS4xNzUxMjY0MzMzNzI0OTc2LCAtMC42NDQxNjE0NjI3ODM4MTM1LCAtMC42NDIzMTUyNjg1MTY1NDA1LCAwLjA1NzIwNTIwMDE5NTMxMjUsIDAuODQ4OTY4NzQ0Mjc3OTU0MSwgLTAuMDY2MjE1ODI4MDYxMTAzODIsIC0wLjE2ODk1MzU5NzU0NTYyMzc4LCAtMC4yOTE5MDAyNDczMzU0MzM5NiwgMC4yNDE1MjIzNzE3Njg5NTE0MiwgLTAuMzUxMDA3MjgyNzMzOTE3MjQsIDAuNzY5Nzc2NTgyNzE3ODk1NSwgLTAuMjAyNDg0OTY1MzI0NDAxODYsIDAuNzM5MzI0NzQ4NTE2MDgyOCwgMC4yNTQ2NTM0NTM4MjY5MDQzLCAwLjU0NzkwNDc4OTQ0Nzc4NDQsIC0wLjI0NjIzMzg5NTQyMTAyODE0LCAtMC4xMzc1NTM5MzAyODI1OTI3NywgMC4zNTk4MzkyNjA1NzgxNTU1LCAtMC4xMDk4MTMwNjQzMzY3NzY3MywgLTAuMzExMDk3NDQzMTAzNzkwMywgLTAuNDc4MjM2MTk4NDI1MjkyOTcsIDAuMTc3MjA4ODg1NTUwNDk4OTYsIC0wLjA2NzY1Njc4NTI0OTcxMDA4LCAwLjk2MzU0NzExMDU1NzU1NjIsIC0wLjY0MzQ4NjYxODk5NTY2NjUsIDAuMjU3OTA4MTM1NjUyNTQyMV0sIFswLjEzNDQ2MzU0ODY2MDI3ODMyLCAtMC41ODA1ODg2OTgzODcxNDYsIC0wLjA4MTY5NDMxMjM5MzY2NTMxLCAtMC4wMTc1NjYzMTAyNDE4MTg0MjgsIC0xLjE0ODg5ODM2MzExMzQwMzMsIC0wLjAwOTQ5NTc1NTY1NzU1MzY3MywgMC4wNjk2MDU2NTU5NjgxODkyNCwgMC4wMjIzOTc0MDI2NzM5NTk3MzIsIC0wLjE1MzI1MDcyNDA3NzIyNDczLCAtMS41Mjc0MjAxNjMxNTQ2MDIsIDAuMzgyODQ5MDk3MjUxODkyMSwgMC4wMTIwMDI1NTM3OTA4MDc3MjQsIC0wLjMxNzYyMjAwNTkzOTQ4MzY0LCAtMC40MjQ5MjY2Mzg2MDMyMTA0NSwgLTAuMTM3ODU1NTg5Mzg5ODAxMDMsIDAuMTIyMzY1OTUxNTM4MDg1OTQsIDAuNjExMjQ0NTU5Mjg4MDI0OSwgLTEuNjg2OTM1OTAxNjQxODQ1NywgLTAuMjI1NjA1OTM0ODU4MzIyMTQsIC0wLjA4NjIxOTY2MDkzNzc4NjEsIC0wLjA0OTczMTMxNDE4MjI4MTQ5NCwgMC4xOTYyNzQxNDY0Mzc2NDQ5NiwgLTAuMzQxNzc4NTE2NzY5NDA5MiwgLTAuMDc0ODM4NDM3MTM5OTg3OTUsIDAuMjQ0MDkyMTY2NDIzNzk3NiwgLTAuMjYxNTU4ODMwNzM4MDY3NiwgMC4wODU1MjEyMDYyNTk3Mjc0OCwgLTAuMTIwODI3MDM0MTE1NzkxMzIsIC0wLjA2OTU0NTQzMjkyNTIyNDMsIDAuMzg1MTM5NDk1MTM0MzUzNjQsIC0wLjA3MTYzNTU4MTU1Mjk4MjMzLCAtMS4zNTIyNjIzNzc3Mzg5NTI2XSwgWzAuMTU5NDU3NzQzMTY3ODc3MiwgMC4wODY3MjM3NjcyMjA5NzM5NywgLTAuMDM5NDU1MDg1OTkyODEzMTEsIDAuMDQ0MTYzNjkyNzQyNTg2MTM2LCAwLjAzNzQxOTM2Mzg1NjMxNTYxLCAwLjA3MTIyMTMzNjcyMjM3Mzk2LCAtMC4yNjE1MjEyNzk4MTE4NTkxMywgLTAuMDcwNzk5MjAxNzI2OTEzNDUsIDAuMjA2OTkzMTAzMDI3MzQzNzUsIDAuMTMwNTQyMzgyNTk3OTIzMjgsIDAuMTEwMTA1NjQ4NjM2ODE3OTMsIC0wLjE1NDExMjkwNTI2MzkwMDc2LCAwLjA4NzI2MjM5OTQ5NDY0Nzk4LCAwLjA1MTE5MTQwODE4NzE1MDk1NSwgLTAuMDE3OTE3OTI5MjE3MjE5MzUzLCAtMC4wNDUzNzExMTUyMDc2NzIxMiwgLTAuMDE5ODg4Njc2NzAyOTc2MjI3LCAtMC4wNjExOTQyNTU5NDgwNjY3MSwgMC4xMzQxNzk4MzA1NTExNDc0NiwgMC4wNDY4NDY2NDMwOTAyNDgxMSwgMC4xMzY5NjA3NzQ2NjAxMTA0NywgMC4xNDg1MzgzMjEyNTY2Mzc1NywgMC4wOTIxNDU1Mzk4MjAxOTQyNCwgMC4xOTk3MDkxOTE5MTgzNzMxLCAtMC4wMTQzNTMzNTYzMjQxMzYyNTcsIDAuMDI4Njg3NTE4MDkwMDA5NjksIC0wLjAxODA2MDIxODU0MjgxNDI1NSwgLTAuMDg1MTM0MzU3MjEzOTc0LCAtMC4wNTQ2MzYzMTgyMzY1ODk0MywgMC4yNzI2NjQyMTkxNDEwMDY0NywgMC4yOTk5ODkzNDI2ODk1MTQxNiwgMC4xNzc2ODk1MDc2MDM2NDUzMl0sIFswLjExNDAyNDU2NDYyMzgzMjcsIC0wLjIzMTA5NDEwNzAzMTgyMjIsIC0wLjA5MTk0NzEyMzQwODMxNzU3LCAwLjAwODEyOTAzMDQ2NjA3OTcxMiwgLTAuMDY1MDM5NTQ1Mjk3NjIyNjgsIC0wLjA0MzQ0NDk3NjIxMDU5NDE4LCAtMC4xNjIxMjk0MzE5NjI5NjY5MiwgMC40NzY5OTAwNDQxMTY5NzM5LCAtMS4zNjA4MTQzMzI5NjIwMzYxLCAtMC4yMTcyMTMxODM2NDE0MzM3MiwgLTAuMTA3NTE4NTk4NDM3MzA5MjcsIDAuMDIzNzYzOTEzNjYxMjQxNTMsIDAuMTgyMzEzOTA0MTY2MjIxNjIsIDAuMDQ3ODQyNjAzMTc2ODMyMiwgMC4xOTU4OTIxODQ5NzI3NjMwNiwgMC4wNjU4OTMxOTU1Njk1MTUyMywgMC4wNjUyMTg0ODU4OTE4MTksIDAuMTY1NjE3MjI3NTU0MzIxMywgMC4wNTg4NzUzMjYwNjcyMDkyNDQsIDAuNDcwOTgwMTY3Mzg4OTE2LCAwLjAxMDA2MTI5OTQyODM0Mzc3MywgLTAuOTU3MzQ0ODg5NjQwODA4MSwgMC4wMjA5Njc2OTk1ODczNDUxMjMsIC0wLjMzNjQ3NTgxOTM0OTI4ODk0LCAwLjIyNDE3ODQ2MzIyMDU5NjMsIC0wLjM0OTM1ODM3OTg0MDg1MDgzLCAwLjAzMzYxOTAxNjQwODkyMDI5LCAwLjE2NzMzODk5NzEyNTYyNTYsIDAuMTEzODE4Nzc5NTg3NzQ1NjcsIDAuMTM3OTI1OTIyODcwNjM2LCAwLjM4NjAyNjM4MjQ0NjI4OTA2LCAtMC4wNDYyMzEzMTA4MTQ2MTkwNjRdLCBbMC43NDA3OTk3ODQ2NjAzMzk0LCAtMS41MTg2NDg2MjQ0MjAxNjYsIC0wLjQ2MTg3MzY1MDU1MDg0MjMsIDAuNDE0MjI0MjA3NDAxMjc1NjMsIDAuODAyNTkwODQ3MDE1MzgwOSwgLTAuMjg2MTU3OTY1NjYwMDk1MiwgLTEuMTA1NjE4MzU3NjU4Mzg2MiwgMS4yMzU5MTQ5NDU2MDI0MTcsIDAuODY5MDI4NDQ5MDU4NTMyNywgLTIuMTc0NTc1ODA1NjY0MDYyNSwgLTEuNDI4OTU3NDYyMzEwNzkxLCAwLjAxMzcxMDU1MDk2Mzg3ODYzMiwgMC45OTEzMDQyMTg3NjkwNzM1LCAwLjc5NjIzNzk0NTU1NjY0MDYsIC0xLjQ0NjU5ODc2ODIzNDI1MywgMS4wNjA4ODUxOTA5NjM3NDUxLCAtMS45NDY0NzI4ODMyMjQ0ODczLCAwLjk1NjY0MDAwNTExMTY5NDMsIC0xLjE4MTcwODgxMjcxMzYyMywgLTAuMTI4MzM2MjA2MDc4NTI5MzYsIC0xLjI3MzQ4Mjc5OTUzMDAyOTMsIDAuMDk1MTg1MzkxNjA0OTAwMzYsIDAuNzc5NjkzNTQzOTEwOTgwMiwgMC4yMDgxNzMyNjAwOTI3MzUzLCAwLjUwOTAxMzc3MjAxMDgwMzIsIDEuNDMyMjEwNjgzODIyNjMxOCwgMC40MTcwNzE4MTkzMDU0MTk5LCAtMC40NDU4NzQ1MTIxOTU1ODcxNiwgMC4xODg4MDc0NzI1ODY2MzE3NywgLTIuMjg0OTUxMjEwMDIxOTcyNywgMC45MzQ4MjQ5NDM1NDI0ODA1LCAwLjQ5NTYzNzIzODAyNTY2NTNdLCBbLTAuMjYwNTM0OTEyMzQ3NzkzNiwgMC4yNzkzOTY1MzM5NjYwNjQ0NSwgMC4wNzY1MDc0MzQyNDg5MjQyNiwgMC4wMjAxNDcyMjg2MTM0OTU4MjcsIC0wLjE4Mjk0MzQ2MzMyNTUwMDUsIDAuMTIwMzIzMzQ1MDY1MTE2ODgsIDAuNTgxMDE2ODk4MTU1MjEyNCwgLTAuMzc2OTk2NTQ2OTgzNzE4ODcsIDAuNTMwOTYzNzc4NDk1Nzg4NiwgLTAuMTMzNTM1MzQwNDI4MzUyMzYsIC0wLjMwMjcxNDEzOTIyMzA5ODc1LCAwLjI4NjY4OTU3OTQ4Njg0NjksIC0wLjEyMjIyMzE4MzUxMjY4NzY4LCAtMC41NDExODMyMzMyNjExMDg0LCAwLjE5ODEyMzM4MDU0MTgwMTQ1LCAwLjEyNDc3MDgyNzU5MTQxOTIyLCAtMC42NzQ4NDk3NDg2MTE0NTAyLCAtMC4xOTU0MjQyNzM2MTAxMTUwNSwgLTAuNDg5NjM1MjI5MTEwNzE3OCwgMC40NTA3MTczODk1ODM1ODc2NSwgMC40NDAyMjY3MzM2ODQ1Mzk4LCAtMC4yOTk5MjYyMjEzNzA2OTcsIC0wLjQxNDIwNjA4NzU4OTI2MzksIDAuNDk2ODY3MTc5ODcwNjA1NDcsIC0wLjExNzIzMDQwNzg5MzY1NzY4LCAwLjA2MTE1OTM3OTc4MDI5MjUxLCAwLjAzODU1MTAyODgxNzg5MjA3NSwgMC4yMjQxODc5NzAxNjE0MzgsIDAuMDY4Mzg3NDQxMzM3MTA4NjEsIC0wLjM2MDMyMDUzODI4MjM5NDQsIC0wLjE2NjczMzQ0MzczNzAzMDAzLCAtMC4wNzIyODA5MjEwNDE5NjU0OF0sIFstMC40NDU3NzcxMTgyMDYwMjQxNywgLTAuMjMyNjcwOTAzMjA1ODcxNTgsIDAuMjMxNTQyNDgyOTcyMTQ1MDgsIC0wLjY3ODkxMDkxMTA4MzIyMTQsIC0yLjMwMTczMzQ5MzgwNDkzMTYsIDAuMTM4NDA2NzIzNzM3NzE2NjcsIDAuMDQyMzY1NjYyNzUzNTgyLCAwLjA2NzQ3NDIzMTEyMzkyNDI2LCAwLjA5NzEwOTk4ODMzMTc5NDc0LCAtMi4zNDY2OTExMzE1OTE3OTcsIDAuMDM4MTY0MTg3MjIyNzE5MTksIDAuMTYyMTY1Mzg4NDY0OTI3NjcsIC0wLjE3MDU3MDI1NDMyNTg2NjcsIC0xLjA1NjA5MzkzMTE5ODEyMDEsIDEuMDExOTUyMTYxNzg4OTQwNCwgLTAuMDYxMDU0Njg3OTQ3MDM0ODM2LCAwLjA5NDIyODYzMjc0ODEyNjk4LCAtMi4xMjcwMTA1ODM4Nzc1NjM1LCAwLjA0MTY5ODk4NDgwMTc2OTI2LCAwLjIzMDExNzcwODQ0NDU5NTM0LCAtMC4wMTE4NjUyMzg2NTkwODM4NDMsIC0wLjAwMjgzMTM3MzM2MzczMzI5MTYsIC0xLjAwNDM1MjgwNzk5ODY1NzIsIDAuMjQ5MTAyNzQxNDc5ODczNjYsIC0wLjI4ODM1MTY1NTAwNjQwODcsIC0wLjI2MTU2MDI5MTA1MTg2NDYsIDAuMjE1ODE4MzE1NzQ0NDAwMDIsIDAuMzIwOTA5MjYxNzAzNDkxMiwgMC4xODI0NDc3MzE0OTQ5MDM1NiwgLTAuMDM3NTExMzQ4NzI0MzY1MjM0LCAwLjE1NzUyODg3NzI1ODMwMDc4LCAtMi41MzEwMTg5NzIzOTY4NTA2XSwgWzAuMjQ5NDcxNzUzODM1Njc4MSwgLTAuMDY2NTgwNzM1MTQ2OTk5MzYsIC0wLjA1NzIzNTA2MjEyMjM0NDk3LCAtMC4wNTIxMjA4NzkyOTI0ODgxLCAwLjA0Mjk0NTQ5NjczNzk1NywgLTAuMTkzMTg2NDc2ODI2NjY3NzksIC0wLjA1MjY5OTE4NTkwNzg0MDczLCAwLjU1NjMxNDExMDc1NTkyMDQsIDAuMjkwODQ4NjcyMzg5OTg0MTMsIDAuMDg2NzgyODcyNjc2ODQ5MzcsIDAuMTk5OTEzMjYzMzIwOTIyODUsIC0wLjA1MjUwOTQxMjE2OTQ1NjQ4LCAwLjAwNDkyNDgzMDA0OTI3NjM1MiwgMC4yMDI4NTIyNDkxNDU1MDc4LCAtMC4wMDU3ODk2NDIyMjIyMjU2NjYsIDAuMjE5MTI1MzYwMjUwNDczMDIsIDAuMTc2MDIxMTg4NDk3NTQzMzMsIC0wLjAwNTI2MDE4MTE0NzYwNTE4MSwgLTAuMjU4NDQzODAyNTk1MTM4NTUsIC0wLjAzMTEzNzY0ODk2OTg4ODY4NywgLTAuMzgwODQzOTM3Mzk3MDAzMiwgMC4xNDM4MDI1NTM0MTUyOTg0NiwgMC4xNTkzMTMyNjE1MDg5NDE2NSwgLTAuMDkwMTE3MzU3NjcxMjYwODMsIDAuNDQ5NDEzNTk3NTgzNzcwNzUsIDAuMTYyODk4NDgwODkyMTgxNCwgMC4wNjQwNzU1ODkxNzk5OTI2OCwgLTAuMDA2Njc5ODA4NzIwOTQ2MzEyLCAtMC4wNzI3MTUzODY3NDgzMTM5LCAwLjA0NjA4NjA1ODAyMDU5MTczNiwgMC40Nzg4MDA3MTQwMTU5NjA3LCAtMC4xMTU4NjAyMDg4Njg5ODA0MV0sIFswLjI2NTkxNDA4MjUyNzE2MDY0LCAtMC4xNzE5MTQ2ODE3OTIyNTkyMiwgLTAuMDE2MTIwMjg4NTIxMDUxNDA3LCAwLjIwODMxOTc4MzIxMDc1NDQsIDAuMjY3NDY3ODI2NjA0ODQzMTQsIC0wLjIzOTIwMDMyMzgyMDExNDE0LCAwLjAxMDY2ODU1NjIwNTkyODMyNiwgLTAuMDI0OTI0MjQ4NDU2OTU0OTU2LCAtMC4xNjA2MDMwMTY2MTQ5MTM5NCwgMC4xNTA2NDYwMDExMDA1NDAxNiwgLTAuMDExNjU3Mjc3MTIyMTM5OTMsIC0wLjA0MjE5NTIxNTgyMTI2NjE3NCwgMC4wNTE5NjkzNDE5MzM3MjcyNjQsIDAuMDcyNTg2NDkxNzAzOTg3MTIsIDAuMDgxMTc3MDExMTMyMjQwMywgLTAuMDA0MDg0OTc1OTI0MzQyODcxLCAtMC42MDQ3OTMxMzEzNTE0NzEsIDAuMTc4OTk1NTE5ODc2NDgwMSwgLTAuMzE2NzYxNDA0Mjc1ODk0MTcsIC0wLjA4NzcyNzMzODA3NTYzNzgyLCAtMC4xMTMxOTQ0OTU0Mzk1Mjk0MiwgMC4wMzQzMTE2ODE5ODU4NTUxLCAwLjA4NTYzNTQyMzY2MDI3ODMyLCAtMC4yNzQzNTIyODIyODU2OTAzLCAtMC4xMDEzNDYyMDk2NDUyNzEzLCAwLjA2OTE3NTU0ODg1MTQ5MDAyLCAtMC4xMTgwNjA1MzY2ODI2MDU3NCwgMC4wMzYzMjg0ODcwOTgyMTcwMSwgLTAuMTM0NTAzNTQzMzc2OTIyNiwgLTAuMDUzMTA4MzkwNDIwNjc1MjgsIC0wLjE5NjcyMDgyMzY0NTU5MTc0LCAwLjI3Mzk3NzEzMDY1MTQ3NF0sIFswLjE1NjE4MzU4NTUyNDU1OTAyLCAwLjE1OTc5OTg3MzgyODg4Nzk0LCAwLjAzNjE2MzU1MzU5NTU0MjkxLCAwLjAyMDkyMDU2MzQ4OTE5ODY4NSwgLTAuMDExMjY4NzU5MTQ2MzMyNzQsIDAuMDQyOTc1OTk1Njg5NjMwNTEsIDAuMjQ2MTM5NTI2MzY3MTg3NSwgLTAuMDczOTYyNjY2MDk0MzAzMTMsIC0wLjE2MTM5OTAzNjY0NTg4OTI4LCAwLjIwNTIzODU5NTYwNDg5NjU1LCAwLjI0MDIxMzg4NTkwMzM1ODQ2LCAtMC4wOTUwNzMwMTQ0OTc3NTY5NiwgMC4xMTQ0MzY1NjY4Mjk2ODE0LCAwLjA5ODQ0OTExODQzNTM4Mjg0LCAwLjEwNjI3NjY2MTE1NzYwODAzLCAwLjE3NzA1NDg1MjI0NzIzODE2LCAwLjI2OTEyNTQwMTk3MzcyNDM3LCAwLjA1MzAwMjk1NzI1NDY0ODIxLCAtMC4wOTgyMjg2NjMyMDYxMDA0NiwgMC4xMDQ2NzYzOTU2NTQ2NzgzNCwgMC4wMjUyNjc1NTYzMDk3MDAwMTIsIDAuMTcyMzU5MzQ3MzQzNDQ0ODIsIDAuMDYzNzI0ODE1ODQ1NDg5NSwgLTAuMDYzMjYwOTk0ODUxNTg5MiwgLTAuMDIwNjMxNzIxMjQzMjYyMjksIDAuMDkwNTg1NTk2ODU5NDU1MTEsIC0wLjE1Nzk2ODcxNDgzMzI1OTU4LCAwLjA1MjgyNDU2ODAwMzQxNjA2LCAtMC4wNjUxMDE1NTY0Nzk5MzA4OCwgMC4yNjMzMjQ0NjkzMjc5MjY2NCwgLTAuMDA5NTQzMjAzNzQ4NzYyNjA4LCAwLjA2OTEwOTkzOTAzODc1MzUxXSwgWy0wLjM5MzU4MTAzMjc1Mjk5MDcsIDAuMjQzMzcwNjgyMDAxMTEzOSwgMC4yMTU1MzMwNDc5MTQ1MDUsIC0wLjM2NjYwMzQwNDI4MzUyMzU2LCAtMC43MDI1NzI1ODQxNTIyMjE3LCAwLjQ5MTY2MzgxMzU5MTAwMzQsIC0wLjA3OTYwNDY0ODA1MzY0NjA5LCAwLjQxNDUyMTE4NzU0Mzg2OSwgMC4yNDU0NDA2MzIxMDQ4NzM2NiwgLTAuODA4NTg3MzEyNjk4MzY0MywgMC4wNDc2OTc5MjQwNzc1MTA4MzQsIDAuNzI2MDUwMzc2ODkyMDg5OCwgLTAuMTQ0NTQwODQ2MzQ3ODA4ODQsIC0wLjQ4OTc3ODkzNTkwOTI3MTI0LCAwLjM0MjMzMDk5MjIyMTgzMjMsIDAuMTg0NjA5NDEzMTQ2OTcyNjYsIC0wLjI5NzM4Njc2NTQ4MDA0MTUsIC0wLjM2MjMwNzkwNjE1MDgxNzg3LCAtMC40OTU5NTg4NjQ2ODg4NzMzLCAwLjI1MzU4NTEyOTk3NjI3MjYsIC0wLjIwNjU3MzEyODcwMDI1NjM1LCAtMC4xMzY5NTczMTc1OTA3MTM1LCAtMC4zNTg0OTU5NTA2OTg4NTI1NCwgMC40NjUyOTQxMjI2OTU5MjI4NSwgLTAuMjU4MjE0MTE2MDk2NDk2NiwgMC4wNzM5NTMwNjk3NDY0OTQzLCAwLjU2Nzc3MTE5NjM2NTM1NjQsIDAuNDA3MDY1NjAwMTU2Nzg0MDYsIDAuMjMwMTkzNzA0MzY2NjgzOTYsIC0wLjAyMDM0OTE5ODk1MjMxNzIzOCwgMC42MTAyNTU3Nzc4MzU4NDYsIC0wLjIwNzI4MzM5MjU0ODU2MTFdLCBbMC4xMzQ2ODkzNDU5NTU4NDg3LCAtMC4xMTI3NDExNTc0MTI1Mjg5OSwgLTAuMTg5Nzk4NjIzMzIzNDQwNTUsIDAuMDE0OTg1NzAxMDY5MjM1ODAyLCAwLjE0MTQwMDEyODYwMjk4MTU3LCAtMC4wNzg5ODUzNDgzNDM4NDkxOCwgLTAuMzE3MDAwNTY3OTEzMDU1NCwgLTAuMTI4NTEyMzY3NjA2MTYzMDIsIC0wLjA1MTg2OTQ3NDM1MTQwNjEsIC0wLjA0MTA4OTQyMzAwMDgxMjUzLCAtMC41MjE5Mjk1NjIwOTE4Mjc0LCAtMC4wMDY1OTM1ODUwMTQzNDMyNjIsIC0wLjA2MzUzMzI4Mzc3MDA4NDM4LCAwLjA3MjQ0OTA1ODI5NDI5NjI2LCAwLjAwOTk0Nzc2MjgyNDU5NDk3NSwgLTAuMDY1MDgzNjg5OTg3NjU5NDUsIC0wLjg5MjE5MDY5NDgwODk2LCAwLjE0MTIxNTI5NDU5OTUzMzA4LCAtMC43NzU2ODI1Njg1NTAxMDk5LCAtMC4xMzMxNjU3NDY5MjcyNjEzNSwgLTAuMjEyNzIzNTIzMzc4MzcyMiwgMC4xMTg5MDQyNjI3ODExNDMxOSwgMC4xNDQ5Mjk3MzY4NTI2NDU4NywgLTAuMDMwOTE4NjM5MTUzMjQyMTEsIDAuMDY5NjU3NDMwMDUyNzU3MjYsIC0wLjA1OTAzNzQ5MTY3OTE5MTU5LCAwLjA5NTQyODQyOTU0Mzk3MjAyLCAtMC4xNDUwOTYwNjM2MTM4OTE2LCAtMC4xMDM2NTU0MTI3OTMxNTk0OCwgLTEuMDU1MzM4MzgyNzIwOTQ3MywgMC4wNTExODQ3MTc1NjU3NzQ5MiwgLTAuMDg1NTM1MzEwMjA4Nzk3NDVdLCBbMC4wODA1MDA2OTIxMjkxMzUxMywgLTAuMDA3OTg4NTYyODA3NDQwNzU4LCAtMC4wMTMzMDk5Mjk1MTk4OTE3MzksIC0wLjAxMjUzMTk2NDEwODM0Nzg5MywgLTAuMDA5ODcyMDg1NDE0ODI2ODcsIC0wLjAwMDExMDcxNDY5NjM0NzcxMzQ3LCAtMC4wMTk4NzE4MzY1MjgxODIwMywgMC4wMDE0ODU3MzU3NjAwNzAzODM1LCAtMC4wMTcxMzMyMDI0MDM3ODM3OTgsIDAuMDE2OTgyNDY5NzA3NzI3NDMyLCAtMC4xMjQ3ODkxODU4MjIwMTAwNCwgMC4wMDQ0ODMxNTA3ODM5MjYyNDg2LCAwLjAwNjMwNjEyNTc4MjQzMDE3MiwgMC4wNDQ2MzE4NTc0MjQ5NzQ0NCwgMC4wMTc4MzM5ODE2NjI5ODg2NjMsIDAuMDAxMzk4NDQ0NjQxMzgxNTAyMiwgLTAuMjU3OTcwODA5OTM2NTIzNDQsIC0wLjAwMzkwMjk2MDU2ODY2NjQ1OCwgLTAuMDMwMDM5ODgwNDI0NzM3OTMsIDAuMDc0MDk2MjAyODUwMzQxOCwgMC4wOTU2MzE1OTE5NzU2ODg5MywgLTAuMDE1Mzc0NjY2MDc5ODc4ODA3LCAtMC4wNjU2NDc0Njc5NzA4NDgwOCwgLTAuMDI3NTU3OTY1MzY4MDMyNDU1LCAwLjA5NDAyMTQ5OTE1Njk1MTksIDAuMDg1NzQwMzcyNTM4NTY2NTksIC0wLjA0NTgzNDMwMjkwMjIyMTY4LCAwLjAxNDEyOTQwNDkwOTkwODc3MiwgMC4xMTY5Mjg0NzMxMTQ5NjczNSwgLTAuMTgxOTkyNDcxMjE4MTA5MTMsIDAuMDEzODcwODE0ODE1MTYzNjEyLCAwLjAwOTkyNDk4OTE5MzY3NzkwMl0sIFswLjA2ODAxNzE4NDczNDM0NDQ4LCAwLjAwMDk5MjQxNDA3NTg4MTI0MjgsIC0wLjAxNjA3Mzk1ODk0ODI1NDU4NSwgMC4wNDY1NjMyNjAyNTcyNDQxMSwgLTAuMDI0OTE1MDc0OTI5NTk0OTk0LCAwLjAxNjQ3NzE2Mzg4MTA2MzQ2LCAwLjAwMzA3NzgyNDEzNDM3OTYyNTMsIC0wLjAwMjM3MjI1MDQyNjU2MDY0MDMsIC0wLjAwMzU5MTQzMDM3MzQ4OTg1NjcsIDAuMDE3MDcyMDg5MDE2NDM3NTMsIC0wLjA3OTEyOTk4NjQ2NDk3NzI2LCAwLjA1NTI1OTQwNjU2NjYxOTg3LCAwLjA3OTM2MTYwMjY2Mzk5Mzg0LCAtMC4wMzgyNzA1MjU2MzQyODg3OSwgMC4wMDE1NDU3MDY5OTY2OTQyMDcyLCAtMC4wMjIwMTUwMDE2MjQ4MjI2MTcsIC0wLjAzOTg2NzE1MTUyODU5Njg4LCAtMC4wMDM1OTQ5ODE5NzIxMjgxNTMsIC0wLjAzMTY2MDg5OTUxOTkyMDM1LCAtMC4wOTU2MTA4NzkzNjE2Mjk0OSwgMC4wMDE5NDQ1NzU0NTg3NjUwMywgMC4wMzAwMzQzMDczOTA0NTE0MywgLTAuMDg0NTg3MzI4MTM1OTY3MjUsIDAuMTY0ODc5NTYwNDcwNTgxMDUsIDAuMDExMDM4NTI4NzU1MzA3MTk4LCAwLjAxODA4MDU4Mjg0MjIzMDc5NywgLTAuMDU3MTc5ODc1NjcxODYzNTU2LCAtMC4wMDI0NjMzOTk0MzI1OTk1NDQ1LCAtMC4wNjM4Njc0Nzk1NjI3NTk0LCAwLjA0NjYyOTg2ODQ0Nzc4MDYxLCAwLjAzNDA1MDk0MTQ2NzI4NTE1NiwgLTAuMDA2NzY5ODQwNjA1NTU2OTY1XSwgWy0wLjExNDA2MDA1OTE4OTc5NjQ1LCAtMC4wMzMyMTIwMzIxNjkxMDM2MiwgMC4wODUyNTg5MzA5MjE1NTQ1NywgLTAuMDQyODM4Nzk2OTczMjI4NDU1LCAtMC4yMjE2NTk5ODgxNjQ5MDE3MywgLTAuMDQ3NzU3MDIyMDgyODA1NjM0LCAtMC4wMjE2NzA3NTEyNzM2MzIwNSwgLTAuMDMwNzA4NTg0OTM0NDczMDM4LCAtMC4wNTk1Mjc2NzY1NTI1MzQxLCAtMC4wMDkyNzIxNjAwMDg1NDk2OSwgLTAuMDU0ODk1NDkwNDA3OTQzNzI2LCAtMC4wMjcyNTk2OTQ0MTIzNTA2NTUsIDAuMDAyOTkyODQyMTEzNTk5MTgxLCAtMC4wMjg5NzIyNDk0NzgxMDE3MywgMC4wNjM5NTA3MTc0NDkxODgyMywgLTAuMDg5ODM5OTM1MzAyNzM0MzgsIDAuMDI0ODYwODQ3NzQxMzY1NDMzLCAtMC4xNjY5Mjk5NjAyNTA4NTQ1LCAwLjAzMTA5MTEzNjg1Nzg2NzI0LCAwLjExOTcyODQwMTMwMzI5MTMyLCAtMC4wNTQ1OTYwMjE3NzE0MzA5NywgLTAuMDQyMTQwNTE3MzgzODEzODYsIC0wLjA0MDU3NzIwMzAzNTM1NDYxNCwgLTAuMDI3MDkxMzQ4NTQzNzYzMTYsIC0wLjA4OTMxMDU0MTc0OTAwMDU1LCAtMC4wNDcyMDQxMTA3NzE0MTc2MiwgLTAuMjAyODYwNzEzMDA1MDY1OTIsIDAuMDc4ODgwNTYzMzc4MzM0MDUsIDAuMDcxMTE1OTExMDA2OTI3NDksIC0wLjI2MjE1OTc2NDc2NjY5MzEsIDAuMTgxODkzNjQ2NzE3MDcxNTMsIC0wLjAxMDkyMTUzMDQyNTU0ODU1M10sIFswLjExMDIzMDk0NTA1MDcxNjQsIDAuMzI5OTg2ODcwMjg4ODQ4OSwgLTAuNjUzNjI1OTY1MTE4NDA4MiwgMC40NjUwMjU3MjI5ODA0OTkyNywgMC40NTU5MTI5MTc4NTI0MDE3MywgLTAuMzc3NTkyOTIxMjU3MDE5MDQsIC0wLjA3NDMxMzg0OTIxMDczOTE0LCAtMC42MzgwOTY0NTE3NTkzMzg0LCAtMC45MDE2NDQ5NDUxNDQ2NTMzLCAwLjkwODkwNDQzMzI1MDQyNzIsIDAuMjA3NzkyMjUyMzAyMTY5OCwgLTAuMDU3MDMzODcwMzY5MTk1OTQsIC0wLjQ3OTA5ODAyMTk4NDEwMDM0LCAwLjQ3NDkzMDM3NTgxNDQzNzg3LCAtMC4xODgyMjQzMTU2NDMzMTA1NSwgLTAuMDUwNzkzMDEwNzQxNDcyMjQ0LCAwLjA5MjAxMDk2NzQzMzQ1MjYsIDAuMzEwODEzMjE4MzU1MTc4ODMsIC0wLjEwNjc2NzY1NDQxODk0NTMxLCAtMC40NzcxNDk4NDQxNjk2MTY3LCAtMC4yNzM0MDY5ODI0MjE4NzUsIDAuMTYwMzE0OTE3NTY0MzkyMSwgMC4xMzY4Mzg2NzQ1NDUyODgwOSwgLTAuMjI2NjA1MDEzMDEyODg2MDUsIDAuMjYxOTcwMjIxOTk2MzA3NCwgLTAuMDMwODA0MzUwOTcyMTc1NTk4LCAtMC42OTYwNjIyMDcyMjE5ODQ5LCAwLjEzNTk2NjA3NzQ0NjkzNzU2LCAtMC4yMDM4ODgxNzc4NzE3MDQxLCAtMC4xNTUyMDE3MDMzMTAwMTI4MiwgLTEuMzk1MzUxNTI5MTIxMzk5LCAwLjgzNDU1NTMyNzg5MjMwMzVdLCBbMC40Mzc0MjA1NDcwMDg1MTQ0LCAwLjQ3MTk1NTk1NTAyODUzMzk0LCAtMC42NDcyODQyNjkzMzI4ODU3LCAwLjgwMzM1MjU5NDM3NTYxMDQsIDEuMDgxNzQ3MjkzNDcyMjksIC0wLjUxNTAzMjU4OTQzNTU3NzQsIC0wLjAwMzY3NjQ2NzEwOTQ3MTU1OTUsIC0wLjM3NjMxNDEwMzYwMzM2MzA0LCAtMC43NjQ5OTIyMzcwOTEwNjQ1LCAxLjExOTY3ODg1NDk0MjMyMTgsIDAuMjcwNTk5NzgyNDY2ODg4NCwgLTAuMzI0ODAwNDMxNzI4MzYzMDQsIC0wLjYzMDU3NTg5NTMwOTQ0ODIsIDAuNjk0MDA5MTg0ODM3MzQxMywgLTAuMTQ3MTA3NDgxOTU2NDgxOTMsIC0wLjA3MzY0Njk4NDk5NDQxMTQ3LCAtMC4wMTcwODEzNTE5NTA3NjQ2NTYsIDAuNTI3NDA1NzM4ODMwNTY2NCwgLTAuMTkzNzI1ODU0MTU4NDAxNSwgLTAuNjgyMjg5NDgxMTYzMDI0OSwgMC4wNjQzMjU1MzM4MDcyNzc2OCwgMC4zNzk4ODM4ODUzODM2MDU5NiwgMC40MDU0NjQyMDIxNjU2MDM2NCwgLTAuNTk4MTgzMzkzNDc4MzkzNiwgMC42ODQzNTI5OTM5NjUxNDg5LCAtMC4wMDk1NzIxNzYyNjI3MzYzMiwgLTAuNDQwMTg3NzIyNDQ0NTM0MywgMC4xMzU1OTE5MzkwOTE2ODI0MywgLTAuMjk5OTYyNjk5NDEzMjk5NTYsIC0wLjA5MTE2OTc4MTk4Mjg5ODcxLCAtMC44NzEzMjI2MzE4MzU5Mzc1LCAxLjAwNDk3MjEwMDI1Nzg3MzVdLCBbLTAuMTY3MDgzMDg0NTgzMjgyNDcsIDAuMTk0ODcwMjYzMzM4MDg5LCAtMC4wMDgzMDM5MjkxMjAzMDIyLCAwLjE3MzIyMTAzNjc5MTgwMTQ1LCAwLjM1OTY2MjIwNDk4MDg1MDIsIC0wLjAyNDUwOTg5NTU5MjkyNzkzMywgMC4wMjkyNTQ4NjExNzYwMTM5NDcsIC0wLjg2Mjg3Njg5MjA4OTg0MzgsIC0xLjE3OTc0Njk4NTQzNTQ4NTgsIDAuNTQwNDg1NTAxMjg5MzY3NywgMC4xMTI2MDE0ODg4Mjg2NTkwNiwgMC4wMTAyODA2ODU0OTkzMTA0OTMsIC0wLjAyODk4NzY0OTgyODE5NTU3MiwgMC4yNjg0NTY2OTc0NjM5ODkyNiwgMC4xMjYwNzkzNTA3MDk5MTUxNiwgLTAuMjc1NzU0NTExMzU2MzUzNzYsIC0wLjA4NTE1MjQ2OTU3NTQwNTEyLCAwLjEwNzUxOTYyNjYxNzQzMTY0LCAtMC4zMTU2Mzg4NDAxOTg1MTY4NSwgLTAuMTUzNTk3ODMxNzI2MDc0MjIsIC0wLjA4NTQ0MDc0NzQzOTg2MTMsIC0wLjE1NDIwNDk2NDYzNzc1NjM1LCAtMC4zMDUzNDQ0OTIxOTcwMzY3NCwgLTAuMjE1Mjk1OTQwNjM3NTg4NSwgLTAuMDIzNDg5OTg5MzQwMzA1MzMsIDAuMTI5MDk4Njk4NDk2ODE4NTQsIC0wLjk5OTkxNTM2MTQwNDQxOSwgMC4xODk2ODQ2MTQ1MzkxNDY0MiwgMC4xNTU0ODUxMjMzOTU5MTk4LCAwLjA3NTU5NTczNjUwMzYwMTA3LCAtMS42MDU0MDkwMjYxNDU5MzUsIDAuNDQ3OTkxNzg4Mzg3Mjk4Nl0sIFswLjAwMjM1OTk5OTM0Mzc1Mjg2MSwgLTAuMDkzNDMxOTE5ODEzMTU2MTMsIDAuMDAwODgzODY0NzA0NTE5NTEwMywgMC4wMTc5MzI3MjQyMDc2Mzk2OTQsIC0wLjAxMzU0NzQyNjA4OTY0NDQzMiwgLTAuNjMwMDk3Mzg5MjIxMTkxNCwgMC4xNzAzNTIyMjA1MzUyNzgzMiwgMC4xNzg3NTUzNzI3NjI2ODAwNSwgLTEuNTI1NDk2MDA2MDExOTYzLCAtMC4wMjcyMjMwMzU2OTMxNjg2NCwgMC4xMDc2MTg1MTgxNzM2OTQ2MSwgMC4wODc0MjUxMjc2MjU0NjU0LCAtMC4xNzkxMzg2MDA4MjYyNjM0MywgLTAuMDQ4MTIyMzgzNjU0MTE3NTg0LCAtMC4wMTk1OTg4OTc1NDY1Mjk3NywgMC4zMDgzOTc3MTAzMjMzMzM3NCwgLTAuNDk1NTA4MTA0NTYyNzU5NCwgLTAuMDMzOTUxMDkyNTExNDE1NDgsIC0wLjQyMTY5ODM2MTYzNTIwODEzLCAtMC4wMDc0OTMxNTc4NzEwNjc1MjQsIDAuMDIxODE4NTIwNTAxMjU1OTksIC0wLjMyNTMwMjMwMjgzNzM3MTgsIC0wLjEyMjA2MDAyMzI0ODE5NTY1LCAtMC4xNTg5MTMxMzU1Mjg1NjQ0NSwgMC4xNzgxMDkyNTg0MTMzMTQ4MiwgLTAuMTQ5MDE0NzQxMTgyMzI3MjcsIC0wLjA0OTkyMzI3MDk0MDc4MDY0LCAtMC4wNTcwNzA1MjM1MDA0NDI1MDUsIC0wLjAzODY3MjgxNjAwODMyOTM5LCAwLjI2ODk5MzcwNTUxMTA5MzE0LCAtMC4wNDE4MzgyNjU5NTU0NDgxNSwgLTAuMDYzOTQzODg1MjY2NzgwODVdLCBbLTAuMDkyMDkyNzAwMzAyNjAwODYsIDAuMDc4MDMxNDM1NjA4ODYzODMsIDAuMzA0NDU4NTI4NzU3MDk1MzQsIC0wLjIwNjUwODQ1NzY2MDY3NTA1LCAtMC4zNDk4NzE5MzM0NjAyMzU2LCAwLjY2MjE3NDk0MDEwOTI1MjksIDAuMjAyMTg5MTQ3NDcyMzgxNiwgLTAuMDU4NzcxMTI1OTcyMjcwOTY2LCAtMC4wMzQwOTc5MjQ4Mjg1MjkzNiwgLTAuMzc1MTM1MDY0MTI1MDYxMDQsIDAuNTIxOTk0NTkwNzU5Mjc3MywgMC4yMjE2NTUwNzA3ODE3MDc3NiwgLTAuMDkzNzc5MzE4MDM0NjQ4OSwgLTAuMzM3MDYxMTM2OTYwOTgzMywgLTAuMjgwMDg1MjY1NjM2NDQ0MSwgMC4xMDEzODcyMjUwOTE0NTczNywgMC41NDMzMjQyMzIxMDE0NDA0LCAtMS4xNTAzNDQ3Mjk0MjM1MjMsIC0wLjg1MzE5NzY5MzgyNDc2ODEsIDAuMjE5NTYyOTc3NTUyNDEzOTQsIDAuMDIyNTQzMzU1ODIyNTYzMTcsIC0wLjAyMDA0MzQ5MjMxNzE5OTcwNywgLTAuMzkyMzIyNDgwNjc4NTU4MzUsIDAuMjQ2NjQyNTI5OTY0NDQ3MDIsIC0wLjA0MjAzOTExMTI1NjU5OTQyNiwgLTAuNDIwMDQ1NTI0ODM1NTg2NTUsIDAuMDc2MDg2Njk5OTYyNjE1OTcsIDAuNDkzNDc4MjM4NTgyNjExMSwgLTAuMDk2NjYwNDc5OTAzMjIxMTMsIDAuODEyMDgxMjc3MzcwNDUyOSwgMC4xMzIzODAzNjYzMjUzNzg0MiwgLTAuNDY5MjY1OTk3NDA5ODIwNTZdLCBbLTAuMTc2ODg0MTc0MzQ2OTIzODMsIC0wLjQxNzA1Nzg3MTgxODU0MjUsIDAuMDg5NzY0OTA3OTU2MTIzMzUsIC0wLjAzMzU5NjQwMzg5NjgwODYyNCwgLTAuMDUzMDQyOTU5NDIxODczMDksIC0wLjM5NTc2NzgwNzk2MDUxMDI1LCAwLjAxMjA3Mzc1MjQ3MDMxNDUwMywgMC4wODc0NTI1MzA4NjA5MDA4OCwgMC4xMzE5MTIwMjI4MjkwNTU4LCAtMC4wMDI0ODEyODE3NTczNTQ3MzYzLCAwLjAzOTY3MjMxODg0NTk4NzMyLCAwLjIyMzg4MzQ2NDkzMjQ0MTcsIC0wLjMyODA4Mzk5MjAwNDM5NDUzLCAtMC4yNTY2MzEyNTUxNDk4NDEzLCAwLjIwNzMxNTYwODg1OTA2MjIsIDAuMDU3NTgwNDgyMjE0Njg5MjU1LCAtMC4yMTEyMDkxMzMyNjc0MDI2NSwgLTAuOTg2NDMyMDc1NTAwNDg4MywgMC4yNDcyNzU3OTk1MTI4NjMxNiwgLTAuMDkzNzM2MzIwNzM0MDI0MDUsIDAuMjA5NjAzNjA3NjU0NTcxNTMsIC0wLjI3NTcyNjQ5NzE3MzMwOTMsIC0wLjEzNzMxNzU1MzE2MjU3NDc3LCAwLjMwNjQ3NDIwODgzMTc4NzEsIC0wLjA5NDUyNDg4MjczMzgyMTg3LCAtMC40Mzc5NjcwNjE5OTY0NTk5NiwgMC4xODg4MDE0ODIzMTk4MzE4NSwgLTAuNDM5MDI5ODEyODEyODA1MiwgLTAuMDQ5MDg4MjI0NzY4NjM4NjEsIC0wLjE4MjU4ODY1MTc3NjMxMzc4LCAtMC4wMTM4ODMwMDU4Mjc2NjUzMjksIC0wLjA3NDY2MDQ3MjU3MTg0OTgyXSwgWzAuMDE3NDAwOTc0NDA3NzkyMDksIC0wLjI2Nzg3NTUyMjM3NTEwNjgsIC0wLjEyNjEwNjAzODY4OTYxMzM0LCAtMC4wMDA2NzE5NzM0NTE5NzIwMDc4LCAtMC4wNjI1NDE0NTUwMzA0NDEyOCwgMC4xNzEyMzkxMzc2NDk1MzYxMywgLTAuMTQ2Mjg4MDA3NDk3Nzg3NDgsIC0wLjAzMjI0NDY5MzQ4Nzg4MjYxNCwgMC4yMDI1ODg5OTAzMzA2OTYxLCAtMC4xMjIyNTg2MzMzNzUxNjc4NSwgMC4xMjk0MDQ1NDQ4MzAzMjIyNywgMC4xNTA4MTcxMjYwMzU2OTAzLCAtMC4xOTY5MTM5MTI4OTIzNDE2LCAtMC4yMzc5NzEyNzYwNDQ4NDU1OCwgLTAuMjE1MDIwNjU2NTg1NjkzMzYsIC0wLjA5NDU4NTYyNzMxNzQyODU5LCAwLjE1MDEyOTkxNDI4Mzc1MjQ0LCAwLjM1NTk4NzEzMTU5NTYxMTYsIC0wLjAxNTk3OTE3NDUyNDU0NTY3LCAwLjI4NzgzMDY1MDgwNjQyNywgMC4yNTk5NjIyMDExMTg0NjkyNCwgLTAuMDE0Nzg2NTM3NzM2NjU0MjgyLCAtMC4xNjYzMzkxMTQzMDgzNTcyNCwgMC4xNDc2MTg2OTYwOTM1NTkyNywgLTAuMDA4NjYxMzMwNjc3NTY4OTEzLCAwLjA1MjkyODUxNDc3ODYxNDA0NCwgLTAuMDM3OTUxNTgxMTgwMDk1NjcsIC0wLjA1MTkwMDAxNDI4MTI3Mjg5LCAwLjIxMTkwMjI2MDc4MDMzNDQ3LCAtMC4xNDQ2MzA3MTUyNTA5Njg5MywgLTAuMDk3NTA3ODM0NDM0NTA5MjgsIC0wLjEzMjY0NzIxNjMyMDAzNzg0XSwgWzAuMTg0MzY3NDAzMzg4MDIzMzgsIDAuNDU2MTAxNjI2MTU3NzYwNiwgMC40MDEyOTE5MDY4MzM2NDg3LCAtMC4wMzkzMTUwNTk3ODEwNzQ1MjQsIDAuMTEzMTQwNjg3MzQ2NDU4NDQsIDAuMDgwNjA1MzIwNjMyNDU3NzMsIDAuMjA0ODI2MzI1MTc4MTQ2MzYsIC0wLjE1MjE4NzUyNjIyNjA0MzcsIDAuMjE3MjQzNTgyMDEwMjY5MTcsIDAuMDE0MjQ5MDgwNzkyMDY5NDM1LCAtMC4yMjg0MTAyMTQxODU3MTQ3MiwgLTAuMjI5MjgzMjQzNDE3NzM5ODcsIDAuNTEzMTAzNzIzNTI2MDAxLCAwLjE3NTgzMjUzOTc5NjgyOTIyLCAwLjIxMjY2MjA3MDk4OTYwODc2LCAwLjIxMDkyNTU0OTI2ODcyMjUzLCAtMC4xOTIwMDc0ODIwNTE4NDkzNywgLTAuMDk5OTI5OTU4NTgxOTI0NDQsIC0wLjEyMjk1MzgxNzI0ODM0NDQyLCAwLjE4MTczMTM0MzI2OTM0ODE0LCAwLjIyMTkxMTU0OTU2ODE3NjI3LCAwLjE1MDEyNDM3MTA1MTc4ODMzLCAwLjEyMzk3ODE5NzU3NDYxNTQ4LCAwLjI3NzAzMjI4NTkyODcyNjIsIC0wLjIwOTQ5OTczMTY1OTg4OTIyLCAwLjE5NDM5MjM4MzA5ODYwMjMsIDAuMzA5MzMyOTY2ODA0NTA0NCwgMC4yMzMyODgwNzk1MDAxOTgzNiwgMC4wMjEyNTU2MTYwOTg2NDIzNSwgMC4wMzkzNDAyODc0NDY5NzU3MSwgMC4yMjgwMTk5MjI5NzE3MjU0NiwgLTAuMDk0MDI3NDg5NDIzNzUxODNdLCBbLTAuMTMyNDk3Mjk1NzM3MjY2NTQsIC0wLjMyMDgzNjk5MTA3MTcwMTA1LCAwLjI1NjkyMzUyNjUyNTQ5NzQ0LCAtMC4zMjk2MzgxMjM1MTIyNjgwNywgMC40MTQxNjk4NDc5NjUyNDA1LCAwLjE4NDA1OTA4MzQ2MTc2MTQ3LCAwLjE2MjMyNTc2OTY2Mjg1NzA2LCAtMC42NjM0ODA1MjAyNDg0MTMxLCAtMC40NzQwNDYxNzA3MTE1MTczMywgMC42MTc2ODc1MjMzNjUwMjA4LCAtMC4wNzg1MTAzNzM4MzA3OTUyOSwgMC4wNDY4NjUwMTI0OTY3MDk4MjQsIDAuNjA3MDAxMTI1ODEyNTMwNSwgMC4wNDAyMjQwMjMxNjMzMTg2MzQsIC0wLjAxMzUxNDk3MzIyMzIwOTM4MSwgLTAuMzg5OTc3Mzk1NTM0NTE1NCwgMC4wOTg5MTM5ODI1MTA1NjY3MSwgMC4zMTI0NjIwOTE0NDU5MjI4NSwgMC4yMzg4MjQ2NTA2NDUyNTYwNCwgMC4xODA1MzEyMDM3NDY3OTU2NSwgLTAuMTc3NDA4Njk1MjIwOTQ3MjcsIC0wLjExMjc1Mzg3NTU1MzYwNzk0LCAtMC4wMjE1OTAzNTIwNTg0MTA2NDUsIC0wLjIwNzEzMTIwNjk4OTI4ODMzLCAtMC4zNDMwNzc2ODk0MDkyNTYsIC0wLjAwNDE1MjA1NzY5MjQwODU2MiwgLTAuMTE4MTgxMzMyOTQ1ODIzNjcsIDAuMjE4MDkxMjc5MjY4MjY0NzcsIDAuMTcwMjUxMjM1MzY1ODY3NjEsIC0wLjAwODgxNTk3NDkyODQzODY2MywgLTEuNzA4NTU4MDgyNTgwNTY2NCwgMC4zNTY2MTY1NTY2NDQ0Mzk3XSwgWzAuMDU2NDcwMjY3NDc0NjUxMzQsIDAuMzQxMjk0NTg2NjU4NDc3OCwgMC4wMjY1MTgyNzAzNzMzNDQ0MiwgMC4xMjE1NDE0ODUxOTAzOTE1NCwgLTAuMTQxNzM1OTU2MDcyODA3MywgMC4xNjg2NzE4NzYxOTIwOTI5LCAtMC4wNzAxODM5ODQ5MzUyODM2NiwgMC44MTUxMTEyNzk0ODc2MDk5LCAwLjc0NjQ4MDQ2NDkzNTMwMjcsIC0wLjA5NzI2NTMwMzEzNDkxODIxLCAwLjE4MDQ4MTc3NjU5NTExNTY2LCAwLjA5OTkyNDE0NzEyOTA1ODg0LCAtMC4yNDU5MzIzODUzMjU0MzE4MiwgLTAuMDkyNzgzNDIxMjc3OTk5ODgsIDAuMTM0NTM0NjQyMTAwMzM0MTcsIDAuMTMwMTU1NTQ4NDUzMzMxLCAwLjEwMzExOTc5ODAwNDYyNzIzLCAtMC4yMzUwMDI3NTYxMTg3NzQ0MSwgLTAuMDU5MTU4MjM1Nzg4MzQ1MzQsIDAuMDI5MzY4MzQyODMxNzMwODQzLCAwLjEzNTg0MTk2NTY3NTM1NCwgLTAuMDcyNzcwNjYyNjA1NzYyNDgsIDAuMDM4MjYyMzY3MjQ4NTM1MTU2LCAwLjExNzQyNDkzNTEwMjQ2Mjc3LCAwLjAzNTQ2OTM5NzkwMjQ4ODcxLCAtMC4wODQyMzI1ODM2NDIwMDU5MiwgMC4xMTczMzg3NjE2ODcyNzg3NSwgMC4wNzMzMTU0MzQxNTc4NDgzNiwgMC4xOTA3OTE4NDUzMjE2NTUyNywgMC4wMjEwNjExODk0NzI2NzUzMjMsIDAuMTA3NTE0NTQ1MzIxNDY0NTQsIC0wLjA5MjI5MzQ4NTk5OTEwNzM2XSwgWzAuMTQxNzU0MzI5MjA0NTU5MzMsIDAuMTMyMzYwMzk4NzY5Mzc4NjYsIDAuNDc0MTA4ODE1MTkzMTc2MjcsIC0wLjA1MzY1MzI4NDkwNzM0MSwgMC4xNDQ2MTc4MTA4NDUzNzUwNiwgLTAuMjE5NTgxNDU0OTkyMjk0MywgMC40NTM1OTQxNzc5NjEzNDk1LCAtMC4yNTc0NjIzMjI3MTE5NDQ2LCAwLjEwNjU3NDEzMzAzODUyMDgxLCAwLjI3ODg4MzEyOTM1ODI5MTYsIC0wLjQxOTI3MjEyNDc2NzMwMzQ3LCAtMC4wMDk0NjA5NjA1MTQ4NDM0NjQsIDAuMzAyNDk2MTY1MDM3MTU1MTUsIDAuMjA3MzQ3ODg0Nzc0MjA4MDcsIDAuNzI3MjM3MzQzNzg4MTQ3LCAwLjA5ODI3ODI4NDA3Mjg3NTk4LCAtMC4wMjYxNDA2NDg4NzE2NjAyMzMsIDAuMjQzNzI4MTYwODU4MTU0MywgLTAuMDYzMzIzMDUwNzM3MzgwOTgsIC0wLjAxODk4NjMxMjY3MjQ5NTg0MiwgMC4zNzkyNjkyNDIyODY2ODIxMywgMC4wODA1MDY2MjI3OTEyOTAyOCwgMC4wODM2NjI3MDM2MzMzMDg0MSwgLTAuMDgwNDY4NDAxMzEyODI4MDYsIC0wLjA5NDg4Nzc3ODE2Mjk1NjI0LCAwLjM1NDU4MDE5Mzc1ODAxMDg2LCAtMC4wNjcyMTIyODM2MTEyOTc2MSwgLTAuMTEzMTQyNzI4ODA1NTQxOTksIDAuMTA2NzA4NzA1NDI1MjYyNDUsIC0wLjA5MjIwNjM4ODcxMTkyOTMyLCAtMC4yMTc5ODYyNzA3ODUzMzE3MywgMC4xMzg2MDEyNzMyOTgyNjM1NV0sIFstMC45NDc5OTY3OTUxNzc0NTk3LCAwLjM3ODIxNzkwNTc1OTgxMTQsIDAuNzExNjI4Nzk0NjcwMTA1LCAtMC42MzkyMzQxODUyMTg4MTEsIC0wLjE5NjI1MDA1MTI1OTk5NDUsIDAuNzUxMzYxNzI3NzE0NTM4NiwgMC44ODA1NzA1OTA0OTYwNjMyLCAtMS4yNzI1MDU1MjE3NzQyOTIsIC0wLjY5MDUwNDM3MjExOTkwMzYsIC0wLjQwMjIwMjM5NzU4NDkxNTE2LCAwLjU4ODc2MzQxNTgxMzQ0NiwgLTAuOTM5MzQ0ODgyOTY1MDg3OSwgMS4wNDMyNDk3MjYyOTU0NzEyLCAwLjA5ODAzMTc0NDM2MDkyMzc3LCAtMC4xODgzNjM3MzA5MDc0NDAxOSwgLTEuMzg1MjE2OTUxMzcwMjM5MywgMS4wODQ3NzQyNTU3NTI1NjM1LCAtMS4wMzIwNDU0ODM1ODkxNzI0LCAxLjIwMDk2ODAyNzExNDg2ODIsIC0wLjA0NzA0NzIyNzYyMTA3ODQ5LCAxLjA0MDA5MTAzNzc1MDI0NDEsIDAuMTQ3NjQzMjM4MzA2MDQ1NTMsIC0wLjQ0OTA2MDMyMDg1NDE4NywgMC4yODA2NDQ1MzYwMTgzNzE2LCAtMC4yMjI2MTk2ODI1NTA0MzAzLCAwLjAxOTU4NTk3NDUxNDQ4NDQwNiwgLTEuMTc4MzYyODQ2Mzc0NTExNywgMC4yNDcwNjY5NDQ4Mzc1NzAyLCAwLjI4NDI4MTIyNDAxMjM3NDksIDEuNDg2MTY0ODA4MjczMzE1NCwgMC4wNTQ2NzI5NDUyOTA4MDM5MSwgLTAuNzkzNDQwMjgyMzQ0ODE4MV0sIFswLjE0NDAxMzQwNDg0NjE5MTQsIDAuMjcwMDQ0OTgyNDMzMzE5MSwgLTIuMTE0MDkyMzUwMDA2MTAzNSwgMC43MTY5MDc5NzgwNTc4NjEzLCAwLjQ4ODg0MTkyMTA5MTA3OTcsIDAuMzQ1Mjg2NDI4OTI4Mzc1MjQsIC0wLjYxMzAwOTQ1MjgxOTgyNDIsIC0wLjAyOTk2NDk0NjIxMDM4NDM3LCAtMC4zOTc2MTk4NDM0ODI5NzEyLCAwLjU5MDc5MzA3MzE3NzMzNzYsIDAuNTI3NTA4MDgwMDA1NjQ1OCwgLTMuMzQ0MjUyNTg2MzY0NzQ2LCAtMC43NDQ0MDc3NzMwMTc4ODMzLCAwLjA1NzYyMTQwNDUyODYxNzg2LCAtMy45NTQ1ODI2OTExOTI2MjcsIC0wLjA0NzYyNjY4OTA3NjQyMzY0NSwgMC41ODU0MDg0NDkxNzI5NzM2LCAwLjQ2NDAxODc2MjExMTY2MzgsIDAuMzk5MDM1NDUzNzk2Mzg2NywgLTEuNzEwMTgzMzgyMDM0MzAxOCwgMC4zODI0OTkzOTY4MDA5OTQ5LCAtMC4wMzQ2MTE2MTI1NTgzNjQ4NywgMC4yMDQyOTg1ODU2NTMzMDUwNSwgLTAuNTEyMTMwOTE2MTE4NjIxOCwgMC42MDc0NjM0MTk0Mzc0MDg0LCAtMC4wMTc2MjcwOTc2NjYyNjM1OCwgLTAuMDgwMzc0NjI4MzA1NDM1MTgsIC0wLjcyNTAxMjY2MDAyNjU1MDMsIC0wLjA4MTA5MTM5NjUxMDYwMTA0LCAwLjUyNDIwMjUyNTYxNTY5MjEsIC0wLjIxODUyNDc1NDA0NzM5MzgsIDAuNTI5MTgxMDAzNTcwNTU2Nl0sIFswLjAyMDQwMDE2NDY0ODg5MDQ5NSwgMC4wMTk1ODc4ODkzMTM2OTc4MTUsIDAuMDQwNjY1MzEzNjAxNDkzODM1LCAwLjAyNDU5MjY2OTY4MDcxNDYwNywgLTAuMTIwODgxOTA3NjQxODg3NjYsIDAuMTI4MTUwMzE0MDkyNjM2MSwgLTAuMDEzNzgzMzM1Njg1NzI5OTgsIC0wLjAyNDY4MTkyOTQ5ODkxMDkwNCwgLTAuMDA5Nzk3NzE4Mzc1OTIxMjUsIDAuMDU5NjExMTY0MDMzNDEyOTMsIC0wLjAwNTkyNTkzNzU1NTczMDM0MywgMC4xMTE1MzI2MTM2MzUwNjMxNywgLTAuMTIwODc2NDE2NTYzOTg3NzMsIC0wLjIwMzI3OTYxNDQ0ODU0NzM2LCAtMC4xNzY1NDgzMTcwNzQ3NzU3LCAwLjE4MTUzMDI1MjA5OTAzNzE3LCAwLjEyNDYyMTgzMDg4MDY0MTk0LCAwLjA0MDkwNzc2Mjk0NDY5ODMzNCwgLTAuMDIwMTU1MjU4NDc2NzM0MTYsIC0wLjA3ODQ1MjExMDI5MDUyNzM0LCAwLjA5MTIyMjEwNzQxMDQzMDkxLCAtMC4xMjgzMzE2OTEwMjY2ODc2MiwgLTAuMTA3NTI2MzYxOTQyMjkxMjYsIDAuMDM3NjkzNzIwMzEwOTI2NDQsIC0wLjAwMDgyODI5ODI3NDQyNzY1MjQsIDAuMTQ3OTgwNjkwMDAyNDQxNCwgLTAuMDU0NTY4NjE4NTM1OTk1NDgsIDAuMDYyNDY3OTM2NDI2NDAxMTQsIC0wLjAyNDcwNDkwMzM2NDE4MTUyLCAwLjAwMjAxMTE2MzE2MDIwNDg4NzQsIC0wLjE3MjUyMDIwNTM3ODUzMjQsIC0wLjE1Nzk4MTI0NjcwOTgyMzZdLCBbMC4wNDAzMjgxMDc3NzQyNTc2NiwgLTAuMDE2MjQ1NTQzOTU2NzU2NTkyLCAtMC4xNDYxNTgyNDgxODYxMTE0NSwgLTAuMDQwNzcxNzE1MzQyOTk4NTA1LCAwLjExMDIwMDI0MTIwODA3NjQ4LCAwLjE0NDAyMDgyNTYyNDQ2NTk0LCAtMC4xMTE3MTY0MDQ1NTcyMjgwOSwgMC4wNjk0OTAyMTY2NzI0MjA1LCAtMC4wNTA3NDU1OTg5NzE4NDM3MiwgLTAuMTA0NDE4MzgyMDQ4NjA2ODcsIC0wLjA3ODcwNTcyMDYwMzQ2NjAzLCAtMC4wMjkyNTU0NjQ2NzMwNDIyOTcsIC0wLjE1ODExMDk3NjIxOTE3NzI1LCAwLjA5MDIzNzA5NTk1MjAzNCwgLTAuMDk4NTI4NzI3ODg5MDYwOTcsIC0wLjA3MjU4MTA1Mjc4MDE1MTM3LCAtMC4wMzE4MDU4NTgwMTYwMTQxLCAtMC4wNTk1Njc3MzQ1OTkxMTM0NjQsIC0wLjA3NDY5MjE1OTg5MTEyODU0LCAwLjEyNDY3NzcyNTEzNjI4MDA2LCAtMC4wNTMxNjg5NjczNjYyMTg1NywgLTAuMTU5MjIxNzA4Nzc0NTY2NjUsIC0wLjEzMTg4MjY5NzM0MzgyNjMsIC0wLjAxMjQxODQzNTg4NjUwMjI2NiwgMC4wMTkwMjU1ODY1NDU0NjczNzcsIC0wLjEyNjgzMjAwODM2MTgxNjQsIDAuMDU3ODA5MzUyODc0NzU1ODYsIC0wLjAwMTcyNjczNzQ3ODc0Nzk2NCwgMC4xNDcxMTY4ODQ1ODkxOTUyNSwgLTAuMTUxODY2MTM3OTgxNDE0OCwgMC4xODc0NjQ1MjAzMzUxOTc0NSwgLTAuMzA0NDEzMTM5ODIwMDk4OV0sIFswLjExMjI1OTA4MjQ5NjE2NjIzLCAtMC4yMDcwNjQyODU4NzQzNjY3NiwgLTAuNTE4Njk0NTE5OTk2NjQzMSwgMC4xMzI5NTk3MDg1NzE0MzQwMiwgMC4wNjg5ODA4MDU1NzU4NDc2MywgLTAuMzYxNDQ2NzY4MDQ1NDI1NCwgLTAuMzAxNjY1MzM1ODkzNjMxLCAwLjA5NDgxOTMyMjIyODQzMTcsIDAuMDcwNzQyNjY2NzIxMzQ0LCAwLjE5OTU4OTM1Njc4MDA1MjE5LCAwLjEyMDU4MjkzODE5NDI3NDksIC0wLjIzMDEzNTI3NjkxMzY0Mjg4LCAtMC4zMjU4Mzc1ODIzNDk3NzcyLCAwLjIzODUzNDU5OTU0MjYxNzgsIC0wLjI0NTM3NjUxMjQwODI1NjUzLCAwLjExMDQ5MzY4OTc3NTQ2NjkyLCAtMC4wMjAwNzU1NjcwNjY2Njk0NjQsIC0wLjg1MDkxNTkwODgxMzQ3NjYsIC0wLjA2NTE4NjQ4NTY0ODE1NTIxLCAtMC4zNzM3MDEwMzU5NzY0MDk5LCAwLjI0NTE1NzA2MzAwNzM1NDc0LCAwLjIwMzg2MTk4MTYzMDMyNTMyLCAtMC4wMDY5NjAxOTMxNjA5MjEzMzUsIC0wLjIwMzYzODY3MjgyODY3NDMyLCAwLjEzNDU0ODExMjc1MDA1MzQsIC0wLjMzNDE4MTk2NDM5NzQzMDQsIDAuMDYwMDQ5NTY3MzcxNjA2ODMsIC0wLjQ3OTc1MzIyNjA0MTc5MzgsIC0wLjE0MTYwNDQ4MzEyNzU5NCwgLTAuMDUxMzc2OTIzOTE4NzI0MDYsIDAuMDQ5NDM1MzA2MzQwNDU2MDEsIDAuMTM3ODM5MzkxODI3NTgzM10sIFswLjE3NDUwNjIwMjM0MDEyNjA0LCAtMC4wMzA0Mjk5MTgzMTg5ODY4OTMsIC0wLjAxMTM0ODU5MzA0ODc1MTM1NCwgMC4yMzEyMTExMTA5NDk1MTYzLCAwLjAxNTM2MDc5NjgyNDA5NzYzMywgMC4xMTY0OTg1NzQ2MTQ1MjQ4NCwgMC4wNTY3MTg5NzE1ODAyNjY5NSwgMC4xMjQ0MTI4OTQyNDg5NjI0LCAtMC4wODgzNDY3NDIwOTM1NjMwOCwgLTEuNjAyMzQ4NTY2MDU1Mjk3OSwgMC4xMDk1MDY0ODc4NDYzNzQ1MSwgLTAuMTQxMDg0NTgxNjEzNTQwNjUsIDAuMDMxNjcxMzU2NDA5Nzg4MTMsIDAuMTE4ODg4NDY3NTUwMjc3NzEsIC0wLjE0NDc2OTg3NzE5NTM1ODI4LCAwLjIyNDk4OTA4NjM4OTU0MTYzLCAwLjAwMTk2OTM3ODQ0MTU3MjE4OTMsIDAuMjI1NjAyMTIwMTYxMDU2NTIsIDAuMDAzNDc1OTM5ODU0OTc5NTE1LCAtMC4wNzMwODE4MDYzMDIwNzA2MiwgMC4xMjg0OTU1NDQxOTUxNzUxNywgLTAuMTA5NzUwMzkwMDUyNzk1NDEsIDAuMjAzMDEyNjE1NDQyMjc2LCAwLjAyNzczNTIzNzAzMjE3NTA2NCwgMC4yOTg1OTg4MjU5MzE1NDkxLCAwLjYyMDIwODIwMzc5MjU3MiwgMC4wOTg3MjgxNzk5MzE2NDA2MiwgLTAuMTU4NzExMDAxMjc2OTY5OSwgMC4zMjQ1NjE5NTM1NDQ2MTY3LCAwLjAyNzYyNjMzNTYyMDg4MDEyNywgLTAuMDMzNjgwNTU0NDc5MzYwNTgsIC0wLjAwODcyNTQ3NjQ1MTIxODEyOF0sIFswLjAzMjU1MTk3MDMzMjg2MDk1LCAwLjk3MzkzNTQ4NDg4NjE2OTQsIDAuNjk0ODQ1MDgwMzc1NjcxNCwgLTAuMzI5MzQ5MDcwNzg3NDI5OCwgLTAuMDE4MjExMDk0NjYyNTQ3MTEsIDAuMzc0Njc0MjYwNjE2MzAyNSwgMC4zMTUwMTc3MDAxOTUzMTI1LCAwLjM3NTYyNDY1NjY3NzI0NjEsIDAuMDkxODM1NTQzNTEzMjk4MDMsIC0wLjA3MDYxMzk1MDQ5MDk1MTU0LCAtMC4wNTEwNjY0MDYwNzExODYwNjYsIC0wLjUzMDQwOTY5MzcxNzk1NjUsIDAuNTM5NTg3ODU1MzM5MDUwMywgMC4xMDA3OTAwNTM2MDYwMzMzMywgMC4zMDg0NjU0ODA4MDQ0NDMzNiwgMC4wNjY2MDk5MzM5NzIzNTg3LCAwLjA5NDk3NzU5NDkxMjA1MjE1LCAtMC4yMzQ3OTQyNzM5NzI1MTEzLCAwLjI1NDExNDkyNTg2MTM1ODY0LCAwLjMwNDY2NjMxMDU0ODc4MjM1LCAwLjM4MDg5ODE3NzYyMzc0ODgsIC0wLjEwMjYwNjk1MjE5MDM5OTE3LCAwLjE5MDA0NTY4NDU3NjAzNDU1LCAwLjIxMDQ3NTYzODUwODc5NjcsIC0wLjA1MjcxMjU4MjA1MTc1NCwgMC4xNTk0NDI1MjkwODIyOTgyOCwgMC4xOTYzMzM3OTU3ODU5MDM5MywgMC4zMzMzMTEzMTkzNTExOTYzLCAwLjMwMzM1ODQ5NTIzNTQ0MzEsIDAuMDk1NDQxNDE1OTA1OTUyNDUsIDAuMjQyMjYxOTMxMzAwMTYzMjcsIC0wLjEzOTYzOTc5NDgyNjUwNzU3XSwgWzAuMjU0MjExNDg1Mzg1ODk0OCwgLTAuMTM5Njg2NzkzMDg4OTEyOTYsIC0wLjIzODI0ODA4MDAxNTE4MjUsIDAuMDQzMjgxOTk4NDg1MzI2NzcsIDAuMTY5Mzc4NzEyNzczMzIzMDYsIC0wLjE3ODM2NDgxMzMyNzc4OTMsIC0wLjEyMTIyMjg1MzY2MDU4MzUsIDAuMzQ1MjM1NTI2NTYxNzM3MDYsIDAuNDgzMDg0NDQwMjMxMzIzMjQsIDAuMjgyNzAyODYzMjE2NDAwMTUsIC0wLjA1MzYyNDg4NzAxOTM5NTgzLCAtMC4wNTM5NjkyNjQwMzA0NTY1NCwgMC4yMjcwNDg1NzU4NzgxNDMzLCAwLjExOTM4NTczNDIwMDQ3NzYsIC0wLjEzOTY3NzI3MTI0NjkxMDEsIDAuMjA1NDQ5NjQwNzUwODg1LCAtMC4wNjQ2MDIzODk5MzE2Nzg3NywgMC4xODY4NzQwNjE4MjI4OTEyNCwgLTAuMTIzOTM0MTY0NjQzMjg3NjYsIC0wLjE4Njc5Mzg5MzU3NTY2ODMzLCAtMC4xNDA1ODI2NjU4MDEwNDgyOCwgMC4xNzkyNDM5MjIyMzM1ODE1NCwgMC4yMjQzMzQ3MTY3OTY4NzUsIC0wLjExMDMyMTIyMzczNTgwOTMzLCAwLjI4MzA3ODQ5MTY4Nzc3NDY2LCAtMC4xODcwMjc5OTA4MTgwMjM2OCwgMC4yMTM3MTY1NjY1NjI2NTI2LCAtMC4xNjI1NzU1MTMxMjQ0NjU5NCwgMC4wODI0MTY4NjIyNDkzNzQzOSwgLTAuMjIxMTA3MDY1Njc3NjQyODIsIC0wLjAxNzIwMTA2MjI5MTg2MDU4LCAwLjE5OTE5MjU1Mzc1ODYyMTIyXV0sIFswLjE3MzU3NTA0MzY3ODI4MzcsIDAuMTI5MDMzMzU2OTA0OTgzNTIsIDAuMTEzOTYzNTc0MTcxMDY2MjgsIDAuMDQ3NzQxNjcwMTYxNDg1NjcsIDAuMDUxODA0MjgxNzcxMTgzMDE0LCAwLjExNDgwNjg1MzIzNDc2NzkxLCAtMC4wODg0NDczMzIzODIyMDIxNSwgMC4xOTc3ODk1MjAwMjUyNTMzLCAwLjI0NzEwNDc2Mzk4NDY4MDE4LCAwLjAwMjExMzQxMTkwMTUxODcwMjUsIDAuMDk1Mjg0NDU0NTI0NTE3MDYsIDAuMDk4NzExMTQ3OTA0Mzk2MDYsIDAuMzA1NjMzNzIzNzM1ODA5MywgMC4wNDM0NDM3NTQzMTUzNzYyOCwgMC4wNTM4MzYwNDc2NDkzODM1NDUsIDAuMTA1MjE1NjY4Njc4MjgzNjksIDAuMTE4MjA0NTA0MjUxNDgwMSwgMC4wNjIyMjAwMDcxODExNjc2LCAtMC4wMDMxMzEzMjc5MTc3OTkzNTM2LCAwLjExNzQwMDEzOTU3MDIzNjIsIDAuMDk0MTE5OTQzNjc4Mzc5MDYsIDAuMDU4MTI2NTk4NTk2NTcyODc2LCAwLjEwMjQ4OTkxODQ3MDM4MjY5LCAwLjE0NTM2MzQyMDI0ODAzMTYyLCAwLjA1OTU3MTg1NDc3MDE4MzU2LCAwLjAxOTI4MjM1MjE3OTI4ODg2NCwgMC4wNzE0NDY1MjMwNzAzMzUzOSwgMC4wMTc4MDAwMDE0Mjc1MzEyNDIsIDAuMTAxMzA3MTk4NDA1MjY1ODEsIDAuMTM3MDkwNTkzNTc2NDMxMjcsIC0wLjAwOTY2NjA0OTg1Mjk2NzI2MiwgMC4wNzk1NjExNTkwMTQ3MDE4NF0sIFtbLTAuMTE0Mzk0ODUxMDI4OTE5MjIsIDAuMzUwOTY5OTEwNjIxNjQzMDcsIDAuMjY3ODQwNTY0MjUwOTQ2MDQsIDAuNDM3NDI3MzQxOTM4MDE4OCwgLTAuMzY5MzkzMjI5NDg0NTU4MSwgLTAuMDczNTYxMTYxNzU2NTE1NSwgMC40NjEwNjI2Njk3NTQwMjgzLCAwLjQwNjQ2MTE3OTI1NjQzOTIsIC0wLjM0NjUwNzM3MDQ3MTk1NDM1LCAtMC4wODI5Mzc4ODg4MDEwOTc4NywgMC40OTQ3MDc3NjMxOTUwMzc4NCwgMC4wMDA0NDY4MzM2NzAxMzkzMTI3NCwgLTAuMDg4MDUzNzQ4MDExNTg5MDUsIDAuMDQ0NDI4NDY3NzUwNTQ5MzE2LCAwLjMzODc0NjE2MDI2ODc4MzU3LCAwLjA2MTAwNDEzOTQ4Mjk3NTAwNl0sIFstMC4zMDg3NTQ1MDM3MjY5NTkyMywgMC4yNDIxNDkyOTM0MjI2OTg5NywgLTAuMDMzMTI4NTU5NTg5Mzg1OTg2LCAwLjM2MjE3Mjg0MjAyNTc1Njg0LCAwLjM4MDkyNjQzMDIyNTM3MjMsIC0wLjEwMTE5MDI1NDA5MjIxNjQ5LCAtMC4wNDQzMzU1OTk5ODg2OTg5NiwgLTAuMTYzNTExNjMzODcyOTg1ODQsIDAuNDA3NTA1MzMzNDIzNjE0NSwgMC4zMTc3OTIyOTY0MDk2MDY5MywgLTAuMjY2MDY4Mjc5NzQzMTk0NiwgMC4zOTg2NDc1NDY3NjgxODg1LCAtMC42MTQ3MzAzNTgxMjM3NzkzLCAwLjE4MTk5MzYwMzcwNjM1OTg2LCAwLjA4NDQwMTEzMDY3NjI2OTUzLCAwLjA4NDY5NjE4ODU2OTA2ODkxXSwgWy0wLjM0MzQ1Njg2NDM1Njk5NDYzLCAwLjg1NDQ3MTA4NzQ1NTc0OTUsIC0wLjMxMjQ3MDI4NzA4NDU3OTQ3LCAwLjYyNzM4NDM2NDYwNDk1LCAwLjc0NTM2NzcwNTgyMTk5MSwgLTAuNDAyMDIyMDMzOTI5ODI0ODMsIC0wLjQ2NDYxNjk1NDMyNjYyOTY0LCAtMC4zOTg1NjkyMjYyNjQ5NTM2LCAwLjc4NjM1NzUyMjAxMDgwMzIsIDAuODA1NzMyMTMxMDA0MzMzNSwgLTAuNjcyNjM2NzQ3MzYwMjI5NSwgMC42NDQyOTY4ODQ1MzY3NDMyLCAtMC40NjYwMTczNjU0NTU2Mjc0NCwgMC43MDczNTgzMDA2ODU4ODI2LCAtMC41Mzg0MTk5NjE5MjkzMjEzLCAtMC40NTA4NzI1NzAyNzYyNjA0XSwgWy0wLjE4MDc4MzA3ODA3NDQ1NTI2LCAwLjQ2NTk2MzA2NTYyNDIzNzA2LCAwLjA4MjUzOTYxODAxNTI4OTMsIDAuMzI4MDk5NDg5MjEyMDM2MTMsIC0wLjUyODEzMTEyNzM1NzQ4MjksIC0wLjQ2ODEwMDY5NjgwMjEzOTMsIC0wLjEwNzIyMDU5NzU2NTE3NDEsIC0wLjE5MTc1NDAyODIwMTEwMzIsIDAuMzUxNDc2Njk5MTEzODQ1OCwgLTAuNTA4MDQ2MDkwNjAyODc0OCwgMC4wMjY3NDEyMzA4NjAzNTI1MTYsIC0wLjg2MzE3NTUxMTM2MDE2ODUsIC0wLjQ1OTI1NjU4OTQxMjY4OTIsIC0wLjMzNzI2NDk1NTA0Mzc5MjcsIDAuMDEzODgxOTQ1MDUxMjUyODQyLCAtMC4yODkzODI5MzQ1NzAzMTI1XSwgWzAuMjUzNTgzNzI5MjY3MTIwMzYsIDAuMTAyOTAyODU5NDQ5Mzg2NiwgMC4wNDk3OTM1MDQxNzg1MjQwMiwgLTAuMjQ2NDY0MTYzMDY0OTU2NjcsIC0wLjMzOTEzNDkzMTU2NDMzMTA1LCAtMC4wMzU5NzYzODc1NjAzNjc1ODQsIDAuMTE2NjI5MTM4NTg4OTA1MzMsIC0wLjAzNzc3NTEzNjUzMDM5OTMyLCAtMC4xNTI2MzI3NzI5MjI1MTU4NywgLTAuNTMxODMzMTcxODQ0NDgyNCwgMC40MDczMzk5MzA1MzQzNjI4LCAtMC40MTgzNjcwMjgyMzYzODkxNiwgLTAuMDQ1NzUyMjA0OTU0NjI0MTc2LCAtMC4wMzkzMTc1MDcyOTY4MDA2MSwgMC4xMDM5MTcwOTIwODQ4ODQ2NCwgMC4yMjgwMjAzNTUxMDU0MDAwOV0sIFstMC4xNzkyODUxMzg4NDU0NDM3MywgMC4zNTQxNjk5NjQ3OTAzNDQyNCwgLTAuMjQ1MDIwOTI1OTk4Njg3NzQsIDAuNDgwMDgwMjQ2OTI1MzU0LCAwLjQ4MTM2MzIzNjkwNDE0NDMsIC0wLjI4MjUzMzY3NTQzMjIwNTIsIC0wLjI0NzAxMjE4MzA3MDE4MjgsIC0wLjAzMDA5NDM4NTE0NzA5NDcyNywgMC42NTA0OTcwMTkyOTA5MjQxLCAwLjIwNTI4NjI2NDQxOTU1NTY2LCAtMC4wNjM5NTcxNjIyMDE0MDQ1NywgMC4zNDQ2ODQ4NjkwNTA5Nzk2LCAtMC4wNjExNDExNDQ0ODQyODE1NCwgMC4zNzA5OTc2MDc3MDc5NzczLCAtMC40MTU5ODg5ODE3MjM3ODU0LCAtMC4wMjgyNDc5MjYzODQyMTA1ODddLCBbLTAuNjA4MzYwNzY3MzY0NTAyLCAwLjk0Njg5OTQxNDA2MjUsIC0wLjU4OTgxMzgyODQ2ODMyMjgsIDAuNjQ1OTY3NDgzNTIwNTA3OCwgMC44OTQ3MDUzNTUxNjczODg5LCAtMC41NjExMDczOTcwNzk0Njc4LCAtMC42ODI4NTM4MTc5Mzk3NTgzLCAtMC40NDI5MjI1OTIxNjMwODU5NCwgMC44OTUzOTcwNjcwNzAwMDczLCAwLjk2MzExNDczODQ2NDM1NTUsIC0wLjcyNTE0MTY0NDQ3Nzg0NDIsIDAuNzY3OTQwMDQ0NDAzMDc2MiwgLTAuMzMyNjA1MjQyNzI5MTg3LCAwLjg0MjUwNzg5ODgwNzUyNTYsIC0wLjc0MTg2ODA3ODcwODY0ODcsIC0wLjcxMDU5MTY3Mzg1MTAxMzJdLCBbMC42NjM5MDMyMzYzODkxNjAyLCAtMC43MDU1NTA0MzIyMDUyMDAyLCAwLjU5MzUzNDExMTk3NjYyMzUsIC0wLjY5NTU0Mzk0NDgzNTY2MjgsIC0wLjM1MTUzNzczNDI3MDA5NTgsIDAuNDYwMDgwMjA2Mzk0MTk1NTYsIDEuMTUwNzU2NTk3NTE4OTIxLCAwLjAxOTEzMzY2NDY2NzYwNjM1NCwgLTAuMjgyMTc0MzE5MDI4ODU0MzcsIC0wLjcwNzU1MDg4MzI5MzE1MTksIDEuMTU1NTQ4NTcyNTQwMjgzMiwgLTAuNzYzNTUzODU3ODAzMzQ0NywgMC4wMjkxNTYzMTIzNDY0NTg0MzUsIC0wLjc0Mzk3NTI4MTcxNTM5MzEsIDAuOTgxMjY1OTYyMTIzODcwOCwgMC41MTY3Nzc3NTM4Mjk5NTZdLCBbMS43MjM5MzQxNzM1ODM5ODQ0LCAtMS41MzA4OTM0NDUwMTQ5NTM2LCAxLjQ0ODc1NjA5ODc0NzI1MzQsIC0xLjY2NTAyNzE0MTU3MTA0NSwgLTEuNjYxNTI3Mzk1MjQ4NDEzLCAxLjIyNTA2ODA5MjM0NjE5MTQsIDIuMTAzOTE0OTc2MTE5OTk1LCAwLjc1MjE2ODY1NTM5NTUwNzgsIC0xLjMyNzcyOTcwMTk5NTg0OTYsIC0xLjUwNjYxOTIxNTAxMTU5NjcsIDEuOTY1NDQzNjExMTQ1MDE5NSwgLTEuOTYxNjY0OTE1MDg0ODM4OSwgMS4zNTM0NjY1MTA3NzI3MDUsIC0xLjc5NTQyNzA4Mzk2OTExNjIsIDEuOTI2MjUyMzY1MTEyMzA0NywgMS4zMTU4NTA5NzMxMjkyNzI1XSwgWzAuNDY3MjM2MjUwNjM4OTYxOCwgLTAuODQ4ODYwNzQwNjYxNjIxMSwgMC4xNzY3NjI0MzE4NTk5NzAxLCAtMC43Nzg3MDY4NDg2MjEzNjg0LCAtMC41OTMxODU1NDQwMTM5NzcsIDAuNjIxNDY0MTkyODY3Mjc5LCAwLjM2NjEyMzMxODY3MjE4MDIsIDAuMTU4NDk1MzA2OTY4Njg4OTYsIC0wLjUwODA3NDQ2MjQxMzc4NzgsIC0wLjc3NjkyNDM3MTcxOTM2MDQsIDAuNzE3Mzc1MTU5MjYzNjEwOCwgLTAuNjEzOTM0NzU1MzI1MzE3NCwgMC44MTEzMDE3MDgyMjE0MzU1LCAtMC4xOTY3NzQ3MzYwNDY3OTEwOCwgMC40MzY2ODUyMDQ1MDU5MjA0LCAwLjI1Mzk2NTk3Mzg1NDA2NDk0XSwgWy0wLjUwNDQ3MjY3MjkzOTMwMDUsIDAuNDg2ODM3Njg1MTA4MTg0OCwgLTAuMzEwMzA1NTM1NzkzMzA0NDQsIDAuNDI2NTg1Mzc2MjYyNjY0OCwgMC40MzQ2OTg0MDI4ODE2MjIzLCAtMC4wNzQ3MDU4MzkxNTcxMDQ0OSwgMC4wMTMxNzg5ODQ2MzQ1NzgyMjgsIDAuMTE2Mjg4MzkzNzM1ODg1NjIsIDAuMzQ4OTE4NDk3NTYyNDA4NDUsIDAuMjY3ODA1Njk1NTMzNzUyNDQsIC0wLjI2NjczNTQzNDUzMjE2NTUsIDAuMDk2MTYyOTIyNjgwMzc3OTYsIC0wLjI1NjU3MjY2Mzc4NDAyNzEsIDAuMzQ4OTMxMDc0MTQyNDU2MDUsIC0wLjI0ODM1NjY5OTk0MzU0MjQ4LCAtMC4wNzU1MTA4NzQzOTA2MDIxMV0sIFstMC42NTE5NTc2MzExMTExNDUsIDAuODkyNDE1NTgzMTMzNjk3NSwgLTAuNDIzMzQzNzc3NjU2NTU1MiwgMC41ODY3NjU2NDY5MzQ1MDkzLCAwLjczOTIzMzU1MzQwOTU3NjQsIC0wLjYwNzM5NDA5OTIzNTUzNDcsIC0wLjc5MTM2NDE5Mjk2MjY0NjUsIC0wLjEzOTYyMDExMDM5MjU3MDUsIDAuMzI2NzM1MTM4ODkzMTI3NDQsIDAuNDM5MTIyMDgwODAyOTE3NSwgLTAuODQ4NDUyOTI1NjgyMDY3OSwgMC44Nzc3NDY2NDE2MzU4OTQ4LCAtMC41NzY1Mjc4MzM5Mzg1OTg2LCAwLjYwMjQ5MTYxNzIwMjc1ODgsIC0wLjYxMDY1NjczODI4MTI1LCAtMC4wMTYwMTAxNDY1ODgwODcwODJdLCBbMC4zNjE1OTQyMjk5MzY1OTk3MywgMC4yNzI0ODcxOTMzNDYwMjM1NiwgMC4xMTIzODAwNTc1NzMzMTg0OCwgMC4xMDc0MTYyNjQ3MTI4MTA1MiwgMC4zMTIwMjI2ODYwMDQ2Mzg2NywgMC4xMDU4NTQ4ODM3OTAwMTYxNywgMC4zODIwMjcwODk1OTU3OTQ3LCAtMC4wNTQ5MjMxOTE2NjY2MDMwOSwgMC4yNTA5MTAxMDMzMjEwNzU0NCwgMC4zNDA5ODc5MjA3NjExMDg0LCAwLjA0Nzk3MTAyMTM4NDAwMDc4LCAwLjE4Mjg3NzIxMjc2MjgzMjY0LCAwLjI4OTY3NjAxMDYwODY3MzEsIDAuMTU4MjkyNjA2NDcyOTY5MDYsIDAuNDEzODA2OTE1MjgzMjAzMSwgLTAuMDY5MTcwMjE0MjM1NzgyNjJdLCBbMC4yNDEzNDQyMTM0ODU3MTc3NywgLTAuMjYyMzYyMDYyOTMxMDYwOCwgLTAuMjQ5Njc0MTQxNDA3MDEyOTQsIDAuMDI4NzAzMzgyMjM4NzQ1NjksIC0wLjI0MjQ4MTcwODUyNjYxMTMzLCAwLjE1OTg0MzIzNjIwNzk2MjA0LCAwLjEzMTA3NDEwMDczMjgwMzM0LCAtMC4wMzkzODA0ODMzMjkyOTYxMSwgMC4yMTU0NDU3ODY3MTQ1NTM4MywgMC4wMzE1NzM2MjM0MTg4MDc5OCwgMC4xNjg4MjY1NTAyNDUyODUwMywgMC4xNTE2NzQ4MzY4NzQwMDgxOCwgMC4xOTkzNjMzMjEwNjU5MDI3LCAwLjQwMDU3ODIwMDgxNzEwODE1LCAtMC4wMjg4MjMwNTM0NjQyOTM0OCwgLTAuMjUwMTMwNDE0OTYyNzY4NTVdLCBbLTEuMTAyNTE3NjA0ODI3ODgwOSwgMS4yMDE5OTUyNTM1NjI5MjcyLCAtMS4wNjE5ODk2NjUwMzE0MzMsIDEuMTI5MjQ1MjgxMjE5NDgyNCwgMC44ODI0NDAyMDkzODg3MzI5LCAtMS4wODQxMTI2NDQxOTU1NTY2LCAtMS4zMzA1NDc4MDk2MDA4MywgLTEuMTQ2MTk1MDU0MDU0MjYwMywgMS4wMTYwODYxMDE1MzE5ODI0LCAxLjIyNDI1NDEzMTMxNzEzODcsIC0xLjMxNjgzODc0MTMwMjQ5MDIsIDEuMzgyNTM1NDU3NjExMDg0LCAtMC45MzkxMDkxNDY1OTUwMDEyLCAxLjM5NDkzODcwNzM1MTY4NDYsIC0xLjA2NjE2MDc5ODA3MjgxNSwgLTAuNzE1MzY4OTg2MTI5NzYwN10sIFswLjUxNzMyNjk1MTAyNjkxNjUsIC0wLjU1MDQyMjg0NzI3MDk2NTYsIDAuNDAyNDIyODQ1MzYzNjE2OTQsIC0wLjY3Mzc1NTU4NjE0NzMwODMsIC0wLjY0MDk2MTA1MDk4NzI0MzcsIDAuNjEwNzk3NTg0MDU2ODU0MiwgMC42ODUyNjY4NTIzNzg4NDUyLCAwLjEzNzQ3NzcyNTc0NDI0NzQ0LCAtMC41MTMzNTYyMDg4MDEyNjk1LCAtMC4yOTkxMTMzMzMyMjUyNTAyNCwgMC40MTA1NTMzOTU3NDgxMzg0LCAtMC4zNTgyNDkxNTc2NjcxNjAwMywgLTAuMDI0NjM0MzAzNTI1MDkwMjE4LCAtMC40NDI2NTI4MjE1NDA4MzI1LCAwLjY5MDM3NjI4MTczODI4MTIsIDAuMzQyOTk3MTkzMzM2NDg2OF0sIFstMC4yNjQ2NjE3MjkzMzU3ODQ5LCAwLjc3NTA3NTQzNTYzODQyNzcsIC0wLjA4ODg1MjEwNzUyNDg3MTgzLCAwLjUyOTEyMzA2Nzg1NTgzNSwgMC40OTM0MTYxOTAxNDczOTk5LCAtMC4zNTMyNDU3OTQ3NzMxMDE4LCAtMC4yMDM1MTQwMjQ2MTUyODc3OCwgLTAuMjcxNjk0NTExMTc1MTU1NjQsIDAuNTk4NDMwNzUyNzU0MjExNCwgMC4zMDc1NDE0Mjk5OTY0OTA1LCAtMC41MzAzNDc3MDQ4ODczOTAxLCAwLjI2MjcwMDIyOTg4MzE5Mzk3LCAtMC40OTYwNTk0MTc3MjQ2MDk0LCAwLjQ2MTc1NzMwMjI4NDI0MDcsIC0wLjMxMTY5Njc2NzgwNzAwNjg0LCAtMC4wOTg5OTA0ODUwNzIxMzU5M10sIFswLjQ3MDgwNzI1NDMxNDQyMjYsIC0wLjE0ODAyMTU3ODc4ODc1NzMyLCAwLjAyNTMzMTQ3Mjk3Nzk5NTg3MiwgLTAuMjc4MDE5OTM0ODkyNjU0NCwgLTEuMDk5MzU0Mzg2MzI5NjUwOSwgMC40NjYzNjk4MDc3MjAxODQzLCAwLjQ3Njc5ODU5Mzk5Nzk1NTMsIDAuMTg1MzMwNTg0NjQ1MjcxMywgLTAuMjIxOTk1MDQwNzc0MzQ1NCwgLTAuODA0MTc2ODA3NDAzNTY0NSwgMC4zODA0NDEzMDgwMjE1NDU0LCAtMC40Mzk1ODIyMjg2NjA1ODM1LCAwLjIzNzY2MzMxMzc0NjQ1MjMzLCAwLjAxODk4MzA2NjA4MjAwMDczMiwgMC4zMzM1ODQxMDAwMDgwMTA4NiwgMC4zNzk4NzcyNjkyNjgwMzU5XSwgWy0wLjI2NTI4MTc5NjQ1NTM4MzMsIDAuMjc0Nzc2MjIwMzIxNjU1MywgLTAuMTEzMTkzMzYyOTUxMjc4NjksIDAuMzQwOTk5MDA3MjI1MDM2NiwgMC40MzgwOTYxMzU4NTQ3MjEwNywgLTAuMDcyODA5NjM2NTkyODY0OTksIC0wLjQ2ODM4NDY4MzEzMjE3MTYzLCAwLjE1NTg0MjY5MTY1OTkyNzM3LCAwLjQ4MTYwNTgyNzgwODM4MDEsIDAuMTcyODQ2NDA2Njk4MjI2OTMsIC0wLjMzMTc2NzU4ODg1MzgzNjA2LCAwLjIzNDUzNDU2MTYzNDA2MzcyLCAwLjAwMTY5NDk1MzA2OTA5MDg0MzIsIDAuNDk1MDcxNzA5MTU2MDM2NCwgLTAuMzY2ODg2Nzk0NTY3MTA4MTUsIDAuMDAwMzMyNDkwNDI0NjI1NTc1NTRdLCBbMC4xODAwMDY3NDI0Nzc0MTcsIDAuMjQ4MTYzMDE0NjUwMzQ0ODUsIC0wLjA4MzA1MDE3NjUwMTI3NDExLCAwLjA0NzIyNDk5ODQ3NDEyMTA5NCwgMC42NzQ3Nzg0NjE0NTYyOTg4LCAwLjA5MzYzOTEwNTU1ODM5NTM5LCAtMC4yMDU5NjQ3MjkxODk4NzI3NCwgMC4yMzcwNzQ0MzQ3NTcyMzI2NywgMC4wNzMxODcyOTE2MjIxNjE4NywgMC40ODIwMzU4NzUzMjA0MzQ1NywgLTAuMzQ1ODQ5Mzk0Nzk4Mjc4OCwgMC41MTA3MzEyNzk4NTAwMDYxLCAwLjE0OTAyMjEzMjE1ODI3OTQyLCAwLjUwNjU1NDEyNjczOTUwMiwgLTAuMzE4MTYxNDg3NTc5MzQ1NywgMC4xMjIwNTU3MDkzNjIwMzAwM10sIFswLjA3NjU4ODA3MTg4MjcyNDc2LCAwLjI5MzA2MjI2OTY4NzY1MjYsIC0wLjAzMzE5OTE4NzM2ODE1NDUyNiwgMC40MzIwMzg5MDMyMzYzODkxNiwgMC4wNDQyNTMxMTgzMzYyMDA3MTQsIDAuMDcxMTE2NjQxMTYzODI1OTksIC0wLjQ0Mzc2Mjc0OTQzMzUxNzQ2LCAwLjAzMjA1NjA2NzEzODkxMDI5NCwgLTAuMDAyNjUzMzcxMDc3MDMwODk3LCAwLjIzMzI4NjIwMTk1Mzg4Nzk0LCAtMC4wMzA1MDczODc1OTMzODg1NTcsIDAuNDM5MjE1MjcyNjY1MDIzOCwgMC4wNDE1NjQ1ODAwNTMwOTEwNSwgMC42MjQ3MDg4MzEzMTAyNzIyLCAtMC41NDI0NzQ1MDgyODU1MjI1LCAwLjEzOTcwNzcyOTIyMDM5MDMyXSwgWzAuMTQ2MTAwMzU3MTc0ODczMzUsIC0wLjQ0ODgyNTQ3ODU1Mzc3MiwgLTAuMjEyNzE2OTgxNzY4NjA4MSwgMC4wMTM1NzU1MzcxMzAyMzY2MjYsIC0wLjEwMjA5NTM5NTMyNjYxNDM4LCAwLjQ0MTg3NzEyNjY5MzcyNTYsIC0wLjA4OTkxMjIyMDgzNTY4NTczLCAtMC4wNzAwNzk0NzU2NDEyNTA2MSwgMC4xNzQyODgwNDkzNDAyNDgxLCAtMC4xMjc4NDUwNjM4MDU1ODAxNCwgLTAuMDM3Njc1OTg0MjAzODE1NDYsIC0wLjAzNDk5ODg4NjI4NzIxMjM3LCAtMC4xMDYxMzAyNTcyNDg4Nzg0OCwgLTAuMTAxOTk5Njg1MTY4MjY2MywgLTAuMTI0ODgzMzgzNTEyNDk2OTUsIDAuMDMwNTA4OTkxMzMwODYyMDQ1XSwgWy0wLjA5ODg5NzUxNjcyNzQ0NzUxLCAwLjA3MzgxODgzMjYzNTg3OTUyLCAtMC4wMTA0ODkzODM3MTI0MTA5MjcsIDAuMDE3NTIwMzM0NTcxNTk5OTYsIC0wLjMzMTY1MjM3MzA3NTQ4NTIzLCAwLjI3OTcyOTEyNzg4MzkxMTEzLCAwLjAwNzcyNzI3ODg2MjE0ODUyMywgMC4yNTQwOTYxMjA1OTU5MzIsIC0wLjQxMTQ3MzY2MTY2MTE0ODA3LCAtMC4yMjczNDY4ODIyMjQwODI5NSwgMC4zODI1MzQ2ODI3NTA3MDE5LCAwLjM5Njk1OTU0MzIyODE0OTQsIDAuMTYxNDE3NTQzODg4MDkyMDQsIDAuMzcxNDQ2NzI4NzA2MzU5ODYsIDAuMDU0OTYxNzI5Nzk0NzQwNjgsIDAuMTg2MzUwMTM2OTk1MzE1NTVdLCBbLTAuMDc1NTQ0Nzc0NTMyMzE4MTIsIDAuMDA4MTk2NDAwNDc4NDgyMjQ2LCAwLjE4MzUyMjQ5MjY0NzE3MTAyLCAwLjI0MTYzNjUxNDY2MzY5NjMsIDAuMzY2NDMzMDI0NDA2NDMzMSwgMC4wNzE0OTQ5MDcxNDA3MzE4MSwgMC4xMTc1OTY0NzcyNzAxMjYzNCwgMC4yODU2NDU1MTQ3MjY2Mzg4LCAtMC4xODA3MDY5NDgwNDE5MTU5LCAwLjA0NzExMDQzODM0Njg2Mjc5LCAtMC4wNDIwNDQzNzg4MTcwODE0NSwgMC4yNzE0ODY3NTkxODU3OTEsIDAuMDYwMjcwMzk4ODU1MjA5MzUsIDAuMTU1MDAwMzU4ODE5OTYxNTUsIDAuMDY5Nzk0MDU4Nzk5NzQzNjUsIDAuMjg1NjkxNTI5NTEyNDA1NF0sIFswLjEzMTg5OTc3NDA3NDU1NDQ0LCAwLjA1OTg3MTQwMTYzNzc5MjU5LCAwLjE1OTAwMzczNDU4ODYyMzA1LCAwLjAwNjQ0MzQ4MTg5MjM0NzMzNiwgLTAuMzIwMTc5MTY0NDA5NjM3NDUsIC0wLjUyNjEyMTU1Njc1ODg4MDYsIDAuMTExNTIyMjI3NTI1NzExMDYsIC0wLjE5MTg0MzQ1MDA2OTQyNzUsIDAuNDA0MDQ1MTA0OTgwNDY4NzUsIC0wLjI5NjY2NzIxODIwODMxMywgMC4yMzczMTk3MjI3NzE2NDQ2LCAtMC43MTE4NDEyMjU2MjQwODQ1LCAtMC41NDczODM5MDQ0NTcwOTIzLCAtMC4xNzk5MDA2NzYwMTIwMzkxOCwgMC4xNTQ3NzkxMDYzNzg1NTUzLCAtMC4xNDgyNjU5NTc4MzIzMzY0M10sIFswLjY0Mjg3NTc5MDU5NjAwODMsIC0wLjUxMDcwNzE5OTU3MzUxNjgsIDAuMjE2OTU1ODI1Njg2NDU0NzcsIC0wLjM3MDg5MDQ5ODE2MTMxNTksIC0wLjE4MDc3OTMwODA4MDY3MzIyLCAwLjM2NDY2MDM4MjI3MDgxMywgMC4wNDE4MzEyMzI2MDczNjQ2NTUsIDAuMTIwMTU5NzUyNjY2OTUwMjMsIC0wLjE2MDczOTg2ODg3OTMxODI0LCAtMC4yNTMxMDQyNjk1MDQ1NDcxLCAwLjU3NjQ4OTY4Njk2NTk0MjQsIC0wLjAxMjUxMDc1NTA5OTM1NjE3NCwgMC4wNDY1MTYxMzUzMzQ5Njg1NywgLTAuMzkwMzc1OTcxNzk0MTI4NCwgMC4wOTExMTI4ODE4OTg4OCwgMC4zNjc0Mzk4MzYyNjM2NTY2XSwgWzAuNTA4NTM0OTA4Mjk0Njc3NywgLTAuNTg2NzQ2OTMxMDc2MDQ5OCwgMC4xMjk1NzU2ODQ2NjY2MzM2LCAtMC4yMzk5MzI3MzA3OTM5NTI5NCwgLTAuMjg3MTE1MTI2ODQ4MjIwOCwgMC40NjQwNzM1OTgzODQ4NTcyLCAwLjM3NTIxODU3MDIzMjM5MTM2LCAtMC4xNjI1MTAxODY0MzM3OTIxMSwgLTAuMDk4MjgzMDgyMjQ2NzgwNCwgLTAuMDgwMTUyMDk0MzY0MTY2MjYsIDAuNDI4MDE1MzgxMDk3NzkzNiwgLTAuNTIyOTY0MTc5NTE1ODM4NiwgLTAuMDQ2OTg1NDczNDgzODAwODksIC0wLjU2MzIzMzAxNzkyMTQ0NzgsIDAuNDI3MzE0OTM3MTE0NzE1NiwgMC4yMjk4OTg2OTExNzczNjgxNl0sIFstMC40ODU5MDE4OTIxODUyMTEyLCAwLjQwNTEwMjMxMjU2NDg0OTg1LCAwLjMwODI1NzE5MjM3MzI3NTc2LCAwLjY3NTE3NjkxODUwNjYyMjMsIDAuMzk2OTM4MjY0MzY5OTY0NiwgLTAuMzIzNDI3MjAwMzE3MzgyOCwgLTAuNDU0NDczNzkzNTA2NjIyMywgMC4xMjk1MTg2MjgxMjA0MjIzNiwgMC4xNTI5MTg5NjQ2MjQ0MDQ5LCAwLjUyODUyNTExNDA1OTQ0ODIsIC0wLjA4MjIyODA1NzA4NjQ2Nzc0LCAwLjM3MzE5MzIwNDQwMjkyMzYsIDAuMDQ5OTI3MzUwMTMzNjU3NDU1LCAwLjE1MzgzMjE2NzM4NzAwODY3LCAtMC40ODQyMDYzMTg4NTUyODU2NCwgLTAuMTQxOTk5NDUzMzA2MTk4MTJdLCBbLTAuMDg3NTc1MDEwOTU1MzMzNzEsIDAuMTY2NjYyNzUyNjI4MzI2NDIsIDAuMTY0NzA0MzA3OTEzNzgwMiwgMC4xMzAzNjUyMjI2OTI0ODk2MiwgMC4zMjAyNzczOTI4NjQyMjczLCAwLjA1ODI5Mzg1NjY4MDM5MzIyLCAtMC4wODM2NDcxMTcwMTg2OTk2NSwgLTAuMDEwNTk3ODg2NTE3NjQzOTI5LCAwLjM2NDc4MjE1NDU2MDA4OTEsIDAuMDk5NDk4OTg3MTk3ODc1OTgsIDAuMjQzNTg4OTg0MDEyNjAzNzYsIC0wLjA2NTAxMzk0NTEwMjY5MTY1LCAwLjA3OTY1NjM5MjMzNTg5MTcyLCAwLjA3OTE4NzkxNDcyOTExODM1LCAwLjIxMzAzOTg4OTkzMTY3ODc3LCAtMC4wNDEwNTA1OTgwMjUzMjE5Nl0sIFswLjAyNzQ3MDMwMzY5OTM3NDIsIDAuMjgzMTA3NzU3NTY4MzU5NCwgLTAuMzA3NjA1NTA0OTg5NjI0LCAwLjI1MjEzOTE1MTA5NjM0NCwgMC4yMjM0OTAyOTc3OTQzNDIwNCwgLTAuMTQ4OTI0MzY1NjM5Njg2NTgsIC0wLjE3ODMzMDMxNzEzOTYyNTU1LCAtMC4wNjkwODM5OTYxMTcxMTUwMiwgMC40OTk1NzEyMzM5ODc4MDgyLCAwLjQ0OTkyODk2OTE0NDgyMTE3LCAtMC40NzQ1NzIwNjI0OTIzNzA2LCAwLjI4MDQ1NjMwNDU1MDE3MDksIC0wLjA1NjIyMDMzMDI5Nzk0NjkzLCAwLjQ2NTc3OTMzNDMwNjcxNjksIC0wLjEzNzA3MDQzMjMwNTMzNiwgLTAuMDU2ODYzMDA5OTI5NjU2OThdLCBbMi4yNjU0NTcxNTMzMjAzMTI1LCAtMS45MDgyMzEwMTk5NzM3NTQ5LCAxLjYwMDMzNjU1MTY2NjI1OTgsIC0xLjg5NzMyNTk5MjU4NDIyODUsIC0xLjQwMTEzMjU4MzYxODE2NCwgMS45NzEzODg4MTY4MzM0OTYsIDIuMDY3Mzg2ODY1NjE1ODQ0NywgMS4xMDA1Mjk5MDkxMzM5MTExLCAtMS4yMDg0NzQ4NzQ0OTY0NiwgLTEuMjI4NzAwMTYwOTgwMjI0NiwgMi4xNjMyOTM2MDAwODIzOTc1LCAtMS40MTg3NzQ2MDQ3OTczNjMzLCAtMC41NTk2MTg5NDk4OTAxMzY3LCAtMS41ODk2NjI3OTAyOTg0NjIsIDIuMDg4MzQ4MTUwMjUzMjk2LCAxLjQwMzIzNDAwNDk3NDM2NTJdLCBbMC4wMTcxMjI2NTYxMDY5NDg4NTMsIDAuMjM0NzQ3MjE2MTA1NDYxMTIsIDAuMjcyMzkxNzk2MTEyMDYwNTUsIDAuMDU0ODUxMjg2MTEzMjYyMTc3LCAtMC41MTAwMzI2NTM4MDg1OTM4LCAwLjEwNzc2OTY0NTc1MDUyMjYxLCAwLjM2ODgxMzAwODA2OTk5MjA3LCAtMC4wNzA5MjIyMjU3MTM3Mjk4NiwgLTAuMDQ2MTcxOTkzMDE3MTk2NjU1LCAtMC41Njc5NDg0NjA1Nzg5MTg1LCAwLjQ4MjgyNTYwNzA2MTM4NjEsIC0wLjkzNDk2MzU4Mzk0NjIyOCwgLTAuMTI2OTIzNDI2OTg1NzQwNjYsIC0wLjYxODA4MDg1NDQxNTg5MzYsIDAuMzUxNjA3NDQxOTAyMTYwNjQsIDAuMzI2MTk0MDc3NzMwMTc4ODNdXSwgWzAuMDcwMDcwNDYwNDM4NzI4MzMsIDAuMTU4MzI4NjM3NDgwNzM1NzgsIDAuMDg1NjEzMzI1MjM4MjI3ODQsIDAuMTQxNjc0Njk3Mzk5MTM5NCwgMC4xNDk1OTQzNjY1NTA0NDU1NiwgMC4xNDYzMDY2MDQxNDY5NTc0LCAwLjAyMTQ4MzM5MTUyMzM2MTIwNiwgMC4wNjMyNjYzNzQxNzA3ODAxOCwgMC4xMTU0OTI0NjMxMTE4Nzc0NCwgMC4xMjAwNjg2OTkxMjE0NzUyMiwgMC4wOTM0MzMyODMyNjk0MDUzNiwgMC4wNjU1MzMxOTA5NjU2NTI0NywgMC4xMDYxOTg0MzAwNjEzNDAzMywgMC4xNDkxNzEwNTQzNjMyNTA3MywgMC4wMjkwNDM4MjM0ODA2MDYwOCwgMC4wOTkwMTA5MzY5MTU4NzQ0OF0sIFtbLTEuNDAwNjQ1MjU2MDQyNDgwNV0sIFswLjk4MzIxNjc2MjU0MjcyNDZdLCBbLTEuMDAxMzMyNzU5ODU3MTc3N10sIFsxLjAzNjkzNzQ3NTIwNDQ2NzhdLCBbMS44MjcyMzA4MTExMTkwNzk2XSwgWy0xLjI1OTAzNjMwMjU2NjUyODNdLCBbLTEuMzQ1ODMwMDgyODkzMzcxNl0sIFstMC4zNjEwMjM5NjI0OTc3MTEyXSwgWzAuNDYzMzg5NTc1NDgxNDE0OF0sIFsxLjQzMzI5NDc3MzEwMTgwNjZdLCBbLTEuMzQ4MzE1OTU0MjA4Mzc0XSwgWzEuNjMwMTg4MTA3NDkwNTM5Nl0sIFstMS40NTYwMjM0NTQ2NjYxMzc3XSwgWzAuODIyNTg2NTk2MDEyMTE1NV0sIFstMS4zNDcwMTY4MTEzNzA4NDk2XSwgWy0wLjYxNDkxMjc0ODMzNjc5Ml1dLCBbMC4xMTkzNDU0MDQyMDc3MDY0NV1d", "metrics": {"loss": 0.157983, "accuracy": 0.937443, "auc": 0.984102, "precision": 0.935841, "recall": 0.946678}}