{"round": 5, "weights_b64": "W1tbLTAuODQxMDAyOTQxMTMxNTkxOCwgMC4xMzgzNDA3MTE1OTM2Mjc5MywgMC4wNjUxNDU2ODYyNjg4MDY0NiwgMC4wNDczOTIyNDE2NTY3ODAyNCwgMC4xNDA1ODkyOTY4MTc3Nzk1NCwgMC4xMDU2NDA5MDMxMTUyNzI1MiwgMC4wOTQwNjEwMzE5Mzc1OTkxOCwgLTAuMDU1NjQ3MjMxNjM4NDMxNTUsIDAuMzA1MTE3NzI2MzI1OTg4NzcsIC0wLjIxMDUwMjM1NjI5MDgxNzI2LCAwLjI1MDk4MTE1MjA1NzY0NzcsIDAuMDg2Njg5OTA0MzMyMTYwOTUsIDAuMDMyMjU0MTc0MzUxNjkyMiwgLTAuMTU3MjE1NDYxMTM0OTEwNTgsIC0wLjI4MjE2MDEwMzMyMTA3NTQ0LCAtMC4xNzA2NjE1NTM3NDA1MDE0LCAwLjA0ODc2ODg4NTQzMzY3Mzg2LCAwLjAyNjcxNjAzNDg1OTQxODg3LCAwLjAzNzkxNjYyMzA1NTkzNDkwNiwgLTAuMDM4MDk3OTczOTEyOTU0MzMsIDAuMzg5NTU0MTQyOTUxOTY1MzMsIC0wLjAwODI3NzkzODcwMTIxMjQwNiwgMC4wNTk1MDgxMTEzMjc4ODY1OCwgLTAuMDg2MTA1NjE0OTAwNTg4OTksIC0wLjE1MDM0Mzk1NDU2MzE0MDg3LCAwLjExOTAzOTY1NDczMTc1MDQ5LCAwLjA3NjUzNTcyNDEwMzQ1MDc4LCAtMC4xNDYyNjYwMTMzODM4NjUzNiwgLTAuMDAwNjc1ODgxMjgxNDk1MDk0MywgMC4wMTc2MDExNjk2NDU3ODYyODUsIC0wLjA3ODcwMDExMDMxNjI3NjU1LCAwLjAwNTMyNzcwMDE3MTYxOTY1NF0sIFstMC43ODE3MjQ5Mjk4MDk1NzAzLCAtMC41ODY2ODIxNDA4MjcxNzksIC0wLjAxMjE1MzgwNDMwMjIxNTU3NiwgLTAuMDcyMjY4OTYyODYwMTA3NDIsIC0wLjQ2NTc0MDIwMzg1NzQyMTksIDAuMDczNDQyNzg2OTMxOTkxNTgsIC0wLjAxODI1MjkwMTczMjkyMTYsIDAuMjMwMDMyNjY3NTE3NjYyMDUsIDEuMTUyMDIwMzM1MTk3NDQ4NywgMC40NTE3MzgwNTk1MjA3MjE0NCwgMS4xMzM2Nzg5MTMxMTY0NTUsIC0wLjM1NTYyMTgxNDcyNzc4MzIsIC0wLjA5MTE4MTIzMzUyNTI3NjE4LCAxLjc4MzgwNjgwMDg0MjI4NTIsIC0wLjAzNTY3MDg2NTMyNzExOTgzLCAwLjE4NzUxODcxNTg1ODQ1OTQ3LCAwLjQzNzQ4NzQ1MzIyMjI3NDgsIDAuMjg4NDg0NDgzOTU3MjkwNjUsIC0wLjUxNDQyNjk0NjY0MDAxNDYsIDAuMDI3MDc2NTQ5ODI4MDUyNTIsIDEuMjg2NTA4MjAyNTUyNzk1NCwgLTAuNDY5MDc1NTAwOTY1MTE4NCwgLTAuMDQyNDU2MjU4MDg4MzUwMjk2LCAwLjU5NzcyOTMyNTI5NDQ5NDYsIDAuMDQwNDg3Mzc1MTEwMzg3OCwgLTAuMTY2Mzc2MDg0MDg5Mjc5MTcsIDAuNzU0MTg2ODY4NjY3NjAyNSwgMC4yNzgwMzg4NTkzNjczNzA2LCAtMC4xMDcyMzE2NjE2NzczNjA1MywgMC4zNDU5NTE4ODQ5ODQ5NzAxLCAtMC4xMzE3OTIzMjE4MDExODU2LCAtMC4yNzA0NzYxMzI2MzEzMDE5XSwgWy0wLjkxMTE1NjQxNTkzOTMzMSwgLTEuMDc5OTE1Mjg1MTEwNDczNiwgMC4wMTYzOTkwMzg5NTU1NjkyNjcsIC0wLjAxOTgwMDU0OTM3MzAzMDY2MywgLTAuMjgzODk3MzcwMTAwMDIxMzYsIDAuMjM4OTk5NjQ5ODgyMzE2NiwgLTAuMTI1NjE5NzM5Mjk0MDUyMTIsIDAuNDMxNDM4MzI2ODM1NjMyMywgMC41OTI5NDIyMzc4NTQwMDM5LCAtMC4yNDg3OTM3ODA4MDM2ODA0MiwgLTAuMDE0NzMwNDY5MzIzNjk0NzA2LCAtMC42MzUyMjY4NDU3NDEyNzIsIC0wLjI1ODgzOTI3OTQxMzIyMzI3LCAtMC4wNzY2OTg3NDI4MDY5MTE0NywgMC4wODI2MTEzODIwMDc1OTg4OCwgMC4wNjE5NDkwNDQ0NjYwMTg2OCwgMC4yMTgzMzE4NzM0MTY5MDA2MywgMC4xNjQyMzA4NTMzMTkxNjgxLCAtMC41NDUzMDAxMjYwNzU3NDQ2LCAtMC4xNjk3NzUxNDMyNjU3MjQxOCwgMC4yMTk2NzE5OTQ0NDc3MDgxMywgLTEuMTg5OTU2Nzg0MjQ4MzUyLCAtMC4wNzQ0OTE4Mjg2ODAwMzg0NSwgLTAuMjI5Mzg5MTkwNjczODI4MTIsIC0wLjIxMjA0NzAyNTU2MTMzMjcsIC0wLjU3NzY1NzkzODAwMzU0LCAwLjM4ODE1NTQwMDc1MzAyMTI0LCAwLjA5Mzg4MjE3MzI5OTc4OTQzLCAtMC40OTMwMjQ2NDcyMzU4NzAzNiwgMC41NjQwMTQxOTYzOTU4NzQsIC0wLjQxNDgxMDAwMTg1MDEyODIsIDAuMDQyODk1MTMwODEzMTIxNzk2XSwgWy0wLjA4MjQ5MjkyNTIyNjY4ODM5LCAwLjA5MzAyNDQ4NDgxMzIxMzM1LCAtMC4zMzE1NDk0NjU2NTYyODA1LCAtMC43MDg4NjIwMDY2NjQyNzYxLCAtMC4yMDU0MzQ2NTAxODI3MjQsIDAuMTI1MzY1NDIxMTc1OTU2NzMsIC0wLjY3MTQ5MTk4MDU1MjY3MzMsIDAuMzA4MTU1MjY4NDMwNzA5ODQsIDAuNTI1NTA3MjExNjg1MTgwNywgMC4xODk4ODEzMjQ3NjgwNjY0LCAwLjg3ODg5NzMwOTMwMzI4MzcsIC0wLjE3NjgwMjc1NDQwMjE2MDY0LCAtMC4wMjQyNzk2NjcwNjQ1NDc1NCwgMC41ODgzNTk4MzI3NjM2NzE5LCAtMC4xMTIzMDU5ODM5MDEwMjM4NiwgMC4xMDQwNDQ2OTgxNzg3NjgxNiwgMC4xMDUzMzIwOTE0NTA2OTEyMiwgMC40MjEyODQ3OTQ4MDc0MzQxLCAtMC4xNDU5NjE1NTI4NTgzNTI2NiwgLTAuMTMxMjkwMTIyODY2NjMwNTUsIDAuODE0NjM0NDQyMzI5NDA2NywgLTAuMDAxMjg2NDQ1MTg1NTQyMTA2NiwgMC4wMjkxOTM1NDEwMzUwNTYxMTQsIDAuNDE0OTYzNzgxODMzNjQ4NywgLTAuMDI0NzM3OTM5MjM4NTQ4MjgsIC0wLjIyOTE2ODI5NTg2MDI5MDUzLCAwLjUzNDk2NjUyODQxNTY3OTksIDAuMDYwMTg2MzQ4ODU1NDk1NDUsIC0wLjM3MzY0ODk0MTUxNjg3NjIsIDAuMDI3ODA5Mzc1ODk3MDQ5OTA0LCAtMC4xNDM4MDQwNDM1MzE0MTc4NSwgLTAuNjY0NTcxMjg1MjQ3ODAyN10sIFstMS40NTA1MzI0MzYzNzA4NDk2LCAtMS4wNTk3MzU1MzY1NzUzMTc0LCAtMC4wMTEyNjExNTAyNDA4OTgxMzIsIDAuMTI0NTM4NDUxNDMzMTgxNzYsIDAuMDMyNDE2NTc0NjU2OTYzMzUsIC0wLjA1NTc2NDEwMTQ0NTY3NDg5NiwgMC4xMTk1MDM3NjYyOTgyOTQwNywgLTAuMzA1ODQ5NDkyNTQ5ODk2MjQsIDAuNDgzNDA2OTMxMTYxODgwNSwgLTAuMTEyOTAwMjcyMDExNzU2OSwgMC4xNjU1NzA0Njc3MTA0OTUsIC0wLjY5MjkwMjk4MjIzNDk1NDgsIDAuMDY5NjQ0MTk3ODIxNjE3MTMsIDAuMjAzMDg1Njc1ODM1NjA5NDQsIDAuMTg1ODU3ODMyNDMxNzkzMiwgLTAuMjMwNjY5OTAwNzc0OTU1NzUsIC0wLjE0MTMyNzQ0MDczODY3Nzk4LCAtMC4wNjA5ODcwOTI1NTQ1NjkyNDQsIC0wLjYxMDc0MTM3Njg3NjgzMSwgLTAuMDk1MjA4NTAzMzA1OTEyMDIsIDAuMjgyOTM2ODQxMjQ5NDY1OTQsIC0yLjExNTA4Nzk4NTk5MjQzMTYsIC0wLjI3MDIyNDIxMzYwMDE1ODcsIC0wLjE5NjI3MzUzNTQ5MDAzNiwgLTAuMDE1NTcxMzQ3NDM3Nzk4OTc3LCAtMC4zNTEwMzIxMzc4NzA3ODg2LCAwLjU2NzA0NzQ3Njc2ODQ5MzcsIDAuMDQ5NDc3NDQ2ODI0MzEyMjEsIC0wLjA5OTY1MjUyODc2MjgxNzM4LCAwLjQzMDMzMjI3MzI0NDg1NzgsIC0wLjQ2NzY3MTkwMDk4NzYyNTEsIC0wLjAwNjY4NzE0ODQ3NDE1Njg1NjVdLCBbMC4wMzU0NTcyNjA5MDY2OTYzMiwgMC4wOTU5MjIyOTEyNzg4MzkxMSwgMC4wMTkxMTgyNzczNTYwMjg1NTcsIDAuNDg2MzU0ODg3NDg1NTA0MTUsIC0wLjAwNTQyMzA2OTkzMTU2NjcxNSwgLTAuMDY1OTcyMjMxMzI4NDg3NCwgLTAuMDI3MTEwMjQ4ODA0MDkyNDA3LCAtMC4wOTI1MTQyOTE0MDU2Nzc4LCAwLjI1NjgxMTczODAxNDIyMTIsIDAuMjg1MTQ4NzM5ODE0NzU4MywgLTAuMDU3MDU4NTA5NDM5MjI5OTY1LCAwLjAwNDM5NzExMTAxMzUzMTY4NSwgMC4wMzE4MDkzNDQ4ODc3MzM0NiwgLTAuMDAwNDk0NTgxMTgxNTU1OTg2NCwgLTAuMTM3NzAyNTk5MTY3ODIzOCwgMC4xOTM0NjgzNjIwOTI5NzE4LCAtMC4yODgwMzMwNjgxODAwODQyMywgMC4wNjY2MjA3NjcxMTY1NDY2MywgMC4wMjE5Mjk1NzMyNjc2OTgyODgsIC0wLjIzNDE4NjMyMTQ5Njk2MzUsIDAuMjMxNTI2ODUxNjU0MDUyNzMsIDAuMDc1MjI1ODU5ODgwNDQ3MzksIDAuMDA4MDcwNzY2OTI1ODExNzY4LCAtMC4wMDkxMDc3NTM2MzQ0NTI4MiwgLTAuMTUyNzg5MzA5NjIwODU3MjQsIDAuMTEzNjY5MzczMDk1MDM1NTUsIDAuMTE1MzY2MDQxNjYwMzA4ODQsIDAuMTEyNjU2MTYxMTg5MDc5MjgsIDAuMDgzNTE4NDAwNzg4MzA3MTksIDAuMDEwODU0OTgzNzAyMzAxOTc5LCAwLjA3MDY2ODQ1ODkzODU5ODYzLCAtMC4wMTQwMzIzOTM2OTM5MjM5NV0sIFswLjI0MDE0NDUwNjA5NjgzOTksIC0wLjAyMTc5NzQ4Mzc4Njk0MDU3NSwgLTAuMDQyOTExNzAwOTA0MzY5MzU0LCAwLjIwMTE1NDY3OTA1OTk4MjMsIDAuMTQ2MjEzMzA3OTc2NzIyNzIsIDAuMTQyODI2ODU1MTgyNjQ3NywgMC4xNDk5NjA0Mjg0NzYzMzM2MiwgMC4wNDAxMzA1NDgxNzkxNDk2MywgMC4xMzE0NDY4MDg1NzY1ODM4NiwgMC4yNDg2NDgzMDA3NjY5NDQ4OSwgMC4yNDU3MTU4MjY3NDk4MDE2NCwgMC4wODUwNzEyMzU4OTUxNTY4NiwgLTAuMTc1NjE1ODQ3MTEwNzQ4MywgMC4xMjgxODE2OTU5MzgxMTAzNSwgLTAuMDM1NjU5MjIzNzk0OTM3MTM0LCAwLjA5NTIzNzIyNTI5NDExMzE2LCAtMC4xNDY0MDg4MjYxMTI3NDcyLCAwLjIwNTQ5MjUyNjI5MjgwMDksIC0wLjAxNjYxODQxMDEyNTM3NDc5NCwgLTAuMDI0NjE0NTc0Mzg3NjY5NTYzLCAtMC4xODUwNzI0MjIwMjc1ODc5LCAwLjEzMTc1MDUyNDA0NDAzNjg3LCAtMC4wOTQ5MzExNDA1NDIwMzAzMywgMC4wMjE4NTkyNjk1ODkxODU3MTUsIDAuNjIxNjI0NTg4OTY2MzY5NiwgLTAuMjI5OTQ1MzMxODExOTA0OSwgMC4wOTE4ODczNjk3NTE5MzAyNCwgLTAuMTI1NTQ3MTU1NzM3ODc2OSwgLTAuMDQ3MDY1NTExMzQ1ODYzMzQsIDAuMjI2ODc4MDE3MTg3MTE4NTMsIC0wLjEzOTY3ODM0NDEzMDUxNjA1LCAwLjI0MzExMTQwMTc5NjM0MDk0XSwgWzMuNTg4MzM4ODUxOTI4NzExLCAyLjEyMDE5NzI5NjE0MjU3OCwgMC44MzI2NTkzMDQxNDE5OTgzLCAxLjExMDQ3MzUxMzYwMzIxMDQsIDAuNTE2ODc1OTIyNjc5OTAxMSwgLTAuMzkwNzMxNjkyMzE0MTQ3OTUsIDAuODAxOTQwNzM5MTU0ODE1NywgLTAuNjY2NDEwNDQ2MTY2OTkyMiwgLTMuMzUxMDE1NTY3Nzc5NTQxLCAtMC42OTM5MTE3MzEyNDMxMzM1LCAtMy4zODkzMDU1OTE1ODMyNTIsIDEuMTIxNDE0MTg0NTcwMzEyNSwgMC43NDUyODE0NTc5MDEwMDEsIC0wLjk2NzUzMDc4Njk5MTExOTQsIC0wLjY4NDA2NTQ2MTE1ODc1MjQsIC0wLjczOTU4ODQzOTQ2NDU2OTEsIC0wLjI4NjgxMzYxNjc1MjYyNDUsIC0wLjg3MDcwNDQxMjQ2MDMyNzEsIDEuMDg5NjQ4NjA0MzkzMDA1NCwgMC43NjgzOTIyMDUyMzgzNDIzLCAtMy40NDYzNDAwODQwNzU5Mjc3LCAtMS43NDk3MDQwMDMzMzQwNDU0LCAtMC4xMDA1MTIyOTU5NjEzOCwgLTAuNzM2NzUzODIxMzcyOTg1OCwgMS4wMjIyMDgyMTM4MDYxNTIzLCAwLjg2MjgxMTIwNzc3MTMwMTMsIC0yLjUxOTIxODkyMTY2MTM3NywgMC45OTM2OTkxOTMwMDA3OTM1LCAwLjg1OTM5MjUyMzc2NTU2NCwgLTAuNjYwNDg1NTY1NjYyMzg0LCAxLjE0NDg2NTAzNjAxMDc0MjIsIDAuODA0Nzk4MjQ1NDI5OTkyN10sIFswLjA4ODEwNzYxNTcwOTMwNDgxLCAtMC4xOTU5NDY5MzE4Mzg5ODkyNiwgLTAuNDI3MTc3NDI5MTk5MjE4NzUsIC0wLjQ3NTQ4OTU4NjU5MTcyMDYsIC0wLjI3NzE2MjA3NTA0MjcyNDYsIDAuMTU4OTQ3MTU0ODc5NTcsIC0wLjU0MzM3NDI0MDM5ODQwNywgMC4yODM4Mzc3OTUyNTc1NjgzNiwgLTAuMDAxMTM5MzYzMzkwMzkzNTU1MiwgLTAuMjI1NjcxODU3NTk1NDQzNzMsIDAuMzU5MjczNDkzMjg5OTQ3NSwgLTAuMzQwNzYzMjQxMDUyNjI3NTYsIC0wLjA5MDA4NTEwNDEwNzg1Njc1LCAtMC4xNDIzODM3NTQyNTMzODc0NSwgLTAuMjAyNTYxMTY5ODYyNzQ3MiwgMC4yMDUxMjI2NjQ1NzA4MDg0LCAwLjYwNDMwNjEwMTc5OTAxMTIsIDAuNTExNjA1Nzk5MTk4MTUwNiwgLTAuMjU2MDQ2MTE2MzUyMDgxMywgLTAuMDk5NzE1NjUwMDgxNjM0NTIsIC0wLjA3OTM2MzgzNzgzODE3MjkxLCAtMC4yNzg2OTUxMDY1MDYzNDc2NiwgMC4yMDIwMjg2OTE3Njg2NDYyNCwgMC4xMDIyODYwNzA1ODUyNTA4NSwgLTAuMDk4NDk5NjQwODIyNDEwNTgsIC0wLjQ2NjkyMDYxNDI0MjU1MzcsIDAuMTc4NDQxNTg0MTEwMjYsIDAuMDc3MjUxMTY2MTA1MjcwMzksIC0wLjI0NTI0MDM5MDMwMDc1MDczLCAwLjI3NTI4MDg5Mjg0ODk2ODUsIC0wLjIzNTgwNDcyMTcxMzA2NjEsIC0wLjI0MTc0NjQ4NTIzMzMwNjg4XSwgWy0yLjE4MzEyMjM5NjQ2OTExNiwgLTIuNDI0NDQ0OTEzODY0MTM1NywgMC4wODQxNTUzOTU2MjcwMjE3OSwgMC4xODMwNTQxMzQyNDk2ODcyLCAtMC40ODU3MjkzMzY3Mzg1ODY0LCAwLjE2MjE0OTg3NjM1NjEyNDg4LCAwLjAwOTM3MDY1ODU0NjY4NjE3MiwgMC40MTYwNDE3MzE4MzQ0MTE2LCAwLjA4NTc2MTc4NTUwNzIwMjE1LCAtMC4wMjA4OTc1MzE4ODE5Mjg0NDQsIC0wLjE2OTkzMDYwNzA4MDQ1OTYsIC0xLjMxODExMzU2NTQ0NDk0NjMsIC0wLjE4OTE3MTkxMDI4NTk0OTcsIDAuMjk5NDkzMjUzMjMxMDQ4NiwgMC40MTQ2OTEzNTg4MDQ3MDI3NiwgMC4wMTE1MjkyMjk1ODEzNTYwNDksIDAuNDQ1NDY4NzIzNzczOTU2MywgMC40MDE0NTg2NTA4Mjc0MDc4NCwgLTEuNjMzMzM2NTQ0MDM2ODY1MiwgLTAuMDA0MDg0ODM0ODI4OTcyODE2NSwgMC4xMDk3MDA2MDUyNzMyNDY3NywgLTIuNjc4NzY4MTU3OTU4OTg0NCwgMC4yMzMyMjMwODA2MzUwNzA4LCAwLjAxODkyNjkwNTQ2ODEwNjI3LCAtMC43MTUxNDA0MDIzMTcwNDcxLCAtMS4wMzI0NzA5NDE1NDM1NzksIDAuMzgwNzczMjQ2Mjg4Mjk5NTYsIC0wLjAyNjY2NTU5NDQyODc3NzY5NSwgLTAuNzkzNjQzNzEyOTk3NDM2NSwgMC44OTk4MTYwOTU4MjkwMSwgLTEuNDQ1MDczMzY2MTY1MTYxMSwgMC4wODExMDMzMDI1MzgzOTQ5M10sIFstMC4zODQwMDIyMDg3MDk3MTY4LCAwLjE0MTQzNzg4ODE0NTQ0Njc4LCAwLjA2MTMwNDMwMTAyMzQ4MzI3NiwgMC4zOTU1ODY0OTA2MzExMDM1LCAwLjIwODc3ODQyNjA1MTEzOTgzLCAwLjA2MTY4OTY1MjUwMjUzNjc3NCwgMC41ODA1MjA1NzAyNzgxNjc3LCAtMC4wMTAwMDAxMjI3MTEwNjI0MzEsIDAuMDA2NjcwMjczODQwNDI3Mzk5LCAtMC4yMzE0MjY0Nzc0MzIyNTA5OCwgLTAuMTQwNDkyNzY3MDk1NTY1OCwgMC4xMjY2MzMwNjI5NTg3MTczNSwgMC4wNTI5OTE0Mjc0ODExNzQ0NywgMC4xOTE1NDU5NjMyODczNTM1MiwgMC4wODA5NDI4MzkzODQwNzg5OCwgMy40NTkwMjUxNzQzNzkzNDllLTA1LCAwLjAxMDExMDM2NzA4OTUwOTk2NCwgLTAuMTIzNDA3OTU5OTM4MDQ5MzIsIDAuMzE0ODk0MDgwMTYyMDQ4MzQsIDAuMDM4MDE4MjQxNTI0Njk2MzUsIC0wLjA3MzM3NjIyMzQ0NDkzODY2LCAwLjEyNjQ5MzEyNjE1Mzk0NTkyLCAtMC4wMDUxODQxNDg0MzgyNzQ4NiwgLTAuMzEzMzMyODU1NzAxNDQ2NTMsIDAuMjAwNDg2NzA0NzA3MTQ1NywgMC40MjYxNDA4NDQ4MjE5Mjk5MywgLTAuMTQ1MTcxMjM5OTcyMTE0NTYsIC0wLjA3NTM5NDc4Njg5NDMyMTQ0LCAwLjMzMDUzNDc4NTk4NTk0NjY2LCAtMC4xMzc5MzcxNDM0NDUwMTQ5NSwgMC4xMzQ5ODc1OTI2OTcxNDM1NSwgMC4yOTUwMjUwNTA2NDAxMDYyXSwgWzAuMDg0OTMyMDk2MzAyNTA5MzEsIDAuMTQ4MTY5Mzk4MzA3ODAwMywgLTAuMTM5NzYyOTY3ODI0OTM1OSwgLTAuMTEwMzI0OTM0MTI0OTQ2NiwgMC4yMjE0NTc4OTg2MTY3OTA3NywgMC4wMTc0ODkwODQ5NzM5MzEzMTMsIC0wLjAxMjU5MTk3Mjk0NzEyMDY2NywgLTAuMTgwNzcyMzY0MTM5NTU2ODgsIC0wLjExOTM1MzIyNzMxNzMzMzIyLCAtMC4yOTI4MjY3NDE5MzM4MjI2MywgLTAuMTg2NDE0NDY1MzA4MTg5NCwgMC4xODkwNzgwMDMxNjgxMDYwOCwgMC4xNzkzOTAzNDEwNDM0NzIzLCAtMC4zNTc0MzUzNDU2NDk3MTkyNCwgLTAuMDgyMjI0OTY1MDk1NTIwMDIsIC0wLjAwODUwOTAyMTI1MjM5MzcyMywgLTAuMTYxNjcwNzc0MjIxNDIwMywgLTAuMTE2MDAwODMxMTI3MTY2NzUsIC0wLjAxMzQwNzg0NTA1MDA5NjUxMiwgLTAuMTEwNjY4ODY3ODI2NDYxNzksIC0wLjMwMDUwNDQxNjIyNzM0MDcsIDAuMTY4NzYwNTUzMDAyMzU3NDgsIC0wLjEzNDY5NTM4MDkyNjEzMjIsIC0wLjM5NDE0OTE4NDIyNjk4OTc1LCAwLjEwODUzNTk4MjY2ODM5OTgxLCAwLjE0Mzc1NDI3MzY1MzAzMDQsIC0wLjMwMTI1MjM2NTExMjMwNDcsIC0wLjA0ODUxMzE0NDI1NDY4NDQ1LCAwLjIwMTc3MjUxMTAwNTQwMTYsIC0wLjA2MTc3NjY2NzgzMzMyODI1LCAwLjAzOTYzODgyODQ4NjIwNDE1LCAtMC4xNjExMjc0OTI3ODU0NTM4XSwgWzAuMTMzNTQ4NjQ3MTY1Mjk4NDYsIDAuMDg1MjIxNjMzMzE1MDg2MzYsIC0wLjEwMjE5ODU4NTg2Nzg4MTc3LCAtMC4wNjM1NTA3MDMyMjc1MTk5OSwgMC4xMjQxNDE3MzAzNjgxMzczNiwgMC4wOTM4NDc5NDUzMzI1MjcxNiwgLTAuMTExODMzODg1MzEyMDgwMzgsIC0wLjAxMjAzMDEzNTg0MDE3NzUzNiwgMC4yODIyMDAyMTcyNDcwMDkzLCAtMC4yNjYwMTM1NjI2NzkyOTA3NywgMC4yMDI0ODU2NTA3Nzc4MTY3NywgLTAuMDEzMDgyNDgwOTg5Mzk2NTcyLCAtMC4wOTUxNDc5NjczMzg1NjIwMSwgLTAuMTQ0MDg2NzE4NTU5MjY1MTQsIDAuMTIzODIyNTk5NjQ5NDI5MzIsIDAuMDAxNjg0MDI0NDY0MzM5MDE3OSwgLTAuMDg0NTY0ODg2OTg3MjA5MzIsIC0wLjAzOTQ4NDg3MzQxNDAzOTYxLCAwLjE0MDYzODczODg3MDYyMDczLCAwLjE5Nzg3NDk5MzA4NTg2MTIsIC0wLjA3NTE4MDYyNzQwNTY0MzQ2LCAwLjA2NDI1OTI3NTc5NDAyOTI0LCAwLjAyODQyMTg5NTU3ODUwMzYxLCAtMC4yNjcxMzM4MDIxNzU1MjE4NSwgMC4wODkyMTE1NTMzMzUxODk4MiwgMC4wMDQyMTQ3Njg3NjM2MzE1ODIsIC0wLjM0NzM2MTIwNzAwODM2MTgsIC0wLjEzOTQ1NjgwODU2NzA0NzEyLCAtMC4wNDAyMjQ0MzI5NDUyNTE0NjUsIDAuMDc2ODI2NDUzMjA4OTIzMzQsIDAuMTY2NjExMDQ1NTk4OTgzNzYsIC0wLjAwMTI0MjU0NjcxMzkxMDk5N10sIFstMS40MTU0NzQ4OTE2NjI1OTc3LCAtMC4zNzk5ODg0OTE1MzUxODY3NywgLTAuMjYwNjkzMTYyNjc5NjcyMjQsIDAuNTI2NjI1NzUyNDQ5MDM1NiwgLTAuMjgyOTcxOTc4MTg3NTYxMDQsIDAuNDI4NDQ1MjE5OTkzNTkxMywgMC4zMzc1MDM1NTI0MzY4Mjg2LCAwLjM5ODE5MzI2OTk2ODAzMjg0LCAtMC4wMjcxNzQ0OTg4ODU4Njk5OCwgLTAuMTEzNzcwMTcxOTk5OTMxMzQsIC0wLjMwMTkwMDk4Mjg1Njc1MDUsIC0wLjUzNzgwMjIxOTM5MDg2OTEsIC0wLjM2ODc3MTA3NjIwMjM5MjYsIC0wLjMzOTc5Mjc1ODIyNjM5NDY1LCAwLjQ2Njc0MjYzNDc3MzI1NDQsIDAuMTQyOTM5OTI1MTkzNzg2NjIsIDAuMzY5MDQ4OTUzMDU2MzM1NDUsIDAuMDU4MzQzNTg5MzA1ODc3Njg2LCAtMC41MzA4MjAwMTIwOTI1OTAzLCAtMC4zNzgwMzc1NzE5MDcwNDM0NiwgLTAuNTAxMzE4OTMxNTc5NTg5OCwgLTAuNTUxNzY4MzAyOTE3NDgwNSwgMC40NDQ5Mjg1MjY4NzgzNTY5MywgMC4yODU0MDA4Mzc2NTk4MzU4LCAtMC41NTA2NTQwNTM2ODgwNDkzLCAtMC4xNzgwNTM1ODc2NzUwOTQ2LCAtMC4zNjk3MzEyNDc0MjUwNzkzNSwgLTAuMzY2NDY3NzczOTE0MzM3MTYsIC0wLjI3ODU0MTIzNzExNTg2LCAwLjE2ODE4MDM3NjI5MTI3NTAyLCAtMC41MTMxMDE0NTg1NDk0OTk1LCAwLjU4ODQ5NDQyMDA1MTU3NDddLCBbLTAuMDkzOTA1NDc4NzE1ODk2NiwgMC4wMDcxMzE2MzE0ODYxMTc4NCwgLTAuMTIzODUyNzg5NDAyMDA4MDYsIC0wLjAxMzUwMDIxMjY5MTcyNDMsIDAuMjI1NjM5ODk0NjA0NjgyOTIsIDAuMDIyNTgxMTY3NTE5MDkyNTYsIC0wLjIzNjkxODM4OTc5NzIxMDcsIC0wLjIzMjE3NzkxMzE4ODkzNDMzLCAtMS4xMDIxNjU0NjA1ODY1NDc5LCAtMC41MDc5ODE3NzcxOTExNjIxLCAtMC40Njc3ODU2NTY0NTIxNzg5NiwgMC4wNzg2NDMzOTY0OTY3NzI3NywgMC4wMTY3Mjg1NTc2NDYyNzQ1NjcsIC0wLjMzNTg4Nzc1OTkyMzkzNDk0LCAtMC4xMjIyODMzNjkzMDI3NDk2MywgLTAuMTI0MDk4NzEwNzE1NzcwNzIsIC0wLjAxNTA3NDU5OTUzNDI3MzE0OCwgLTAuMDExODcyNjUwMTI0MTMyNjMzLCAwLjA1NDU1NTk2MzcyNDg1MTYxLCAwLjA0MTIwMjQyOTY4MjAxNjM3LCAtMS4wODU4NjgzNTg2MTIwNjA1LCAwLjIwNjcwNjg1MTcyMDgwOTk0LCAwLjA3MTM4MjMyODg2NzkxMjI5LCAtMC4xNjI2ODI0MTQwNTQ4NzA2LCAwLjA1NDIwNDc4NDMzMzcwNTksIDAuMDQwMTc5NjEzOTc3NjcwNjcsIC0wLjIzNjAzOTU0OTExMjMxOTk1LCAwLjAzNjk0ODM3OTEyOTE3MTM3LCAwLjE4OTMxMDY2OTg5ODk4NjgyLCAtMC4xNzc4NTYzODU3MDc4NTUyMiwgMC4xMDUzMTc5MjA0NDYzOTU4NywgMC4wMTUzNzQ4OTIzOTEyNjQ0MzldLCBbLTAuMDE3NjYwNzg5MTkxNzIyODcsIDAuMDExMzg3NDQ1MDMyNTk2NTg4LCAwLjAwOTAwOTU3NTQ3MTI4MjAwNSwgLTAuMDA5NjA2OTUxODQ3NjcyNDYyLCAwLjAyNDQ4OTcwODI0NDgwMDU2OCwgMC4wMzAzMTIzOTg0NDg1ODY0NjQsIDAuMDA0MjQxODQyMzEwODc1NjU0LCAtNC42NzY3NzYwMDY4MTc4MThlLTA1LCAwLjEzMzk1MjUyODIzODI5NjUsIDAuMDkwODE4Njg4MjczNDI5ODcsIC0wLjExMjAzODkxMDM4ODk0NjUzLCAwLjAyNzkyMTIxNDY5OTc0NTE3OCwgLTAuMDMwODEyMTAxNDM4NjQxNTQ4LCAtMC4wOTAzMjE3ODY3MDE2NzkyMywgMC4wNzI5NTI5MjYxNTg5MDUwMywgMC4wMzE4ODM5MDI4NDc3NjY4NzYsIC0wLjAzODkxNTk5OTIzMzcyMjY5LCAwLjAzOTMzMTI3OTY5NTAzNDAzLCAtMC4wNDUwODAwNjk0NTI1MjQxODUsIC0wLjAwMzI0OTU5ODY2NzAyNTU2NiwgLTAuMjQ3NTU1MTUxNTgxNzY0MjIsIC0wLjAxMDEwODMxOTExMTE2ODM4NSwgLTAuMDgzNjIwMDQxNjA4ODEwNDIsIDAuMDA5NzE2MTQzODMxNjEwNjgsIDAuMTQ0ODgxNjA2MTAxOTg5NzUsIDAuMTE1NjM0Mzk2NjcyMjQ4ODQsIC0wLjEwMDU5NjQ0MjgxODY0MTY2LCAtMC4wMTAwMjQ5Njk0NjYwMzA1OTgsIDAuMDI1NDEwMDI2MzExODc0MzksIDAuMDAxNzYyNjAzNjQyNDE4OTgwNiwgLTAuMTc1MTU0ODA1MTgzNDEwNjQsIC0wLjAwNjEzNjE0Nzc3MTAzMDY2NDRdLCBbLTAuMDAzMDAyMDc2NDA5NzU3MTM3MywgMC4wMDkzNDU3MDA5NjQzMzE2MjcsIC0wLjAwNDE3MzE2MTkyNzYxMDYzNiwgMC4wMzY3MjUxMTg3NTYyOTQyNSwgLTAuMDM4MzUxNTI0NjIxMjQ4MjQ1LCAtMC4wMDUxOTE2MTE1OTE3MjY1NDE1LCAtMC4wMDI5OTk4NzI5MDA1NDU1OTcsIC0wLjAwMDM0MTAzMTIzNDcxMTQwODYsIC0wLjA3MTIyODc1NzUwMDY0ODUsIC0wLjIwOTAwMjQ2NTAwOTY4OTMzLCAtMC4xMTUxNzI1ODczMzUxMDk3MSwgMC4wNzU0NzQ5Nzc0OTMyODYxMywgLTAuMDA2MTgzMTExMTA4ODM5NTEyLCAwLjEwNzIzMjEwMTI2MTYxNTc1LCAwLjAzMDg3OTc0NzEyMjUyNjE3LCAtMC4wMjg2NTI5Mzk5NDU0NTkzNjYsIDAuMDU0NTI3NTczMjg3NDg3MDMsIDAuMTk3MDY1NjgxMjE5MTAwOTUsIC0wLjAwNzA3NjE4ODkyMTkyODQwNiwgMC4wMzc3OTcxMzQzNjk2MTE3NCwgLTAuMDE5NzY0MTQ3Njk4ODc5MjQyLCAwLjAxMDQ4OTU2OTk3NjkyNTg1LCAwLjAyNzc3NDc2NjA4NzUzMjA0MywgMC4wMDQ4NzE2Mzc1NjA0MjcxODksIDAuMDkwNTY1MTAwMzEyMjMyOTcsIDAuMDA0NzAyNDI2NDkzMTY3ODc3LCAwLjA3OTI4MzcyOTE5NTU5NDc5LCAwLjA1MDI0Nzc5NTg3OTg0MDg1LCAwLjEzMDcyNTE3NTE0MjI4ODIsIC0wLjAwNzg3OTU5ODA2NjIxMDc0NywgLTAuMDc3MDY1NDgyNzM1NjMzODUsIC0wLjAxMTc0MTE1Mzg5NTg1NDk1XSwgWy0wLjA5NTQxODk0NDk1NDg3MjEzLCAtMC4xOTAyMzM4NzEzNDA3NTE2NSwgMC4xMzc0NzAzMzQ3NjgyOTUzLCAwLjI2MDQyNTg2NTY1MDE3NywgLTAuMTI0Mzk1MTc2NzY4MzAyOTIsIDAuMDU2MzYzODU0NTU3Mjc1NzcsIDAuMTcxNzk2NDcwODgwNTA4NDIsIDAuMTg5Mjg1MzM3OTI0OTU3MjgsIC0wLjA3OTQxNTQxMDc1NzA2NDgyLCAtMC4wNDk4OTI3Mzg0NjE0OTQ0NDYsIC0wLjA3ODk4NDI3NTQ2MDI0MzIzLCAtMC4xNDI3MDMwMjY1MzMxMjY4MywgMC4xMzE3MzQwNDMzNTk3NTY0NywgMC4wMjk5ODE5NjMzMzY0Njc3NDMsIDAuMDM2MjQ0MzI1MzM5Nzk0MTYsIDAuMDk1ODg5MTI4NzQ0NjAyMiwgMC4xODkwMzQ0MDIzNzA0NTI4OCwgMC4wODQzOTE1NDE3NzkwNDEyOSwgMC4wNTM0NzU0MTM0NzE0NjAzNCwgLTAuMDQ0MTc0MDgyNTc3MjI4NTQ2LCAtMC4xODI1ODg0MTMzNTc3MzQ2OCwgLTAuMTgwMTk3MTE5NzEyODI5NiwgMC4wNTQ5NTM3NDY0OTc2MzEwNywgLTAuMDA0Mzg0OTQ2MDc4MDYyMDU3NSwgLTAuMTQ1OTQxNzE5NDEyODAzNjUsIC0wLjA2Nzc0NTAxNTAyNTEzODg1LCAtMC4xMjE0OTU0MTgyNTA1NjA3NiwgMC4xNjQ4MTA1MzgyOTE5MzExNSwgLTAuMTgzODIzMDc4ODcwNzczMzIsIDAuMTk3NzgzMTcyMTMwNTg0NzIsIDAuMDY1Njk4MDI3NjEwNzc4ODEsIC0wLjA0MzE2MjkwNDY3OTc3NTI0XSwgWzAuMTc3NDY4OTcwNDE3OTc2MzgsIDAuNTgwNjQwNjE0MDMyNzQ1NCwgLTAuMjAzNjMxNjA5Njc4MjY4NDMsIC0xLjI1MDUyMzgwNTYxODI4NjEsIDAuNTA3MjgzMTUxMTQ5NzQ5OCwgLTAuMTExNzQ2MTQ3Mjc0OTcxMDEsIC0wLjIzODkwMTY4OTY0ODYyODIzLCAtMC40NTE4MDY1MTU0NTUyNDU5NywgLTAuMjE0MDAwNDkzMjg4MDQwMTYsIC0wLjAzNTQzNjA5NzUzMjUxMDc2LCAtMC4wMzI4NDIyNzg0ODA1Mjk3ODUsIDAuMzg5MDIyMjMxMTAxOTg5NzUsIDAuMDI2OTMyNzM0OTk2MDgwNCwgLTAuMDQxODI5NDc0MjcwMzQzNzgsIC0wLjA3ODUyNDQ0MDUyNjk2MjI4LCAtMC40MzAyNjcyMTQ3NzUwODU0NSwgLTAuMjc2ODA4ODg3NzIwMTA4MDMsIC0wLjUyNzE0MjUyNDcxOTIzODMsIDAuMzI1Nzg1Mjc5MjczOTg2OCwgLTAuMDg4MzQ4MzU4ODY5NTUyNjEsIDAuMDQ0NjE1MTYwNjczODU2NzM1LCAwLjM1NzQwNTkwMDk1NTIwMDIsIC0wLjQ3NjYxMjAwMTY1NzQ4NTk2LCAtMC4xNDg1NDI4ODEwMTE5NjI5LCAwLjM3OTg0MDIyNDk4MTMwOCwgMC4yMzA2MTk5OTY3ODYxMTc1NSwgLTAuMDEyMjUyOTg3MzYyNDQ0NCwgLTAuMTExNDI3Nzk4ODY3MjI1NjUsIDAuMTI2MTkyODA4MTUxMjQ1MTIsIDAuMjkwNzQ5NjY5MDc1MDEyMiwgMC41NDgxOTM3NTI3NjU2NTU1LCAtMC43NTMyOTA0MTQ4MTAxODA3XSwgWzAuMjA3MzUwMjA5MzU1MzU0MywgMC44NDc3MTgwMDA0MTE5ODczLCAwLjEzMjM4MDgxMzM2MDIxNDIzLCAtMS4yNzg5NjU5NTAwMTIyMDcsIDAuNzAyMTkyNTQ0OTM3MTMzOCwgLTAuNDQ4NzgzMzA4MjY3NTkzNCwgLTAuMDEwMzI1MTE1MTc0MDU1MSwgLTAuNzgxMDM3NTY5MDQ2MDIwNSwgLTAuMTM5OTIzMTU1MzA3NzY5NzgsIDAuMTQ5MDQ2MzQ2NTQ1MjE5NDIsIC0wLjI5NzUyNzQwMjYzOTM4OTA0LCAwLjQ5OTU3MTE0NDU4MDg0MTA2LCAwLjI5MDQ1NTIyMjEyOTgyMTgsIDAuMDYzNjc0MTY2Nzk4NTkxNjEsIC0wLjIyMTA0NzgzMzU2MTg5NzI4LCAtMC43NDU3OTU5NjUxOTQ3MDIxLCAtMC41Njg0Njg0NTE0OTk5MzksIC0wLjgwMjMzMDAxNzA4OTg0MzgsIDAuNjc0OTY0MDcwMzIwMTI5NCwgLTAuMTI5MzU2NTAzNDg2NjMzMywgLTAuMjMyMzAyMDk5NDY2MzIzODUsIDAuNDYxOTk3MjQwNzgxNzg0MDYsIC0wLjQ2MzI4NTkyMzAwNDE1MDQsIC0wLjE0NDkwMTYzMzI2MjYzNDI4LCAwLjU0ODUxMjkzNTYzODQyNzcsIDAuNjc4MDA3MTg1NDU5MTM3LCAwLjA3NTM4MDcyNzY0ODczNTA1LCAwLjA0NTQxMTc0MzIyMzY2NzE0NSwgMC4yNDU3NzQ1MzczMjQ5MDU0LCAwLjUyOTE3MTI4ODAxMzQ1ODMsIDAuNzU1MTk2MDk0NTEyOTM5NSwgLTAuNzgyNzIzNzg0NDQ2NzE2M10sIFswLjI0MjMxMjMxMjEyNjE1OTY3LCAwLjI3MDExODkyMTk5NTE2Mjk2LCAtMC4xNzk2ODI5NzAwNDY5OTcwNywgLTEuNTg1NzA5ODEwMjU2OTU4LCAwLjEwMTUyNjMwNTA3OTQ2MDE0LCAtMC4xMTI4NzYwNzI1MjU5NzgwOSwgLTAuMjc4OTg2MzA0OTk4Mzk3OCwgLTAuMjYyMDUzODc3MTE1MjQ5NjMsIC0wLjEyMzkzOTk3NjA5NjE1MzI2LCAtMC4wNTIyMTYzNTg0ODI4Mzc2OCwgMC4xNTEyNTUwNDEzNjA4NTUxLCAwLjIzMjc3MjM2NTIxMjQ0MDUsIDAuMDUzODIzOTM2NzMwNjIzMjQ1LCAwLjAyODAxNDc5NzcxNzMzMjg0LCAwLjE2MDE3OTAxODk3NDMwNDIsIC0wLjA1NTIzMjkyMzQ3Nzg4ODExLCAtMC4yNTkyNjgwMTU2MjMwOTI2NSwgMC4wNTA5OTcwNjcyNDI4NjA3OTQsIDAuMTk2MTkyMDU1OTQwNjI4MDUsIC0wLjE3MzMwOTM0MTA3MzAzNjIsIC0wLjA4NjMxMzM1MTk4ODc5MjQyLCAwLjI1MTk5MDE5OTA4OTA1MDMsIC0wLjE0NzkwODk1NTgxMjQ1NDIyLCAtMC4xMzkyODU1NDk1MjE0NDYyMywgMC4wMDg1NDA0ODUwNTQyNTQ1MzIsIC0wLjE4NjQ2NzQyNDAzNTA3MjMzLCAtMC4wODA3MjY4OTkyMDY2MzgzNCwgLTAuMjg1MjIzODExODY0ODUyOSwgLTAuMjM0NDc4OTY1NDAxNjQ5NDgsIDAuMTkzMjMwODk3MTg4MTg2NjUsIC0wLjEwOTU3NjUzODIwNTE0Njc5LCAtMC44MDc4NTM4Nzc1NDQ0MDMxXSwgWzAuMjY1NzAzOTc2MTU0MzI3NCwgLTAuMTAwMDU1NjIwMDc0MjcyMTYsIC0wLjMxMzU3NTc0NDYyODkwNjI1LCAtMC4xMDU1NTA3NTEwOTAwNDk3NCwgMC4xNjc5Mzc5NzkxMDIxMzQ3LCAtMC4wMTE3MDU5ODE1Njc1MDIwMjIsIDAuMDIzMzgwOTU1NjgxMjA0Nzk2LCAwLjExNjU1OTMyNjY0ODcxMjE2LCAwLjA2NjA2MzczMTkwODc5ODIyLCAtMC4xNDQ3NzE0MTIwMTQ5NjEyNCwgMC4xNDExMzQyNzY5ODYxMjIxMywgLTAuMDUyNzYyMjc3NDI0MzM1NDgsIC0wLjI0ODIwMjEwMDM5NjE1NjMsIC0wLjQ2NzkzMjcwMTExMDgzOTg0LCAwLjA1NjAzMzk4MDEwMTM0Njk3LCAwLjAwODU2MjExNDA4OTcyNzQwMiwgMC4xMzY5NDQ5Nzk0MjkyNDUsIC0wLjI1MDQ0NjA4MTE2MTQ5OSwgLTAuMDg1MTc3Nzg2NjQ4MjczNDcsIC0wLjE4MzQ5MTkxNTQ2NDQwMTI1LCAwLjA0NTQ5MDkwMTkxNzIxOTE2LCAwLjA5MTQ3NTY4NzkyMTA0NzIxLCAwLjExNDY0NzQ1NTUxMzQ3NzMzLCAtMC4xODMxMjM0OTkxNTUwNDQ1NiwgMC4xMDA2MzgwMTcwNTgzNzI1LCAtMC4wNzI1MDcwNjg1MTQ4MjM5MSwgMC4xNTcwNDcxODIzMjE1NDg0NiwgLTAuMTcxODA4MTUzMzkwODg0NCwgMC4wNDYyMjI5NzczNDAyMjE0MDUsIC0wLjA0NzAyNjAyMzI2ODY5OTY0NiwgLTAuMDEzMDA2NjEzNTg5ODIzMjQ2LCAtMC4wNjg2Nzg3ODg4NDA3NzA3Ml0sIFstMC45OTAwNzA0NjIyMjY4Njc3LCAtMC40OTA5ODI3MTEzMTUxNTUwMywgMC4wMzIwNDUyNzEyNDc2MjUzNSwgMC4xOTczMjQzOTUxNzk3NDg1NCwgMC4wODM3MjA2ODQwNTE1MTM2NywgLTAuMTUwMDgzODY5Njk1NjYzNDUsIDAuMjMzNDM2MjU2NjQ3MTA5OTksIDAuNzMyNjIxMTMzMzI3NDg0MSwgMC4yMDU2NDA4NTI0NTEzMjQ0NiwgLTEuMDkwMDI2MTQwMjEzMDEyNywgMC40NDU5Mzg3NjYwMDI2NTUwMywgLTAuMjE3MTQzMTE4MzgxNTAwMjQsIDAuMDU3MzUxMDIyOTU4NzU1NDksIC0wLjc1MzU4MDkyNzg0ODgxNTksIDAuNDI4MjE1NzQyMTExMjA2MDUsIDAuMTA4MjM5NzI1MjMyMTI0MzMsIDAuMTM5NjgyNzEwMTcwNzQ1ODUsIDAuMTI4NjY2NDQ1NjEyOTA3NCwgLTAuMjg0NzE1NjUyNDY1ODIwMywgLTAuMDM2MzIyMTkxMzU3NjEyNjEsIDAuNjE0NjI1ODExNTc2ODQzMywgLTAuOTk3NjE4OTEzNjUwNTEyNywgMC4xMjk5NTk2NzI2ODk0Mzc4NywgMC41OTg5MjY2NjMzOTg3NDI3LCAtMC4wMDU0Nzc2MTA1MDk4NDI2MzQsIC0wLjI5MjQ5MTY3NDQyMzIxNzgsIC0wLjAzNDM0MDQ0MTIyNjk1OTIzLCAwLjQwMzQ0MDA1ODIzMTM1Mzc2LCAtMC4xNzk4NjgxMzE4NzU5OTE4MiwgLTAuNDY4NTc3ODkxNTg4MjExMDYsIC0wLjIzODU4ODg2OTU3MTY4NTgsIDAuMDc5NTA2ODQ0MjgyMTUwMjddLCBbLTAuMTYyMjYwNzcwNzk3NzI5NSwgLTAuMjk4ODY3MTY2MDQyMzI3OSwgMC4zNjYyOTY4Mjc3OTMxMjEzNCwgMC4xMzAxODYzMTkzNTExOTYzLCAtMC4wNTEyMzM2OTc2ODI2MTkwOTUsIDAuMjk2NzQyMDgxNjQyMTUwOSwgLTAuMTUyNzY0Mzk0ODc5MzQxMTMsIC0wLjM1NTM5NjAzMjMzMzM3NCwgMC4wOTMxNDg0Njk5MjQ5MjY3NiwgMC4wMjUwNDkzNDE4NDI1MzIxNTgsIC0wLjA3OTIwODkyNTM2NjQwMTY3LCAtMC4xMjc2NDc3Mjc3Mjc4OTAwMSwgMC4xMTA0NjI3MzI2MTMwODY3LCAwLjE1Mjg3MTM3MDMxNTU1MTc2LCAwLjAzNzEzNjI3NTMyMTI0NTE5MywgLTAuMDkwMzQ5MDYzMjc3MjQ0NTcsIDAuMDE2NzU5MTkwNzA4Mzk4ODIsIDAuMTk4NTA3MTU5OTQ4MzQ5LCAtMC4xNzk1MjIyMTYzMjAwMzc4NCwgLTAuMTUwODIwMzg5Mzg5OTkxNzYsIC0wLjA0NTU2NjEzNzg4MDA4NjksIC0wLjgxMDU5OTIwNzg3ODExMjgsIC0wLjAxODg5Nzg0NjM0MTEzMzExOCwgLTAuNDA0MjE0MjYyOTYyMzQxMywgLTAuMTE0OTE0MDAwMDM0MzMyMjgsIC0wLjA4MjYxMDExNTQwODg5NzQsIDAuMTM0MzAyNjAxMjE4MjIzNTcsIDAuMjY5NTQ4MDI4NzA3NTA0MywgLTAuMjU3MDI1MzYxMDYxMDk2MiwgMC4xNjMxMTg3OTQ1NjA0MzI0MywgLTAuMjYzNzM1NzcxMTc5MTk5MiwgLTAuMjI5MzUxNjY5NTQ5OTQyMDJdLCBbLTAuMTUxNDE2ODA4MzY2Nzc1NSwgLTAuMDQ4NDg1Nzc4MjcyMTUxOTUsIDAuMTE5MjA0NTgwNzgzODQ0LCAtMC4wMzA3NDA0NTg1MTgyNjY2NzgsIC0wLjA3MDMxMTkxMTQwNDEzMjg0LCAtMC4wNzk2NzI4MzU3NjcyNjkxMywgLTAuMDA4NTgyOTI1NDIzOTc5NzYsIC0wLjM1OTA3NDM4Mzk3NDA3NTMsIDAuMDMwNjIxNDM1NDkzMjMwODIsIDAuMTQ1ODQwNTI1NjI3MTM2MjMsIC0wLjA4OTQyNzk3MDM0OTc4ODY3LCAtMC4xMDAwNTgyMTI4NzYzMTk4OSwgMC4xMzYyNTgyNDQ1MTQ0NjUzMywgMC40MzU1MDg2MDg4MTgwNTQyLCAwLjE0NDc4MDE4ODc5ODkwNDQyLCAwLjE2MDQ3OTAwOTE1MTQ1ODc0LCAtMC4yODE5MjA3OTA2NzIzMDIyNSwgLTAuMTcxMTY3NTUyNDcxMTYwOSwgLTAuMzI2NTQ0NzAyMDUzMDcwMDcsIDAuMDUxMzA3NzQ1Mjc3ODgxNjIsIDAuMDgyODIwODY5OTgyMjQyNTgsIDAuNDM4NjM4ODA2MzQzMDc4NiwgLTAuMTI3ODQ0OTc0Mzk4NjEyOTgsIDAuMDIxODQ4OTg0MDYyNjcxNjYsIDAuMDU1Mzc2Mjg3NTQ5NzM0MTE2LCAtMC4yOTM4ODA5MDk2ODEzMjAyLCAwLjMyMTY0NjgwOTU3Nzk0MTksIDAuMTY4NTc4NzE0MTMyMzA4OTYsIC0wLjE2MzUyMzU5OTUwNTQyNDUsIDAuMzkxMTg4NzEwOTI3OTYzMjYsIC0wLjExNjE0MTE1NTM2MjEyOTIxLCAwLjE4NDc4MjMxMTMyMDMwNDg3XSwgWzAuMjI3NzU2OTMyMzc3ODE1MjUsIC0wLjAwNzE3NDQ4NDg5NzQwNDkwOSwgMC4wODA2NTA4NjYwMzE2NDY3MywgMC4xMDUzOTQzMzM2MDA5OTc5MiwgMC4xNTczMDgwNzE4NTE3MzAzNSwgMC40MzYyNzg0NjI0MDk5NzMxNCwgMC4xMDA4NzQ1NDMxOTAwMDI0NCwgMC4xMTY1NTE4MDE1NjIzMDkyNywgMC4wOTkzNTQzNzE0Mjg0ODk2OSwgLTAuMDk5MTU0NjUxMTY1MDA4NTQsIDAuMDIwMDkwMTU3MTY2MTIzMzksIDAuMDg2MDcyNjY4NDMzMTg5MzksIDAuMTc1NTk0NjI3ODU3MjA4MjUsIC0wLjExNTA2NTIzMTkxOTI4ODY0LCAtMC4wMTk0MDU0Mzk0OTYwNDAzNDQsIDAuMzMxOTIzNzIzMjIwODI1MiwgMC4wNTkxMzQ4ODU2Njg3NTQ1OCwgMC4xMDE5OTY1MDM3NzAzNTE0MSwgMC4xODcwMjU1NzY4Mjk5MTAyOCwgMC4xMTMzNjYzOTUyMzUwNjE2NSwgMC4xMDg4NzIxMzc5NjM3NzE4MiwgLTAuMDEyNjc4Mjk2MzA1MjM5MiwgLTAuMzE5ODM3MTIzMTU1NTkzODcsIC0wLjcwODE5ODQyODE1Mzk5MTcsIDAuMTM3MjE3MTkzODQxOTM0MiwgMC4xODcyMzIwNDczMTk0MTIyMywgLTAuMzA4NzE5NzU0MjE5MDU1MiwgMC4wMDkyMTYzNDExOTAwNDAxMTIsIDAuMDA4Mzk4MTM4OTE3OTgyNTc4LCAwLjU1MDUyMjMyNzQyMzA5NTcsIDAuMDY0Mjg0OTA1NzkxMjgyNjUsIDAuMDYxMTY4NzE1MzU3NzgwNDZdLCBbMC4zNTI2MTg1NzUwOTYxMzAzNywgMC42NjQ1Mzc2NjgyMjgxNDk0LCAtMC4xMjM3ODc0OTk5NjQyMzcyMSwgLTEuOTU1MjkyNDYzMzAyNjEyMywgMC4wOTU2ODU2MzEwMzY3NTg0MiwgMC4xNDk5NTcwNjA4MTM5MDM4LCAtMC42MTUxNDQwMTQzNTg1MjA1LCAwLjA3MTE2MjQwMjYyOTg1MjMsIDAuMDg2NjkyMjE0MDEyMTQ2LCAtMC4wMzExNjQ0MjQ0OTM5MDg4ODIsIDAuMzA3OTc5MTY2NTA3NzIwOTUsIC0wLjA4MzE0ODk4NjEwMTE1MDUxLCAwLjQ5MDg4MzI5MDc2NzY2OTcsIDAuNDA0MDMzODM5NzAyNjA2MiwgMC4xMjIyNDc4NTIzODUwNDQxLCAwLjMzNTU2ODM5ODIzNzIyODQsIDAuMDA0ODkxNTk0ODcxODc4NjI0LCAwLjE2MTg5OTg5NDQ3NTkzNjksIDAuMjQwOTg1OTU5NzY4Mjk1MywgMC4yNDUyNTk2NDI2MDEwMTMxOCwgMC4zNjA4NjQxNjI0NDUwNjgzNiwgMC41MDk4MzcwMzEzNjQ0NDA5LCAwLjAyMTYxNTI1MTg5ODc2NTU2NCwgLTAuMzYwMzE1MzgyNDgwNjIxMzQsIC0wLjI0NzUxMDEzNTE3Mzc5NzYsIDAuMTUzNjE3NDExODUxODgyOTMsIDAuMjI0Mjk3MDE2ODU5MDU0NTcsIDAuNDUzNDk5OTcyODIwMjgyLCAtMC4wNzE1NzgwODU0MjI1MTU4NywgLTAuMDQ0OTcxOTM1NDUxMDMwNzMsIDAuMTMyMDg1NjM2MjU4MTI1MywgLTAuODczNTU4ODc4ODk4NjIwNl0sIFswLjMzMjA1OTE3NDc3NjA3NzI3LCAtMC4wMTIzMzY3OTgwMTIyNTY2MjIsIDAuMDY3MDQ1NjQzOTI1NjY2ODEsIDAuODA2MTQzMjgzODQzOTk0MSwgLTAuMDA0MDc1ODYwNjA0NjQzODIyLCAwLjAxNDI5MTY0NzgyMTY2NDgxLCAtMC4xMzI2NzU5MzA4NTc2NTg0LCAwLjA2NTMxNzAwNDkxOTA1MjEyLCAtMC4wNzk2MjEzNTk3MDU5MjQ5OSwgLTAuMTMzMjk1MjM4MDE4MDM1OSwgLTAuMTE4Nzg0OTQ5MTgzNDY0MDUsIDAuMDc2NDMzMDEwMzk5MzQxNTgsIC0wLjE0NDk1MDg2NjY5OTIxODc1LCAtMC4wMzgyMDQwMTQzMDEzMDAwNSwgMC4xOTkxMzAzMjY1MDk0NzU3LCAtMC4wMzQ4MTExNjUxODM3ODI1OCwgMC4wODA0Njg0NDYwMTYzMTE2NSwgMC4yNzY3ODY1MzU5NzgzMTcyNiwgMC4yMTUxNTgxNjQ1MDExOTAxOSwgMC4wMzAzODYwMTk0OTgxMDk4MTgsIDAuMDAwNTY2ODgwMjE4Njg0NjczMywgLTAuMjMwOTg0NjcyOTA0MDE0NiwgLTAuMDQ3MjE0NDQxMDAxNDE1MjUsIC0wLjAxMjI2Mjc2OTA0MzQ0NTU4NywgLTAuMDU2Njg5MTIwODI5MTA1MzgsIDAuMTUyMDExMTg1ODg0NDc1NywgLTAuMTY1MjkzMTg2OTAyOTk5ODgsIC0wLjAxOTcxMjMwMDk3MTE1MDM5OCwgMC4yNjg5NjYxOTc5Njc1MjkzLCAwLjA3MjIyNDkxNTAyNzYxODQxLCAwLjIyOTUwOTEzMDEyMDI3NzQsIDAuMDk2NTM0Nzk2MDU5MTMxNjJdLCBbMC4xNTY4NTI5MzA3ODQyMjU0NiwgMC40MzU5ODMwMDIxODU4MjE1MywgMC4wNzY2NzM4OTUxMjA2MjA3MywgLTAuMzkwMzc2MDkxMDAzNDE3OTcsIDAuMzE5NjU0NjQzNTM1NjE0LCAwLjgwOTAyODk4MzExNjE0OTksIDAuMDA1MTU2MDk5MzMwNjMzODc5LCAwLjI2MjQ0Njk5OTU0OTg2NTcsIC0wLjIzMjU4MjQ3OTcxNTM0NzMsIC0wLjI2NjczNDEyMzIyOTk4MDQ3LCAtMC4wMTEwOTAyNjkzMTIyNjI1MzUsIC0wLjA1OTIyOTc0MjczNTYyNDMxLCAwLjI5MTI2OTU0MDc4Njc0MzE2LCAtMC4xMDcxNzUzNjUwOTAzNzAxOCwgLTAuMDcxODg1MTAxNDk3MTczMzEsIDAuNDQ0NTc5MzAzMjY0NjE3OSwgLTAuMDEwMTY2NTQyNjA0NTY1NjIsIDAuMjg1NDM3MDE3Njc5MjE0NSwgMC4yNTI0MzI0OTUzNTU2MDYxLCAwLjI0MDIyMjgxMTY5ODkxMzU3LCAwLjEyNDYzMzQ4MzU4ODY5NTUzLCAwLjI2ODc5MzMxNDY5NTM1ODMsIC0wLjAzNTE0MjkyODM2MTg5MjcsIC0xLjUwNzQ3NDQyMjQ1NDgzNCwgMC4wMzIyNzE2MTYxNjA4Njk2LCAwLjEyNDU5ODgzMDkzODMzOTIzLCAwLjA5MTc3MzgzNzgwNDc5NDMxLCAwLjE1NzI1NTE3MjcyOTQ5MjIsIDAuMDU4NjAyNjMxMDkyMDcxNTMsIDAuMTU4NTA5NTUyNDc4NzkwMjgsIDAuMTI4MjEwNTE0NzgzODU5MjUsIC0wLjIwNTk3MTQxOTgxMTI0ODc4XSwgWy0yLjE3OTg4NDE5NTMyNzc1OSwgLTAuMDgxNDk0MTA3ODQyNDQ1MzcsIDAuNTY5MjI0ODM0NDQyMTM4NywgLTAuMTY3MTA5MTAyMDEwNzI2OTMsIC0wLjY0NTM4OTY3NjA5NDA1NTIsIC0wLjMzODU5MzYzMTk4MjgwMzM0LCAtMC40MzU5OTg0Mzk3ODg4MTgzNiwgMC43MDI1NDAyNzg0MzQ3NTM0LCAxLjYxNTgxMDYzMjcwNTY4ODUsIDEuMjQxMjM0NTQwOTM5MzMxLCAxLjg5NDE4NDcwODU5NTI3NTksIC0xLjIzNTMzMTI5NjkyMDc3NjQsIDAuMzc1MDU0MjcwMDI5MDY4LCAxLjI2NTk0MjgxMTk2NTk0MjQsIDAuODM1MTE2MDI4Nzg1NzA1NiwgMC42OTgzMjIzNTU3NDcyMjI5LCAtMS4wMDUyODI2NDA0NTcxNTMzLCAxLjEzOTI2NDgyMjAwNjIyNTYsIC0wLjgwMDE2MTI0MjQ4NTA0NjQsIDAuNTAwNDY3Nzc3MjUyMTk3MywgMS43NzQyMjI3MzE1OTAyNzEsIC0wLjU2MDY3NDc4NjU2NzY4OCwgLTEuMjUxMTI3MzYyMjUxMjgxNywgMC44MzA1MzU3Njk0NjI1ODU0LCAtMC44NDI1ODI0NjQyMTgxMzk2LCAtMS40NTM0MjExMTU4NzUyNDQxLCAxLjQxMTM5NDcxNTMwOTE0MywgMC43NTQ3NTE5MjA3MDAwNzMyLCAtMS4wMTYxNTM5MzE2MTc3MzY4LCAwLjgzMzY2MDAwNjUyMzEzMjMsIC0xLjM3MDQ1MTkyNzE4NTA1ODYsIC0wLjE0OTQwODExNjkzNjY4MzY1XSwgWy0wLjExOTg5MDE2MDg1ODYzMTEzLCAwLjIwOTc2MzcwNTczMDQzODIzLCAwLjE3NDg0ODg2OTQ0MjkzOTc2LCAtMC43NTk2OTQ4MTQ2ODIwMDY4LCAwLjQ3MzEyNjI5MjIyODY5ODczLCAtNC40NTExMjA4NTM0MjQwNzIsIDAuMTAyMjMwNjA4NDYzMjg3MzUsIC0wLjk5MzE2Mjc1MTE5NzgxNDksIDAuNTUxMzExNjEyMTI5MjExNCwgMC4zNjg1NzUwOTYxMzAzNzExLCAtMC42NDQyNDU3NDM3NTE1MjU5LCAwLjQxOTYxNTMyODMxMTkyMDE3LCAwLjEwMzY3MjUwNDQyNTA0ODgzLCAwLjg3NDE3NzkzMjczOTI1NzgsIDAuMDYyMDA3MzUyNzA5NzcwMiwgLTIuMTAxMTU4ODU3MzQ1NTgxLCAtMi40NTA5ODMyODU5MDM5MzA3LCAtMC42MjMxNDg5MTgxNTE4NTU1LCAwLjI4MjI2Njg4NTA0MjE5MDU1LCAtMC4xNTQyNzI5ODg0Mzg2MDYyNiwgMC4zMjY1MjQ3OTQxMDE3MTUxLCAwLjIxMjQ1MjAzOTEyMjU4MTQ4LCAtMy4zNDA3MDIwNTY4ODQ3NjU2LCAwLjk5ODEzMTI3NTE3NzAwMiwgMC40NjgwNTUwNjk0NDY1NjM3LCAwLjE4MzEyMjg0MzUwMzk1MjAzLCAwLjYxOTQ1OTg2NzQ3NzQxNywgLTAuMDE1MzIwMTI5NjkyNTU0NDc0LCAwLjMzNTU3NDkyNDk0NTgzMTMsIDAuNzE3MTQ3NjQ4MzM0NTAzMiwgMC4yNTkzMjAxMzk4ODQ5NDg3MywgLTAuNjUwNDQyNjAwMjUwMjQ0MV0sIFswLjM1NjEwNjU3OTMwMzc0MTQ2LCAtMC4yNjQxMjgwODg5NTExMTA4NCwgMC4wNTM5NTcyMzg3OTMzNzMxMSwgMC4wNTEzODU1ODE0OTMzNzc2ODYsIDAuMDMxODM2ODIyNjI4OTc0OTE1LCAtMC4yMTkyMjY0NjQ2MjkxNzMyOCwgMC4xNDMxODc0NjMyODM1Mzg4MiwgMC4xMzQ0NzgwMTc2ODc3OTc1NSwgMC4wODYzODM0MTcyNDg3MjU4OSwgMC4xMDQyODM0NDQ1ODM0MTU5OSwgMC4wMDgyNDkwMzMyNDI0NjQwNjYsIDAuMDIwOTcyMTg4NTYyMTU0NzcsIC0wLjAwNTM0NDQ4NzI2MTAyNzA5OCwgMC4wODkxNTQyNDM0NjkyMzgyOCwgMC4yMDY2OTcwNDY3NTY3NDQzOCwgMC4wMDE2ODM0MDgzOTQ0NTU5MDk3LCAwLjAyNzgwNTg0NjE4NDQ5MjExLCAtMC4wMDE0ODgwNTI1NDEzOTAwNjE0LCAtMC4wMTc1NTA1MDM4MzUwODIwNTQsIC0wLjA2MzI2MDM4MzkwMzk4MDI2LCAwLjA5ODU2OTk3NDMwMzI0NTU0LCAwLjAyMzY2NTYzNDkxNTIzMjY2LCAwLjA4ODk0NTczMTUyMDY1Mjc3LCAtMC4wMzcyODY4Nzc2MzIxNDExMSwgLTAuMDc2MzAyNjkyMjk0MTIwNzksIDAuMTcxNzg0MjUxOTI4MzI5NDcsIC0wLjA2MDgxNjIxNzIxMzg2OTA5NSwgMC4xNDg3ODkwNzc5OTcyMDc2NCwgMC4wMDM0MzI3NDA2OTAxODY2MTk4LCAwLjA0Mjk5MzI2MjQxMDE2Mzg4LCAtMC4wMjIxMzY0NTM1MzkxMzMwNzIsIDAuMDU5Mjk5NDY1MjY4ODUwMzNdLCBbMC4wMjYxOTIzOTY4NzkxOTYxNjcsIC0wLjE4NDU1NjAzNzE4NzU3NjMsIC0wLjA0OTcyNDk0MDIxMDU4MDgyNiwgLTAuMDQzOTI3NDc1ODEwMDUwOTY0LCAwLjAwNzg5Nzg1NDc4MjY0MDkzNCwgLTAuMDM3OTEzMDgwMzA0ODYxMDcsIC0wLjExMDk0MjI4OTIzMzIwNzcsIDAuMjExNDUwNzg1Mzk4NDgzMjgsIC0wLjExNjcwMTkxNTg2MDE3NjA5LCAtMC4wOTExNzUyNTgxNTk2Mzc0NSwgLTAuMTE4MjMzMzQ1NDQ4OTcwOCwgLTAuMDI3MTIwMzQwNjE1NTEwOTQsIC0wLjExNzgxNjMxNDEwMTIxOTE4LCAwLjIwOTY3NzE1OTc4NjIyNDM3LCAwLjEzMTY2ODAxNjMxNDUwNjUzLCAtMC4wOTI3NjU5NDk2NjY1MDAwOSwgMC4wNjI4OTE4MTg1ODMwMTE2MywgLTAuMDA2NjM2NDAwMjQxNDA0NzcyLCAtMC4xNTg1NjIxMjM3NzU0ODIxOCwgMC4wNTY0NjQzODg5NjY1NjAzNjQsIDAuMTAyMTMyODcxNzQ3MDE2OSwgMC4wMjcyNjgxOTkyNTAxMDIwNDMsIDAuMDAyODQwMzI0MDcyMTY3Mjc3MywgLTAuMTM1MjcyOTQ5OTM0MDA1NzQsIDAuMTIwOTM5MzQ0MTY3NzA5MzUsIC0wLjIxMTU5NDQwMjc5MDA2OTU4LCAtMC4xMjM0MjM1MTY3NTAzMzU3LCAwLjAyODMwOTEyOTE3ODUyNDAxNywgMC4wMDA5NTk2NDU4NDAzMzkzNjI2LCAwLjIxMDY3MjI4OTEzMzA3MTksIDAuMTM1NDE4NzQyODk1MTI2MzQsIC0wLjA1MDA5NjE0Njc2MjM3MTA2XSwgWy0wLjIyNTk4ODgyMDE5NTE5ODA2LCAwLjExMjM3NTY5MTUzMzA4ODY4LCAwLjM3Mjk0NzUxNDA1NzE1OTQsIDAuMDIwMzM2MDg3NzkzMTExOCwgMC4xNjUzMTM1NzE2OTE1MTMwNiwgLTAuMTg2NDE2ODk0MTk3NDY0LCAtMC4xNTU4NzYzMzg0ODE5MDMwOCwgLTAuNTczNjEzMjI2NDEzNzI2OCwgMC4xNDQ3NzA1MDMwNDQxMjg0MiwgMC4wODk5MzMwOTczNjI1MTgzMSwgLTAuMjY4NjU4MzY5Nzc5NTg2OCwgMC4yNDc3MjcyNzQ4OTQ3MTQzNiwgLTAuMTM5NTMwMjExNjg3MDg4LCAwLjQ3MjA4NTE0ODA5NjA4NDYsIC0wLjE2MTYzNzgxMjg1Mjg1OTUsIC0wLjAyNTgyNDA3MTgzOTQ1MTc5LCAtMC42Nzc1Njg2MTQ0ODI4Nzk2LCAtMC4xNzE0MjA4NzIyMTE0NTYzLCAwLjExNzQ2NDA5NTM1NDA4MDIsIDAuMDQ3NDg2MjQxOTA2ODgxMzMsIC0wLjE1NTc3MDQzNTkyOTI5ODQsIC0wLjQ1NTAxODk5NzE5MjM4MjgsIC0wLjMyMzIwNjI0NTg5OTIwMDQ0LCAtMC4xMDI0MzgzNzUzNTM4MTMxNywgMC4zNjYwNTkzNjI4ODgzMzYyLCAwLjIyNjY0MDA3NTQ0NTE3NTE3LCAwLjMzMTU0NzIzMDQ4MjEwMTQ0LCAwLjA3NDA4OTc4NzkwMDQ0Nzg1LCAwLjI0NTE3MjcwOTIyNjYwODI4LCAwLjA2NzE0MjA3Njc5MDMzMjgsIDAuMTM2NTY0NzkxMjAyNTQ1MTcsIC0wLjQ0NDI4MTYwNzg2NjI4NzIzXSwgWzAuMjg2Nzg5Mjk4MDU3NTU2MTUsIC0wLjEwNTg0MjIzMjcwNDE2MjYsIDAuMTMxNjYzNTkwNjY5NjMxOTYsIC0wLjA1NTA4NjE4ODAxODMyMTk5LCAtMC4wNzcwNjAzNzE2MzczNDQzNiwgLTAuMDUyOTIyNDc5ODA4MzMwNTM2LCAwLjY0NzA0NTQ5MzEyNTkxNTUsIDAuMjY0ODMyNjc1NDU3MDAwNzMsIDAuMzI5NzQzMTQ2ODk2MzYyMywgMC4wOTk2NDkyMjA3MDUwMzIzNSwgMC4yMTI3NTEyMzk1MzgxOTI3NSwgLTAuMDY0ODk4MjgyMjg5NTA1LCAtMC4wMTgyMTg5OTA0MTUzMzQ3LCAwLjA0MjQwMjQ4NzI0ODE4MjMsIDAuMzUzMTYyNDA3ODc1MDYxMDQsIDAuMTk3Njk0MzAxNjA1MjI0NiwgMC4wMDEyMjEyNTI2MDUzMTkwMjMxLCAwLjUyMTMyMDcwMDY0NTQ0NjgsIC0wLjE4OTkzODc4MzY0NTYyOTg4LCAtMC4wNTA4NDIwMzE4MzY1MDk3MDUsIDAuMzY2MDE3NTIwNDI3NzAzODYsIC0wLjA1MTE0NTgxODA4NDQ3ODM4LCAtMC4xMzM5MTI4NjEzNDcxOTg1LCAwLjEyOTgyODUxMjY2ODYwOTYyLCAwLjA2NDkzOTUyODcwMzY4OTU4LCAtMC4xODIzOTY3Njk1MjM2MjA2LCAwLjE4ODA2MTIwNzUzMjg4MjcsIC0wLjE1OTk0NTEwMDU0NTg4MzE4LCAtMC4yMzQwNjg5NzQ4NTI1NjE5NSwgMC4yNzI1Nzk5MzgxNzMyOTQwNywgLTAuMDgxMzcyNzMwNDMzOTQwODksIDAuOTQ1NzUxNTQ3ODEzNDE1NV0sIFswLjAyNjc2ODc0MDI2NjU2MTUwOCwgLTAuMDgxOTI1MzkyMTUwODc4OSwgMC4wNTAwNjYwOTg1NzA4MjM2NywgMC4zNzUyODk4NTczODc1NDI3LCAtMC4wMTQ2NTIxNTcyMDIzNjMwMTQsIDAuNDY2NDYzNDE2ODE0ODA0MSwgMC4wNzc3ODA3ODMxNzY0MjIxMiwgMC40NjU2MDk2Njk2ODUzNjM3NywgMC4xNTM1MDQ1MjA2NTQ2NzgzNCwgMC4xMjQ4MzE2MDk0Mjc5Mjg5MiwgMC4wNzQ5MTE4MzI4MDk0NDgyNCwgMC4wMDgyNjE4NTk0MTY5NjE2NywgMC4xNDQzMzY3NjAwNDQwOTc5LCAwLjIyMzI2OTY3MTIwMTcwNTkzLCAwLjA3NjEwMzg5NTkwMjYzMzY3LCAwLjU1ODI0NDQ2Njc4MTYxNjIsIC0wLjA3NjcyNTQ1MzEzODM1MTQ0LCAwLjI3OTIxMTY0MDM1Nzk3MTIsIC0wLjIxOTExNjI0MDczOTgyMjQsIDAuMTg5NjQxNTc5OTg1NjE4NiwgMC4zODQ4Njg1OTIwMjM4NDk1LCAtMC4yMDgxNTg0MzM0MzczNDc0LCAtMC4zNjE4ODkwNjQzMTE5ODEyLCAtMC43NTEzNDc5NTkwNDE1OTU1LCAtMC4xNzU5ODQ1NDY1NDIxNjc2NiwgLTAuMjExNDgxMTUzOTY0OTk2MzQsIDAuMDMyNDgxNTQzNzE5NzY4NTI0LCAtMC4wMTIwMDE0NzkwNDQ1NTY2MTgsIC0wLjA3OTUxNTMzMDQ5MzQ1MDE2LCAwLjgwMDI4MDgwOTQwMjQ2NTgsIC0wLjA1Mjc5NjE2MjY2NDg5MDI5LCAwLjA0NDI2NzA4NDQ0OTUyOTY1XSwgWzAuMTE3MDkwMzc0MjMxMzM4NSwgMC4zMTY2MDc0NDU0Nzg0MzkzMywgMC4yNDk2MTk5MDExODAyNjczMywgLTAuMTAxNTk4ODUxMzgyNzMyMzksIDAuNDU4OTE3Nzk2NjExNzg1OSwgLTAuMTUyNzgwNzU2MzU0MzMxOTcsIDAuMjQxMzYwOTYyMzkwODk5NjYsIC0wLjE0NTIxNTI0MzEwMTEyLCAtMC4wODI3Nzg4MjYzNTU5MzQxNCwgLTAuMTcxNjM0MTk3MjM1MTA3NDIsIC0wLjA4NjA3ODQ1MDA4MzczMjYsIDAuNDk3NjMxNTQ5ODM1MjA1MSwgMC4wMzA0NjU3MTI3NzA4MTk2NjQsIDAuMDExMjI2MzUyMzA0MjIwMiwgLTAuMTg4NzYwNTMzOTI4ODcxMTUsIC0wLjE4NzQ5NjY2MjEzOTg5MjU4LCAtMC4xNDQ0MjA1NjQxNzQ2NTIxLCAtMC4xNDQxNDYwMTAyNzk2NTU0NiwgMC4xODA3MDU2ODE0NDMyMTQ0MiwgLTAuMDEwMzc2Nzc4NDMxMjM2NzQ0LCAtMC4yNTU4MzYxODg3OTMxODI0LCAwLjQxOTgyODgzMjE0OTUwNTYsIC0wLjA3MTMxMDU0MjUyMzg2MDkzLCAtMC4xMjkyMDU3MTg2MzY1MTI3NiwgMC4zMzU2OTAyMDAzMjg4MjY5LCAwLjQ2OTQwMTM4OTM2MDQyNzg2LCAtMC4yMTIyNzQzNzI1Nzc2NjcyNCwgMC4xMzkzMTI4NzgyNTEwNzU3NCwgMC40MTQ0MTgxNjA5MTUzNzQ3NiwgLTAuMDA5NzY0Mjg3NjIwNzgyODUyLCAwLjIyNjY4NTcwMjgwMDc1MDczLCAtMC4xMjMwNTMyODI0OTkzMTMzNV1dLCBbMC4wNzYyMDI0NDQ3MzIxODkxOCwgMC4xMjQ1MTQ3Mjg3ODQ1NjExNiwgMC4yMDIyMjQ0OTMwMjY3MzM0LCAwLjAzNjgyNzQzNzU3OTYzMTgwNSwgMC4xMTU2MTU5NDkwMzQ2OTA4NiwgLTAuMDA0NTgwMDkxNjg1MDU2Njg2LCAwLjEwMjA5NzA0OTM1NTUwNjksIDAuMDc0ODU4MTIxNTczOTI1MDIsIDAuMTUzMDg2NzgxNTAxNzcwMDIsIC0wLjAzMjk3ODg0NzYyMjg3MTQsIDAuMDcwOTI2MzIzNTMzMDU4MTcsIDAuMTA0MzgwMzM5Mzg0MDc4OTgsIDAuMDY0NTYwNjc0MTMwOTE2NiwgLTAuMDA0NzY5MjU1NDA3MTU0NTYsIDAuMDY4NjA0MDM3MTY1NjQxNzgsIDAuMDQ1NzUwMjg2NDMwMTIwNDcsIDAuMDY1NzAyNzY2MTgwMDM4NDUsIDAuMDUwNzE1ODU2MjU0MTAwOCwgMC4wOTAyOTUyMTA0ODA2OSwgMC4xMzI1Nzk5NTI0Nzg0MDg4LCAwLjE3NzM4ODM5OTgzOTQwMTI1LCAtMC4wNTY3OTY1ODA1NTMwNTQ4MSwgMC4wNjQ4OTgyMDc3ODM2OTkwNCwgMC4yNDM3Nzg3OTUwMDM4OTEsIDAuMDU3MTYzOTI3NzA0MDk1ODQsIDAuMDg5ODMzNDUzMjk3NjE1MDUsIDAuMDY0MjY3MDk4OTAzNjU2LCAwLjIxMTI3MzI4Mjc2NjM0MjE2LCAwLjEwOTU2MTMwOTIxODQwNjY4LCAtMC4wNjMxMjA3ODk4MjU5MTYyOSwgMC4wMzg5NTUyMTE2Mzk0MDQzLCAwLjE2NDg0ODQwMjE0MjUyNDcyXSwgW1swLjYwNDI1OTM3MTc1NzUwNzMsIDAuNDAxMDA3OTIwNTAzNjE2MzMsIDAuNzU4NzgxOTA5OTQyNjI3LCAtMC41MzYwMzE1NDQyMDg1MjY2LCAtMC4yNjUxNTc4NDg1OTY1NzI5LCAwLjUzNTgxNzI2NTUxMDU1OTEsIC0wLjUwMDcwOTU5MzI5NjA1MSwgLTAuNDM1ODYxNTU3NzIyMDkxNywgMC40MTYyNzMxNzY2NzAwNzQ0NiwgMC40MzQ2MTg4OTAyODU0OTE5NCwgMC4yNjg2NTY2MTE0NDI1NjU5LCAwLjM4NDYyOTY2NjgwNTI2NzMzLCAwLjYwNTgxODg2NzY4MzQxMDYsIC0wLjU2NTc3ODQzNDI3NjU4MDgsIDAuNDI4MTY5MzEwMDkyOTI2LCAwLjUzMDM2MTE3NTUzNzEwOTRdLCBbMC40NjA0NzEyMTI4NjM5MjIxLCAwLjAxMDMzMTc5NTU1MDg4MjgxNiwgMC40MzY3ODQ5ODI2ODEyNzQ0LCAwLjEwOTE1ODM2NjkxODU2Mzg0LCAtMC4zOTcyMTE4NDk2ODk0ODM2NCwgMC41MzUwNzEwMTUzNTc5NzEyLCAwLjAyNzk3OTY5NDMwNjg1MDQzMywgMC41MTQ5NzYzMjI2NTA5MDk0LCAwLjI0MTI5MTk0MDIxMjI0OTc2LCAwLjE3MjgyNDE0NDM2MzQwMzMyLCAwLjQ3MzcyMzc5ODk5MDI0OTYzLCAwLjM5MzIyMDA2NzAyNDIzMDk2LCAwLjI0NDEyNzczNTQ5NTU2NzMyLCAwLjAwMTA4ODUwMTA3MDYyNjA4LCAwLjUyNDU2ODkxNTM2NzEyNjUsIDAuMjcyODEyMzA2ODgwOTUwOV0sIFswLjE2ODU1NzM0NTg2NzE1Njk4LCAwLjEzNTk4NzgxODI0MTExOTM4LCAwLjA0MDg4NzQ3ODczOTAyMzIxLCAwLjI2MTE1NzEyNTIzNDYwMzksIDAuMDA4MTI2NTA0NzE5MjU3MzU1LCAwLjAzMjE3NDI4OTIyNjUzMTk4LCAwLjM5MzMzMTc2NjEyODU0MDA0LCAwLjE0NTI5MjY2OTUzNDY4MzIzLCAwLjE2NzcxNDQxNjk4MDc0MzQsIDAuMTExODg2NTAxMzEyMjU1ODYsIC0wLjAzOTc4NDYyNTE3MjYxNTA1LCAwLjI4MDA0ODY5ODE4Njg3NDQsIDAuMjIxMzU3NDc5NjkxNTA1NDMsIDAuMzgwODQ2OTc3MjMzODg2NywgLTAuMTA1NTIxNjg2Mzc1MTQxMTQsIC0wLjA1NDE0NDE2NjQwOTk2OTMzXSwgWzIuMjc1MTMyNDE3Njc4ODMzLCAxLjM0MjY4NzAxMDc2NTA3NTcsIDIuMTYwNTM4OTExODE5NDU4LCAtMS4yNzA2MDE5ODc4Mzg3NDUxLCAtMS43NjcwODg0MTMyMzg1MjU0LCAyLjExNjAzNjY1MzUxODY3NjgsIC0xLjg1MDgyODQwOTE5NDk0NjMsIC0wLjUwMTY3ODA0OTU2NDM2MTYsIDEuMzk1Mzc5NzgxNzIzMDIyNSwgMS4zNTk5NTg4ODcxMDAyMTk3LCAyLjMxOTMxNTQzMzUwMjE5NzMsIDIuMDEyNzUxNTc5Mjg0NjY4LCAxLjc0NTA2NjE2NTkyNDA3MjMsIC0yLjI1NTEzMzE1MjAwODA1NjYsIDEuOTEwNDkzNjEyMjg5NDI4NywgMS44MDc4MDU1MzgxNzc0OTAyXSwgWzAuMDM0NjQxMTcyNzM2ODgzMTYsIDAuMjE5OTI0NTk4OTMyMjY2MjQsIDAuMDI4NDI1NTY2ODUyMDkyNzQzLCAwLjEzODgxNDM0NTAwMjE3NDM4LCAwLjM5NTE5MzcyNTgyNDM1NjEsIDAuMjI2MzAwMjM5NTYyOTg4MjgsIDAuMTc2MTIwMzQwODI0MTI3MiwgLTAuMDg4OTgzNDc2MTYxOTU2NzksIDAuMTc5NDM4Nzk5NjE5Njc0NjgsIDAuMjExNDQyMjMyMTMxOTU4LCAtMC4xNjkwMTM0NzA0MTEzMDA2NiwgMC4xNzQ3OTE3NTMyOTIwODM3NCwgMC4zNzE4NDk4OTQ1MjM2MjA2LCAwLjEzNjg3NDg1NDU2NDY2Njc1LCAwLjMwMzgxNjMxODUxMTk2MjksIDAuMDU3NDMwMzY0MTkxNTMyMTM1XSwgWy0xLjMzMzE3OTQ3Mzg3Njk1MzEsIC0xLjIyNTM1MTA5NTE5OTU4NSwgLTEuMTczMTg0MTU2NDE3ODQ2NywgMS4zNTUyNjYzMzI2MjYzNDI4LCAxLjc4MjE1ODM3NDc4NjM3NywgLTEuMTkzMjA5NjQ4MTMyMzI0MiwgMS41NTU5NzU5MTQwMDE0NjQ4LCAwLjc2MjI2MDU1NjIyMTAwODMsIC0xLjEwODk4NzMzMTM5MDM4MDksIC0xLjIwNDQ3NTQwMjgzMjAzMTIsIC0xLjU0NzMyMjI3MzI1NDM5NDUsIC0xLjQwODIzMjIxMjA2NjY1MDQsIC0xLjI0NzQ0MDIxODkyNTQ3NiwgMS4yMDkzMDgxNDc0MzA0MiwgLTEuNDUxODcwMjAzMDE4MTg4NSwgLTEuNjE3ODk1NjAzMTc5OTMxNl0sIFsxLjA1MTI1MTE3MzAxOTQwOTIsIDAuMzIyOTIyMTQwMzU5ODc4NTQsIDAuMzY4MTA4OTI4MjAzNTgyNzYsIC0wLjI3ODc2NjE4NTA0NTI0MjMsIC0wLjM4MjE5NTYyMTcyODg5NzEsIDAuNjExNjU4ODcxMTczODU4NiwgLTAuNjczODE4MzQ5ODM4MjU2OCwgMC4zNDMzMjQ4OTk2NzM0NjE5LCAwLjEwMzg2NDMyNzA3MzA5NzIzLCAwLjE3ODMzOTMzMjM0MjE0NzgzLCAwLjk0NzYxNTUwNDI2NDgzMTUsIDAuNTc4MzYxOTg4MDY3NjI3LCAwLjM4NjY4NjYyMzA5NjQ2NjA2LCAtMC42ODEzODE1ODMyMTM4MDYyLCAwLjc0NDQ0Njk5Mjg3NDE0NTUsIDAuNTM4MDg0ODA1MDExNzQ5M10sIFstMC4zODUxMzgwMzQ4MjA1NTY2NCwgLTAuNDc4MDkyNDkxNjI2NzM5NSwgMC4xNjY2NTM1NDM3MTA3MDg2MiwgMC43OTQ0MDAyMTUxNDg5MjU4LCAwLjgxMzkxNTYxMDMxMzQxNTUsIDAuMDQ1ODM2NTUyOTc3NTYxOTUsIDAuNzQxMTg2NDk5NTk1NjQyMSwgMC41NTQwMTM3MjkwOTU0NTksIC0wLjEyNzU2NDEzMjIxMzU5MjUzLCAtMC40MDM0MTMwNTczMjcyNzA1LCAtMC40OTUwMTM0MTU4MTM0NDYwNCwgLTAuNDgyODI1NjM2ODYzNzA4NSwgLTAuNDA5MDQ0NDQ0NTYxMDA0NjQsIDAuMzk3MjY0MzAxNzc2ODg2LCAtMC44MDUzMjA2MjA1MzY4MDQyLCAtMC40NTI5Njk2MTA2OTEwNzA1Nl0sIFstMC4xODM5MTY2NzMwNjQyMzE4NywgMC4yNDcxNTY1OTAyMjMzMTIzOCwgLTAuMDM5OTE4ODc3MTg0MzkxMDIsIDAuMzA3NjUzNTQ2MzMzMzEzLCAwLjEzMTI0MDE3NDE3NDMwODc4LCAtMC4xNDc3NDU1NDk2Nzg4MDI1LCAwLjMzNjA3MjY4MzMzNDM1MDYsIDAuMjUxNjc5ODY3NTA2MDI3MiwgMC4xNzM4NjM2NzkxNzA2MDg1MiwgMC4xMzg2NzcyNjkyMjAzNTIxNywgLTAuMDMwNjAyMDExODI5NjE0NjQsIDAuMTA0NTA0MjEyNzM3MDgzNDQsIDAuMTE3MTEwOTY3NjM2MTA4NCwgMC42MDkyMDE1NTA0ODM3MDM2LCAtMC4wNjMxOTg4MTk3NTY1MDc4NywgLTAuMjU1MDI0MDE1OTAzNDcyOV0sIFstMC4xOTA1MDg5MDIwNzI5MDY1LCAwLjIxMTIzNTczMTg0MDEzMzY3LCAtMC4xMDk5OTYxNDAwMDMyMDQzNSwgMC40ODI0ODI4ODAzNTM5Mjc2LCAtMC4wMzQwMTkyNjUzMjM4NzczMzUsIC0wLjA4MTY3ODU5OTExOTE4NjQsIDAuNzI1OTg0MDk2NTI3MDk5NiwgMC4xMTE2NDUxNjIxMDU1NjAzLCAwLjI2NjU0NDQzMTQ0Nzk4MjgsIDAuMTQ4Mjg1OTg0OTkyOTgwOTYsIC0wLjI1OTc4NzY0ODkxNjI0NDUsIC0wLjAxNjQwNjkyNzI1Nzc3NjI2LCAtMC4wMDYzMzA1Nzc2NTY2MjY3MDEsIDAuMTkwMDczMTYyMzE3Mjc2LCAtMC4wOTQ2MjkxMzg3MDgxMTQ2MiwgLTAuMzM2NzM0NTkyOTE0NTgxM10sIFstMC40OTA3MzYyNDYxMDkwMDg4LCAtMC4zMDE0ODM4Mzk3NTAyODk5LCAtMC41MjY1ODkyNzQ0MDY0MzMxLCAwLjY2Njc0NTcyMjI5Mzg1MzgsIDEuMDE5ODMzNDQ1NTQ5MDExMiwgLTAuNDY5Nzk3OTY4ODY0NDQwOSwgMS4wMDQwNzEyMzU2NTY3MzgzLCAwLjg3NjE3Nzc4Nzc4MDc2MTcsIC0wLjM4MDQ0NTk1NzE4MzgzNzksIC0wLjUxNjc1MjcxOTg3OTE1MDQsIC0wLjMyMzIxNDExMzcxMjMxMDgsIC0wLjY3NjUwMjk0MzAzODk0MDQsIC0wLjYzMzgxMjA2OTg5Mjg4MzMsIDAuODk5MTMxNzc0OTAyMzQzOCwgLTAuNjM3NjYzNjAyODI4OTc5NSwgLTAuNTc0ODMyMjAxMDA0MDI4M10sIFswLjE1NzAxNTc0MDg3MTQyOTQ0LCAwLjE2NDAxMDYxNDE1NjcyMzAyLCAwLjUxNTYzNzIxODk1MjE3OSwgLTAuMTkxMTYxNDk4NDI3MzkxMDUsIDAuMzkzNjUzMDM1MTYzODc5NCwgMC40MjE5MzU2MTc5MjM3MzY2LCAwLjE2MTc3NjEyNTQzMTA2MDgsIC0wLjEwNDE3MTczMDU3Nzk0NTcxLCAwLjA4ODQ1NzI4NjM1Nzg3OTY0LCAwLjEwMjYwNzY4MjM0NzI5NzY3LCAwLjEzNDEwNjIzMzcxNjAxMTA1LCAwLjA1ODU1Mjc2ODA4MTQyNjYyLCAwLjEwMjU5ODM4NDAyMjcxMjcxLCAtMC4xNDI0MTAxMTQ0MDc1MzkzNywgMC4wMDY3MDEwNzQ1NDA2MTUwODIsIDAuMTMyNDIyNjU1ODIwODQ2NTZdLCBbMC4wODExNjM1MTgxMzA3NzkyNywgMC4wMzcyMTY5OTg2MzY3MjI1NjUsIC0wLjAxMTA5MDU2NTQ3Mjg0MTI2MywgLTAuMDI0MTc1NDQyNzU1MjIyMzIsIDAuMDc0MTM3NDY0MTY1Njg3NTYsIC0wLjEyMTAwMjY4OTAwMzk0NDQsIDAuMzk0NjU3NDMzMDMyOTg5NSwgMC4wOTY1NTEwNjgxMjcxNTUzLCAwLjEyMTgxMDAzMzkxNzQyNzA2LCAwLjI2MDc3MzA2MjcwNTk5MzY1LCAwLjA3MTQ0NzI3NTU3ODk3NTY4LCAwLjA0MzgyODkxMjA3OTMzNDI2LCAtMC4wMDQ4MDA2MzkxMTUyNzM5NTI1LCAwLjQ3MjYyNzY5OTM3NTE1MjYsIC0wLjA5NDM3NDg2NTI5MzUwMjgxLCAwLjI1MDg2NjExNTA5MzIzMTJdLCBbLTAuMjEyODMzNDQ5MjQ0NDk5MiwgLTAuMDU2NjA5OTk1NjYzMTY2MDQ2LCAtMC4yODUzNTk0MTI0MzE3MTY5LCAwLjY2Mzg0Nzg2MzY3NDE2MzgsIDAuMjc2NTE0MTEyOTQ5MzcxMzQsIC0wLjQ5MzQ4MjAyMzQ3NzU1NDMsIDAuNzg4MDYwNTQ1OTIxMzI1NywgMC4zNTc5NDA5MTIyNDY3MDQxLCAtMC4wNDY5MjA3NzI2NDE4OTcyLCAwLjAzMDMwMjk3NTMyNjc3NjUwNSwgLTAuMzUwMTg1NjYyNTA4MDEwODYsIC0wLjI0MTY1NDQ4NTQ2NDA5NjA3LCAtMC4wNjI1ODg3OTYwMTk1NTQxNCwgMC42OTUwNTI1NjQxNDQxMzQ1LCAtMC4xNTQyMTExOTMzMjMxMzUzOCwgLTAuMDU2MzI4NTUzNzA2NDA3NTVdLCBbMC4wMzQxMDgxMDk3NzIyMDUzNSwgMC4wNTc5MDE1OTg1MTMxMjYzNywgLTAuMTY2MDQ0ODkwODgwNTg0NzIsIC0wLjAwMTk5NTc0NDE4MzY1OTU1MzUsIDAuMzc3ODg0ODY0ODA3MTI4OSwgLTAuNDYwNDEzMjc3MTQ5MjAwNDQsIDAuMjg0NjI0MTg5MTM4NDEyNSwgMC4wMjc4NTU5ODg1OTE5MDk0MSwgLTAuMDExMjcwODUxODI4MTU3OTAyLCAtMC4xNTE5NDUzODIzNTY2NDM2OCwgLTAuMjc5MDY3MjE4MzAzNjgwNCwgLTAuMjExNjkzMjcxOTk0NTkwNzYsIC0wLjEyMDc1NzUzNTA5OTk4MzIyLCAwLjQ5MDk3NTIzMDkzMjIzNTcsIC0wLjIwOTk5NjExOTE0MTU3ODY3LCAtMC4wNzcxNzkwNzQyODc0MTQ1NV0sIFstMC40MDc3OTI5ODU0MzkzMDA1NCwgLTAuMjI0NDIyODI3MzYzMDE0MjIsIC0wLjEwOTU3NTM2MTAxMzQxMjQ4LCAwLjQxMzgxOTg0OTQ5MTExOTQsIDAuNjQ3MjA2OTAyNTAzOTY3MywgLTAuMTE4Mjg4Njg4MzYxNjQ0NzQsIDAuNjA3MjQxMTUzNzE3MDQxLCAtMC4wNDE1MjY1NjcxOTA4ODU1NDQsIC0wLjM1MDE4MjU5Mjg2ODgwNDkzLCAtMC4yNzAwMzQxNjQxOTAyOTIzNiwgLTAuMzYzMTA1ODAzNzI4MTAzNjQsIC0wLjMzNDgxNDAxMjA1MDYyODY2LCAtMC4zMjI4NzQ3NTQ2NjcyODIxLCAwLjM5NTc0MDE4MTIwNzY1Njg2LCAtMC41Njk3MDE5MTAwMTg5MjA5LCAtMC41MzIwNDk5NTM5Mzc1MzA1XSwgWy0wLjA0MjI1NDkwOTg3MzAwODczLCAtMC4xMTQwMTI2NzM0OTcyMDAwMSwgLTAuMDY0NTIxMjA4NDA1NDk0NjksIDAuNTAzMDU4MDE2MzAwMjAxNCwgMC4zMzM3NjE3MjE4NDk0NDE1MywgLTAuMTQyMzY2ODI2NTM0MjcxMjQsIDAuNDMwODc3MDAwMDkzNDYwMSwgLTAuMDc3MzEyMzU3NzIzNzEyOTIsIC0wLjEzODczNDYwODg4ODYyNjEsIC0wLjIxNDg2NTgwMzcxODU2NjksIC0wLjE2MDA2MzM0MTI1OTk1NjM2LCAtMC4zNDMwMjg5MDMwMDc1MDczLCAtMC4xMjcyODA3NzE3MzIzMzAzMiwgMC42OTUyMjA1ODk2Mzc3NTYzLCAtMC4xNDM2MTQyMDI3Mzc4MDgyMywgLTAuMDg4MTQxMjc3NDMyNDQxNzFdLCBbLTAuMDA2ODMyMTc2MzUzNzgyNDE1LCAtMC4wNzk1MTMwNjU1MTY5NDg3LCAwLjEwMTU4MjI4ODc0MjA2NTQzLCAwLjQ3NzQxMzU2NDkyMDQyNTQsIDAuMzg1MzU2NDI2MjM5MDEzNjcsIDAuMDE1NDQyMzY0ODQ5MTUwMTgsIDAuMzU3MjQxNzQ5NzYzNDg4NzcsIDAuMzYyNTY1NTE3NDI1NTM3MSwgMC4xMDg1NTYxNjYyOTEyMzY4OCwgLTAuMjQ4MzM5MTAxNjcyMTcyNTUsIC0wLjA5MDYzNTI4NDc4MTQ1NiwgLTAuMjA4MDM5ODIwMTk0MjQ0MzgsIC0wLjExNTY0MjcxMTUyMDE5NTAxLCAwLjM4MjYwNTY3MTg4MjYyOTQsIDAuMTkyMjk4MTE0Mjk5Nzc0MTcsIC0wLjA3NzQ1MDE5MzQ2NDc1NjAxXSwgWzAuMjI2ODgxMzg0ODQ5NTQ4MzQsIDAuMjI1NTU2NTIyNjA3ODAzMzQsIDAuMTgzODQwNjkyMDQzMzA0NDQsIDAuMTc0ODYwNDQ3NjQ1MTg3MzgsIDAuMjE4NDE5NzYwNDY1NjIxOTUsIDAuNDM2MDQ5NjQwMTc4NjgwNCwgLTAuMTQ2ODIyODY5Nzc3Njc5NDQsIDAuMTIxMDgwMTMwMzM4NjY4ODIsIC0wLjEyMjgxMDcwNjQ5NjIzODcxLCAwLjAwMzkyNjUzNzkzMDk2NTQyNCwgMC4yNTAzODA4NDM4Nzc3OTIzNiwgMC4yMTUzODc3OTEzOTUxODczOCwgMC4xOTY0OTE4MDc2OTkyMDM1LCAtMC4wNzc4MDAwMDU2NzQzNjIxOCwgMC4xNTgwNzUzNzczNDUwODUxNCwgMC4wNzY2NzEzMDIzMTg1NzNdLCBbLTAuMjYyMDgxODYxNDk1OTcxNywgMC4wODg2MjQzNzMwNzgzNDYyNSwgLTAuMDI4NzYyODI4NTU4NjgzMzk1LCAwLjA4Mzc4MTQzNjA4NTcwMDk5LCAtMC4wNDA3MzI5NzIzMjM4OTQ1LCAtMC4yOTMyNjQzODkwMzgwODU5NCwgMC40MTgwOTA4MjAzMTI1LCAtMC4xMjA1NTA0MDE1MDg4MDgxNCwgMC4yMTUzMDE0ODM4Njk1NTI2LCAwLjM5NTg3NjY0NjA0MTg3MDEsIC0wLjExNjAwMzA2NjMwMTM0NTgzLCAwLjQwMDQ2NzkzMjIyNDI3MzcsIDAuMDQxNDUyNDAwMzg2MzMzNDY2LCAwLjY5MTU2NzU0MDE2ODc2MjIsIDAuMDYzNzk1NDMyNDQ4Mzg3MTUsIDAuMjE1MTM2NTI4MDE1MTM2NzJdLCBbMC4xNDY3MjExMjQ2NDkwNDc4NSwgLTAuMDg0MjMyODk2NTY2MzkwOTksIC0wLjAyMDQ4MTU0OTIwMzM5NTg0NCwgMC4zNzU2ODAwNTkxOTQ1NjQ4LCAwLjM0ODgzMDY5OTkyMDY1NDMsIDAuMDUxODcwODIyOTA2NDk0MTQsIDAuNDk1MDE3ODI2NTU3MTU5NCwgMC41NzkwMDA4MzA2NTAzMjk2LCAtMC4wNzM4MDIzNzQzMDMzNDA5MSwgMC4wMTA2NDY0NzczNDE2NTE5MTcsIDAuMTgwMDkxMDgzMDQ5Nzc0MTcsIDAuMDcyNTU2MDQ4NjMxNjY4MDksIC0wLjA1MjI3MDIwMzgyODgxMTY0NiwgMC4zMDI2MzQ0Nzc2MTUzNTY0NSwgMC4xMjI3MzM5NjU1MTYwOTA0LCAwLjE4ODY0NTM5MjY1NjMyNjNdLCBbMC41MDQ1NTIxMjU5MzA3ODYxLCAwLjU0MDg0MDIwODUzMDQyNiwgMC41NzQ2MjI0NTIyNTkwNjM3LCAtMC40MjUyODk0MjIyNzM2MzU4NiwgLTAuNDI2NjE3NzcxMzg3MTAwMiwgMC41NDcyMjI1NTQ2ODM2ODUzLCAtMC40MTM2NzE2MTI3Mzk1NjMsIC0wLjU4MDU2NTAzNTM0MzE3MDIsIDAuNDM5MTQzNTM4NDc1MDM2NiwgMC40MzkzODMzNTc3NjMyOTA0LCAwLjQ5MDg5NDc5NDQ2NDExMTMzLCAwLjM3MjQxNzg2NzE4MzY4NTMsIDAuNjk5NzM5NDU2MTc2NzU3OCwgLTAuNzA1OTAxODYxMTkwNzk1OSwgMC42OTMxODA2ODAyNzQ5NjM0LCAwLjYwNzg4MDIzNDcxODMyMjhdLCBbLTAuMTA4NzE0NTY1NjM0NzI3NDgsIC0wLjQ0MTM3MzE2OTQyMjE0OTY2LCAtMC42MDEyNTc4MDEwNTU5MDgyLCAwLjQ1ODYxNjUyNDkzNDc2ODcsIDAuMzA4Mzc5MTEzNjc0MTYzOCwgLTAuMzU1NTI0MDYzMTEwMzUxNTYsIDAuMzAxNTc5MDU4MTcwMzE4NiwgMC4xOTk1NDI2NzE0NDIwMzE4NiwgLTAuMzMyOTIwNzMwMTEzOTgzMTUsIC0wLjYwNDIzNjEyNTk0NjA0NDksIC0wLjM5MTg4OTI3NDEyMDMzMDgsIC0wLjMyNDczOTgxMzgwNDYyNjQ2LCAtMC42MTQxMjI2MjkxNjU2NDk0LCAwLjM5NTg4Mjk2NDEzNDIxNjMsIC0wLjQxNzAzMzY3MjMzMjc2MzY3LCAtMC4zNDQwNzIxMDM1MDAzNjYyXSwgWy0xLjM3NjA2NjY4NDcyMjkwMDQsIC0wLjYyNDU4MDUwMjUxMDA3MDgsIC0wLjcwODYxODU4MTI5NTAxMzQsIDAuOTQ0MjUwNTgzNjQ4NjgxNiwgMC44NDMxMzAxMTE2OTQzMzU5LCAtMC44OTczODM1NzA2NzEwODE1LCAxLjM1OTgxMjAyMTI1NTQ5MzIsIDAuODIxMTUzNzU5OTU2MzU5OSwgLTAuMjQ0NTYxNjg3MTExODU0NTUsIC0wLjU1OTI5MzYyNzczODk1MjYsIC0xLjIzNzc1OTExMzMxMTc2NzYsIC0wLjg4NDA1NzgxOTg0MzI5MjIsIC0wLjYwOTM3MjEzODk3NzA1MDgsIDAuOTg2MDA3NjkwNDI5Njg3NSwgLTEuMzc5NTE0Njk0MjEzODY3MiwgLTEuMjU0MTkzNzgyODA2Mzk2NV0sIFswLjE3ODM4MDcxMjg2Njc4MzE0LCAwLjIxMzc3NDc1NTU5NzExNDU2LCAwLjE5OTQ4Mzk3NTc2ODA4OTMsIC0wLjEyNzc0Mzc4MDYxMjk0NTU2LCAwLjA0MTg5ODgyNDI3NDUzOTk1LCAwLjI5NjI3ODQ3NjcxNTA4NzksIDAuMjU3OTIzMjc1MjMyMzE1MDYsIDAuMDc0OTg5MzAzOTQ2NDk1MDYsIDAuMDcwMDQyMzEyMTQ1MjMzMTUsIDAuMDM2ODUwNzA1NzQyODM2LCAwLjA4ODMxNzA1MTUyOTg4NDM0LCAwLjI5NzY2NjYwOTI4NzI2MTk2LCAwLjM1NzMxNzU5NjY3Mzk2NTQ1LCAwLjE3NjU1NTAyMjU5NzMxMjkzLCAwLjE2MDY1MjkwNTcwMjU5MDk0LCAwLjA4MTMzMzcxMTc0MzM1NDhdLCBbMC4yNTA1NjYzMzM1MzIzMzM0LCAwLjExMDEzMDI4MDI1NjI3MTM2LCAtMC4xMjE5MzIyNjgxNDI3MDAyLCAtMC4yNzE4MDQxMjQxMTY4OTc2LCAtMC4yMDk5MDE2MDEwNzYxMjYxLCAtMC4wNjIwNjMyNzY3Njc3MzA3MSwgLTAuMjU5NTk1MzY0MzMyMTk5MSwgLTAuMTk3MTY3MDY4NzE5ODYzOSwgLTAuMDk1NDY3NDYzMTM1NzE5MywgMC4xOTAzNzgxNTkyODQ1OTE2NywgMC4yNjc5NzUyNDA5NDU4MTYwNCwgMC4zMzkxMDE0MzM3NTM5NjczLCAwLjI0NjY0NDI1ODQ5OTE0NTUsIDAuMDYyNTg3NTg5MDI1NDk3NDQsIDAuMzM1MDYxOTA3NzY4MjQ5NSwgMC40NzU3MjI0OTE3NDExODA0XSwgWzAuMjQ1OTI1MzIyMTc1MDI1OTQsIC0wLjA5NTQxNjI0Nzg0NDY5NjA0LCAtMC4wOTE3MDk5OTM3Nzk2NTkyNywgMC40MzIxODE1OTY3NTU5ODE0NSwgMC41NTY2ODkzODE1OTk0MjYzLCAwLjE3MzczNDY3OTgxODE1MzM4LCAwLjM0MjExMzU1NDQ3NzY5MTY1LCAwLjU4MTg1MTYwMTYwMDY0NywgLTAuMTcyMjk1ODA4NzkyMTE0MjYsIC0wLjI2MTU0MTYzNDc5ODA0OTksIC0wLjMyNjE1MDIzODUxMzk0NjUzLCAtMC4yMzE5NzE0NzI1MDE3NTQ3NiwgMC4wNDUzOTUwODc0NTA3NDI3MiwgMC4yNjM0MjkxNjQ4ODY0NzQ2LCAtMC4wMjI1NzQ0MzIxOTQyMzI5NCwgLTAuMDcyNzAwOTc3MzI1NDM5NDVdLCBbLTAuMDg5NjQ1MTYyMjI0NzY5NTksIDAuMDE4MjY2OTMxMTc2MTg1NjA4LCAwLjA1NjAwOTUxOTg0NTI0NzI3LCAwLjExNDY3NjQ2MDYyMzc0MTE1LCAwLjIyMzU0MDM2NTY5NTk1MzM3LCAwLjA4ODQ1NTQxNjI2MjE0OTgxLCAwLjIyNTIzMDM5NTc5MzkxNDgsIDAuMjEzNjAyNjMyMjg0MTY0NDMsIC0wLjA5MTc3NTIzODUxMzk0NjUzLCAwLjEzNjA1NzE1MzM0NDE1NDM2LCAwLjI1OTIxMDIyODkxOTk4MjksIDAuMTM4MjIzNTg4NDY2NjQ0MywgMC4wMDEyOTg4MjUxNDAxMTExNDg0LCAwLjMxNjM3Mjg3MTM5ODkyNTgsIDAuMzAzODAwMjg0ODYyNTE4MywgLTAuMDUwNjgwMjcyMjgxMTY5ODldLCBbMC4xMTUxNjU0MTI0MjU5OTQ4NywgMC4yMjg5NTIzNzgwMzQ1OTE2NywgLTAuMDEyMjI3NTUwMTQ4OTYzOTI4LCAtMC4zMDM2NDA4NDI0Mzc3NDQxNCwgLTAuMDYwOTgwMjUyOTIxNTgxMjcsIDAuMDM1OTU4OTgzMDA0MDkzMTcsIDAuMjA1ODgzOTQ5OTk1MDQwOSwgLTAuNTQ1OTAyOTA3ODQ4MzU4MiwgMC4yODExNDAxMTg4MzczNTY1NywgMC4yNjE3MDgzNzg3OTE4MDkxLCAwLjIyMzg1NTU1NTA1NzUyNTYzLCAwLjQ1MjE3ODI5OTQyNzAzMjQ3LCAwLjI5NjA2MTMzNjk5NDE3MTE0LCAtMC4wNjQ1MDExNjYzNDM2ODg5NiwgMC4wNTc2NDQzMzc0MTU2OTUxOSwgMC40MTQ4MTI5ODIwODIzNjY5NF0sIFstMC4zOTAzMTYyNDc5NDAwNjM1LCAtMC4zNDMzNDI0MjM0MzkwMjU5LCAtMC4yNjI5MDgyNzk4OTU3ODI0NywgMC4xODk2MjA4NTI0NzAzOTc5NSwgMC43MjM2NDYwNDQ3MzExNDAxLCAwLjA5NDI5NjUwMDA4Njc4NDM2LCAwLjU2OTc4NTQ3NTczMDg5NiwgMS4wNDQyOTA1NDI2MDI1MzksIC0wLjU4MjM1MzgzMDMzNzUyNDQsIC0wLjQ5ODY3NzM3MjkzMjQzNDEsIC0wLjAyNzkyODkyNjA1MDY2Mjk5NCwgLTAuMzYzMjg0Nzk2NDc2MzY0MTQsIC0wLjMyMzk5OTg4MTc0NDM4NDc3LCAwLjM3OTg2OTYxMDA3MTE4MjI1LCAtMC4yMjg3ODY3MjE4MjU1OTk2NywgLTAuMjEyMDkzMTE0ODUyOTA1MjddLCBbMC4yMzc2MDgwNDUzMzk1ODQzNSwgMC4wNTIxNTA0OTUzNTAzNjA4NywgMC4xMzQyOTkxNTkwNDk5ODc4LCAtMC4yNTA2Mjk3NTI4NzQzNzQ0LCAwLjA0NTA5MzI4Njc4MjUwMzEzLCAwLjIwODM4NTg1NDk1OTQ4NzkyLCAtMC4wOTU0NDAxMTk1MDQ5Mjg1OSwgLTAuMzM5NTA1MDc2NDA4Mzg2MjMsIDAuMzIwNzk2NTQ5MzIwMjIwOTUsIDAuMjM5NDQ4NTMyNDYyMTIwMDYsIDAuMTM5OTY4MjYxMTIyNzAzNTUsIDAuMjgwODU4ODQ0NTE4NjYxNSwgMC4xODQ0OTA1MzE2ODI5NjgxNCwgLTAuMTUxMzM5MTg4MjE4MTE2NzYsIC0wLjA5Njg5NDc0MTA1ODM0OTYxLCAwLjA3ODEyNDUwODI2MTY4MDZdLCBbMC41NjM4NDkyNzAzNDM3ODA1LCAxLjIxNTc4MTA5MjY0MzczNzgsIDAuODEwNzMyMjQ1NDQ1MjUxNSwgLTAuODY0MjQxNDgwODI3MzMxNSwgLTEuMjIxNDg0MDY1MDU1ODQ3MiwgMC4yNjUyMzEwMTMyOTgwMzQ2NywgLTAuOTEyNDk3Njk5MjYwNzExNywgLTEuMDk3MjY0NTI4Mjc0NTM2MSwgMS4wMzE3NzU4MzIxNzYyMDg1LCAxLjEzNDg0NzQwMjU3MjYzMTgsIDAuOTU2ODA1Mjg4NzkxNjU2NSwgMS4yMjA5NDQ0MDQ2MDIwNTA4LCAxLjI1Njc0MjQ3NzQxNjk5MjIsIC0wLjA2MDUxMDM0NDgwMzMzMzI4LCAxLjIwNjA3ODA1MjUyMDc1MiwgMS4yMjYwNjMwMTMwNzY3ODIyXV0sIFswLjE0MDEwNDI5MzgyMzI0MjIsIDAuMDc1Njg0MDg1NDg4MzE5NCwgMC4wOTQxOTE0MTcwOTgwNDUzNSwgMC4xNzA2MDM5MTYwNDkwMDM2LCAwLjE4ODA4MTM1MzkwMjgxNjc3LCAwLjA3MTIyOTI2NDE0MDEyOTA5LCAwLjI2NzAyODIxMjU0NzMwMjI1LCAwLjE3MTM5MTM1MzAxMTEzMTMsIDAuMDgxNTcyNTYyNDU2MTMwOTgsIDAuMDI2NTgxMjY2ODk0OTM2NTYsIDAuMTUzNzg5NDMwODU2NzA0NywgMC4wMDQ2OTE4ODU3ODQyNjgzNzksIDAuMDY3NTI5MjYxMTEyMjEzMTMsIDAuMjQ4MDMwODQxMzUwNTU1NDIsIDAuMDkwMDQ4NjExMTY0MDkzMDIsIDAuMTM0MDA2MzY2MTMzNjg5ODhdLCBbWy0xLjIxOTI5NDU0ODAzNDY2OF0sIFstMC44OTk4MzIzMDgyOTIzODg5XSwgWy0wLjg4NzE0MzczMTExNzI0ODVdLCBbMS4wNDg4NDQzMzc0NjMzNzldLCBbMC43OTExODk5MDg5ODEzMjMyXSwgWy0xLjA0ODQxMzI3NjY3MjM2MzNdLCBbMC42MTc5NjkxNTUzMTE1ODQ1XSwgWzAuMzIyOTk2Njc1OTY4MTcwMTddLCBbLTAuNTQ4MTc4MDc2NzQ0MDc5Nl0sIFstMS4yNzY3ODM0NjYzMzkxMTEzXSwgWy0xLjI4NzI1MzYxODI0MDM1NjRdLCBbLTEuMTc5OTc2NzAxNzM2NDUwMl0sIFstMS4zNjY3MTA5MDEyNjAzNzZdLCBbMC43MDc4ODE4MDgyODA5NDQ4XSwgWy0xLjA4NDg4MjQ5Nzc4NzQ3NTZdLCBbLTEuNTA2MDEwMTc0NzUxMjgxN11dLCBbMC4yMDI1OTgxODQzNDcxNTI3XV0=", "metrics": {"loss": 0.168209, "accuracy": 0.931006, "auc": 0.982131, "precision": 0.921293, "recall": 0.950956}}