{"round": 5, "weights_b64": "W1tbMC4wODU5NTEyODM1NzQxMDQzMSwgLTAuMTg5NDg5MzM0ODIxNzAxMDUsIDAuMTcxOTgxNDgzNjk3ODkxMjQsIDAuMzA3ODg4Njg2NjU2OTUxOSwgLTAuMTUwMDEzMTQ4Nzg0NjM3NDUsIDAuMDAzMDQ1NzQ2MTI1MjgwODU3LCAwLjE3NDQ2MDc5ODUwMTk2ODM4LCAtMC4yNzk0MTE1MjQ1MzQyMjU0NiwgLTAuMTIxMjk3NjcyMzkwOTM3OCwgLTAuNDYyMTA3MTgxNTQ5MDcyMjcsIC0wLjAwMzE5NDM0MjgzMzAxMjM0MjUsIC0wLjAyMjA2Njk4ODA1MDkzNzY1MywgMC4xMzUwODk4Mjk1NjQwOTQ1NCwgLTAuMjkwNDQ0NDMzNjg5MTE3NDMsIDAuMDY1OTMzNjk2OTI1NjQwMSwgMC4zMDQxNzE3MTEyMDY0MzYxNiwgLTAuMDA3ODk1Mzk0MjI4Mzk4OCwgMC4wOTM1MDAxODIwMzI1ODUxNCwgMC4wNDA0MDU1MDQ0MDU0OTg1MDUsIDAuMDEwODM1NDg5MjU4MTcwMTI4LCAwLjQ0NjQyOTA0NDAwODI1NSwgMC4wOTMwNTgwMTk4NzY0ODAxLCAwLjQ0MDI2NTc3NDcyNjg2NzcsIDAuMTY0NjU0NjEyNTQxMTk4NzMsIC0wLjM1MzgxNTE5Nzk0NDY0MTEsIDAuMDI5MDg1NTAwMTY1ODIwMTIyLCAwLjE2OTExODc3NjkxNzQ1NzU4LCAwLjEwNDk0NDAwNTYwODU1ODY1LCAtMC4wMDQ1OTM0MTkzNzY3NjA3MjEsIC0wLjExMzMzMjc3ODIxNTQwODMzLCAtMC4zMDQ5MzM3ODYzOTIyMTE5LCAwLjI3ODg3NzAxOTg4MjIwMjE1XSwgWy0wLjUyMTkwMDE3NzAwMTk1MzEsIDAuNDA2Mjc1NjI5OTk3MjUzNCwgLTEuMzc2MjEwODA4NzUzOTY3MywgMS4yNTgwNTg1NDc5NzM2MzI4LCAwLjMwOTU1NDQ1NzY2NDQ4OTc1LCAwLjAyMTkwNDU1NjA4MDY5ODk2NywgMC4zMjU3ODMzNzE5MjUzNTQsIDAuNjAzODE2MzkwMDM3NTM2NiwgMC45Nzk1MDg4NzY4MDA1MzcxLCAtMC4xMjE0MjUxNTE4MjQ5NTExNywgMC4zMzIwNzMyNDE0NzIyNDQyNiwgMC4xMTQ5NDg3ODY3OTUxMzkzMSwgLTAuMDEyMDk0MjM0MTE2Mzc1NDQ2LCAwLjAwNjgxNzkxNjg3Mzg0MjQ3OCwgLTAuNTQzMzE5ODIxMzU3NzI3LCAtMC4xOTA5MTc5OTg1NTIzMjI0LCAwLjE0NzMzNzIyODA1OTc2ODY4LCAwLjE1MDU5MDQ0OTU3MTYwOTUsIDAuMTEyNTU5ODMyNjMyNTQxNjYsIC0wLjQxOTQ2NDc5Njc4MTUzOTksIDEuNTgwODQzMzI5NDI5NjI2NSwgMC40MjMyMjUwMTU0MDE4NDAyLCAxLjM4NDY2MDM2MzE5NzMyNjcsIC0wLjI5NTg0NTEyMTE0NTI0ODQsIDAuMzA4OTc1ODE1NzczMDEwMjUsIC0wLjE4MTA3MzU3NjIxMTkyOTMyLCAwLjM3MTQxNTgyMzY5ODA0MzgsIDAuMDUxNTU4OTMwNDI2ODM2MDE0LCAtMC4wMjExODQxNTM4NTQ4NDY5NTQsIC0wLjE1ODY2MDA4NDAwOTE3MDUzLCAtMC4yNTA2MzI1ODQwOTUwMDEyLCAxLjMxNjU1MjQwMDU4ODk4OTNdLCBbLTEuMDA4NTkwNDU5ODIzNjA4NCwgMC4zOTI4MTQ4MTUwNDQ0MDMxLCAtMC4zODA2NDEzNDEyMDk0MTE2LCAwLjQ2NDM4OTc0MTQyMDc0NTg1LCAwLjI0Nzk3NzA0ODE1ODY0NTYzLCAtMC4yMTA4MDI3MzM4OTgxNjI4NCwgMC40MzAwNjM5NjI5MzY0MDEzNywgLTAuMjk3MzkwOTY3NjA3NDk4MTcsIC0wLjE0MDgzNzcyODk3NzIwMzM3LCAtMC4zMjMyMjg5MjU0NjY1Mzc1LCAwLjM3ODg4MjExMDExODg2NTk3LCAtMC4xMDg3NjU5NTk3Mzk2ODUwNiwgMC4wNTE5NjQxMjY1MjczMDk0MiwgLTAuMjUyMjk0NTcwMjA3NTk1OCwgLTAuMzU1MzYzNjk2ODEzNTgzNCwgLTAuMDY5ODQzMzU5MjkxNTUzNSwgMC4wNTkzMjg3MzQ4NzQ3MjUzNCwgMC4wMjI2NjA3NTA4OTU3Mzg2LCAwLjAxOTczOTcxNTM4MjQ1Njc4LCAtMC44OTQxMzYwNzEyMDUxMzkyLCAwLjE2OTYzNzk3ODA3NjkzNDgxLCAwLjIxMDEyNDkyNDc3ODkzODMsIDAuMjU3NDA1MTMyMDU1MjgyNiwgLTAuMDMzMTc0MTQ1OTY2NzY4MjY1LCAwLjM0NDUxNTM4MzI0MzU2MDgsIDAuMDIzODc1MTc1MDQzOTQwNTQ0LCAwLjIxNTc0NzA1ODM5MTU3MTA0LCAtMC4wMjY3NzA5NDU2Mzg0MTgxOTgsIC0wLjEwOTM2ODY1OTU1NTkxMjAyLCAtMC4zNTMwMzM0MjM0MjM3NjcxLCAtMC43MjYwMjk5OTIxMDM1NzY3LCAwLjQyNjA3NTI3OTcxMjY3N10sIFstMC4xNjM2OTM5MzQ2NzkwMzEzNywgLTAuMTIxNTg3NzkwNTQ4ODAxNDIsIC0xLjkzMzExMzMzNjU2MzExMDQsIDAuNjY2NjY3NTgwNjA0NTUzMiwgMC4xNDIxOTI2OTE1NjQ1NTk5NCwgLTAuNTEyNzgyOTMxMzI3ODE5OCwgMC4zMTM0MTgyOTg5NTk3MzIwNiwgMC44MjMxNzM1ODI1NTM4NjM1LCAwLjAxNTkzMDk2MTgxNzUwMjk3NSwgLTAuMjAwMTM4NjI4NDgyODE4NiwgLTAuMDMyMTEzNjQ4OTUxMDUzNjIsIDAuMjUzOTA5ODg1ODgzMzMxMywgLTAuMTMxODE4NTYyNzQ2MDQ3OTcsIDAuMDA3NDQxMjQyMjI1NDY4MTU5LCAtMC4yOTcyMDk4NTg4OTQzNDgxNCwgLTAuMzY0NDQ3MzU1MjcwMzg1NzQsIDAuMTkzMjc4NzU5NzE3OTQxMjgsIC0wLjMwMzMzMDM2MTg0MzEwOTEzLCAtMC4yNzIyNjUwNzY2MzcyNjgwNywgLTAuMDk0MDY4MTY5NTkzODExMDQsIDAuODA5MDkwNDk1MTA5NTU4MSwgMC4yMTc5OTE4MTQwMTcyOTU4NCwgMC44OTU3MTcxNDQwMTI0NTEyLCAtMC43ODUwMDExNTg3MTQyOTQ0LCAtMC4xNDMzOTg2NDI1Mzk5NzgwMywgLTAuMTU4NzcyNDgzNDY4MDU1NzMsIDAuMzQ2NTMzMzU4MDk3MDc2NCwgLTAuNzMzOTAxMjYyMjgzMzI1MiwgMC4wMTQzOTYyMDM2ODE4MjY1OTEsIC0wLjQyMTYyMzg4NTYzMTU2MTMsIC0wLjEyMzg1OTcwMzU0MDgwMiwgMC45MTg4NDE3NzkyMzIwMjUxXSwgWy0xLjE1NDkzMTE4NzYyOTY5OTcsIC0wLjA5NzcwNDc0NTgyOTEwNTM4LCAtMC4xNTgzOTU1NzM0OTY4MTg1NCwgLTAuMDUyOTM1OTEzMjA1MTQ2NzksIDAuMzI5MzQ3MDc0MDMxODI5ODMsIC0wLjA5Nzk0NzgxMzU3MDQ5OTQyLCAwLjA3MjIzMzE5MjYyMjY2MTU5LCAtMC4zMTEyODU4NTMzODU5MjUzLCAtMC4xNTA2OTk0MDY4NjIyNTg5LCAwLjA3MTg4MzMxMzM1NzgzMDA1LCAtMC4xMjIyNjQ4MDk5MDY0ODI3LCAtMC41NDQ5NTAwNjc5OTY5Nzg4LCAwLjA2MTQ5NzE3MDQ3ODEwNTU0NSwgLTAuNDAyNzA2NjIzMDc3MzkyNiwgLTAuMDQxMjk5NTMzMDk4OTM2MDgsIDAuMTkzMjkwNTYxNDM3NjA2OCwgLTAuMjUwMjg0OTEwMjAyMDI2MzcsIDAuMDUzODkxNzIyMTEyODk0MDYsIDAuMTAwNjg4NTY5MjQ3NzIyNjMsIC0xLjA3NjQ0ODA4MjkyMzg4OTIsIDAuMjg4NDU3ODcwNDgzMzk4NDQsIC0wLjAzMzU4NjcyOTMxNzkwMzUyLCAwLjMwOTk3NjIyMDEzMDkyMDQsIDAuMTE1OTY1Nzk4NDk3MjAwMDEsIDAuMDQ4Mzc2MDY0NzQ3NTcxOTQ1LCAwLjA1ODYyNzkyNTgxMzE5ODA5LCAtMC4xMzA2MjIzNTcxMzAwNTA2NiwgMC4wNTAyMDEwNDM0ODY1OTUxNTQsIDAuMDc5MTkwMjI0NDA5MTAzNCwgLTAuMzY5NTY0MDU2Mzk2NDg0NCwgLTAuOTgzOTY2ODI3MzkyNTc4MSwgMC4xNzI2NTQ2Mjg3NTM2NjIxXSwgWy0wLjA5NzAxNzg4NDI1NDQ1NTU3LCAwLjEyNTA0Njk2ODQ2MDA4MywgMC4xODkyNDQyNTU0MjM1NDU4NCwgLTAuMDMyMDAwODIxMDgzNzg0MSwgMC4yOTc5NDM2NTE2NzYxNzgsIDAuMzI1MzMzNjU0ODgwNTIzNywgLTAuMDc5ODc0NDcwODI5OTYzNjgsIC0wLjAxMTQwOTk0NzY0ODY0NDQ0NywgLTAuMDU1MTI3NTc5NzE4ODI4MiwgMC4yNjUzMzMzMjQ2NzA3OTE2LCAwLjA2OTQzNzYzNzkyNTE0ODAxLCAwLjAxMTUyNTMzNTcyMTY3MTU4MSwgLTAuMDcxNjE5NjAwMDU3NjAxOTMsIDAuMTIyMDM3MzIxMzI5MTE2ODIsIDAuMTg5ODE1NTgwODQ0ODc5MTUsIC0wLjIwNjExMjI2NTU4Njg1MzAzLCAtMC4wMTMzNjc5NjQ4ODYxMjg5MDIsIDAuMjE0MjgxOTQ2NDIwNjY5NTYsIDAuMDUxNDgxOTMyNDAxNjU3MTA0LCAwLjIyOTk3NDU1Mjk4OTAwNjA0LCAwLjIzOTM0OTI0NjAyNTA4NTQ1LCAwLjAxMTkwMDkyNjAwODgyMDUzNCwgMC4xNjAzMDA4ODA2NzA1NDc0OSwgLTAuMDE1MjY5MTU4NDA4MDQ1NzY5LCAwLjI3MzQ4NDE0MDYzNDUzNjc0LCAwLjExMzE5MDI4NTg2MTQ5MjE2LCAtMC4yNjQwNTM4ODExNjgzNjU1LCAwLjA1MjY5MTM3MDI0ODc5NDU1NiwgMC4xODE3MDQwNzQxNDQzNjM0LCAwLjA3MjU3MjMyODE1MDI3MjM3LCAwLjAxMDAxNDI1MjczNzE2NDQ5NywgMC4xMjg3MTYwNjY0Nzk2ODI5Ml0sIFswLjA3MzQ3MzAyMTM4ODA1MzksIDAuMTQ0Mzk5ODgxMzYyOTE1MDQsIC0xLjE2Njg4MTc5OTY5Nzg3NiwgLTAuMDI2MjI4NzExMDA5MDI1NTc0LCAwLjE2MjQxNTQxNTA0ODU5OTI0LCAwLjIxOTczMzA1OTQwNjI4MDUyLCAtMC4wODE5MDk3NzU3MzM5NDc3NSwgLTAuMDUwNjAwNjAzMjIyODQ2OTg1LCAwLjA3OTg3ODEzNjUxNTYxNzM3LCAwLjI0NjIyMzU5ODcxODY0MzIsIC0wLjA4MTc2MDU4NTMwODA3NDk1LCAwLjExNjU1ODIzODg2Mzk0NTAxLCAwLjQxOTM4MjM5MzM2MDEzNzk0LCAtMC4xMTY2NTgyODUyNjAyMDA1LCAwLjI0OTY2MTAyODM4NTE2MjM1LCAwLjMzNDYzMzY3ODE5Nzg2MDcsIDAuMjQ1ODc3ODkxNzc4OTQ1OTIsIDAuMTQ0ODkwMjc4NTc3ODA0NTcsIC0wLjAzMDI4MjI5OTk2NTYyMDA0LCAtMC4yNTI2NDY5NTI4Njc1MDc5MywgMC4wNTU1NDU4MzY2ODcwODgwMSwgLTAuMDQ0NTMxNjEzNTg4MzMzMTMsIC0wLjIxNjI2NjE4NTA0NTI0MjMsIDAuMDI2MjA4NjgzODQ4MzgxMDQyLCAtMC4yMDMzOTg0NjYxMTAyMjk1LCAwLjE1ODkyMzIzODUxNTg1Mzg4LCAwLjE3Njg0MTY0NjQzMjg3NjYsIDAuMTg4NzM3OTI4ODY3MzQwMSwgLTEuNTI3OTUxMDAyMTIwOTcxNywgMC4yMjIwMzc0MDQ3NzU2MTk1LCAtMC4wMjM5MzU1MjY2MDk0MjA3NzYsIDAuMTM4Njg4MjM2NDc0OTkwODRdLCBbMC4zMzMwNTU4NTM4NDM2ODg5NiwgMS4yNTQwMDQ5NTUyOTE3NDgsIDIuMzEzOTQzODYyOTE1MDM5LCAtMy4xMjI5Mjk1NzMwNTkwODIsIDAuNDg1MTc2MjA1NjM1MDcwOCwgMC42NTk2ODMyMjc1MzkwNjI1LCAtMC4yMjk5ODY5NTA3NTUxMTkzMiwgMC4xNTc5MTczMDU4MjcxNDA4LCAtMC42OTY3OTYxMTkyMTMxMDQyLCAtMC41NTEzNDMxNDI5ODYyOTc2LCAwLjUwNzU3MDMyNjMyODI3NzYsIC0wLjE5NzUxNDI2NTc3NTY4MDU0LCAwLjczMzA4Mzg0NDE4NDg3NTUsIDIuMTQxMzQzMzU1MTc4ODMzLCAxLjg1MDU4OTUxMzc3ODY4NjUsIDAuNTY5MzUxMDc3MDc5NzczLCAtMC40NDUyNTgzNzg5ODI1NDM5NSwgMC43MTQ0MTU3MjkwNDU4Njc5LCAwLjcxNzUxMDIyMzM4ODY3MTksIDIuMDM0Mjk4ODk2Nzg5NTUxLCAtMS4yMjA4OTE3MTQwOTYwNjkzLCAwLjE3MTE1NjM2MTY5OTEwNDMsIC0yLjQyMTc1NTc5MDcxMDQ0OSwgMS4xMDg4MDExMjY0ODAxMDI1LCAxLjM1NzMxMTk2NDAzNTAzNDIsIDAuMjA3NDI4NDI1NTUwNDYwODIsIC0wLjU3NjE4MjQ4NDYyNjc3LCAwLjg2MzY1MDk3NzYxMTU0MTcsIDAuMzIzMjk2MDcwMDk4ODc2OTUsIDIuMjkzNDAyNjcxODEzOTY1LCAyLjk3MjE5MjA0OTAyNjQ4OTMsIC0xLjAxNjA3NzUxODQ2MzEzNDhdLCBbLTAuMzg1NTYyMzMwNDg0MzkwMjYsIDAuMjU4OTg5MjQ0Njk5NDc4MTUsIDAuMTc0MjY2OTA0NTkyNTE0MDQsIC0wLjAzMjU3NjM5NzA2MTM0Nzk2LCAtMC4wNzAyNTk2NTMwMzE4MjYwMiwgLTAuMTMyNTA5NTU5MzkyOTI5MDgsIDAuNDAyODMzMzEyNzQ5ODYyNjcsIDAuNTYwMzA4Njk0ODM5NDc3NSwgLTAuNDUzNDAxMzI3MTMzMTc4NywgMC4xNTAxOTMzMDM4MjM0NzEwNywgMC4yOTA1NjI1MTA0OTA0MTc1LCAwLjIwMTM1NzEyNjIzNTk2MTkxLCAtMC4yMDQ5MzEyMjkzNTI5NTEwNSwgMC4wNDUwMDU2NzkxMzA1NTQyLCAtMC4zNjUyMjQ5NTc0NjYxMjU1LCAtMC40NzU2NTM4ODY3OTUwNDM5NSwgMC40MjA3ODgxMDkzMDI1MjA3NSwgLTAuMjAwNzU5ODI4MDkwNjY3NzIsIC0wLjExNDI2MDQ2NDkwNjY5MjUsIC0wLjQ0NjU3NDk4NTk4MDk4NzU1LCAtMC4zNjcxMjU3NzkzOTAzMzUxLCAwLjQzNDI3MTQ1NDgxMTA5NjIsIC0wLjI4MDI4ODYwNjg4MjA5NTM0LCAtMC4zMjAyODk4NTAyMzQ5ODUzNSwgMC40Mjc1MTE3NTE2NTE3NjM5LCAtMC4yODE4NTM2NDYwMzk5NjI3NywgMC40Mzg2MjY4MjU4MDk0Nzg3NiwgLTAuNjk2NzU5OTM5MTkzNzI1NiwgLTAuMzAyMDIzNDEwNzk3MTE5MTQsIC0wLjI2MzMwMzE2MDY2NzQxOTQzLCAwLjAzODQ0NzQ1MDg0NjQzMzY0LCAtMC40NTM4ODc0MDMwMTEzMjJdLCBbLTIuMTM4MTk3MTgzNjA5MDA5LCAwLjQyODc3NDU2NTQ1ODI5NzczLCAtMC4yMTQ4MTQ2MDMzMjg3MDQ4MywgLTAuMjk5MDY4NDgwNzMwMDU2NzYsIDAuMzI4ODY5MTA0Mzg1Mzc2LCAwLjE5MTk1MDAzODA3NTQ0NzA4LCAwLjQwODEyOTg0MTA4OTI0ODY2LCAwLjAzOTEwOTExODI4Mjc5NDk1LCAtMC4wMzI0ODY0MjM4NTAwNTk1MSwgMC4yODc1MDE4NDE3ODM1MjM1NiwgMC40MDc3NDY3MzIyMzQ5NTQ4MywgMC4wMjg3NzA3NzY0NjU1MzUxNjQsIC0wLjA0NjM1NTQ3ODQ2NTU1NzEsIC0wLjM2MDY0NTE3NDk4MDE2MzYsIC0wLjQ5NjE0ODM0Nzg1NDYxNDI2LCAtMC4zNjMwOTA4NDI5NjIyNjUsIDAuNDAyMTY3MjYwNjQ2ODIwMDcsIDAuMTUwMTcyNTQ2NTA1OTI4MDQsIDAuMTgyMjEzOTMyMjc1NzcyMSwgLTIuMDI5NzczNDczNzM5NjI0LCAtMC4wNTQ2Mjg5NzU2ODk0MTExNiwgMC4xNjY5NTgwNjM4NDA4NjYxLCAtMC4xMzYyNTkzNDcyMDAzOTM2OCwgMC4wNDQ5ODE4MjIzNzE0ODI4NSwgMC4xNDEwMDM4NzY5MjQ1MTQ3NywgLTAuMTg1OTI5NTk2NDI0MTAyNzgsIDAuMzQ4MTAxNjc1NTEwNDA2NSwgMC4yMzA2NTU0OTEzNTIwODEzLCAtMC4zMzc5NzI2NzA3OTM1MzMzLCAtMS4wNTM2ODkxMjIyMDAwMTIyLCAtMS4zNTUzMjg3OTgyOTQwNjc0LCAwLjI0MTg0Mzg0OTQyMDU0NzQ5XSwgWzAuMjIxMTUzMDIwODU4NzY0NjUsIDAuMzIxMTgyOTM2NDI5OTc3NCwgMC4wNTUyMzk5NjgwMDE4NDI1LCAwLjAyOTA5NTY2Mjc1Nzc1NDMyNiwgLTAuNDc4OTc5MTEwNzE3NzczNDQsIDAuNTk5NDg1MDM5NzEwOTk4NSwgMC4wMDE0MzYwNTA5ODEyODMxODc5LCAtMC4xNDg5MTM0NzI4OTA4NTM4OCwgMC4xOTk5NDA1MDI2NDM1ODUyLCAwLjMxMzY2MzM2MzQ1NjcyNjEsIC0wLjA1MTExNTUzNTE5OTY0MjE4LCAwLjIxMDcwMzMxMzM1MDY3NzUsIDAuMjY2Mjc0ODY5NDQxOTg2MSwgMC4wNzcxMzAxNjEyMjU3OTU3NSwgMC4zMTYyMDU1MDE1NTYzOTY1LCAwLjEzNTI4ODg2NDM3NDE2MDc3LCAwLjIyNDU5NjkzMjUzMDQwMzE0LCAwLjI2ODgxMzYzOTg3OTIyNjcsIDAuNDE3NDQ5NzEyNzUzMjk1OSwgMC4xNDI1NzcxNzEzMjU2ODM2LCAtMC4xNjk2MzQ4NDg4MzMwODQxLCAtMC43MDE2NTcxNzYwMTc3NjEyLCAtMC4yMzg5NjM5NjE2MDEyNTczMiwgMC4yNTU1MTEwMTU2NTM2MTAyMywgMC4yMDM5OTQyNDQzMzcwODE5LCAtMC4wMjI3MTYxMDg3MDk1NzM3NDYsIC0wLjE2MTE0MDIxODM3NzExMzM0LCAwLjQyODc0Nzk1MTk4NDQwNTUsIC0wLjAyNDE5MzkyNzY0NTY4MzI5LCAwLjE1MjM1NDkxMDk2OTczNDIsIC0wLjE3NjcwNTMzMDYxMDI3NTI3LCAwLjAyOTY5NzM2MDQ3MDg5MV0sIFstMC4wMjAxNDkzMDE3Mzc1NDY5MiwgLTAuMTM2ODg3OTM3Nzg0MTk0OTUsIDAuMTg3Mjk0OTE1MzE4NDg5MDcsIDAuMDQ4MTc0MzU1MTc5MDcxNDI2LCAtMC4yODgzOTU5NzEwNTk3OTkyLCAtMC4xMDE0MzIxMzcxOTEyOTU2MiwgLTAuMTA1OTMxMzU2NTQ5MjYzLCAtMC4wODgxMDQ2OTUwODE3MTA4MiwgLTAuMDQ5OTUwOTMxMjIxMjQ2NzIsIC0wLjA4MzUwNTM2MjI3MjI2MjU3LCAtMC4yNjgwNzM4NTY4MzA1OTY5LCAtMC4wOTI1NTIwMzYwNDY5ODE4MSwgMC4wNDI2MjE4MTM3MTQ1MDQyNCwgLTAuMDQwOTY1MzQ4NDgyMTMxOTYsIDAuMDIxNjU5NDM1NzA0MzUwNDcsIDAuMTkyMDEwNTM2Nzg5ODk0MSwgMC4wOTkyNTQxOTA5MjE3ODM0NSwgMC4xNjI4Nzk4OTkxNDQxNzI2NywgLTAuMDE0Nzk2MDQyODE0ODUwODA3LCAtMC4wNDA2NDAwOTcxMTE0NjM1NSwgMC4wNzYzODgwOTgyOTk1MDMzMywgLTAuNzk1NTA0NDUwNzk4MDM0NywgMC4wMjYyMjg3NTU3MTI1MDkxNTUsIDAuMDcyNTU4MjI0MjAxMjAyMzksIC0wLjE0OTU1NDg5MzM3NDQ0MzA1LCAwLjIzMzc4NTk4NjkwMDMyOTYsIC0wLjE3NjI4NTc3MzUxNTcwMTMsIDAuMDM0NTk4NDIxMzA1NDE4MDE1LCAwLjA5NzA2NjczNzcxMTQyOTYsIDAuMTk5NjkzMjMyNzc0NzM0NSwgMC4wMDQ1MjI4MjgzODUyMzM4NzksIDAuMDU5NzMzNDUwNDEyNzUwMjQ0XSwgWzAuMTg1NDcwMTE5MTE4NjkwNSwgLTAuMDAxNjA3MDg0NjQ2ODIxMDIyLCAtMC4zNDI0MzUzNTk5NTQ4MzQsIDAuMTYxNzg0MTU3MTU2OTQ0MjcsIDAuMTQ0MTM1MDI4MTIzODU1NiwgLTAuMTIzOTg5MTc5NzMwNDE1MzQsIC0wLjA1MzM5NzU3MzUzMDY3Mzk4LCAwLjA0NDM0Njk4ODIwMTE0MTM2LCAwLjIzNTYyNTkyMjY3OTkwMTEyLCAwLjEwMTcxNjMyNDY4NzAwNDA5LCAtMC4yMjMyNTMzNTQ0MzAxOTg2NywgMC4wODk5NzM4NTIwMzgzODM0OCwgMC4xMjYwNzY0NzQ3ODU4MDQ3NSwgLTAuMjI5Njc0NTc3NzEzMDEyNywgMC4wOTI0ODU0MDU1MDQ3MDM1MiwgMC4xOTUxNjMyMjAxNjcxNjAwMywgLTAuMDU4Mzk4MjkxNDY4NjIwMywgMC4xMjkxMzQ2OTk3MDIyNjI4OCwgLTAuMDkyNTU5NzM5OTQ3MzE5MDMsIC0wLjA0Mjc4OTk1ODQxNzQxNTYyLCAwLjIxNDI3MjA5Njc1MzEyMDQyLCAtMC42NjQxNjQzNjQzMzc5MjExLCAtMC4wODc1NjUyODc5NDc2NTQ3MiwgMC4wMjQwODYzMTg5MTAxMjE5MTgsIDAuMTg4NDcwNjE2OTM2NjgzNjUsIC0wLjA4NjE2OTIxMzA1NjU2NDMzLCAwLjIwNTU5MDkzMzU2MTMyNTA3LCAtMC4wODYyMDU2ODM2NDg1ODYyNywgLTAuMDcwMTI4NTc0OTY3Mzg0MzQsIDAuMDI4MzE2NDc5MTc2MjgyODgzLCAwLjIwNjI0NTg2OTM5ODExNzA3LCAwLjE5MDk4OTE4MTM5OTM0NTRdLCBbLTAuNTg4NTQwNTU0MDQ2NjMwOSwgMC4xMjM4ODY1MTgxODAzNzAzMywgLTAuMDI1NDA3MTMxNzYxMzEyNDg1LCAwLjEyNDE0Mjk4OTUxNjI1ODI0LCAwLjY3OTM1MDM3NjEyOTE1MDQsIDAuNTcxOTA1NTUzMzQwOTExOSwgMC4xNzgxODUxMDUzMjM3OTE1LCAwLjI1OTk0ODA3NDgxNzY1NzQ3LCAwLjAzMzQ0OTI2OTgzMTE4MDU3LCAwLjE0OTUyNTY3MjE5NzM0MTkyLCAwLjM4NTA2NzY3MTUzNzM5OTMsIDAuMjIzOTQyNDg4NDMxOTMwNTQsIDAuMjYyNTg1NzU5MTYyOTAyODMsIC0xLjA0MzkzMjE5OTQ3ODE0OTQsIC0wLjA5NzU4MzI3OTAxMzYzMzczLCAtMC4yOTc4OTAwOTY5MDI4NDczLCAwLjYwODMxNjY1OTkyNzM2ODIsIDAuMDk0MTY2NjA2NjY0NjU3NTksIDAuNDE1NTUyMzE4MDk2MTYwOSwgLTAuNjI4ODMxODYzNDAzMzIwMywgLTAuMTI2NDgzMTQyMzc1OTQ2MDQsIDAuNTQyNzA0OTM5ODQyMjI0MSwgLTAuMTA4NTY4NTQxNzA1NjA4MzcsIDAuMjQzNzY5Nzk0NzAyNTI5OSwgMC4zNTA1NDI5MDI5NDY0NzIxNywgLTAuMDMyMjk0OTk5ODA4MDczMDQ0LCAwLjI5NjI5NjUzNjkyMjQ1NDgzLCAwLjE4NjgyNzcxOTIxMTU3ODM3LCAtMC4zMDM3NjkwMjIyMjYzMzM2LCAtMC40Mjk0MDk0MTQ1Mjk4MDA0LCAtMC40NDA0MDU5MzUwNDkwNTcsIDAuNDMxNjI3NjMxMTg3NDM4OTZdLCBbMC4wNTQ0NTY2ODEwMTMxMDczLCAtMC4wMzM4OTM3NzE0Njk1OTMwNSwgMC4wNzQ4ODg1NDIyOTQ1MDIyNiwgLTAuODAzODkwMDQ5NDU3NTUsIC0wLjAzNTgzMDY0Njc1MzMxMTE2LCAwLjA3MjY5NTUyMzUwMDQ0MjUsIC0wLjE3NzkwNjc1MTYzMjY5MDQzLCAtMC4xODY4NzQ4MjE3ODIxMTIxMiwgLTAuNTU1OTYxMDcyNDQ0OTE1OCwgLTAuMDkyMDcwNTk0NDI5OTY5NzksIDAuMTI1MDMzMTg0ODg1OTc4NywgLTAuMDMyMDk3Njg5ODA3NDE1MDEsIC0wLjIwNjcyMzQ1MTYxNDM3OTg4LCAwLjE4MjI1MjU4NTg4NzkwODk0LCAwLjI4OTUyNTMzMDA2NjY4MDksIDAuMTk0MzUwNDA2NTI3NTE5MjMsIC0wLjAyMDIwODY1Njc4Nzg3MjMxNCwgLTAuMDA2NTI1NzI5NzgyODc5MzUzLCAtMC4xMTIwNzQ5NDEzOTY3MTMyNiwgLTAuMDE0Mjg3MDExNjk3ODg4Mzc0LCAtMC43OTQ1NzYwNDg4NTEwMTMyLCAtMC4wOTg0NzY4OTQxOTk4NDgxOCwgLTAuNzQ0NzA1NTU3ODIzMTgxMiwgLTAuMDE1MTYwNDk5MTQwNjIwMjMyLCAtMC4wOTc1NDcwNjkxOTE5MzI2OCwgMC4xNzQ0MDc3NTAzNjgxMTgzLCAwLjAxNzYwNzIwMDg5MDc3OTQ5NSwgMC4wNjc4NzQ4NDEzOTIwNDAyNSwgMC4yNDQ2ODEwMzA1MTE4NTYwOCwgLTAuMDg0OTkyMTE4MTc5Nzk4MTMsIC0wLjEzNDA5Njk2NTE5Mzc0ODQ3LCAtMC41NjcwMjY5MTMxNjYwNDYxXSwgWy0wLjAyMTI3NTY2MDAyMzA5MzIyNCwgLTAuMDQ2MjAwODU2NTY2NDI5MTQsIC0wLjE4OTU0NjIyNzQ1NTEzOTE2LCAtMC4xNjkwNzQ4MzMzOTMwOTY5MiwgLTAuMDAzMjYwNzc1NDY5MjQzNTI2NSwgLTAuMDE5NTA0MDg1MTgzMTQzNjE2LCAwLjAxMDQyODIwODg1Nzc3NDczNCwgMC4wMzgxMDE4Mjk1ODg0MTMyNCwgLTAuMDQ5MDczMzE2MTU2ODY0MTY2LCAtMC4wNDY5NzIxMDcxNDIyMTAwMSwgMC4wNjAwMzQxMTExNDIxNTg1MSwgLTAuMDM4OTkxMjUwMDk3NzUxNjIsIC0wLjA0MTIwODc0MDMyMzc4MTk3LCAtMC4wMDUyMTcwOTIxMTE3MDY3MzQsIDAuMDEyOTU0NTI2NTgwODcwMTUyLCAwLjAxMjcxOTIxMTE2ODU4NzIwOCwgLTAuMDQ0MDcyNjYxNTQ4ODUyOTIsIC0wLjAwNzg1NjUwODcxNjk0MDg4LCAtMC4wMTc5MDM0Mjg1MjQ3MzI1OSwgMC4wMTM5ODY3NzkzNzY4NjQ0MzMsIC0wLjE4NzEyMDEzOTU5ODg0NjQ0LCAtMC4wMDQ2MTk3NjgzNTUwNDE3NDIsIC0wLjE0MzcxMzkzNjIwOTY3ODY1LCAtMC4wNTc3MTQ4NDIyNTk4ODM4OCwgMC4wMDI4NjcwNDM3MTY4MzI5OTU0LCAtMC4wNDE1OTQxNTg4NTgwNjA4NCwgMC4wOTQ3OTY5ODUzODc4MDIxMiwgLTAuMDI4MTM1OTQwNDMyNTQ4NTIzLCAwLjA3MTYwMzUzNjYwNTgzNDk2LCAwLjA2OTkyNzAyMTg2MTA3NjM1LCAwLjA1MTAxNzM2NjM0OTY5NzExLCAwLjEyMjg3Mzk5MTcyNzgyODk4XSwgWy0wLjAwMzk3MDQwODgxMjE2NTI2LCAwLjEwNzg4MDA0MTAwMzIyNzIzLCAtMC4xNDY3NTQ4OTA2ODAzMTMxLCAtMC4xNTcwNTc4NTE1NTI5NjMyNiwgMC4wMjIzOTc4NDU5ODM1MDUyNSwgMC4wMTE1MDA1MjA2MzE2NzA5NTIsIDAuMDA2NjQ1NDk0NjA2MzQ1ODkyLCAwLjA5NzE1OTMxMTE3NTM0NjM3LCAwLjAyODQzMzc4MTExNzIwMDg1LCAwLjExMDQ2MTk5NTAwNTYwNzYsIC0wLjAxMjQzNDYyMDQxMDIwMzkzNCwgLTAuMDAwNzg0NjgyMTA5OTUxOTczLCAtMC4wNDQ4NTA5MDA3NjkyMzM3MDQsIDAuMDAzMzQzODQzMzg5MzAyNDkyLCAtMC4xMDcyMDA5NjUyODUzMDEyMSwgLTAuMDE1MjQxMjE4NzMwODA3MzA0LCAtMC4wNjUyMjc0MjY1ODg1MzUzMSwgMC4wNjEyOTEzOTI4OTI1OTkxMDYsIC0wLjAxOTkxOTM5OTE3MjA2NzY0MiwgMC4wMTA0NjMyMjE5Mjk5Njc0MDMsIC0wLjEzODg4NDY5MzM4NDE3MDUzLCAwLjAxNzg0MTkwNTM1NTQ1MzQ5LCAtMC4wMjcwMDUxNDkwNTE1NDcwNSwgLTAuMDU0MjU0ODYzNDExMTg4MTI2LCAwLjAwNTk0NjYzOTkyNTI0MTQ3LCAtMC4wNjM3MDA2MDE0NTg1NDk1LCAwLjA0NDcxMTQ2MzE1MzM2MjI3NCwgLTAuMDM3NDI4OTA0MzI0NzY5OTc0LCAwLjA2Mzc2MDY4Mjk0MDQ4MzEsIC0wLjExMTI3Mjk0NjAwMDA5OTE4LCAwLjEwNTY1NDI2OTQ1Njg2MzQsIDAuMDk5NjIwMzg2OTU4MTIyMjVdLCBbLTAuMDI4NjQ0NDEyNzU1OTY2MTg3LCAwLjAyNjU4ODI4NTM0MTg1ODg2NCwgLTAuMTQ1OTI3Njk3NDIwMTIwMjQsIC0wLjIxOTgwODY5NzcwMDUwMDUsIDAuMjAzODU1NzIzMTQyNjIzOSwgMC4xMDUzMzcyNjIxNTM2MjU0OSwgMC4wODY0MjkzMDUzNzQ2MjIzNCwgMC4wNjc1MDA5MDQyMDI0NjEyNCwgLTAuMDY3NDQ3MDU4ODU2NDg3MjcsIC0wLjAwMzYxMDA4OTg4NjkzMzU2NSwgMC4xNDQ2MTQ5Nzk2MjQ3NDgyMywgMC4wOTg5NzU1ODM5MTA5NDIwOCwgLTAuMDEzNTQ1OTk3NDQwODE0OTcyLCAtMC4yMjgxNDA4MDExOTEzMjk5NiwgLTAuMDUxMjg5NTEzNzA3MTYwOTUsIC0wLjEzNDE5Njk4MTc4NzY4MTU4LCAwLjEyODMxMTQ4NTA1MjEwODc2LCAwLjA0Njk4MDU5NzA3ODgwMDIsIDAuMDIwMDk5MjkzNDQwNTgwMzY4LCAtMC4xMDI1Mzk5NDkxMTkwOTEwMywgLTAuMTQ1MjA5NDYxNDUwNTc2NzgsIDAuMTA1MjA5ODg3MDI3NzQwNDgsIC0wLjIwMzQzNzc3NTM3MzQ1ODg2LCAtMC4wMjQ3MTM4NDQwNjA4OTc4MjcsIDAuMTY4MzI2MzE4MjY0MDA3NTcsIC0wLjIzMjM2MzkwOTQ4Mjk1NTkzLCAtMC4wMzMzMTcxMjYzMzM3MTM1MywgLTAuMDk1NDk0NDcxNDkwMzgzMTUsIC0wLjAwOTM5ODY1Njg5NzI0NjgzOCwgLTAuMTA3MjAwMzY5MjM4ODUzNDUsIC0wLjAxNjk3NjMzNzg3OTg5NjE2NCwgLTAuMjUxMDgxMjg3ODYwODcwMzZdLCBbMC42ODIyNTUzODczMDYyMTM0LCAtMC40NDkyMjkzNTk2MjY3NywgMC4wMzIyNzg3MzUxOTA2Mjk5NiwgLTAuNDY3NzcxMjMyMTI4MTQzMywgLTAuOTUzNjY2NTY3ODAyNDI5MiwgLTEuMDkxNDM2MjY2ODk5MTA4OSwgMC4xMDIxNjU1NjQ4OTQ2NzYyMSwgLTAuMzYyOTY1NDY0NTkxOTgsIDAuMDA4MzMyNDYyMDUwMDIwNjk1LCAwLjA3NzYxMDY3MTUyMDIzMzE1LCAtMC40NDk5NjcwMjY3MTA1MTAyNSwgLTAuMTQ4MjY3Mjk4OTM2ODQzODcsIC0wLjIxMzc4MzA1NTU0Mzg5OTU0LCAwLjEwMzY0Nzc5ODI5OTc4OTQzLCAwLjIyOTg5Njc1NDAyNjQxMjk2LCAwLjM1NDQ0NzkwMTI0ODkzMTksIC0wLjU0MDU3MjQ2NDQ2NjA5NSwgLTAuMTIzMzE5MjgzMTI3Nzg0NzMsIDAuMDgzMDA5MzMyNDE4NDQxNzcsIDAuNDcyNzQ3ODYyMzM5MDE5OCwgMC4wMjAwMTg3OTM2NDI1MjA5MDUsIC0wLjYyNzY3NTk1MDUyNzE5MTIsIC0wLjA3NjI3NTE2OTg0OTM5NTc1LCAtMC4xNzk3MjE5MDY3ODExOTY2LCAtMC44MTYyMjI1NDg0ODQ4MDIyLCAwLjQxNTU1MjQ2NzEwNzc3MjgsIC0wLjU0MzIwMDEzNTIzMTAxODEsIC0wLjIyNTI1Nzk2Mjk0MjEyMzQsIDAuNDg4NzQzMzk0NjEzMjY2LCAwLjI4MTgzNDU0Mjc1MTMxMjI2LCAwLjE2MjUxODQyNjc3NTkzMjMsIC0wLjE2ODY1MTY4NTExODY3NTIzXSwgWzAuNDYwMDM2NjA1NTk2NTQyMzYsIC0wLjIwNzY1NzY5NDgxNjU4OTM2LCAtMC4wNzgyMjE0MjU0MTQwODUzOSwgLTAuMTQ0Njg0NjQyNTUzMzI5NDcsIC0wLjgzNTkwODc3MDU2MTIxODMsIC0wLjgwODU4NzI1MzA5MzcxOTUsIDAuMjM5NzA4MDk1Nzg4OTU1NywgLTAuMzE0OTEwNjUwMjUzMjk1OSwgMC4xMDAwNDU3Nzc4NTczMDM2MiwgMC4wNjgzMDM3NDg5NjUyNjMzNywgLTAuNzU1OTU5MDMzOTY2MDY0NSwgLTAuMDQyMjEwMTYxNjg1OTQzNjA0LCAwLjE1NDY1NDUwMjg2ODY1MjM0LCAwLjIwNzU0ODExMTY3NzE2OTgsIDAuNTI5NTIwMTUzOTk5MzI4NiwgMC42NDIyMTM3MDIyMDE4NDMzLCAtMC43NDEyMTE0NzM5NDE4MDMsIDAuMDUyOTE1MzE5ODAwMzc2ODksIDAuMDQ4MzMxNTM2MzUyNjM0NDMsIDAuNzk5MjM0OTI2NzAwNTkyLCAtMC4wODAxNDU4NTA3Nzc2MjYwNCwgLTEuMDQ2NjUwMTcxMjc5OTA3MiwgLTAuMDE0ODUwMjU4ODI3MjA5NDczLCAtMC4wMzU2MDU2MjgwNDM0MTMxNiwgLTAuNjkzMjUzMzM4MzM2OTQ0NiwgMC4zOTY5OTg0MDU0NTY1NDI5NywgLTAuNTgwMTE4ODk0NTc3MDI2NCwgLTAuMDI4NDEyNTYxODYzNjYwODEyLCAwLjU3MzYzNDUwNTI3MTkxMTYsIDAuNDAwODc0ODUzMTM0MTU1MywgMC4yNTUzMjc2NDE5NjM5NTg3NCwgMC4wNzI5MjU2NTcwMzM5MjAyOV0sIFswLjI4MDA4MjMxNTIwNjUyNzcsIC0wLjI0NzA1NzEzOTg3MzUwNDY0LCAtMC4yMjkzMTY1NDc1MTMwMDgxMiwgLTAuMTcxNjE2Mjg2MDM5MzUyNDIsIC0wLjczMDgyNDgyODE0Nzg4ODIsIC0xLjIzNzM3Nzg4MjAwMzc4NDIsIDAuMTg0NDYzNDI2NDcwNzU2NTMsIDAuMDkyNjM5MjA3ODM5OTY1ODIsIDAuMDU4OTcyMTk0NzkwODQwMTUsIC0wLjE1MTAxNDUyMTcxODAyNTIsIC0wLjE2ODkxODIzNzA5MDExMDc4LCAtMC4wMjMxNDgzNTIyODAyNTkxMzIsIC0wLjQzMzcyOTIzMTM1NzU3NDQ2LCAtMC4xNzk5MTQ4MzIxMTUxNzMzNCwgLTAuMDI4OTg5MzkxNDAxNDEwMTAzLCAwLjA0MzY1NzQ4MTY3MDM3OTY0LCAtMC4wNTM1NDEyNjU0MjgwNjYyNTQsIC0wLjI5Nzc4NzkwNDczOTM3OTksIC0wLjE1NjUwOTI4MDIwNDc3Mjk1LCAwLjU2MzI1NTkwNjEwNTA0MTUsIC0wLjI2Nzg1MTUwMTcwMzI2MjMzLCAtMC4yODc4OTk4MjE5OTY2ODg4NCwgLTAuMjM0NTkwMTQyOTY1MzE2NzcsIC0wLjAwMTk4ODU4NDg3NDE5Nzg0MDcsIC0wLjg0NzE3ODY5NzU4NjA1OTYsIDAuMTA2MzEwNjU4MTU2ODcxOCwgLTAuMDI5MzcwMDI4NTI1NTkwODk3LCAtMC4yMTk3NDU5OTM2MTQxOTY3OCwgLTAuMTc4NDY1NTE1Mzc1MTM3MzMsIDAuMjc1MDY1NTcxMDY5NzE3NCwgMC4yMDY4OTcyNTg3NTg1NDQ5MiwgLTAuMzYxMDEyMTAxMTczNDAwOV0sIFswLjEwODk0MDU0MTc0NDIzMjE4LCAtMC4xODQ0OTEzOTU5NTAzMTczOCwgLTIuODAyNDk1MDAyNzQ2NTgyLCAwLjMyNDkxOTY0MTAxNzkxMzgsIDAuMDQ0MjcwOTYyNDc2NzMwMzUsIC0wLjExNjY3MjExMzUzNzc4ODM5LCAtMC4wMjA5MjAzMjUwNzA2MTk1ODMsIC0wLjI5ODYwNzg4NTgzNzU1NDkzLCAtMC4xNTgwMzcxMjYwNjQzMDA1NCwgLTAuMTEyNjU1OTIyNzcwNTAwMTgsIC0wLjQxNzA4NjMwMzIzNDEwMDM0LCAwLjAzOTU5ODkwNDU1MDA3NTUzLCAwLjQyNDczMTI1NDU3NzYzNjcsIDAuMDI2NzIyNTU3ODQyNzMxNDc2LCAtMC4xMDk1NTkwNDQyNDE5MDUyMSwgMC4wMDYyOTY4ODcwNjI0ODk5ODYsIC0wLjAxNDM3MDgxMzk2NTc5NzQyNCwgLTAuMDMyOTI2NDYyNTkwNjk0NDMsIDAuMDcxNzUxMTQ3NTA4NjIxMjIsIC0wLjEyMzkyOTIxNzQ1Nzc3MTMsIC0wLjQ2MzQwMjMwMTA3MzA3NDM0LCAtMC4wMDUxNzcxODg2NjQ2NzQ3NTksIC0wLjQwOTYxNTkzMzg5NTExMTEsIC0wLjEzOTY0MzI4MTY5ODIyNjkzLCAtMC4wMjYxNDQwNTM3ODY5OTMwMjcsIDAuMTM1NTgwODIyODI1NDMxODIsIDAuMDY3MTU3MDAwMzAzMjY4NDMsIC0wLjA2NzYzMzI2Mzc2Njc2NTYsIC0wLjI4MTk3MzU0MDc4MjkyODQ3LCAtMC4yMjg2NDM3NDUxODM5NDQ3LCAwLjExODc5MzY4ODcxNDUwNDI0LCAwLjA5NTczOTI3NTIxNzA1NjI3XSwgWy0wLjQ3MjIxNjg3NDM2MTAzODIsIC0wLjAxODM2ODc3Njg4NzY1NTI1OCwgLTAuMTYxMTE5MjUyNDQzMzEzNiwgMC44MDQ3MTU3NTI2MDE2MjM1LCAwLjM5MTAyNDY0OTE0MzIxOSwgLTAuMDM4OTg4MjEwMjYwODY4MDcsIDAuNzI5MzYwOTM4MDcyMjA0NiwgMC4xNjEyODU1NzkyMDQ1NTkzMywgLTAuNzE1MzkxNzU1MTA0MDY0OSwgLTAuNjU2NTc5Mzc1MjY3MDI4OCwgMC4xMzAwNDY1MzE1NTgwMzY4LCAtMC4wNjAzNTcxMDg3MTIxOTYzNSwgMC4yMzA0MTcxOTE5ODIyNjkzLCAtMC4yODEyMTc4MTM0OTE4MjEzLCAtMC4yODYyMTQ5MTc4OTgxNzgxLCAwLjA0NTUwNTg3MDEzMzYzODM4LCAwLjIyMjc2OTIwMDgwMTg0OTM3LCAwLjQ1MzkwMTQxMDEwMjg0NDI0LCAwLjI3MDg4MDcyODk2MDAzNzIzLCAtMC43MzcwMzAzMjczMjAwOTg5LCAwLjUzNDEwOTExNTYwMDU4NTksIDAuNDEwMDc0NzEwODQ1OTQ3MjcsIDAuNjAyODQ4ODg3NDQzNTQyNSwgLTAuMDg4NjE5MzU4ODM3NjA0NTIsIC0wLjA2NDcyOTk1ODc3MjY1OTMsIDAuMDg5NDc0NDY5NDIzMjk0MDcsIDAuMDEyMDEwNTI1OTEyMDQ2NDMyLCAtMC4wODE1NzE5MTQyNTU2MTkwNSwgLTAuMDc1NjE2NDcxNDY5NDAyMzEsIC0wLjYwNDE3NTU2NzYyNjk1MzEsIC0wLjkzOTc1MDc5MDU5NjAwODMsIC0wLjQxODcyMDM2NDU3MDYxNzddLCBbLTAuMjI0ODAwMzE4NDc5NTM3OTYsIDAuMDM0NDEwMDM3MTAwMzE1MDk0LCAtMC4wNzQ3NjgxNTU4MTMyMTcxNiwgLTAuMTI4MzgxNTA1NjA4NTU4NjUsIDAuMDA0MTE3NjAwNjE5NzkyOTM4LCAwLjIyODkwNDkzMjczNzM1MDQ2LCAtMC45NDAyMTQ3NTMxNTA5Mzk5LCAwLjE0ODUyOTk0NjgwNDA0NjYzLCAtMC4yMTE2NTk4NDg2OTAwMzI5NiwgMC4yODQ2MDQyMjE1ODI0MTI3LCAtMC4wNTg3OTMyMDU3Njc4Njk5NSwgMC4xNjIwMjU1MjYxNjU5NjIyMiwgMC4xMzYzOTkxNzk2OTcwMzY3NCwgLTAuMjIyMDE0MzY3NTgwNDEzODIsIC0wLjI1NzI5MzM0MzU0NDAwNjM1LCAtMC4zNDYwNjY0MTUzMDk5MDYsIDAuMjQwNzMwMjg1NjQ0NTMxMjUsIDAuMzk4MTM4ODgwNzI5Njc1MywgMC4wMzgwNTA3OTMxMTEzMjQzMSwgLTAuMTI5MjIzNzE5MjM5MjM0OTIsIDAuMTM2NzcxMzgwOTAxMzM2NjcsIDAuMDE1OTY1NzM1NTM5NzkzOTY4LCAtMC4wNTA0NDc5ODE4MDQ2MDkzLCAwLjE0MDI4MzMwMTQ3MjY2Mzg4LCAtMC4xNjEzODIxNjg1MzE0MTc4NSwgMC4wNzA2NjA0NDk1NjQ0NTY5NCwgMC4yNTA5NjE4NDAxNTI3NDA1LCAtMC4yODE2NzIyNjkxMDU5MTEyNSwgLTAuNDIyNzI4NjU3NzIyNDczMTQsIC0wLjM5ODg1MjYxNjU0ODUzODIsIC0wLjc1MjY5MTI2ODkyMDg5ODQsIC0wLjExNDgxNDcxMzU5NzI5NzY3XSwgWy0wLjA1ODM0MTA1NjEwODQ3NDczLCAwLjI5MTMzMjI0NDg3MzA0NjksIC0wLjIxNzAxNjAxMTQ3NjUxNjcyLCAtMC4xNzMyNTcwNTI4OTg0MDY5OCwgMC4wNjQ4ODU1NDkyNDcyNjQ4NiwgMC4xMzcyNTM1MjI4NzI5MjQ4LCAwLjE1NTUzNjgxNTUyNDEwMTI2LCAwLjEzNDA0OTkyMjIyNzg1OTUsIDAuMTg3NTAyODkwODI1MjcxNiwgMC4yMjc0Mjg3OTM5MDcxNjU1MywgMC4xODM4OTEyNjY1ODQzOTYzNiwgLTAuMDg2NzA5ODEyMjgzNTE1OTMsIC0wLjExMDc5MTUyNjczNDgyODk1LCAtMC4wOTk4NDAwODk2Nzg3NjQzNCwgMC4wNjIyODE0NTIxMTkzNTA0MywgLTAuMTM5OTczODA0MzU0NjY3NjYsIC0wLjAxMDQ0MzAyMDYxMjAwMTQxOSwgLTAuMDA2OTEyMDYxOTQ0NjAzOTIsIC0wLjA5ODA5ODc4NDY4NTEzNDg5LCAtMC4yNTIwMTU4MjkwODYzMDM3LCAtMC4wMTY4OTI3Mjc0NjQ0Mzc0ODUsIC0wLjE1ODI3MTQzMTkyMjkxMjYsIDAuMTQ5ODcwMDk3NjM3MTc2NSwgLTAuMDA5MzMwOTAwMzg1OTc1ODM4LCAwLjE1MDE3MTUzMzIyNjk2Njg2LCAtMC4wMTg5NjgwMDg0NTg2MTQzNSwgLTAuMTQ1MTU1MTMxODE2ODY0LCAwLjEzMDU4NTUwNjU1ODQxODI3LCAtMC4yNTYyNTA3MzkwOTc1OTUyLCAtMC4wNjA1NDUyNTA3NzM0Mjk4NywgLTAuMDc1NDE1NjcwODcxNzM0NjIsIDAuMjEwODc5NzU4MDAwMzczODRdLCBbLTAuMDAxNTM3MTYyMzQ0OTAyNzUzOCwgMC41NDY0NzA0MDM2NzEyNjQ2LCAwLjIxMjIxMzg0NDA2MDg5NzgzLCAtMC4wNDc1NTQ2OTQxMTYxMTU1NywgMC40MzYyNTA1MDc4MzE1NzM1LCAwLjExMDc3MTU4ODk4MTE1MTU4LCAwLjMyODkwMTA1MjQ3NDk3NTYsIDAuMzI0OTk1MjE5NzA3NDg5LCAtMC4wMDIxNTA5MDUwODU3Mjc1NzI0LCAwLjI0MjQ4MDY2NTQ0NTMyNzc2LCAwLjM5NjIzMTUzMjA5Njg2MjgsIDAuMjI5NTYwMTUxNjk2MjA1MTQsIDAuMDgxOTU1MTc5NTcyMTA1NDEsIDAuMDg2ODY1MTY0MzM5NTQyMzksIDAuMTU2MTc5MzIzNzkyNDU3NTgsIDAuMDMzOTgxMTU5MzI5NDE0MzcsIDAuNjA0MDgyNDY1MTcxODE0LCAwLjAwMjA5ODE4OTY2Njg2NzI1NiwgMC4wODA4MzY4NjIzMjU2NjgzMywgMC4wNTk0NTE0MDQ5NTg5NjMzOTQsIDAuMzE4NDA1OTI2MjI3NTY5NiwgLTEuNjMxOTgwNDE5MTU4OTM1NSwgMC4xMDIxNzU3Mjc0ODY2MTA0MSwgLTAuMDM5MTkzNzE1OTAwMTgyNzI0LCAwLjE4OTg1ODgyNDAxNDY2MzcsIC0wLjE4NDg4ODg5OTMyNjMyNDQ2LCAwLjExNzM5NzMwODM0OTYwOTM4LCAwLjA2MDc5NjA4OTQ3MDM4NjUwNSwgMC4wODY2MTAxMzg0MTYyOTAyOCwgMC4wODM3MjM2NzE3MzQzMzMwNCwgMC4wMTE1MDQxNjg2MjIxOTU3MiwgMC4xODYxNzI1NzQ3NTg1Mjk2Nl0sIFswLjM2OTgwNDg1OTE2MTM3Njk1LCAwLjAyNTk1ODIxMzk1NTE2Mzk1NiwgMC4wNjg4OTY0MzUyMDExNjgwNiwgLTAuMDMzNTg5MTI0Njc5NTY1NDMsIC0xLjI1MDczMDYzMzczNTY1NjcsIC0xLjQ3MTE3ODQxMjQzNzQzOSwgMC4wNjUxNjcyMzMzNDc4OTI3NiwgLTAuMTMyOTI4MTYyODEzMTg2NjUsIDAuMDYyNjUxOTE3MzM4MzcxMjgsIC0wLjE4MDk1NjE4NDg2NDA0NDIsIDAuMTY0MjEyMDQ4MDUzNzQxNDYsIDAuMDE5NTE2MDM1OTE0NDIxMDgsIC0wLjUzMTUxNzgwMzY2ODk3NTgsIDAuMDU4NTc4NTEzNTYyNjc5MjksIDAuMzMzODM2ODUzNTA0MTgwOSwgLTAuMTM4OTU5OTQ0MjQ4MTk5NDYsIC0wLjAwOTUyMTYzOTkwNTg2OTk2LCAtMS4wMDM3ODU0OTA5ODk2ODUsIC0wLjU1Njc4NjY1NjM3OTY5OTcsIDAuNDk3MjkyNzg2ODM2NjI0MTUsIC0wLjAwODQ4NjUyNDIyNDI4MTMxMSwgMC4wMDgwOTIyNDIyOTMwNTk4MjYsIDAuMjA0MDM2OTM2MTYzOTAyMjgsIC0wLjMxODE3NTEzNzA0Mjk5OTI3LCAtMC42MDMzNjMzMzUxMzI1OTg5LCAtMC4wNDg4MjkxMDg0NzY2Mzg3OTQsIDAuMDA3MzgyNTA1NTczMzMyMzEsIC0wLjcyMzUwNjY4OTA3MTY1NTMsIDAuMDI4NTAyOTI2MjMwNDMwNjAzLCAwLjQzOTQyNzE5Njk3OTUyMjcsIDAuMjc0MDE3NjkxNjEyMjQzNjUsIDAuMDQzNjkxNzc2NjkyODY3MjhdLCBbLTAuMTA1MjI0MTc3MjQxMzI1MzgsIDAuMTYxMDM5NjUwNDQwMjE2MDYsIDAuMzQ3NDEzMzYxMDcyNTQwMywgMC4xMjQ3OTU0ODE1NjI2MTQ0NCwgMC4zNzc0MzYxMDE0MzY2MTUsIDAuOTUzNzk3MjgwNzg4NDIxNiwgMC4wNzQ1NTEzNTg4MTkwMDc4NywgMC40MTY4OTg3ODcwMjE2MzY5NiwgMC4wNzIxODI0MTY5MTU4OTM1NSwgMC4yNTAzNzQzMTcxNjkxODk0NSwgMC40MTg1ODE5NjI1ODU0NDkyLCAwLjAzMDgwODc0NDk1MjA4MjYzNCwgMC4yNzI3Mzc1NjI2NTY0MDI2LCAwLjQ4Njc3NTgxNTQ4NjkwNzk2LCAtMC4xMzkwODM4OTIxMDcwMDk5LCAtMC4wNDMyMjA0MzgwNjMxNDQ2ODQsIDAuMzc2MDYwNjk0NDU2MTAwNDYsIDAuMzA1NTgxNTY5NjcxNjMwODYsIDAuMzk3NjU1NTc2NDY3NTE0MDQsIC0wLjE2NTQ4NjU3NDE3Mjk3MzYzLCAwLjI1MDc2Njk2Mjc2NjY0NzM0LCAwLjI2MDcxNzM5MTk2Nzc3MzQ0LCAtMC4xMDM0MTM1MjIyNDM0OTk3NiwgMC40NDIyNTExNDU4Mzk2OTExNiwgLTAuMjI4MDIxNjA2ODAyOTQwMzcsIDAuMTg5MDA0OTI3ODczNjExNDUsIDAuMDA0Mjg3MTI1NTQyNzU5ODk1LCAwLjM4Nzg4ODk2Nzk5MDg3NTI0LCAtMC4wNDczNDg5MTI4MDUzMTg4MywgLTAuMDAyNzQxMjU0ODY2MTIzMTk5NSwgMC4wNTQ2ODE0Mzg5NTI2ODQ0LCAwLjIwNDIwNDc2Nzk0MjQyODZdLCBbMC4wNjQ1NzIwNDM3MTY5MDc1LCAwLjA2ODM5Nzc5MDE5MzU1Nzc0LCAwLjU0OTYzNTg4NzE0NTk5NjEsIDAuMDU0OTMwOTgxMjQ4NjE3MTcsIDAuMDY1NzY1MTM0OTkwMjE1MywgLTAuNDYzNzc1Mzk2MzQ3MDQ1OSwgMC4wNjI0ODI3Nzc5ODI5NTAyMSwgMC4xODU2MjkxNTkyMTIxMTI0MywgLTAuMDEzNTAyMTMwMjg0OTA1NDM0LCAwLjAwOTgxMDI4NTY0Mjc0MzExLCAwLjIyMTY0NTQ0NDYzMTU3NjU0LCAwLjc1MDA0NDgyMjY5Mjg3MTEsIDAuMDU2ODE1MDI4MTkwNjEyNzksIC0wLjA1NjIzNzU2NzIxNjE1NzkxLCAwLjAyOTIzNzIyMDA2MzgwNTU4LCAwLjAxNTQ4OTcyNDQ2NDcxNDUyNywgMC44MDMxNzI0NjkxMzkwOTkxLCAtMC4zMzcwNzMzNTU5MTMxNjIyMywgLTAuMDIxMDM2NDA1MTE2MzE5NjU2LCAwLjI4MDQ4NjE5NjI3OTUyNTc2LCAwLjE1MTI0NTk2NjU1MzY4ODA1LCAtMC45Nzg5MTI5NDk1NjIwNzI4LCAwLjA0OTAwMzYzMDg3NjU0MTE0LCAwLjI4MzcxNzkzMDMxNjkyNTA1LCAtMC4xMTA4MTEzNTI3Mjk3OTczNiwgMC4yNDEyOTY2NjM4ODAzNDgyLCAwLjcwODc2NjkzNzI1NTg1OTQsIC0wLjI4MjYyODM4NzIxMjc1MzMsIDAuMjQ0Mjg1MTUxMzYyNDE5MTMsIDAuMzk0MTU0OTY1ODc3NTMyOTYsIDAuMTUwMzIxOTYwNDQ5MjE4NzUsIDAuMDc0OTYwMzM2MDg5MTM0MjJdLCBbLTAuNDQ4MTE1NjQ2ODM5MTQxODUsIDAuNTcxMTQxNDIxNzk0ODkxNCwgLTAuNjM2MDIwNDgxNTg2NDU2MywgMS4wOTQyODg5NDUxOTgwNTksIC0wLjI0MTIzNzc0NDY4ODk4NzczLCAtMC4wNTI3OTYwMjExMDM4NTg5NSwgMS4wMzc4Mjc2MTA5Njk1NDM1LCAwLjg0ODkzNjY3Njk3OTA2NDksIDAuNzgzODk4NTMyMzkwNTk0NSwgMC45MDk5Mjk2MzMxNDA1NjQsIDAuNzA3OTg0Mzg3ODc0NjAzMywgLTAuMjgzNzI5MzQ0NjA2Mzk5NTQsIC0xLjQ0ODkxMzgxMjYzNzMyOSwgLTEuNTg3MzkzMjgzODQzOTk0MSwgLTAuNjU2MTQ4NjcyMTAzODgxOCwgLTEuMDQ2MjkzNDk3MDg1NTcxMywgLTAuMTE3NzczNjQ0NjI2MTQwNiwgLTAuNDc3NjY0NDExMDY3OTYyNjUsIC0xLjQ1NTAyNjI2ODk1OTA0NTQsIDAuMTE1MjM1MTM0OTU5MjIwODksIDEuMTE0MjkxNjY3OTM4MjMyNCwgLTAuMDU3OTg5Njk0MTc4MTA0NCwgMS44MjI1NTU1NDE5OTIxODc1LCAtMS42NDE2NjExNjcxNDQ3NzU0LCAtMC4wNTIwMzU1ODg3NzExMDQ4MSwgLTAuODc1ODk5OTcwNTMxNDYzNiwgLTAuMDk4MzM5MjgxOTc2MjIyOTksIC0wLjY5MTkxOTUwNTU5NjE2MDksIC0wLjUwNjI1MjE2OTYwOTA2OTgsIDAuMjAxNjI1MDM0MjEzMDY2MSwgLTAuNjk5NTI4MDk4MTA2Mzg0MywgMS40MTc1ODU3MzA1NTI2NzMzXSwgWzAuNzA4ODg5MTI2Nzc3NjQ4OSwgLTAuNTMwNTEyODY5MzU4MDYyNywgLTAuMjY0NTQxOTIzOTk5Nzg2NCwgMC4yNzMxOTg2MDQ1ODM3NDAyMywgLTEuOTA5MzM4MTE2NjQ1ODEzLCAtMC43ODYxMTgyMDkzNjIwMywgLTAuNjQ2MTkzMjA2MzEwMjcyMiwgLTAuNjA2ODgxMDgyMDU3OTUyOSwgMC40MDE3OTQ5MTA0MzA5MDgyLCAtMC4xOTc5MjY5NTM0MzQ5NDQxNSwgLTEuMTAyMTg4NTg3MTg4NzIwNywgLTMuNDk0OTg3NDg3NzkyOTY4OCwgMC4yMDg3NTUxMjA2MzUwMzI2NSwgLTAuMDQ2NzI4NzA3ODQ5OTc5NCwgLTAuMjQ5NTgyMzgwMDU2MzgxMjMsIDAuNjI3MDUyNTQ1NTQ3NDg1NCwgLTMuMzU3MDk1NDc5OTY1MjEsIC0wLjE0NTAyMTgxMTEyNzY2MjY2LCAwLjEwMjk2MjE0MzcxOTE5NjMyLCAwLjcwNDgyOTU3MzYzMTI4NjYsIDAuMzEzNzIxOTU0ODIyNTQwMywgMC43NTYyMDI2OTc3NTM5MDYyLCAtMC4zMzcxNDUzMjg1MjE3Mjg1LCAwLjA1MzQwNTY0MjUwOTQ2MDQ1LCAtMC4zNDk1MDQxNDI5OTk2NDkwNSwgMC40NTQ4NzU0MDk2MDMxMTg5LCAtMy43OTAyMjE2OTExMzE1OTIsIC0wLjI2MDY3NDUzNjIyODE3OTkzLCAwLjExNDQxMTAxMTMzODIzMzk1LCAwLjMxNTczNDA4ODQyMDg2NzksIDAuMTkyNDc1NzY1OTQzNTI3MjIsIDAuMDA1MjQxNjkwMjAzNTQ3NDc4XSwgWy0wLjAyOTI5MzM3NTA4OTc2NDU5NSwgLTAuMjIzNTc2MTU4Mjg1MTQxLCAtMC4wMDM0MTY0OTU2MzA1MTc2MDIsIDAuMTA3MDY1NDkxMzc4MzA3MzQsIDAuMDc3MDEwNjE2NjYwMTE4MSwgLTAuMDE4MjM4ODA3MDk3MDc3MzcsIC0wLjEzNjk1MjE0Njg4Nzc3OTI0LCAtMC4wNTkwMzk1NTE3NjQ3MjY2NCwgMC4xMzgzMzM5MTY2NjQxMjM1NCwgMC4xNjUzMzUwMjkzNjM2MzIyLCAtMC4wNDgwNzIxOTY1NDMyMTY3MDUsIC0wLjEwNDg1MTYzMzMxMDMxOCwgMC4xMjA0MzQyMjQ2MDU1NjAzLCAwLjExMDA2Mzc3NjM3Mzg2MzIyLCAtMC4wNTU1Njg4NTUyNTU4NDIyMSwgMC4yMTE1NzEzNTA2OTM3MDI3LCAwLjAxMzEwNDU5NTI0MzkzMDgxNywgLTAuMDk3Njc5NzE5MzI4ODgwMzEsIC0wLjA1Mzk0NjU0NzIxMDIxNjUyLCAwLjE1OTA1MzA4NzIzNDQ5NzA3LCAwLjA3MzMzNjA2NDgxNTUyMTI0LCAtMC4wMTY5MDk2MDQ4OTIxMzQ2NjYsIC0wLjA5ODg0OTI4MTY2ODY2MzAyLCAtMC4wODY2MjkxMjk5NDYyMzE4NCwgLTAuMDI0OTIwNTUyOTY4OTc4ODgyLCAwLjAyOTIwMDM0NzE0MDQzMTQwNCwgMC4wMjkyMzMwMzQ3MDAxNTUyNTgsIC0wLjA0MTMxNTcxMjAzNDcwMjMsIC0wLjA3MDQ5NDk2NDcxODgxODY2LCAtMC4xNDIzMTM4MDgyMDI3NDM1MywgMC4wMzE0MzQyNTI4NTgxNjE5MjYsIC0wLjAxNDMyOTk5NTk1OTk5NzE3N10sIFswLjAzNDM0MjYzNTQyMjk0NTAyLCAwLjAyODI1NzM5MjM0Njg1ODk4LCAtMC4wMTQ0NTc3MzA1NzYzOTU5ODgsIDAuMDgzMjA0NTA3ODI3NzU4NzksIC0wLjAxODY1ODc4MzI4NjgwOTkyLCAwLjAxNTAxMjI2Nzk3Njk5OTI4MywgMC4xMDQwMzQxNDA3MDYwNjIzMiwgLTAuMDQzMTQzNzM0MzM1ODk5MzUsIDAuMTEyMTQzMjE4NTE3MzAzNDcsIDAuMDg3NDk2MDE5ODk5ODQ1MTIsIC0wLjA3NzEyOTQ2ODMyMTgwMDIzLCAtMC4xNjI4OTM5MDYyMzU2OTQ4OSwgMC4wNDA1MzU2MTM4OTQ0NjI1ODUsIDAuMjE3NzY3MDAwMTk4MzY0MjYsIC0wLjA0ODk3MDg4NTU3NDgxNzY2LCAwLjA5MTY1NzgwOTkxMzE1ODQyLCAwLjE2MzYzODU2MTk2NDAzNTAzLCAwLjAxOTY5ODM1OTA3MjIwODQwNSwgLTAuMDI4MDU2NzgxNzM4OTk2NTA2LCAwLjEyMzgxNTc4MjM2ODE4MzE0LCAtMC4xMTE2OTU5MTU0NjA1ODY1NSwgMC4xMzE0MTE3NzU5NDY2MTcxMywgMC4wNzg3Nzg5MDc2NTY2Njk2MiwgMC4wMjEwNDUzNjgxNjQ3Nzc3NTYsIDAuMDcxMzE5NTEzMDIyODk5NjMsIDAuMDk1MjQ0MDM1MTI0Nzc4NzUsIC0wLjAwMjk1NjgxNjQ2MDkzNzI2MTYsIDAuMDU0ODQ0NDc2MjgyNTk2NTksIDAuMDA2NTQ5ODA3MjY1NDAwODg2NSwgLTAuMTE2MTA1NDgxOTgyMjMxMTQsIDAuMTQwMTEzMzk4NDMyNzMxNjMsIC0wLjA3NzIzNzY5NTQ1NTU1MTE1XSwgWzAuMDUyODE0OTM0NDAyNzA0MjQsIC0wLjAxOTA3MjkxMjYzMzQxOTAzNywgLTAuMTg0NDg2MDAxNzI5OTY1MiwgLTAuMDc4NjYwNjA3MzM3OTUxNjYsIC0wLjM1NzQzNjUwNzk0MDI5MjM2LCAwLjAyODgyMTUwOTMzMTQ2NDc2NywgLTAuMTEyNTA3MDMwMzY3ODUxMjYsIDAuMDM1MjE5NjQ2OTkwMjk5MjI1LCAtMC4wMDA3NjQ5OTc2NzYwMTQ5MDAyLCAwLjM4MjQyMzYzOTI5NzQ4NTM1LCAtMC4wNzM1MjQ1MzQ3MDIzMDEwMywgLTAuMTc5NzYxNzUyNDg2MjI4OTQsIDAuMTU4MTMyNjQyNTA3NTUzMSwgMC4xMjU2ODYzNjIzODU3NDk4MiwgLTAuMTY4MDExMjc3OTE0MDQ3MjQsIDAuMTc1MDQzNjI3NjE5NzQzMzUsIC0wLjMzNDgxMzYyNDYyMDQzNzYsIDAuMzIzNDgyNDI0MDIwNzY3MiwgLTAuMTExMzkzODk4NzI1NTA5NjQsIC0wLjAzNjEzMTMzMzU1OTc1MTUxLCAtMC4wMDM0OTUwOTYyMjkwMTY3ODEsIC0wLjE2MTY2MDczMDgzODc3NTYzLCAtMC4wMDQ2OTc0ODY3NTgyMzIxMTcsIDAuMDk2NDA3MTk3NDE1ODI4NywgLTAuMjUyNjkxODY0OTY3MzQ2MiwgMC4yODc1NTk5MjY1MDk4NTcyLCAtMC4xOTMzNzI5NDk5NTc4NDc2LCAtMC4wMDMwNDM5MDQ5MDA1NTA4NDIzLCAtMC4wMzgyNjM1MjU4MTM4MTc5OCwgLTAuMTk4MTk1MTI5NjMyOTQ5ODMsIC0wLjQ3NDM3MTc5MDg4NTkyNTMsIC0wLjE3NzY4NTk5MDkyOTYwMzU4XSwgWy0wLjE2MTc0MzQ5MTg4ODA0NjI2LCAtMC4wMjI3MTg3OTgzNjkxNjkyMzUsIC0wLjA2NjY1NDQ1ODY0MjAwNTkyLCAwLjAzODE1NzY5MDMxNjQzODY3NSwgMC4wNTA0NzA1Mzg0MzczNjY0ODYsIC0wLjAzNzk1NjU1ODE2NzkzNDQyLCAtMC4wMjYzNzAyOTk5ODAwNDQzNjUsIDAuNDEyMTcyOTQzMzUzNjUyOTUsIDAuMDk2MDk4MTI0OTgwOTI2NTEsIDAuMDExMTQ0NTU0MjQyNDkxNzIyLCAwLjI2MDExMTgwODc3Njg1NTQ3LCAtMC4wNjYyNjMzNTUzMTQ3MzE2LCAwLjI0MzMzNjE0MTEwOTQ2NjU1LCAtMC4wMzA0ODYzODI1NDQwNDA2OCwgLTAuMTUyMTU1MzA5OTE1NTQyNiwgMC4xNjA0NDg4MTkzOTg4OCwgLTAuMDAxNTcyNTIwMzU1NjkzOTk2LCAtMC41MTE3NjA4OTA0ODM4NTYyLCAwLjE5MjQ5NDg2OTIzMjE3NzczLCAtMC4xMzA0ODk5NzUyMTQwMDQ1MiwgLTAuMDczNDkxODQxNTU0NjQxNzIsIDAuMTY3NjI3NTEzNDA4NjYwOSwgMC4yNzMwMDA4MDY1NzAwNTMxLCAtMC4wMTExNzUxNDgxODkwNjc4NCwgMC42MTM0Njg1Mjc3OTM4ODQzLCAtMC4xMjIxMzU1NzIxMzU0NDg0NiwgLTAuMTA0ODYzNTY5MTQwNDM0MjcsIDAuOTMzMjA2NTU4MjI3NTM5MSwgLTAuMzMzNzc0NzQ1NDY0MzI0OTUsIDAuMTExNjMwNjI2MDIyODE1NywgMC4wNjAxOTQ2MTUyNzQ2Njc3NCwgMC4wNDg5ODkyMjg5MDQyNDcyODRdLCBbLTAuMzMwNzU4NTcxNjI0NzU1ODYsIDAuODI0NTk0MTQwMDUyNzk1NCwgLTAuMDI4NDMzNDcxOTE4MTA2MDgsIDAuMDQ0NzQ4NTc4MjIwNjA1ODUsIDAuNDc2OTUxNDc5OTExODA0MiwgMC4zNTQ5NjE2OTMyODY4OTU3NSwgMC41OTA5NjY0NjMwODg5ODkzLCAwLjYwNzYzMDcyOTY3NTI5MywgMC4xNDk4ODc4MzAwMTg5OTcyLCAwLjI1OTcwNTA2NjY4MDkwODIsIDAuNTAxNDQ0ODc2MTk0MDAwMiwgMC40NjE2Mzg1Njk4MzE4NDgxNCwgLTAuMTIxMjgzNzk5NDA5ODY2MzMsIDAuMDI4NjIyNTg2MjgwMTA3NDk4LCAwLjA5MjgxNzE2NDk1NzUyMzM1LCAwLjAxMDc5MjQxOTMxNDM4NDQ2LCAwLjU1OTA5ODAwNTI5NDc5OTgsIDAuMTgwMTQzODYyOTYyNzIyNzgsIC0wLjAzNDgzMjUzNzE3NDIyNDg1NCwgLTAuMDA2MDYxNjQ2MTU2MDEzMDEyLCAwLjI5MDg3MTA4MzczNjQxOTcsIC0yLjA5NzUyMjI1ODc1ODU0NSwgMC4xNjg3OTA3ODc0NTg0MTk4LCAwLjEwMzQ4ODk5NjYyNDk0NjYsIDAuMTEyODQ4MzcxMjY3MzE4NzMsIC0wLjExMTMyMDMwMTg5MDM3MzIzLCAwLjI5MDUxODA3NTIyNzczNzQsIC0wLjExOTg1MTA4MjU2MzQwMDI3LCAtMC4yNDg5MDI2Nzg0ODk2ODUwNiwgMC4zMzgyNDY5NzEzNjg3ODk3LCAwLjE3NDE0NDEzMzkyNTQzNzkzLCAwLjEwMzIxNjkyMzc3MzI4ODczXSwgWzAuMjYyODcxMTE2Mzk5NzY1LCAwLjMzNTEwNDE5NzI2MzcxNzY1LCAwLjM3NjM4MjgyNzc1ODc4OTA2LCAtMC4xNTE0OTE2NDE5OTgyOTEwMiwgLTAuMTY4ODQ5Mjg5NDE3MjY2ODUsIC0wLjIxMzQyODcwNTkzMDcwOTg0LCAtMC4xMjY2NTg3Njc0NjE3NzY3MywgLTAuMTQ0ODQzMjIwNzEwNzU0NCwgLTAuMTM1MzgyNjA3NTc5MjMxMjYsIDAuMDU4MDYyNDgyNjI1MjQ2MDUsIDAuMTYxNjQwNzYzMjgyNzc1ODgsIC0wLjE1MjE3NDMzODY5ODM4NzE1LCAwLjU5NTM0NjkyNzY0MjgyMjMsIDAuMzM3NzA5MTg4NDYxMzAzNywgMC40MTY5NDc5NjA4NTM1NzY2NiwgMC4zNzY1ODQ4ODc1MDQ1Nzc2NCwgLTAuMTc4MjQzNDg4MDczMzQ5LCAwLjIwNzExMDUzOTA3ODcxMjQ2LCAwLjI4MzE3MjYwNzQyMTg3NSwgMC41MTI2NTQ2NjIxMzIyNjMyLCAtMC4xMDE3OTUyMTE0MzQzNjQzMiwgLTAuMTEzMTk3NzU4NzkzODMwODcsIC0wLjA3NDc3NTA5MjMwMzc1MjksIDAuNDI3NDk1MzAwNzY5ODA1OSwgLTAuMDg1MTcxNzE0NDI1MDg2OTgsIDAuMjExNDg0OTgzNTYzNDIzMTYsIC0wLjE1MTYyNjA2NTM3MzQyMDcyLCAwLjE4NzEyODQ4NDI0OTExNSwgMC4zODc2NTA3MjgyMjU3MDgsIDAuMjA5NTAwMTA0MTg4OTE5MDcsIDAuMTA3MzgyNTQzMzg1MDI4ODQsIC0wLjA1NjQ0MjcwMDMyNjQ0MjcyXV0sIFswLjAxNDc2OTg2Nzk5Mzg5MTI0LCAwLjE0MDc0ODgxMzc0ODM1OTY4LCAwLjEyMjY3NDM2MDg3MTMxNSwgMC4xNzEzMzkyNzM0NTI3NTg4LCAtMC4wMTQ2ODkxMzI1NzEyMjAzOTgsIDAuMDUxMTk2OTAyOTkwMzQxMTg3LCAwLjA2NTkwNjk4NjU5NDIwMDEzLCAwLjExNzg2Mzc1OTM5ODQ2MDM5LCAtMC4wMzU3ODg5MDExNTAyMjY1OSwgLTAuMDU5MjU4OTQ5MDExNTY0MjU1LCAwLjA2MzQ2NDk4NDI5Nzc1MjM4LCAwLjAxNzA5MzU3NjQ5MDg3OTA2LCAwLjE0MjE5ODIwNDk5NDIwMTY2LCAwLjAyMTU1ODk4NTExNDA5NzU5NSwgMC4wOTY1NDc1MjE2NTA3OTExNywgMC4xNDUzNzUzNDExNzY5ODY3LCAwLjAxMDczNjUwMjcwNzAwNDU0NywgMC4wNzMyOTkxNjk1NDA0MDUyNywgMC4xMzQ0NDcwMzgxNzM2NzU1NCwgMC4xNDYzNDY2Mjg2NjU5MjQwNywgMC4wODg2NTcyMTUyMzc2MTc0OSwgMC4wOTg4OTIzNzU4MjY4MzU2MywgMC4wNTA3MzE0MzU0MTgxMjg5NywgMC4xMDQ3Nzk2NDU4MDA1OTA1MiwgMC4wMTMwNTk1Njk1MjI3Mzg0NTcsIDAuMDU1NDcwMTUzNjg5Mzg0NDYsIDAuMDY5NDk3OTY1Mjc2MjQxMywgMC4wODg4NzU3MDM1MTM2MjIyOCwgMC4wMjc3NzMzMTg4MTIyNTEwOSwgMC4xMDY3OTI1NTQyNTkzMDAyMywgMC4wNjY3MjgyNzg5OTQ1NjAyNCwgLTAuMDg1MDYxMjUyMTE3MTU2OThdLCBbWzAuMTc2MDQzMjQyMjE2MTEwMjMsIDAuMzIyNjAzMDQ2ODk0MDczNSwgMC40MzU0NzU1MjgyNDAyMDM4NiwgLTAuMDc1NDMyMTgxMzU4MzM3NCwgLTAuNDIxMjE5Mzc4NzA5NzkzMSwgLTAuMDY2MjY5MDEwMzA1NDA0NjYsIC0wLjI0ODk0NzUxNjA4MzcxNzM1LCAtMC4yOTk5MDIwMjE4ODQ5MTgyLCAtMC4yODQyMDY1MDk1OTAxNDg5LCAtMC4xOTExMzA5ODA4NDkyNjYwNSwgLTAuMDgxNzYyMDA4MzY4OTY4OTYsIDAuMDc4MDIzMDk4NDA5MTc1ODcsIC0wLjM0NDY4NTg1MjUyNzYxODQsIDAuNDU1NTQxMDQ0NDczNjQ4MDcsIC0wLjE0NTI1MDk3NjA4NTY2Mjg0LCAtMC4wNTAyNzUyODg1MjIyNDM1XSwgWy0wLjAyNzU3NjM3MjAyNzM5NzE1NiwgMC4wMDgyNjMyNDYxNTYyNzUyNzIsIDAuNDU0NjkxMTcxNjQ2MTE4MTYsIDAuMTQ0ODI4OTkwMTAxODE0MjcsIDAuMTkxMDg4NTg3MDQ1NjY5NTYsIDAuMTUyNzAzNzAyNDQ5Nzk4NTgsIDAuMDQ0NzM3ODk3ODEzMzIwMTYsIDAuMDI0MzY3NTM1NDg2ODE3MzYsIDAuMDk1ODc3MjAwMzY1MDY2NTMsIDAuMjE0MjY5NTQ4NjU0NTU2MjcsIDAuMjE4OTk2OTcxODQ1NjI2ODMsIDAuMzI5NzY0ODQyOTg3MDYwNTUsIDAuMjc0NzM1NzQ4NzY3ODUyOCwgMC4xNzUzOTYzNTMwMDYzNjI5MiwgLTAuMDYyMjE5OTAyODczMDM5MjQ2LCAwLjMwOTQxNjU2MjMxODgwMTldLCBbMS42NDA2ODUzMTk5MDA1MTI3LCAxLjMyMzYwNTE3OTc4NjY4MjEsIDEuMTcyNDEzMzQ5MTUxNjExMywgMi4xNTA5OTE5MTY2NTY0OTQsIC0xLjQ2Mzg1MDk3NTAzNjYyMSwgLTEuNjkxNTA2MDI4MTc1MzU0LCAtMS41NTUwNDA5NTU1NDM1MTgsIC0xLjU1NTIzNzUzMTY2MTk4NzMsIC0xLjQzODI1MDA2NDg0OTg1MzUsIC0xLjM5MDc0NDkyNDU0NTI4OCwgMS45MjI2NjM2ODg2NTk2NjgsIDEuNTg0MjAwMTQzODE0MDg3LCAtMS41OTEzNjEwNDU4Mzc0MDIzLCAxLjc0MDM2OTkxNTk2MjIxOTIsIC0xLjYxMzE2NjQ1MTQ1NDE2MjYsIC0xLjQyMTIyMzE2MzYwNDczNjNdLCBbLTAuNjI5MzQ4Mjc4MDQ1NjU0MywgMC4wMDcwMDYyNDU2NjUyNTIyMDksIDAuMDM5OTMyMzQwMzgzNTI5NjYsIC0wLjQwMzA0NzA1NTAwNjAyNzIsIC0wLjAzMjM2ODQwMjkyODExMzk0LCAwLjY3MDY3MDk4NjE3NTUzNzEsIDAuMzc3MTkwMDUzNDYyOTgyMiwgLTAuMTgzMjQ4OTA3MzI3NjUxOTgsIC0wLjAxMjM3MTkyMDA0OTE5MDUyMSwgLTAuMTc4NzI4ODE4ODkzNDMyNjIsIC0wLjU3NzkxMzQwMzUxMTA0NzQsIC0wLjQ4ODg0OTk2NzcxODEyNDQsIDAuMjIyMDI3ODY4MDMyNDU1NDQsIDAuMDA3NTg4MDQyNDExOTUzMjExLCAwLjg5NDg5MTAyMzYzNTg2NDMsIDAuNzA2MjM4NTY3ODI5MTMyMV0sIFswLjc4Mjg0ODY1NjE3NzUyMDgsIDEuNTg3NzgwNDc1NjE2NDU1LCAxLjQ3Mzk1MzAwODY1MTczMzQsIDEuMTY2NzUxODYxNTcyMjY1NiwgLTAuNjk4NDY4OTIzNTY4NzI1NiwgLTAuNDY2MjMwMjQzNDQ0NDQyNzUsIC0wLjMyMjI2NDU4MTkxODcxNjQzLCAtMC44MzU3NTIzNjc5NzMzMjc2LCAtMC40MjcxNTUzNzU0ODA2NTE4NiwgLTAuNzA0NjM4NjAwMzQ5NDI2MywgMS4wMzUwOTIzNTM4MjA4MDA4LCAxLjE5ODA1NTAyODkxNTQwNTMsIC0wLjU2MzQ5NDMyNDY4NDE0MzEsIDEuMzcwOTQzMzA3ODc2NTg3LCAtMC40ODA3NDM2MTY4MTkzODE3LCAtMC40MDcxNjc1NTM5MDE2NzIzNl0sIFsxLjgxMDYwMzI2MDk5Mzk1NzUsIDAuOTE4ODI2MjgyMDI0MzgzNSwgMC45NzYwMzA1ODgxNTAwMjQ0LCAyLjUzMzQyMTUxNjQxODQ1NywgLTEuNDg1Mzk5NDg0NjM0Mzk5NCwgLTEuMzYwODc2Nzk4NjI5NzYwNywgLTEuNDI1NDkxNTcxNDI2MzkxNiwgLTEuMTc2MDY2NTE3ODI5ODk1LCAtMS41MjI3NDI3NDgyNjA0OTgsIC0wLjUwNzkzNTk0MTIxOTMyOTgsIDEuOTEwNzExNDA3NjYxNDM4LCAxLjk2MDE5ODUyMTYxNDA3NDcsIC0xLjI3Mjc2NDMyNTE0MTkwNjcsIDIuMDE2MzkyNzA3ODI0NzA3LCAtMS4yNzAwNTI5MDk4NTEwNzQyLCAtMC45ODY0NDYyMDE4MDEzXSwgWy0wLjA1MjUyMTQwMzg3ODkyNzIzLCAtMC41NjM4ODcxMTkyOTMyMTI5LCAtMC40MDI4NzQ2NDg1NzEwMTQ0LCAtMC40Mzc1OTI0NDY4MDQwNDY2MywgMC43NjMzNTc1MjAxMDM0NTQ2LCAwLjMwMjM2NDY0NzM4ODQ1ODI1LCAwLjI3ODg1NTMyMzc5MTUwMzksIDAuNzU3OTA1MjQ0ODI3MjcwNSwgMC4yNDIwMjU0MzQ5NzA4NTU3LCAwLjU1NjU4MDkwMTE0NTkzNTEsIC0wLjM3ODI5NjkxMTcxNjQ2MTIsIC0wLjQzNzkyMjI5ODkwODIzMzY0LCAwLjY4MjI2Mjg5NzQ5MTQ1NTEsIC0wLjcxNjA4MDY2NTU4ODM3ODksIDAuMjQ4NTYyOTc2NzE3OTQ4OSwgMC4xNTgzNzQwNTYyMjAwNTQ2M10sIFstMC4yODAwNjM1Njk1NDU3NDU4NSwgLTAuMDU0NTk1OTI0OTEzODgzMjEsIDAuMDk5MDc5NjMxMjY4OTc4MTIsIC0wLjA2NDEyMzQ2NjYxMDkwODUxLCAwLjI5OTU0NDQ1MzYyMDkxMDY0LCAwLjY2OTA0MDUwMTExNzcwNjMsIDAuNTk0MzE3NDk1ODIyOTA2NSwgMC4zNzA2NjU4NDgyNTUxNTc0NywgMC41OTg4ODQyMjQ4OTE2NjI2LCAwLjI3MjYyMzAwMjUyOTE0NDMsIC0wLjQ1Njk1MDQ1NTkwNDAwNjk2LCAtMC4yNTg5MjMyMzI1NTUzODk0LCAwLjM4MzczMzYzMDE4MDM1ODksIC0wLjA3MDU1OTI1NTc3ODc4OTUyLCAwLjQ3NTQ5NDUwMzk3NDkxNDU1LCAwLjUxMTEwNTQ3NzgwOTkwNl0sIFswLjAxOTA0ODI0MTg5ODQxNzQ3MywgLTAuMTE1NTAxMDQ2MTgwNzI1MSwgLTAuMTMwMjUxMjQzNzEwNTE3ODgsIC0wLjI2OTM4NDY4MjE3ODQ5NzMsIDAuMjIxMDIzMTQyMzM3Nzk5MDcsIDAuNDQ4Mjk0NTIwMzc4MTEyOCwgMC4yNjM4MTk1NDU1MDc0MzEwMywgLTAuMDA5MTA5NjU2MzI2NDcyNzYsIDAuMDgzMjI3ODU3OTQ3MzQ5NTUsIDAuMjk2MDUwMjUwNTMwMjQyOSwgLTAuNDEwOTk2ODg0MTA3NTg5NywgLTAuMDMxMzEzOTY2OTU5NzE0ODksIC0wLjAyNTA3MjUwMDEwOTY3MjU0NiwgLTAuMDY1MjI1MTYxNjEyMDMzODQsIDAuMTQ1NjQ5MTM1MTEyNzYyNDUsIDAuMjcyNzgzMjE5ODE0MzAwNTRdLCBbLTAuMzAwNzk4MDI4NzA3NTA0MywgLTAuMDgzOTM4NjU4MjM3NDU3MjgsIDAuMjUxNDk3OTgzOTMyNDk1MSwgLTAuMzE4OTk1NTY1MTc2MDEwMTMsIDAuMzI3NTE2NTU1Nzg2MTMyOCwgMC41NjcxODQ4MDU4NzAwNTYyLCAwLjU3MTk4OTg5MzkxMzI2OSwgMC4wMTQ3NjE0OTQ0NzI2MjI4NzEsIDAuMjM4MDg3NDE1Njk1MTkwNDMsIDAuMTgzMjc2NTYzODgyODI3NzYsIC0wLjQ1OTA0MDQwMzM2NjA4ODg3LCAtMC4xNzkyMTY5ODA5MzQxNDMwNywgMC4yMzE3Mzc4MzcxOTUzOTY0MiwgLTAuMTI4NDUyOTExOTcyOTk5NTcsIDAuNTU4MDYyNjcyNjE1MDUxMywgMC41NDQxNTY5Njg1OTM1OTc0XSwgWzAuMTI5MDY1Mjc1MTkyMjYwNzQsIC0wLjA0NzQwODgzNDA5OTc2OTU5LCAwLjA0NTUzNTU2NDQyMjYwNzQyLCAtMC4xMTA5NDQ2MDYzNjM3NzMzNSwgMC4xMjUxNDIyNDY0ODQ3NTY0NywgMC4wOTA3MDMzMDg1ODIzMDU5MSwgMC4zNTA2MjIwNTc5MTQ3MzM5LCAwLjE0MDUzMDMxODAyMTc3NDMsIDAuMzM2ODIwMDA2MzcwNTQ0NDMsIDAuMjQ4MzQ2MDc1NDE1NjExMjcsIDAuMDI3MTY3NDM5NDYwNzU0Mzk1LCAtMC4wMDM5NTU4MTczMTU3Mjc0NzIsIDAuMTg3OTA0MDAwMjgyMjg3NiwgMC4yNjEzMjk0MTI0NjAzMjcxNSwgMC4yNzY3OTU2NTU0ODg5Njc5LCAwLjI3MDczNTExNDgxMjg1MDk1XSwgWy0xLjA0NjI1ODA5MTkyNjU3NDcsIC0wLjA0NzcwODE1MzcyNDY3MDQxLCAtMC4zNzYyNzIwMjI3MjQxNTE2LCAtMC44Njc0MDY0ODc0NjQ5MDQ4LCAwLjY0MzUwODQzNDI5NTY1NDMsIDAuOTQzNjA5NDE2NDg0ODMyOCwgMS4xOTE1NzUyODg3NzI1ODMsIDAuNzE2NzE3MjQzMTk0NTgwMSwgMC42OTcyNjE5Mjk1MTIwMjM5LCAwLjI4NzI1NzkwOTc3NDc4MDMsIC0wLjkzNzY4MzgyMDcyNDQ4NzMsIC0wLjc2NjcxMTIzNTA0NjM4NjcsIDAuNjAyNzMxMjg3NDc5NDAwNiwgLTAuNjEyODU5ODQ1MTYxNDM4LCAxLjIwNDMzODc4ODk4NjIwNiwgMC44NTU4Mzc5NDExNjk3Mzg4XSwgWzAuNjIxMDAwODg1OTYzNDM5OSwgMC4wNzg3ODE4NTA2MzYwMDU0LCAtMC4yNjM2MTM1MjIwNTI3NjQ5LCAwLjYwMTA3NDgxNDc5NjQ0NzgsIC0xLjIyNDE3NDE0MTg4Mzg1LCAtMC4xOTY3MDc3NTUzMjcyMjQ3MywgLTAuNzk4MjgxMDczNTcwMjUxNSwgLTAuOTI3ODUyMzMyNTkyMDEwNSwgLTEuMjc1OTM4NzQ5MzEzMzU0NSwgLTAuNTIwMzkzODQ4NDE5MTg5NSwgMC41NzA0MDQ1Mjk1NzE1MzMyLCAwLjYzMjA5ODc5Mzk4MzQ1OTUsIC0wLjkzNTAwOTU5ODczMTk5NDYsIDAuNTQ2ODA2MjE2MjM5OTI5MiwgLTAuNDE0ODg1OTk3NzcyMjE2OCwgLTAuNDQ0MTQwMTM2MjQxOTEyODRdLCBbMC4zMDEyNzExNzAzNzc3MzEzLCAwLjAwNjYxNjQ2OTQ3MjY0NjcxMywgMC4yMjQzMTY1OTY5ODQ4NjMyOCwgMC44MjM2MzMyNTM1NzQzNzEzLCAtMC40NDU0OTM2OTgxMjAxMTcyLCAtMC4xNzIzMDM2MTcwMDA1Nzk4MywgLTAuMDA1MTE0OTQxODU3NzU1MTg0LCAtMC40MDQ0NTk4MzQwOTg4MTU5LCAtMC40NjkwODgyNTYzNTkxMDAzNCwgLTAuMDQ5MDU1NzM2NTExOTQ1NzI0LCAwLjUwOTUzMjE1MzYwNjQxNDgsIDAuMzg3NzcyNzA5MTMxMjQwODQsIC0wLjU0MzE0NzYyMzUzODk3MSwgMC42NTE2MzIwNzA1NDEzODE4LCAtMC4yNjQ5MTUxNjgyODUzNjk5LCAtMC4xMTMzNTMyMDc3MDc0MDUwOV0sIFswLjEyNzI3NjY1OTAxMTg0MDgyLCAwLjEyNjg1MDA2ODU2OTE4MzM1LCAtMC4xMDI0Mzg1MzkyNjY1ODYzLCAwLjMwMTM5MTQ1MjU1MDg4ODA2LCAwLjAzNTYzNjQ1NDgyMDYzMjkzNSwgLTAuMTAyNjI2Njk2MjI4OTgxMDIsIDAuMDY2MzA4MDQzODk3MTUxOTUsIDAuMTQxNTU4MTQwNTE2MjgxMTMsIDAuMTczNzg4OTM0OTQ2MDYwMTgsIDAuMjA5MDc2Mjg1MzYyMjQzNjUsIDAuMjYxMDI3MTU3MzA2NjcxMTQsIC0wLjAzNTMwMjQxOTIxNTQ0MDc1LCAwLjA5Mzc5ODA0ODc5NDI2OTU2LCAwLjE2NzgxMTE3MDIyMDM3NTA2LCAtMC4xMzk1MzQxNDU1OTM2NDMyLCAtMC4yNzA5NjA3NDgxOTU2NDgyXSwgWy0wLjEwMzI5MDc4MTM3ODc0NjAzLCAwLjI1MTI1Mjk0OTIzNzgyMzUsIDAuMjI1OTk4MjUyNjMwMjMzNzYsIDAuMDQ3ODYzMDgxMDk3NjAyODQ0LCAtMC4yMTg2MjE3NjA2MDY3NjU3NSwgMC4xNzQzNjMwMTcwODIyMTQzNiwgLTAuMDE5NzUwODgwMDc3NDgxMjcsIC0wLjUxOTU2MzA3ODg4MDMxMDEsIDAuMDU0MzEyMTYyMTAxMjY4NzcsIC0wLjUwNTQ4ODk5MTczNzM2NTcsIDAuMTY1OTUxMTYyNTc2Njc1NDIsIDAuMjMwMzI4MjMyMDQ5OTQyMDIsIC0wLjM2MDIyODcxNzMyNzExNzksIDAuMjg3NzYxNDIwMDExNTIwNCwgMC4xNTQzNDI2NTEzNjcxODc1LCAwLjA0Njc4Mjc5MTYxNDUzMjQ3XSwgWy0wLjQ3Mzg2OTY1MTU1NjAxNSwgLTAuMjgxNDA2MDQ0OTYwMDIyLCAtMC40MTc3MjAxMDkyMjQzMTk0NiwgLTAuNDAzNzM2OTE5MTY0NjU3NiwgMS4wMDUxNDM4ODA4NDQxMTYyLCAwLjM0MzI3MjM1ODE3OTA5MjQsIDAuNzgwMDQ0MDc4ODI2OTA0MywgMC43MzkzOTU2MTg0Mzg3MjA3LCAwLjc2MjI4OTY0MzI4NzY1ODcsIDAuNjA2ODU1MDM0ODI4MTg2LCAtMC43ODE3MzQxMDg5MjQ4NjU3LCAtMC43OTQ4MjcyMjI4MjQwOTY3LCAwLjgwMzkzODE1MDQwNTg4MzgsIC0wLjQ4NzAxNDUzMjA4OTIzMzQsIDAuNDczMzQwNzQ5NzQwNjAwNiwgMC41NzMyNTU3MTc3NTQzNjRdLCBbMC42NjI4MTcwMDEzNDI3NzM0LCAwLjQ2MzYzOTY0Njc2ODU2OTk1LCAwLjQ1NDIzNDM5MTQ1MDg4MTk2LCAxLjA1OTAyNDU3MjM3MjQzNjUsIC0wLjU5MTEzOTg1MzAwMDY0MDksIC0wLjMyOTkxMTExMjc4NTMzOTM2LCAtMC41NTk1MTU4MzM4NTQ2NzUzLCAtMC4zMzY0MDk3MTc3OTgyMzMwMywgLTAuNjk5NzI3ODkyODc1NjcxNCwgLTAuNDIyNDkxNzI5MjU5NDkwOTcsIDAuNzk5Njk0MzU5MzAyNTIwOCwgMC42NTk2ODIzOTMwNzQwMzU2LCAtMC41MDQwMDMxNjcxNTI0MDQ4LCAwLjY3NTMyMzI0NzkwOTU0NTksIC0wLjgyMDg4ODgxNzMxMDMzMzMsIC0wLjM3NzQzOTIwMDg3ODE0MzNdLCBbMC4zMjMxODUyNjUwNjQyMzk1LCAwLjMyNDY5MTExNjgwOTg0NDk3LCAwLjE2MTgwMTE4OTE4NDE4ODg0LCAwLjE1NDUzODcwNTk0NTAxNDk1LCAtMC43NDkyNjkzNjYyNjQzNDMzLCAwLjAzNzA2NDE0MjUyNTE5NjA3NSwgLTAuODQyNTE5NTIxNzEzMjU2OCwgLTAuNjEzNzI3NDUwMzcwNzg4NiwgLTAuNjEwMzI4ODUzMTMwMzQwNiwgLTAuNTY5NTcxNDk1MDU2MTUyMywgMC40MzcyNzM1MDIzNDk4NTM1LCAwLjE5Mjc2NzI2MjQ1ODgwMTI3LCAtMC43ODg5Mzk1MzU2MTc4Mjg0LCAwLjIzODQ1MjE5NjEyMTIxNTgyLCAtMC4xNTk0Mjg3NDU1MDgxOTM5NywgLTAuMTM1NjA3Nzc5MDI2MDMxNV0sIFswLjMyOTg5NDIxNDg2ODU0NTUzLCAwLjA3MTUwOTUwMjgyODEyMTE5LCAwLjMzOTY0Mjc2MzEzNzgxNzQsIDAuNDcxMjU3MTUwMTczMTg3MjYsIC0wLjIxODAwNjY0MDY3MjY4MzcyLCAwLjI5NzEzNzM3OTY0NjMwMTI3LCAwLjA4NzE3NDU3MjA1MDU3MTQ0LCAwLjEyMDY2OTYxODI0ODkzOTUxLCAtMC4xNjc3NTk0MTg0ODc1NDg4MywgLTAuMDAyNjc5NTU4OTM2NTA2NTA5OCwgMC4yNzE1MjYxODc2NTgzMDk5NCwgMC4yNTY2MTgzODA1NDY1Njk4LCAtMC4yNTg2ODY2NjE3MjAyNzU5LCAwLjI1MTAyMDcyOTU0MTc3ODU2LCAwLjA3NzUxNzMwODI5NDc3MzEsIDAuMzI1MTYyNTU5NzQ3Njk1OV0sIFswLjE3MTQxNTEyMDM2MzIzNTQ3LCAtMC4wNjc5MTMxNzQ2MjkyMTE0MywgLTAuMDA1MjU1NDU4NDEwODI5MzA2LCAwLjE3Nzk2OTQ4NTUyMTMxNjUzLCAwLjQyMzYwNjQyNTUyMzc1NzkzLCAwLjA0ODEyMDQ1MDIyODQ1MjY4LCAwLjA0MDM3MjQ5ODMzMzQ1NDEzLCAwLjM2MjU0NDI5ODE3MTk5NzA3LCAwLjIyOTY1NDA4ODYxNjM3MTE1LCAtMC4xMTcxNTI3MzU1OTA5MzQ3NSwgMC4xODU1NDAyNTg4ODQ0Mjk5MywgLTAuMDgwNDAzNDc2OTUzNTA2NDcsIDAuMzgzMjU3ODA2MzAxMTE2OTQsIC0wLjI0MTc3NDQ4NDUxNTE5MDEyLCAwLjI0Njk1MjQxNDUxMjYzNDI4LCAwLjM4OTAyOTAyNjAzMTQ5NDE0XSwgWy0xLjExOTMyNTYzNzgxNzM4MjgsIC0wLjkzNzQzNzIzNjMwOTA1MTUsIC0wLjg3OTEzMzM0MzY5NjU5NDIsIC0xLjQxODIwNzY0NTQxNjI1OTgsIDAuODQ1OTkyOTIyNzgyODk4LCAxLjA4Njg0Njk0NzY2OTk4MywgMC42NjgxNDEwMDc0MjM0MDA5LCAxLjA5MTk0ODk4NjA1MzQ2NjgsIDAuOTYwMTM4MDgyNTA0MjcyNSwgLTAuMDk1MDQyNzg3NDkyMjc1MjQsIC0xLjIzMjEwMzgyNDYxNTQ3ODUsIC0xLjI5MDc0NTYxNTk1OTE2NzUsIDAuODM1MDk5ODE2MzIyMzI2NywgLTEuNTI1MjM5NzA2MDM5NDI4NywgMS4zMzEzODA2MDU2OTc2MzE4LCAwLjg2NjQwODcwNTcxMTM2NDddLCBbLTAuMzM0MTExMTU0MDc5NDM3MjYsIC0wLjIzMzI0Njg0Nzk4NzE3NSwgLTAuMTYwMjE0Mjc1MTIxNjg4ODQsIC0wLjUyMTY1MTE0ODc5NjA4MTUsIDAuNTk5MDY2MTM4MjY3NTE3MSwgMC40NTY0MjQ5MjE3NTEwMjIzNCwgMC41ODg4NTk1NTgxMDU0Njg4LCAwLjYwNzk2Nzg1MzU0NjE0MjYsIDAuMzM4Nzk0MTcxODEwMTUwMTUsIDAuNDYzMjQyODg4NDUwNjIyNTYsIC0wLjM3MzA5MjIzNDEzNDY3NDEsIC0wLjUzOTEzMjM1NjY0MzY3NjgsIDAuNTg0NzAxNDE4ODc2NjQ4LCAtMC40NDYwMzg5MDE4MDU4Nzc3LCAwLjYwNjgzMzkzNDc4MzkzNTUsIDAuNTcxNTI0NTAwODQ2ODYyOF0sIFswLjE5ODgyMDg4ODk5NjEyNDI3LCAwLjQ3OTI4ODEwMTE5NjI4OTA2LCAwLjQwODc3NzQxNTc1MjQxMDksIC0wLjA2MTIwNjAwNTUxMzY2ODA2LCAtMC4xNDU1MzI3NTcwNDM4Mzg1LCAtMC4yODc2MTc3NzI4MTc2MTE3LCAtMC42ODIyNzU4OTEzMDQwMTYxLCAtMC40MDM0MzU1MjgyNzgzNTA4MywgMC4xNjg2MDM4Mzc0OTAwODE4LCAtMC41MzU5ODQ5OTI5ODA5NTcsIDAuMTQ3MDgyMDkwMzc3ODA3NjIsIDAuMzA1NTE0NjMzNjU1NTQ4MSwgLTAuMzQ5ODA1MzU1MDcyMDIxNSwgMC4yNjIyNDgyMTgwNTk1Mzk4LCAwLjE5NzA5Mjg5MDczOTQ0MDkyLCAtMC4zODc3Mzc5ODk0MjU2NTkyXSwgWzAuOTA2MDY2MDYwMDY2MjIzMSwgMC4xNDEzNjk1OTYxMjM2OTUzNywgMC41MjAyODg1MjcwMTE4NzEzLCAwLjk5MDc1MDU1MTIyMzc1NDksIC0wLjIwODMyNzc0MDQzMDgzMTksIC0wLjI0NDg2NjM0MTM1MjQ2Mjc3LCAtMC4wNzMzNjg3MTMyNTk2OTY5NiwgLTAuMDEyMTE3OTMzNDgxOTMxNjg2LCAtMC4zNTc4Mzc5MTU0MjA1MzIyLCAwLjEyMzgxNTY3MDYwOTQ3NDE4LCAwLjY1MjkxMDQ3MDk2MjUyNDQsIDAuNjcxNjgwMjEyMDIwODc0LCAtMC4wMTg0ODQ3NDE0NDkzNTYwOCwgMC42NTYyNjk0MzExMTQxOTY4LCAtMC4xNTI5Nzg5MjY4OTcwNDg5NSwgLTAuMTQyODg3MDQwOTcyNzA5NjZdLCBbLTAuMDkzNjQ4ODM2MDE2NjU0OTcsIC0wLjE2ODE5NDE1OTg2NTM3OTMzLCAwLjI4Nzg3Mjg1MDg5NDkyOCwgLTAuMjc1Njg2MzUzNDQ1MDUzMSwgLTAuMzE2NzY1MjQ4Nzc1NDgyMiwgMC4yNjc3MTQ3Njg2NDgxNDc2LCAwLjA5NTQwODcwNzg1NzEzMTk2LCAtMC4zNzI3MDAxNTQ3ODEzNDE1NSwgLTAuMjM3MjEwNzM1Njc4NjcyOCwgLTAuMzU2MTI5NDA3ODgyNjkwNDMsIC0wLjEyMDc3MTc1MDgwNzc2MjE1LCAwLjAwMzA5NTU3NTYwODMxMzA4MzYsIC0wLjM2NjQ0NDA1MTI2NTcxNjU1LCAtMC4wMDQ4NjEwMjMyNzcwNDQyOTYsIDAuMzEzMTUyNTUxNjUxMDAxLCAwLjEzNTc3NjM0MDk2MTQ1NjNdLCBbLTAuOTg3NDMwODEwOTI4MzQ0NywgLTAuNjQ0NjMxMTQ3Mzg0NjQzNiwgLTAuNzAwNTkyODc1NDgwNjUxOSwgLTAuNjQ2MDYyMTM1Njk2NDExMSwgMS4wMzM1ODg1Mjg2MzMxMTc3LCAwLjYxNjUzODQwNTQxODM5NiwgMC43NTcxNzg3ODM0MTY3NDgsIDAuNzk3NTY1OTk2NjQ2ODgxMSwgMC42NDAzMDY4OTAwMTA4MzM3LCAwLjQ0OTI5Njg5MTY4OTMwMDU0LCAtMC45NDEyMjYwMDU1NTQxOTkyLCAtMC44ODQ3NDUxODA2MDY4NDIsIDAuODc0NjE1MTkyNDEzMzMwMSwgLTAuNzc4Mjc5NzgxMzQxNTUyNywgMS4wMTQ5ODkxMzc2NDk1MzYxLCAwLjYwODQxMjI2NTc3NzU4NzldLCBbMC42ODg2NTUxOTc2MjAzOTE4LCAwLjI5MTkxMjY3NDkwMzg2OTYzLCAwLjE4ODI3NzYwMjE5NTczOTc1LCAxLjExNDE1NjQ4NDYwMzg4MTgsIC0xLjEyMzI3NjExNDQ2MzgwNjIsIC0wLjAzMjQ0ODAzNDczMzUzMzg2LCAtMC45NzY1ODc4OTE1Nzg2NzQzLCAtMS4xMTA3MzM2MjgyNzMwMTAzLCAtMS4yMzAwOTQ2NzEyNDkzODk2LCAtMC42NTU2NTc0MTA2MjE2NDMxLCAxLjAyNTIyMTEwOTM5MDI1ODgsIDAuODUxMzQ4MjIxMzAyMDMyNSwgLTAuODY1MDYzNjY3Mjk3MzYzMywgMC43NDIxMzE0NzE2MzM5MTExLCAtMC41NzU5Mjg0NDk2MzA3MzczLCAtMC4zMzU3NTI2MDYzOTE5MDY3NF0sIFswLjQ4ODkwOTQyMzM1MTI4Nzg0LCAwLjI1NjA1MDkxNDUyNTk4NTcsIDAuNTQ1NDg5Nzg4MDU1NDE5OSwgLTAuMDEwMjU5MDI0Nzk4ODcwMDg3LCAtMC4yOTYwMDkwMzM5MTgzODA3NCwgLTAuNTEwMDExNjEzMzY4OTg4LCAtMC41NTMxNjM0MDkyMzMwOTMzLCAtMC4zNzQzNDI0NDE1NTg4Mzc5LCAtMC4zNjIwMDE4MzYyOTk4OTYyNCwgLTAuNjQxNTM5NDU0NDYwMTQ0LCAwLjExODIzNzQ4Nzk3MTc4MjY4LCAwLjYwNDUxNTQzMzMxMTQ2MjQsIC0wLjQ0MTM1NDI0NDk0NzQzMzQ3LCAwLjA5NzcwMjQ0MzU5OTcwMDkzLCAtMC4zNDkyNDk2MDEzNjQxMzU3NCwgLTAuNjYwMDMzOTQxMjY4OTIwOV0sIFswLjM2MzY3OTg4NTg2NDI1NzgsIDAuMDgwOTU0NjYzNDU1NDg2MywgMC4zNjc5OTkxMzY0NDc5MDY1LCAtMC4wMjcxNzU1NDM4Mjk3OTg3LCAwLjI5NTQ0ODAzNTAwMTc1NDc2LCAtMC4wNTE2MzQ3MDY1NTY3OTcwMywgLTAuMTQzNjUyMDIxODg0OTE4MiwgMC4xNzgwMTkwMTY5ODExMjQ4OCwgLTAuMDI3ODY2NDA0NTAzNTgzOTA4LCAtMC4wMzEzMDM1OTk0NzY4MTQyNywgMC4zNDUyNzAxNTY4NjAzNTE1NiwgMC4zMjU5ODAxMjY4NTc3NTc1NywgMC4xODMwMzQ2MTM3Mjg1MjMyNSwgMC4yMzIwNjY2MDE1MTQ4MTYyOCwgMC4wNDEzODI1MzYyOTIwNzYxMSwgMC4wNzExMTMzNzc4MDk1MjQ1NF0sIFswLjM5MTkyNTM5NDUzNTA2NDcsIDAuMzk0MDk1NjU5MjU1OTgxNDUsIC0wLjE3NjQyNTYzNTgxNDY2Njc1LCAwLjMxOTg4MzQwNjE2MjI2MTk2LCAtMC4yMTY4MTU1OTA4NTg0NTk0NywgLTAuMjUwMjEzMTc2MDEyMDM5MiwgLTAuMjQ1Njg5NDA2OTkxMDA0OTQsIC0wLjE5MjUzNzE4ODUyOTk2ODI2LCAwLjIwOTUwMjY5Njk5MDk2NjgsIDAuMjU5ODMyNDQxODA2NzkzMiwgMC41NjgyMDI4NTMyMDI4MTk4LCAwLjIyMDgwMjMzNjkzMTIyODY0LCAtMC4wNTY2OTEyMTgxNjc1NDM0MSwgMC4xNTgxMjY3NzE0NTAwNDI3MiwgLTAuMDQ4MDQxNjkwMTQwOTYyNiwgLTAuMzc2NzA0OTkwODYzODAwMDVdLCBbLTAuMDEwODI2NjEwMDI4NzQzNzQ0LCAtMC4yNTc1OTMyNDQzMTQxOTM3LCAwLjE4NTc5NzA1MDU5NTI4MzUsIC0wLjQwNTE3ODg0NDkyODc0MTQ2LCAwLjI5OTQ5ODE3MDYxNDI0MjU1LCAwLjA5NDQ4OTQ0MDMyMTkyMjMsIDAuMDEzMzQ5MTQ2NTgyMTg2MjIyLCAwLjM4ODY3MjA1MzgxMzkzNDMsIDAuMjExMDQ2NDU3MjkwNjQ5NDEsIDAuMTA0Mjk1OTgzOTEwNTYwNjEsIC0wLjAwMzczNTM2NzQ0MTU0OTg5NywgLTAuMTkwNTMwNTY4MzYxMjgyMzUsIDAuMDU1MzA2ODU5MzE0NDQxNjgsIC0wLjQ1NTI4ODY3ODQwNzY2OTA3LCAwLjA1ODQ2NjI3MDU2NTk4NjYzLCAwLjE3NjMyNjk5MDEyNzU2MzQ4XV0sIFswLjEwMDE2MTA1MzI0MDI5OTIyLCAwLjA3MzM5NTY2MjAwOTcxNjAzLCAwLjA1NzQzNzM0MTY2MDI2MTE1NCwgMC4xODYxNjA1OTQyMjQ5Mjk4LCAwLjA4MzYwNTg0MDgwMjE5MjY5LCAwLjA4MjY0NTEwMzMzNTM4MDU1LCAwLjAxNjAzMDAzMDMyNTA1NTEyMiwgMC4wOTk1MDE4NzA1NzI1NjY5OSwgMC4xMTMzNDg0NzY1ODg3MjYwNCwgMC4wNDg2OTU2MjM4NzQ2NjQzMSwgMC4xMTAzMzk4OTQ4OTA3ODUyMiwgMC4wOTU0ODEyODM5NjI3MjY1OSwgMC4wNzQxNzE5NzUyNTUwMTI1MSwgMC4wMzQ3MTk3NDY1NTk4NTgzMiwgMC4wNTczNjM0OTE1MDUzODQ0NDUsIDAuMDc3MTMwNDM2ODk3Mjc3ODNdLCBbWy0xLjE3MTc2ODY2NTMxMzcyMDddLCBbLTAuNDc4NzA0NjMxMzI4NTgyNzZdLCBbLTAuNDI5NTMyNDY4MzE4OTM5Ml0sIFstMS4xOTE2MDQ2MTQyNTc4MTI1XSwgWzEuNjcxNzE5MzEyNjY3ODQ2N10sIFsxLjA0MTY4Njc3MzMwMDE3MV0sIFsxLjQzNzQ1ODk5MjAwNDM5NDVdLCBbMS41OTI1MzAwMTIxMzA3MzczXSwgWzEuODEzMDgxNTAyOTE0NDI4N10sIFsxLjU0MjU0NDg0MTc2NjM1NzRdLCBbLTEuMTA4MjIzOTE1MTAwMDk3N10sIFstMS40MzYzOTgzODY5NTUyNjEyXSwgWzIuMTEwMDMxNjA0NzY2ODQ1N10sIFstMS40MTQ3NzQxNzk0NTg2MTgyXSwgWzEuMjQ1NjU1Mjk4MjMzMDMyMl0sIFsxLjAyNTkyNzA2NjgwMjk3ODVdXSwgWzAuMDM2NDk5NDMzMjE5NDMyODNdXQ==", "metrics": {"loss": 0.141822, "accuracy": 0.943942, "auc": 0.987281, "precision": 0.938764, "recall": 0.956002}}