{"round": 5, "weights_b64": "W1tbMC4wMjM3ODY3MzI5MjY5NjQ3NiwgMC4xMTA0MzY5Mzg3MDMwNjAxNSwgMC4wMzcyODIxMzE2MTIzMDA4NywgLTAuMjc2MzgwMTgxMzEyNTYxMDQsIDAuMzc4NzY0NjI5MzY0MDEzNjcsIDAuMDU3OTY5MzI0MjkwNzUyNDEsIDAuMTQ0NjkzMzE1MDI5MTQ0MywgMC4wMzEwNzQwNTgyNjQ0OTM5NDIsIDAuMDc5MjQ3NTA0NDcyNzMyNTQsIDAuMDIyODc3MjU5MTc5OTQ5NzYsIC0wLjAwOTY1MDc5NzU4MzE2Mjc4NSwgLTAuMDYzMDA1MTM0NDYzMzEwMjQsIDAuMzkzNzA2NzM4OTQ4ODIyLCAwLjEzMTM5NzIwMjYxMDk2OTU0LCAwLjQwODE0NzgxMTg4OTY0ODQ0LCAwLjMwNDU4NDgwMTE5NzA1MiwgLTAuMzE2NzIxMTQxMzM4MzQ4NCwgMC4yMTM5MTQ2NjI1OTk1NjM2LCAwLjI1NzIzMTIzNTUwNDE1MDQsIDAuMzE3MjUyODc0Mzc0Mzg5NjUsIDAuMTMxNDYxNDg2MjIwMzU5OCwgLTAuMTA0MzUyNTMzODE3MjkxMjYsIC0wLjEzNTgwMTc2MjM0MjQ1MywgLTAuMTA0NTEwMjAzMDAzODgzMzYsIC0wLjE0MjA3MjkxNjAzMDg4MzgsIC0wLjI0MDg2NTg1NjQwOTA3Mjg4LCAtMC4wMjI4OTA0NTYwMjA4MzIwNjIsIC0wLjA0ODgxNDI2NjkyMDA4OTcyLCAwLjEzOTkzNjEzNDIxOTE2OTYyLCAtMC4wMDA2MjQyNzkwMjU5NDIwODcyLCAwLjA3MDM0NDk2OTYzMDI0MTQsIC0wLjQ2OTg4NDc1MzIyNzIzMzldLCBbMC41OTIxNjgzOTA3NTA4ODUsIDAuNTExMTk3NTY2OTg2MDg0LCAwLjA0NjA2ODUwMDcyNzQxNTA4NSwgLTAuMTY2NzAxNDY1ODQ1MTA4MDMsIDAuNTExODAwNTg3MTc3Mjc2NiwgLTAuMDg1OTMyMzA2OTQ1MzIzOTQsIDEuMDkzNDg1NTkzNzk1Nzc2NCwgLTAuMDU4NzY4ODUzNTQ1MTg4OTA0LCAwLjQzOTkzMDk3NTQzNzE2NDMsIC0wLjI3OTQ3MjU4OTQ5Mjc5Nzg1LCAwLjIxNTQ2Mjg3ODM0NjQ0MzE4LCAxLjY4MzQ1ODA4OTgyODQ5MTIsIDEuMjQ2NzQwMzQxMTg2NTIzNCwgLTAuMzY1MTAyNzY3OTQ0MzM1OTQsIDAuNzE2MTgwOTIwNjAwODkxMSwgLTAuMjQ2NTMxNzk5NDM1NjE1NTQsIC0wLjU3OTAzNDIwOTI1MTQwMzgsIDAuMTI1Nzg0NzI0OTUwNzkwNCwgMS4yMDUzNTg5ODIwODYxODE2LCAtMC41MzMyNTg5MTQ5NDc1MDk4LCAwLjMwNjI0ODc1NDI2MjkyNDIsIDAuMjQ4ODQ2Mjc3NTk0NTY2MzUsIDEuMjI0Mjc2NjYxODcyODYzOCwgMS42ODMzMjI0Mjk2NTY5ODI0LCAwLjgyMzMwMzEwMzQ0Njk2MDQsIDAuMTQyNzU1MDYxMzg4MDE1NzUsIDAuMTE2NjIzOTkwMjM3NzEyODYsIDEuNzA2OTg2OTA0MTQ0Mjg3LCAwLjI4NzAzMTUzMTMzMzkyMzM0LCAwLjM2MzI5MTM4Mjc4OTYxMTgsIC0wLjI4MTk2Mjg3MTU1MTUxMzY3LCAtMC4wNzg5NjAxMzU1NzkxMDkxOV0sIFswLjM5MTk3MjQyMjU5OTc5MjUsIDAuMTk5MTcwODg3NDcwMjQ1MzYsIDAuMjM2NTAwNjgwNDQ2NjI0NzYsIDAuMDE1MDMwMDI2NDM1ODUyMDUsIDAuMDQ2MzE0MDkwNDkwMzQxMTg3LCAtMC4xMzYyMTQyODYwODg5NDM0OCwgMC42NTI4MjA1Mjc1NTM1NTgzLCAwLjAzOTM2MTE5Mzc3NjEzMDY3NiwgMC4zMTA5NTY0NzgxMTg4OTY1LCAtMC4yMDc4NTQyNzA5MzUwNTg2LCAwLjE1MjgxMjg5ODE1OTAyNzEsIC0wLjE5NzE5NDk0ODc5MjQ1NzU4LCAwLjUwMzgyOTI0MDc5ODk1MDIsIC0wLjc4MDc1NDY4NTQwMTkxNjUsIDAuMDU5ODI0NTkzMzY1MTkyNDEsIC0wLjM3NjcwMDI4MjA5Njg2MjgsIC0xLjA5ODc4NzMwNzczOTI1NzgsIDAuMTE3MTA4Mzg5NzM1MjIxODYsIDAuNTUyOTIzOTE3NzcwMzg1NywgLTEuMDM1MjI0NDM3NzEzNjIzLCAtMC4wMjg2NTI5Njk3NDc3ODE3NTQsIC0wLjE5MzY0MDAyMzQ2OTkyNDkzLCAwLjIwMDcwNzY0NDIyNDE2Njg3LCAtMC4zMTY4OTgxMDc1Mjg2ODY1LCAwLjA3NDU1Nzk0NTEzMjI1NTU1LCAwLjMyMTczMjgxOTA4MDM1MjgsIDAuMzMxOTkzOTM3NDkyMzcwNiwgMC4xNTkwNTAyNTYwMTM4NzAyNCwgMC4wNjQzOTI5MDk0MDc2MTU2NiwgMC4yOTA4ODI0NjgyMjM1NzE4LCAtMC4zNjY1NTEwMTE4MDA3NjYsIC0wLjIwMTU5MDA5MDk5MDA2NjUzXSwgWzAuMjY3Mzk4OTUzNDM3ODA1MiwgMC40MDY1OTYwNjQ1Njc1NjU5LCAtMC4zNjMyNTEzODgwNzI5Njc1MywgLTAuMTU2Njg5NTI0NjUwNTczNzMsIDAuNTE3NDYyNjExMTk4NDI1MywgLTAuOTM5MjM4MzA5ODYwMjI5NSwgMC43NDA0Mzk4OTE4MTUxODU1LCAtMC4wNjI1NzgyOTA3MDA5MTI0OCwgMC40OTkwOTg3Nzc3NzA5OTYxLCAtMC4yOTczNTAwNDkwMTg4NTk4NiwgLTAuMDc5MjUwOTE2ODM4NjQ1OTQsIDAuODI1MTgwODI4NTcxMzE5NiwgMS4xNzM5OTM4MjU5MTI0NzU2LCAtMC4wMTM5MDkzNzM0MzIzOTc4NDIsIDAuNDA5ODM1Njk2MjIwMzk3OTUsIC0wLjEzODM4NDU4MDYxMjE4MjYyLCAtMC40MDAxMjcyOTE2NzkzODIzLCAtMC4wNTQyNzI0MjgxNTQ5NDUzNzQsIDAuNjk1MTM0MTAzMjk4MTg3MywgLTAuMDE4MDE2NzUxODU1NjExOCwgLTAuMzI5NDAxNjcxODg2NDQ0MSwgMC4wMzcyNjIwNjcxOTg3NTMzNiwgMC42NTI1NTEyOTMzNzMxMDc5LCAwLjYyNTMxOTc3ODkxOTIyLCAwLjQzMTYyMzM2OTQ1NTMzNzUsIC0wLjQwMzEyNDMzMjQyNzk3ODUsIC0wLjY2NDY0MzI4NzY1ODY5MTQsIDAuODg1ODk0MDAwNTMwMjQyOSwgMC4xMDQzNzk5MDcyNTA0MDQzNiwgMC4xNjcxNjQ0NDQ5MjM0MDA4OCwgLTAuMzM1MDM4OTAwMzc1MzY2MiwgLTAuNjE1ODk0NDM2ODM2MjQyN10sIFswLjA5MjE2NTE1NzE5ODkwNTk0LCAtMC4yNjEyNTc2MTg2NjU2OTUyLCAtMC4xODk5MTk2NjU0NTU4MTgxOCwgMC4yNDk4NjE0MzQxMDIwNTg0LCAtMC4yODk5OTY2MjM5OTI5MTk5LCAwLjAyMjk0MTA0NzMyNTczMDMyNCwgMC4zNDU3NzIyMDY3ODMyOTQ3LCAwLjA4NTIzMzQwNTIzMjQyOTUsIDAuMDU2NjY2Njc1OTU1MDU3MTQ0LCAtMC4xMzMwMTc1Mzk5NzgwMjczNCwgLTAuMTExMzQxMjMwNTcxMjY5OTksIC0wLjAxMDc4MDM1NDk2MTc1Mjg5MiwgMC4zNjgwOTg2NzYyMDQ2ODE0LCAtMC42NTE3ODA2MDUzMTYxNjIxLCAtMC4yNjE0MjkyODAwNDI2NDgzLCAwLjA4MDQ2MzQ4MzkyOTYzNDEsIC0xLjc4NDYzNDExMzMxMTc2NzYsIC0wLjAwNDgwNDg5Mzg2MjQ1NjA4MywgMC40NjE4NjQ2MjA0NDcxNTg4LCAtMS40MzYwMzM0ODczMTk5NDYzLCAwLjE3MTYyNDUxMTQ4MDMzMTQyLCAtMC4yNjg4ODQ1OTkyMDg4MzE4LCAwLjM3MDI5Mjk2MTU5NzQ0MjYsIC0wLjIxNDgyNjQ5NDQ1NTMzNzUyLCAwLjEwMTUwMzQ2OTA0OTkzMDU3LCAwLjA4OTE0MTk4NzI2NDE1NjM0LCAwLjE4MDg5MzY1OTU5MTY3NDgsIDAuMDIxNTI0NTA1Njg5NzQwMTgsIC0wLjE3ODczNzU4MDc3NjIxNDYsIDAuMDgzOTk5OTQ2NzEzNDQ3NTcsIDAuMDk2NzI3OTU5ODExNjg3NDcsIDAuMDYzNDg3NDI1NDQ2NTEwMzFdLCBbLTAuMDcwMjA0MDI2OTk3MDg5MzksIC0wLjAxODgwNDYyODQwMTk5NDcwNSwgMC4xMjc0MTQ5NzE1OTAwNDIxMSwgMC4wNzU2NDE2OTE2ODQ3MjI5LCAtMC4yMjYwMzQ4Nzk2ODQ0NDgyNCwgMC4yMDg5MDcyNzYzOTE5ODMwMywgLTAuMDMwMTc0NjUyMTE0NTEwNTM2LCAtMC4wNTE5MDEyMTAwOTk0NTg2OTQsIC0wLjEzMzczNDc5MjQ3MDkzMiwgMC4xMjk0MTg0NDc2MTM3MTYxMywgMC4wNTcwNjIyNTcwODEyNzAyMiwgMC4xMTI1ODE0MDIwNjMzNjk3NSwgLTAuMDk5MjUxMzAwMDk2NTExODQsIDAuMTU4Njg0Mzg3ODAzMDc3NywgMC4wMzYyNzE2OTUwNDc2MTY5NiwgMC4wNTA2MTQyMDc5ODMwMTY5NywgLTAuMjE5ODQ2NzI1NDYzODY3MiwgLTAuMTA5NjY2MDA0Nzc2OTU0NjUsIDAuMDgwMTY4NDU1ODM5MTU3MSwgMC4xMzE4MzUyMDczNDMxMDE1LCAwLjMwMzI1MDI1MzIwMDUzMSwgLTAuNjI0Nzk2MTUyMTE0ODY4MiwgLTAuMDg4ODE5NTg1NzQwNTY2MjUsIDAuMjEyMzc0MjI1MjU4ODI3MiwgMC4wMDI1ODg0Nzc0NTEzNTQyNjUsIDAuMzEyNzAwNDIwNjE4MDU3MjUsIDAuMTcyNDQzMzg5ODkyNTc4MTIsIC0wLjAxODM5NTU2NTQ1MDE5MTQ5OCwgLTAuMDc4NzYyOTExMjYwMTI4MDIsIC0wLjAzMjQ0NTQ5NzgxMDg0MDYxLCAwLjEyMzMxMTkzNjg1NTMxNjE2LCAwLjAzNTM3MjM2ODk5MTM3NDk3XSwgWzAuMTkzMjYxODYxODAxMTQ3NDYsIDAuNDE3MDUxMjI1OTAwNjUsIDAuMDMxMjI5NDMwODA5NjE3MDQzLCAwLjE1MzE1MjU5OTkzMDc2MzI0LCAwLjE0Mjg4MTYzMTg1MTE5NjMsIDAuMjcxNTQ5NDAzNjY3NDQ5OTUsIDAuMjMxMjQwMzAyMzI0Mjk1MDQsIDAuMzE3NjM2MTMyMjQwMjk1NCwgMC4xMDQ0NjgyNTYyMzUxMjI2OCwgLTAuMTI2MTg5NDQwNDg4ODE1MywgMC4yMTcyNTYwNTQyODIxODg0MiwgMC4wNDY3MzI1Mjk5OTc4MjU2MiwgMC4wMTkwMjMyMDA0OTcwMzEyMTIsIDAuMDYzMTMxMTYxMDM0MTA3MjEsIDAuMDg0ODM5NzI0MDA0MjY4NjUsIC0wLjY4MTk4MDY2OTQ5ODQ0MzYsIDAuMDQyMTUyNzczNTg4ODk1OCwgMC42NTkzMzc1ODAyMDQwMSwgMC4yMDU3NDY3NDAxMDI3Njc5NCwgLTAuMTMxNDgwMjAyMDc4ODE5MjcsIC0wLjAyNTk2NjEzMDE5NzA0ODE4NywgLTAuMTk3Njg0MDQ5NjA2MzIzMjQsIDAuMTUxNDkzNDAwMzM1MzExOSwgMC4wODI0OTIxNDI5MTU3MjU3MSwgMC4wNzY5NzgxNTQ0ODA0NTczLCAwLjIzNDIzNTc0ODY0ODY0MzUsIDAuMDA2NzQ4NzMzMTEwNzI1ODgsIDAuMDI1MzAxNjkxMTQ0NzA0ODIsIDAuMDQ0NzUwNjY0MzgzMTcyOTksIDAuMTk1NDc5MDY1MTc5ODI0ODMsIC0wLjAyNzEwOTExNDQ1MzE5NjUyNiwgLTAuMTExMDc4ODI4NTczMjI2OTNdLCBbLTEuOTE0NzU5MTU5MDg4MTM0OCwgLTAuNjM1MDc2NzYxMjQ1NzI3NSwgMC44NjU3Mzg0NTE0ODA4NjU1LCAtMC41MTQ1NTg0MzQ0ODYzODkyLCAtMS4wOTI3OTkwNjc0OTcyNTM0LCAxLjI2MTM4OTI1NTUyMzY4MTYsIC0wLjY1ODAzNzEyNjA2NDMwMDUsIDAuODkwNTA0MzYwMTk4OTc0NiwgLTAuNjMzOTk3Njc4NzU2NzEzOSwgMy41OTE0MjczMjYyMDIzOTI2LCAwLjMwNTQwMjM2ODMwNzExMzY1LCAtMS41ODkxOTg5NDY5NTI4MTk4LCAtMS4wMjg5NzkxODIyNDMzNDcyLCAxLjU3NTIwNDAxNDc3ODEzNzIsIC0xLjQ5OTEzMTQ0MTExNjMzMywgMC45NTY4NTY5NjYwMTg2NzY4LCAxLjg0MDI4NzY4NTM5NDI4NywgMC44MDYzNTE3ODA4OTE0MTg1LCAtMS4zMjgxNDIwNDY5Mjg0MDU4LCAtMS41MDgzMzMyMDYxNzY3NTc4LCAxLjE2ODc3MDc5MDEwMDA5NzcsIC0xLjQ5NjE1OTc5MTk0NjQxMTEsIC0xLjI3NTM0NTkyMTUxNjQxODUsIC0wLjg4OTM4NzcyNjc4Mzc1MjQsIDAuNTc4NzQwMTE5OTM0MDgyLCAxLjEwMjIyNTU0MjA2ODQ4MTQsIDAuOTUyMzAwNjY3NzYyNzU2MywgLTAuNDY5Njc1NTcwNzI2Mzk0NjUsIC0wLjUyNDUxNzg5Mzc5MTE5ODcsIC0xLjIxMjcyNzY2NTkwMTE4NCwgMS4zNTE0OTg3MjMwMzAwOTAzLCAyLjQxMTc5NTEzOTMxMjc0NF0sIFstMC4wNTc2MDcxODEzNzAyNTgzMywgMC40NDc1NjM1MjkwMTQ1ODc0LCAtMC4yNzQ0MDU5NTYyNjgzMTA1NSwgLTAuNzEyNDQxNTYzNjA2MjYyMiwgMC4xNjY2MTI3NTkyMzI1MjEwNiwgLTAuMzgyNDAwMDM1ODU4MTU0MywgLTAuMTEwMDQxMjc1NjIwNDYwNTEsIC0wLjI5MzI0MzA1MDU3NTI1NjM1LCAwLjE4MjQwMDU5OTEyMjA0NzQyLCAtMC4xOTg3OTgxNzk2MjY0NjQ4NCwgMC4xMjg3MDU2MjA3NjU2ODYwNCwgLTAuMTg5MDIwNjE4Nzk2MzQ4NTcsIC0wLjAzMTMyMzUxODYwNDA0MDE0NiwgLTAuNzQwMTM3Mjc5MDMzNjYwOSwgMC4zNDM1MDY2OTM4NDAwMjY4NiwgLTAuMjI1OTI0ODQ5NTEwMTkyODcsIC0wLjI3Mjg4ODQyMjAxMjMyOTEsIC0wLjA1NDUxNTQ1ODY0MzQzNjQzLCAtMC4xMDI0ODc2MDg3OTAzOTc2NCwgLTAuNDg0NDE3MDgwODc5MjExNCwgLTAuMjg2OTkxNzE1NDMxMjEzNCwgMC4yMTMyMzE2Njc4NzYyNDM2LCAtMC4wOTQ1MDM3MTU2MzQzNDYwMSwgLTAuMjk3MjgwMDEzNTYxMjQ4OCwgLTAuNTEzNDkwMjAwMDQyNzI0NiwgMC4xMDQ3MDQ0NzY4OTI5NDgxNSwgLTAuMTA5MDQxNjM4NjcyMzUxODQsIC0wLjEzODI5MjQ0NjczMjUyMTA2LCAwLjMzNDA0NjcyMTQ1ODQzNTA2LCAwLjA3MjY4NTI0OTE0OTc5OTM1LCAtMC40NDQ4MTcyNDUwMDY1NjEzLCAtMC41NzE3NzM1ODg2NTczNzkyXSwgWzAuNDM1Njc3ODI2NDA0NTcxNTMsIDAuMTkyMDUxNzY4MzAyOTE3NDgsIC0wLjAxNzI4OTY1MzQyMDQ0ODMwMywgMC4xMzU3ODM1MjMzMjExNTE3MywgMC4xNTEyNDM2ODY2NzYwMjU0LCAwLjE2MjE3MzA2MjU2Mjk0MjUsIC0wLjAxNzAyMTQ5NTg0ODg5NDEyLCAtMC4xNzA1OTgxNzkxMDE5NDM5NywgMC4yODkzNzI3NDIxNzYwNTU5LCAtMC4yMTcyNzAxOTU0ODQxNjEzOCwgMC4xNTQxNjk3MDg0OTAzNzE3LCAwLjAxNDg3NTAxNTI0Mzg4NzkwMSwgMC4xMTg5NDA1MTczMDYzMjc4MiwgLTEuNjQyMDY4NjI0NDk2NDYsIC0wLjE3MzQ3ODM5NDc0Njc4MDQsIC0wLjI3NjcxOTg2ODE4MzEzNiwgLTIuMzc0MTY5ODI2NTA3NTY4NCwgLTAuMTIxNDMwNjI4MDAxNjg5OTEsIDAuMTQ5NTk3NzM0MjEyODc1MzcsIC0yLjMyOTc2MjkzNTYzODQyNzcsIDAuMTg1ODI2MDkyOTU4NDUwMzIsIDAuMDA1MzIxNTM5NDcyNzg4NTcyLCAtMC4xMTMyMTAwOTY5NTUyOTkzOCwgLTAuMTI1MjM4NjI3MTk1MzU4MjgsIC0wLjA5Nzc0NDE4MTc1MjIwNDksIC0wLjAzODQ0NjUzODE1MDMxMDUxNiwgMC4wNTQ4MjMyODY4MzEzNzg5NCwgLTAuMjAxMTU0MzUxMjM0NDM2MDQsIDAuMjIxODM2ODk0NzUwNTk1MSwgMC45Njk2NTE1MjAyNTIyMjc4LCAtMC43MDU5MDkwMTM3NDgxNjksIC0wLjE0MzI2MTc0NTU3MjA5MDE1XSwgWy0wLjExNzU1MzYzNjQzMTY5NDAzLCAtMC4yNTQ5MDYwNTgzMTE0NjI0LCAwLjMwNTg1NDc2NzU2MDk1ODg2LCAwLjA3MjUwMjcwMjQ3NDU5NDEyLCAtMC4wNTIzODAzNjA2NjI5MzcxNjQsIDAuNjExNzczMjUyNDg3MTgyNiwgMC4xNDcyNDM4NDI0ODI1NjY4MywgMC4zOTM2MDc3MzU2MzM4NTAxLCAtMC4xNTczMjEwOTU0NjY2MTM3NywgMC4wMjMxNjU1NjY4NDY3MjgzMjUsIDAuMTc0NjYzOTMxMTMxMzYyOTIsIC0wLjE3MTM0NjQyNjAxMDEzMTg0LCAtMC40NzMyMTg0NDEwMDk1MjE1LCAtMC4wMTEyMDYzMjQyMTIyNTMwOTQsIDAuMDA3NjY2NjkwMjc1MDczMDUxNSwgMC4yMTk5MjQwMzI2ODgxNDA4NywgMC4xOTA4NzkzNDQ5NDAxODU1NSwgMC4yODUyNzIzNTk4NDgwMjI0NiwgLTAuMDU5NzIzNDE0NDgwNjg2MTksIDAuMTkwMTI0MjI4NTk2Njg3MzIsIDAuNDMyODg3MDc3MzMxNTQyOTcsIDAuMzA2NDg3MTcyODQyMDI1NzYsIC0wLjA3NjY1NDc4NDM4MTM4OTYyLCAtMC4xNDIzMzIxOTYyMzU2NTY3NCwgMC4yOTUxMjgzNDU0ODk1MDE5NSwgMC4xMjY5NTczNzE4MzA5NDAyNSwgMC41MjUwNDQ3MzkyNDYzNjg0LCAwLjAxMzg4MTU3MDY1OTU3Nzg0NywgLTAuMDE5MjQ3NzcwMzA5NDQ4MjQyLCAtMC4yNzY0NjA0Njg3NjkwNzM1LCAwLjE4Mzk1Nzk5Mzk4NDIyMjQsIDAuMzE3NTM1MDQyNzYyNzU2MzVdLCBbLTAuMDYyMDU5MTM3OTcwMjA5MTIsIC0wLjU2NzM1NzU0MDEzMDYxNTIsIC0wLjA3ODQ5OTg0NjE2MDQxMTgzLCAtMC4xNTAyNzM4NzQ0MDIwNDYyLCAtMC4xMzg2MjU5MzQ3MjAwMzkzNywgLTAuMDk0MzE0NjU3MTUxNjk5MDcsIDAuMDc2MDcyMzA1NDQwOTAyNzEsIC0wLjAxNDEyNjc1MTU3MTg5MzY5MiwgLTAuMDAyMTk0NzcxMzEwMzE0NTM2LCAtMC4wNzUyNjI3MjUzNTMyNDA5NywgMC4xNjg2Mjk2NzYxMDM1OTE5MiwgLTAuMzUyNTY5MTMzMDQzMjg5MiwgMC4wMjE5MDAxMzYwMjM3NTk4NDIsIDAuMDU4MDcxMzg5Nzk0MzQ5NjcsIC0wLjE4MzIwODUyNTE4MDgxNjY1LCAwLjA1NjE4NzU2MjY0NDQ4MTY2LCAwLjM1NzY1NzI1Mzc0MjIxOCwgMC4wODM2NDc1MDQ0NDg4OTA2OSwgLTAuMTQ4NDcxOTM2NTgzNTE4OTgsIDAuMjcyODg5MTk2ODcyNzExMiwgLTAuMDc2MDIyMzQxODQ3NDE5NzQsIDAuMTIyNzgyNjE3ODA3Mzg4MywgLTAuMzMzODc5MTEzMTk3MzI2NjYsIC0wLjM3MTc3NTUwNzkyNjk0MDksIDAuMDEzMDE4MTk3MzgwMDA2MzEzLCAtMC4zMTczNDY5OTAxMDg0OSwgMC4wMTU2ODcwODk0MTM0MDQ0NjUsIDAuMDI5OTU0ODQ4ODExMDMwMzg4LCAtMC4yMTYwMzM1MTgzMTQzNjE1NywgMC4wMjkxNjUxMzc1NTkxNzU0OSwgMC4yNTc2NjY1MjgyMjQ5NDUwNywgMC4wMTA1NTQ0MzU2NjI5MjUyNDNdLCBbMC4wNDIzOTA0NzMxODY5Njk3NiwgLTAuMzk5NTAyNTQ1NTk1MTY5MDcsIC0wLjAwOTczNjU2NDAxMDM4MTY5OSwgLTAuMjQwMDU4MzYyNDgzOTc4MjcsIDAuMTM4MTc3ODEyMDk5NDU2OCwgLTAuMTE4NTEzMzE1OTE2MDYxNCwgMC4xODIzNjUzMjgwNzM1MDE2LCAwLjA5MTM0MzIzODk0OTc3NTcsIDAuMTg3NzgwNjkzMTczNDA4NSwgLTAuMjIwMzM0NTI5ODc2NzA4OTgsIC0wLjEzMzcwNTk1ODcyNDAyMTksIC0wLjAyODc0NTgxNTE1Nzg5MDMyLCAwLjAxNDA2NjYxNDIxMDYwNTYyMSwgLTAuMDc4MjM2NzI4OTA2NjMxNDcsIC0wLjA0MjE1MjkzMzc3NjM3ODYzLCAtMC4wMzY5NTQzMjQ2OTI0ODc3MiwgMC4wNzkyNTgyOTI5MTM0MzY4OSwgLTAuMDUwMzgxODU3OTAxODExNiwgMC4xMzc3MTAwNDk3NDg0MjA3MiwgMC4wODQ3NTYzNzQzNTkxMzA4NiwgLTAuMDkwNDU1NzcwNDkyNTUzNzEsIDAuMDg3NjQyOTk3NTAzMjgwNjQsIDAuMjE5ODYyMTYzMDY2ODY0LCAwLjIxMTUwMzQxNjI5OTgxOTk1LCAtMC4wNTM4NzIzODQxMzA5NTQ3NCwgMC4wMTc2MDg3NTA2MTE1NDM2NTUsIDAuMTA5NzUxMzg4NDMwNTk1NCwgMC4xNzgzNDQ2OTY3NjAxNzc2LCAtMC4xOTg4ODA2MTI4NTAxODkyLCAwLjA0MzE0OTY5NDgwMDM3Njg5LCAtMC4xMzIxOTcwMjI0MzgwNDkzMiwgMC4zMDQ1OTAxMDYwMTA0MzddLCBbMC4xNDEyMDY3NDEzMzMwMDc4LCAwLjM2MzU2MzQxODM4ODM2NjcsIC0wLjM0NDcwNzU0ODYxODMxNjY1LCAtMC40NDI3MDIzMjMxOTgzMTg1LCAwLjI5ODA0MTkzOTczNTQxMjYsIDAuMjM3NzAyMjIwNjc4MzI5NDcsIDAuMDcwODEwOTg4NTQ1NDE3NzksIC0wLjA2OTk1NjcxOTg3NTMzNTcsIDAuNDAyODQwMTk3MDg2MzM0MjMsIC0wLjA4NTIwMTU0NjU0OTc5NzA2LCAwLjI4NzY3NDEyOTAwOTI0NjgsIC0wLjM0NjQxMTAxOTU2MzY3NDksIDAuMzI5MzMyMDUzNjYxMzQ2NDQsIC0wLjk4MjUwNzc2NTI5MzEyMTMsIC0wLjA5NzA3OTE4NzYzMTYwNzA2LCAtMC4yNzU0NDE1ODY5NzEyODI5NiwgLTAuNTQ1NzIwMzM4ODIxNDExMSwgMC41NjcwNzUzNzE3NDIyNDg1LCAwLjE2MTE0Mzk4ODM3MDg5NTM5LCAtMC4yMzYxNzMxMjMxMjEyNjE2LCAwLjEzMDI3MzAxNDMwNzAyMjEsIDAuMDIyNTMzMjkzODEzNDY3MDI2LCAtMC4zMDIwODAyNzM2MjgyMzQ4NiwgLTAuNDIxMTcxMDA5NTQwNTU3ODYsIDAuMDI2NDQ3MDk4NzAyMTkyMzA3LCAwLjUyNzA2NjExMTU2NDYzNjIsIDAuNDA0Mjg1MTkyNDg5NjI0LCAwLjIxMDQ3NzA2OTAyMDI3MTMsIDAuMzQ3OTgyNDY2MjIwODU1NywgMC4wMDcyNzcyNjE0NjU3ODc4ODgsIC0wLjQ0NTMwNjQ3OTkzMDg3NzcsIC0wLjA0MTMyODMxODQxNzA3MjI5Nl0sIFstMC4xOTgyNzc5NTAyODY4NjUyMywgLTAuMDM3MDM3MTQ5MDcxNjkzNDIsIC0wLjA1MzAwODg2MTgzOTc3MTI3LCAtMC4yMTQ1NTQzOTkyNTE5Mzc4NywgLTAuMTQxMTIzOTY1MzgyNTc2LCAwLjEwMzkzNjk4NTEzNTA3ODQzLCAtMC41OTMwNDk3MDUwMjg1MzM5LCAtMC4wNTE1MTg5NDY4ODYwNjI2MiwgMC4wNTg3NTU3NjI4NzUwODAxMSwgMC4wNzE2NTcxODA3ODYxMzI4MSwgMC4wMTcwNzUzODAzMTA0MTYyMiwgLTAuODA3MjI2NTM4NjU4MTQyMSwgLTAuODEzMjY2NjM0OTQxMTAxMSwgMC4xMzA0NjAyMzI0OTYyNjE2LCAtMC4yNjMyMTcwMzE5NTU3MTksIDAuMTI2NTg3ODM3OTM0NDk0MDIsIDAuMDAzMzkxNDg1MTk1NjA2OTQ3LCAtMC4yNjQ3NzYxNzAyNTM3NTM2NiwgLTAuODA5NDYwOTk3NTgxNDgxOSwgMC4xMDg3NzY3OTI4ODM4NzI5OSwgMC4wNzAyNDExMDg1MzY3MjAyOCwgMC4wODQ4OTc0NzM0NTQ0NzU0LCAtMC41NzQ5MzYwOTE4OTk4NzE4LCAtMC43NTMyOTg0MDE4MzI1ODA2LCAtMC4xNzMyNTU5MjA0MTAxNTYyNSwgMC4wMjgwNjc5NTk0NzI1MzcwNCwgLTAuMTUyMzM0MTgzNDU0NTEzNTUsIC0wLjQ2NzM2NTgwMTMzNDM4MTEsIDAuMDA1NjYyODc2MTgxMzA0NDU1LCAtMC4wMjIzMDkzMzMwODYwMTM3OTQsIDAuMTc0NDIzODczNDI0NTMwMDMsIC0wLjA5NTQ3MjI2MTMwOTYyMzcyXSwgWzAuMDAxOTQ4NjkzMDY4Njk4MDQ4NiwgLTAuMDg1OTAwMDA4Njc4NDM2MjgsIDAuMDA5NTI1MjY1NTQ0NjUyOTM5LCAtMC4wMTcxMjU2MjMzMDA2NzE1NzcsIDAuMDk2MDA1MjQ2MDQzMjA1MjYsIC0wLjAwOTA2MzcyMjU2NTc3MDE1LCAtMC4xNjQ4Nzk4NzMzOTQ5NjYxMywgMC4wMjUwMTkwMDQ5NDA5ODY2MzMsIDAuMDkyOTUxODg2MzU1ODc2OTIsIDAuMDIyMDQxNTE2Mzc4NTIxOTIsIC0wLjAxMjkzODgwNDkyNDQ4ODA2OCwgLTAuMTMwOTk4NzkwMjY0MTI5NjQsIC0wLjA5NTgyMDA5OTExNTM3MTcsIC0wLjA1MTE1ODE4OTc3MzU1OTU3LCAwLjAyNzU3MDMwMzUyOTUwMDk2LCAwLjIwNzY5MzM5Nzk5ODgwOTgxLCAwLjAzMzE5MDE2MDk4OTc2MTM1LCAtMC4wMTM2NDk4NTg1MzQzMzYwOSwgLTAuMTk5MzY0MjQ0OTM3ODk2NzMsIC0wLjAxMTQwMjIzNjI5NzcyNjYzMSwgMC4wMDgwODk1MjU2MjUxMDk2NzMsIC0wLjAyNjMxODA1NjUwODg5ODczNSwgLTAuMDUxMTU0ODU5MzY0MDMyNzQ1LCAtMC4xNjQ4NDM3MDgyNzY3NDg2NiwgMC4wMTU3OTQxOTg5NjAwNjU4NCwgLTAuMDA5NzM1NzQ2MzA5MTYxMTg2LCAtMC4wMDE1MTA4MjA1ODQzNzE2ODYsIC0wLjI2MDYwMDI2ODg0MDc4OTgsIDAuMDEwMTIyMTExMDY3MTc1ODY1LCAwLjAxNTExODgyMjQ1NTQwNjE4OSwgLTAuMTE1NzY3NTk4MTUyMTYwNjQsIDAuMTAxMTUzOTM5OTYyMzg3MDhdLCBbMC4wMDA5MTExMTEyNDQ5MzE4MTcxLCAwLjAyMTE1NjMwMzU4NDU3NTY1MywgMC4wMDY4Njg1OTA2MDA3ODg1OTMsIDAuMDA3MDAzNjQwMjkwMzQ5NzIyLCAwLjA0NzIxMDYwNzY3NzY5ODEzNSwgMC4wMTE5MTMzNzg3MjI5NjU3MTcsIC0wLjE0NjAwNDk3NDg0MjA3MTUzLCAwLjA1MjQ5MjY1MjA4ODQwMzcsIDAuMDA2OTk5NTAxMDI3MTY2ODQzLCAtMC4wMzQzNzQ2NDMxMTcxODk0MSwgMC4wNjAzMjU2NjM1MzY3ODcwMywgMC4xMTIzNzE3NDI3MjUzNzIzMSwgLTAuMDM0Mzg3MTU2MzY3MzAxOTQsIC0wLjE2OTEzMTg3NTAzODE0Njk3LCAtMC4wODY2MzIxMTAxNzg0NzA2MSwgMC4wMDk3NjgzODU0NDAxMTExNiwgMC4wMTc2NDU5NzM3MTIyMDU4ODcsIC0wLjAxNTM1MTQ1NTY1ODY3NDI0LCAwLjAyNzIxOTU3Njc2MTEyNjUxOCwgMC4wMDcyMTQ0MjUxMzE2Nzg1ODEsIDAuMDIxMzc1MTMwODYxOTk3NjA0LCAtMC4wMTkwODgxNjAyNDY2MTA2NCwgMC4wNDYyOTQyNTcwNDQ3OTIxNzUsIDAuMDA1OTc4Mzk4OTU2MzU4NDMzLCAtMC4wMTY5MjIwNzUzMDE0MDg3NjgsIC0wLjAyMDYzNTMxODAxMTA0NTQ1NiwgMC4wMDQxMTIyODM2OTkyMTQ0NTg1LCAwLjEwODY4NTE2NTY0MzY5MjAyLCAtMC4wMDE3MDA3MjY5MTk4MDc0OTM3LCAwLjAwNDU4NzQzNDIzMjIzNDk1NSwgMC4xMDc5NjY3ODA2NjI1MzY2MiwgMC4wNjcxNDk4MjUzOTQxNTM2XSwgWzAuMDk2NDUzMzM4ODYxNDY1NDUsIDAuMDM5OTMwNzc5NDg2ODk0NjEsIDAuMDU2OTc1MzgzMzExNTEwMDg2LCAwLjAzNjYzMjA5ODI1NzU0MTY1NiwgMC4wODA5ODIyNTI5NTU0MzY3LCAwLjA0MjAwMzAyODA5NDc2ODUyNCwgMC4wNTU0NDA2NzE3NDE5NjI0MywgLTAuMDg1MTk4MTA0MzgxNTYxMjgsIC0wLjA0NjE3NTc1NTU2MDM5ODEsIC0wLjI1NjkzODkwNDUyMzg0OTUsIDAuMDg2OTQ1NTU2MTA0MTgzMiwgLTAuMTE2MDgwNTIyNTM3MjMxNDUsIC0wLjE3ODI2OTc4ODYyMjg1NjE0LCAtMC4wMjYyODg1ODM4NzQ3MDI0NTQsIC0wLjEyODI0ODUxMjc0NDkwMzU2LCAtMC4wNTkyODMwNTkwOTAzNzU5LCAtMC4wOTA3MTAxNDA3NjQ3MTMyOSwgMC4wMTE1MDU1MjY0OTA1MDk1MSwgLTAuMDUzMjAzNDQ4NjUzMjIxMTMsIC0wLjA4MjEzOTc5MDA1ODEzNTk5LCAwLjA0ODA2MjQyNTEwNjc2Mzg0LCAtMC4xMjIzODMxMzI1NzY5NDI0NCwgLTAuMTg1NjQ4NDExNTEyMzc0ODgsIC0wLjA0OTkzMjA3NzUyNzA0NjIwNCwgLTAuMDU2NjI3MjU4NjU4NDA5MTIsIDAuMTc3MTM1MzE4NTE3Njg0OTQsIDAuMDAwMTYwNDk2NjgxOTI4NjM0NjQsIC0wLjAyOTgyOTMxNTg0MTE5Nzk2OCwgMC4wNjE2NTIwMzA3OTU4MTI2MSwgMC4xMDc0MTM3MTY2MTQyNDYzNywgMC4wODg3ODg0MTk5NjE5MjkzMiwgMC4wMjg2ODEzNzg4MTE1OTc4MjRdLCBbLTAuMzkwMTQ5NDc0MTQzOTgxOTMsIC0wLjUxMDUzNjYxMTA4MDE2OTcsIDAuMjYzOTMzMzMwNzc0MzA3MjUsIDAuMzU2NzQ5NDc1MDAyMjg4OCwgMC4wNzI0MTA3NTQ4NTk0NDc0OCwgLTAuMjQxMTk5NzYxNjI5MTA0NjEsIDAuMDAxMjI4NzY4Mzc4NDk2MTcsIDAuMTU2NjgyMDE0NDY1MzMyMDMsIC0wLjIzNTk3NTM1NDkwOTg5Njg1LCAwLjA1NjI4NTkzNjM4NTM5MzE0LCAtMC4xNDcxMzExMDAyOTY5NzQxOCwgLTAuMTEyNzcwNDY3OTk2NTk3MjksIDAuMDQyNTk4MjQwMDc3NDk1NTc1LCAwLjU3MDIwMjA1MjU5MzIzMTIsIC0wLjIyNDEzOTk0MzcxODkxMDIyLCAwLjU3OTYzMDA3Njg4NTIyMzQsIDAuMzA4ODkzMjAzNzM1MzUxNTYsIC0wLjQxMzYwOTkyMTkzMjIyMDQ2LCAtMC4wMDA5MTMyNjY1NTgyMDAxMjA5LCAwLjU2MTM5NDY5MTQ2NzI4NTIsIC0wLjgyMzE5MjQ3NzIyNjI1NzMsIC0wLjM2MDM3ODE3NTk3Mzg5MjIsIDAuMDk2ODU5MDUyNzc3MjkwMzQsIDAuMDAzNTIwNjA5MzQ1Mjg3MDg0NiwgLTAuMDQyMTY0MTE3MDk3ODU0NjE0LCAtMC4xMDEzMTcyNTY2ODkwNzE2NiwgLTAuNzQxOTM2Mzg1NjMxNTYxMywgMC4wNTgzMjM0NjE1NjIzOTUwOTYsIC0wLjM0NjI4MjcyMDU2NTc5NTksIC0wLjY0MzUxNTI4ODgyOTgwMzUsIDAuMzk0MjQzNTM4Mzc5NjY5MiwgLTAuMzAxNTg0OTU5MDMwMTUxMzddLCBbLTAuNTM0MDkwMTAxNzE4OTAyNiwgLTAuNjEyOTI0Mzk2OTkxNzI5NywgMC4zOTc4MTA5MzU5NzQxMjExLCAwLjE0MDc2MjQ2MzIxMjAxMzI0LCAtMC4wNDA1MzM0ODMwMjg0MTE4NjUsIC0wLjE2NjA2MDE3OTQ3MTk2OTYsIDAuMjg3NDk5MTU5NTc0NTA4NjcsIDAuNDkyMjE0NzA5NTIwMzM5OTcsIC0wLjUzMDk5NDQxNTI4MzIwMzEsIDAuMzY4MDUxMDUyMDkzNTA1ODYsIC0wLjY1NDgxMjc1MzIwMDUzMSwgMC4wNjczNjYwNTYxNDQyMzc1MiwgLTAuMDMwNzEyNzM2NzcwNTEwNjc0LCAwLjczMDgzMDg0ODIxNzAxMDUsIC0wLjE2OTYzNzU5MDY0Njc0Mzc3LCAwLjQ2NTczMjg3MjQ4NjExNDUsIDAuNjI3MzcwMTE5MDk0ODQ4NiwgLTAuMTg3NDgzMzQwNTAxNzg1MjgsIDAuMzI2NjAyOTY1NTkzMzM4LCAwLjc2NzYyMTM5Nzk3MjEwNjksIC0wLjU2MzE3MjkzNjQzOTUxNDIsIC0wLjIzMjA3NDY0ODE0MTg2MDk2LCAtMC4xNTExNTQ1MTgxMjc0NDE0LCAwLjEwOTQ5OTc2NzQyMjY3NjA5LCAwLjAyNDA3MjcyMzQ2MzE3NzY4LCAtMC4xMjE0MjI4ODY4NDg0NDk3MSwgLTAuNjI3NDg1NzUyMTA1NzEyOSwgLTAuMDUxNzc4MTc0OTM2NzcxMzksIC0wLjQ5ODkyNzk1MDg1OTA2OTgsIC0wLjU3NTc5NDIxOTk3MDcwMzEsIDAuNzA5MDUxODQ3NDU3ODg1NywgMC4wNDk3MTcwOTg0NzQ1MDI1NjNdLCBbLTAuMTYwNTIxMDYwMjI4MzQ3NzgsIC0wLjA3NzQ3OTc5NDYyMTQ2NzU5LCAtMC4xMjU5MDA2MTEyODEzOTQ5NiwgMC4yMzg2NTA0NDExNjk3Mzg3NywgMC4wMTc4OTczODc5NjY1MTM2MzQsIC0wLjQzMzEzMzA2NTcwMDUzMSwgLTAuMTExODQ2NDMyMDg5ODA1NiwgLTAuMTY2OTQyMTc5MjAzMDMzNDUsIDAuMDgzNzQzMTU1MDAyNTk0LCAtMC4yNzkxNTc1MTkzNDA1MTUxNCwgLTAuMDg4OTY2ODUzOTE2NjQ1MDUsIDAuMDM5NzQyOTYxNTI1OTE3MDUsIC0wLjE3MDQ5Mzk2MDM4MDU1NDIsIDAuMTIzNzcxMzk5MjU5NTY3MjYsIC0wLjQxMDMyNTg4NDgxOTAzMDc2LCAwLjMzMzg2MzQ2Njk3ODA3MzEsIDAuMTgzNzk0Mzc5MjM0MzEzOTYsIC0wLjQzMzc5NDA4MTIxMTA5MDEsIC0wLjA3MjMzMzQzMjczNDAxMjYsIDAuMzE2OTQ4NjIyNDY1MTMzNjcsIC0wLjk2MzQ1OTczMDE0ODMxNTQsIDAuMDA0NjQ3NzEwMzYwNTg2NjQzLCAtMC4xMzgyMzYxMzUyNDQzNjk1LCAtMC4xMDMwMTc1NjExMzc2NzYyNCwgLTAuMTI0Mjk4MTg1MTEwMDkyMTYsIC0wLjM5OTk4Nzg3NjQxNTI1MjcsIC0xLjAzOTEwMjc5MjczOTg2ODIsIC0wLjE0NzE2OTc5ODYxMjU5NDYsIC0wLjA1NDc4NjI2ODYyMTY4MzEyLCAtMC40NDA3MjYzMzk4MTcwNDcxLCAtMC4wMzM3MjA1NjAzNzE4NzU3NiwgLTAuMjA4MjE1NDc1MDgyMzk3NDZdLCBbMC4wNzA0NDQ1NjE1NDEwODA0NywgLTAuMDU2ODE2MjU3NTM2NDExMjg1LCAtMC4wNTQyNDc5MTU3NDQ3ODE0OTQsIC0wLjIzNzk3NDMwMDk4MDU2NzkzLCAtMC4wNTMwNTI5ODA0NTI3NzU5NTUsIC0wLjA3MTM0NzE2MjEyNzQ5NDgxLCAwLjM1NjIyNDgwNTExNjY1MzQ0LCAwLjIwNjA5MTgyMTE5MzY5NTA3LCAwLjAxNTAzMzIwNDEwODQ3NjYzOSwgLTAuMTE4NTMzMzEzMjc0MzgzNTQsIDAuMDYzNjExNDQwMzYwNTQ2MTEsIC0wLjM1MDI1NzYzNTExNjU3NzE1LCAwLjE1OTAzNTg2MTQ5MjE1Njk4LCAtMC4xNjY5OTI4NDMxNTEwOTI1MywgMC4zODU4MjMxNjA0MDk5MjczNywgMC4wMTE0MDc4NDc1MTYyMzg2OSwgMC4wODIxNzQzNjgyMDI2ODYzMSwgMC41MjE2MDg1OTEwNzk3MTE5LCAtMC4xMjg0MzU4Nzk5NDU3NTUsIC0wLjA3ODMwMzQxOTA1MzU1NDUzLCAtMC4xMjk2MzUwMDYxODkzNDYzLCAwLjA2Mzc4ODQ3MzYwNjEwOTYyLCAtMC4zOTc5MjUwNzg4Njg4NjU5NywgLTAuMjU0MjA4NTk0NTYwNjIzMTcsIDAuMDE2OTI0NTEzNTAzOTA5MTEsIC0wLjAxODY3MDQ0MTU4Mjc5ODk1OCwgLTAuMDQ5ODM0MDIwNDM1ODEwMDksIC0wLjA4Nzk1NzUzMTIxMzc2MDM4LCAwLjA2NTY0NDMxNjM3NTI1NTU4LCAwLjEyODAwNzM5NzA1NTYyNTkyLCAtMC4wNTA4NTkwNzEzMTQzMzQ4NywgLTAuMjg2NzM4MDk3NjY3Njk0MV0sIFstMC4yOTQ0MTk4ODQ2ODE3MDE2NiwgMC4wMjE4NTYwMjI5OTg2OTA2MDUsIC0wLjI1OTA0Mjk3ODI4Njc0MzE2LCAwLjcyMjQ3MDI4MzUwODMwMDgsIC0wLjE2NDM2ODQ1MDY0MTYzMjA4LCAtMC4xMTU4ODg0MDE4NjU5NTkxNywgMC40MDU0NTgyMTE4OTg4MDM3LCAwLjEzODYzNDIwNDg2NDUwMTk1LCAwLjEzMjM3NDE1MjU0MTE2MDU4LCAtMC40OTUyMDIyMTM1MjU3NzIxLCAwLjMxMzcyODI3MjkxNDg4NjUsIC0wLjUzNzAwMTc4ODYxNjE4MDQsIC0wLjE5MzY3ODkwMDU5OTQ3OTY4LCAtMC42MDcwMDY1NDk4MzUyMDUxLCAwLjE0OTU0MjU0MDMxMTgxMzM1LCAtMC4yODM1MjYxMjI1NzAwMzc4NCwgLTAuODc5ODAzMTgwNjk0NTgwMSwgMC4xOTAxMzgzMzk5OTYzMzc5LCAtMC4yNTA5NTcyNTA1OTUwOTI4LCAtMC4zNTIyODA4NTUxNzg4MzMsIDAuMTQwNjA2Njg2NDcyODkyNzYsIC0wLjA4Nzk4OTg4MTYzNDcxMjIyLCAwLjYyMTIyNTgzMzg5MjgyMjMsIC0wLjY4OTY4MzQ5Njk1MjA1NjksIDAuMTc3MTkyNDM0NjY4NTQwOTUsIDAuMDA1MDI1MjAwNTQ1Nzg3ODExLCAtMC4wMTc1MDQ3MDY5Nzg3OTc5MTMsIDAuMjA1NzQ0Mzg1NzE5Mjk5MzIsIDAuMTAxMTg0NTMyMDQ2MzE4MDUsIC0wLjU2MTU3MTU5ODA1Mjk3ODUsIC0wLjUzMjIyNzI3Nzc1NTczNzMsIC0wLjAxNTMyOTc2MDQ5OTI5ODU3M10sIFswLjM5ODk3OTY2Mzg0ODg3Njk1LCAtMC4wNTkxNTI1ODA3OTc2NzIyNywgMC4wNjQwOTQzNzk1NDQyNTgxMiwgMC4xMzkxMzQxODM1MjYwMzkxMiwgLTAuMTUwODUxMjc5NDk3MTQ2NiwgLTAuMjA1ODQ2ODE2MzAxMzQ1ODMsIDAuMTY0Mzk5MzI1ODQ3NjI1NzMsIDAuMTA0NTYyODE5MDA0MDU4ODQsIDAuMjIxNDgwMTQ2MDUwNDUzMTksIC0wLjAxNTczMzYzMTMyNzc0ODMsIC0wLjA0NjU1ODAxODc3Mzc5NDE3NCwgMC4wNzk1OTIxMDg3MjY1MDE0NiwgMC4wNTkxNDI5MzIyOTU3OTkyNTUsIC0wLjIxMjI4NTE5MDgyMDY5Mzk3LCAtMC4yNjA2NTIzNjMzMDAzMjM1LCAwLjAyMzc3NTI0Nzg1Njk3NDYwMiwgLTAuNjA2NzE2OTkwNDcwODg2MiwgMC4wNjY5ODU5NjQ3NzUwODU0NSwgLTAuMTg2MjAwOTc2MzcxNzY1MTQsIDAuMDMwOTA2NTMwMDk3MTI2OTYsIDAuMjE5NTc3MjgyNjY3MTYwMDMsIDAuMjE5MzEzNjk2MDI2ODAyMDYsIDAuMDAyOTI4NzUzODQ5MTE4OTQ4LCAtMC4wOTIxODQzMjc1NDI3ODE4MywgLTAuMTc5NjMzNzY2NDEyNzM0OTksIC0wLjEzODMzMDU5MzcwNTE3NzMsIDAuMTIzNTY1ODk3MzQ1NTQyOTEsIC0wLjA4MDU0MTA2NjgyNTM4OTg2LCAwLjAyOTY1OTg2OTE0OTMyNzI3OCwgMC42OTcyMjg3ODkzMjk1Mjg4LCAtMC4xNDEzOTcyMDc5NzUzODc1NywgLTAuMjEzNjU0MDExNDg3OTYwODJdLCBbLTAuMjUwMzI4NjYwMDExMjkxNSwgLTAuMTcwMDg0NDQ2NjY4NjI0ODgsIDAuMDAzOTc4Nzc0ODgyODUzMDMxLCAwLjA2MDM2NzY2NjE4NDkwMjE5LCAtMC4wNDg4MDc1MzkwNDU4MTA3LCAwLjA1ODYyMTE0MjA1OTU2NDU5LCAwLjE4MTI4MTIwODk5MjAwNDQsIC0wLjE0OTYwMzQ1NjI1ODc3MzgsIC0wLjEyNzE3MTY1MDUyODkwNzc4LCAtMC4wMDkyMTQ4NDE3NjA2OTQ5OCwgLTAuMTI5MDM5MzQ3MTcxNzgzNDUsIDAuMTUyOTIxMDUwNzg2OTcyMDUsIDAuMTMwMjY1NzEyNzM4MDM3MSwgLTAuMzY2NTU5MjA3NDM5NDIyNiwgMC4yMDQzNDQxODMyMDY1NTgyMywgLTAuMTEyNjYxNTcwMzEwNTkyNjUsIDAuMTI4OTY5MDEzNjkwOTQ4NSwgMC4xMTYyNzA5MTQ2NzM4MDUyNCwgLTAuMDc0MDExMTMyMTIxMDg2MTIsIDAuMDY0MDUxNTIzODA0NjY0NjEsIC0wLjA5MzE3NDM1MzI0MTkyMDQ3LCAtMC4zNTE5OTA1ODA1NTg3NzY4NiwgMC4xOTQ4NjgzMjYxODcxMzM4LCAtMC4xMzY3MDgxNDAzNzMyMjk5OCwgLTAuMTUyMDYyMzcxMzczMTc2NTcsIDAuMDA3OTM2NzU4OTIwNTUwMzQ2LCAwLjEwODgxMzIyNjIyMjk5MTk0LCAwLjA3MjIwMTI1OTQzNDIyMzE4LCAtMC4wMDU2ODQ5OTk3NDkwNjQ0NDU1LCAwLjE5NTcyODU1NTMyMTY5MzQyLCAtMC40NzY4MzM0NjI3MTUxNDg5LCAwLjAyNDk4MzgyMzI5OTQwNzk2XSwgWzAuMDUyNTYxMzA1NDYzMzE0MDU2LCAwLjIwODQ2NjM1MTAzMjI1NzA4LCAtMC4wNDQzNjY0ODYzNzA1NjM1MSwgLTAuMzU3ODI1NDU4MDQ5Nzc0MTcsIDAuNDMwMTUxOTk4OTk2NzM0NiwgMC4xNjA4OTMwNTI4MTYzOTEsIC0wLjExNDQ0NjQwMTU5NjA2OTM0LCAwLjAxNzMwMjQxMDY3NzA3NTM4NiwgLTAuMTYxODEzNDM3OTM4NjkwMTksIDAuNTU3OTY4NzM1Njk0ODg1MywgMC4yMDU5MjIwODIwNjY1MzU5NSwgMC4wMDI3NDU4MTY5NDk3NTQ5NTM0LCAwLjIxMjA0NzkzNDUzMjE2NTUzLCAwLjIxMjU5MTcwNzcwNjQ1MTQyLCAwLjE3MjY1OTYyMDY0MjY2MjA1LCAwLjIyNzQ4MjMxODg3ODE3MzgzLCAtMC4wMDUxNTU2Nzk3Njk4MTQwMTQ0LCAwLjE2NjI5ODY0Mjc1NDU1NDc1LCAwLjA1NDgyNjEyNTUwMjU4NjM2NSwgLTAuMTM2MDUxMTc3OTc4NTE1NjIsIDAuMjEyMTg3NDM5MjAzMjYyMzMsIDAuMzg0NTYzODYzMjc3NDM1MywgLTAuMDc0NDYyNDUxMDQwNzQ0NzgsIC0wLjA4NDcwNDY1MjQyODYyNzAxLCAtMC4wODE0OTEyMDIxMTYwMTI1NywgMC4xNTM2NDg2Mjk3ODQ1ODQwNSwgMC4wOTk0MzM5MTM4MjY5NDI0NCwgLTAuMzU2MDU3NTI0NjgxMDkxMywgMC4yNDEwMjU5NTQ0ODQ5Mzk1OCwgMC4zNjM4MzUwMzY3NTQ2MDgxNSwgMC4xNzA1NzI1NjQwMDU4NTE3NSwgMC4yMjU4NjU2MzIyOTU2MDg1Ml0sIFswLjAzMzU4NjIyNjQwMzcxMzIyNiwgMC4xNzk1NjI4MDcwODMxMjk4OCwgLTAuMzkzMzAzMjQ1MzA2MDE1LCAwLjEyMTYzMjA2OTM0OTI4ODk0LCAtMC4xNzM3NzM0NTI2Mzk1Nzk3NywgLTEuMTgwNDk5OTExMzA4Mjg4NiwgMC4wODA1NTI5MzU2MDAyODA3NiwgLTAuNDMzMDU0ODA0ODAxOTQwOSwgMC4wNzU0NjM3ODY3MjEyMjk1NSwgMC4wMDgyNTE1MzU3MDYyMjIwNTcsIC0wLjA2MzkwOTgxMzc2MTcxMTEyLCAwLjE5MjU4NTc2NjMxNTQ2MDIsIDAuMTA3MzE5MzU1MDEwOTg2MzMsIDAuMjE5OTA2NzMyNDM5OTk0OCwgLTAuMDEyNDkyNzU3MjkwNjAxNzMsIDAuMDY3ODg0MzcwNjg0NjIzNzIsIDAuMjQwMDUyMjk3NzExMzcyMzgsIC0wLjcyMjQ2MTM0MjgxMTU4NDUsIDAuMDUyODc0MDczMzg2MTkyMzIsIDAuNTQwNDcxMTk2MTc0NjIxNiwgLTEuMzk0MDIwMTk5Nzc1Njk1OCwgLTAuMTI2MTE0NjIxNzU4NDYxLCAwLjE0NDMwNTUxMjMwOTA3NDQsIDAuMTI4MDI4NDUyMzk2MzkyODIsIC0wLjEzNTAxODE2OTg3OTkxMzMzLCAtMS4zMDc2MTY0NzIyNDQyNjI3LCAtMC42NjExNTc2MDgwMzIyMjY2LCAwLjI0MTIzMDQ0MzEyMDAwMjc1LCAwLjA2NzQ0NDg3NTgzNjM3MjM4LCAtMC4wNDIzNzU0ODI2MTg4MDg3NDYsIDAuMTA5MjMxOTMzOTUxMzc3ODcsIC0wLjA4OTAyNDc5NzA4MTk0NzMzXSwgWzAuMDQ0ODEwNTMzNTIzNTU5NTcsIDAuMTIyNDYxNTk0NjQxMjA4NjUsIDAuMDk5Njg5MjIyODcyMjU3MjMsIC0wLjA2NjYzMzg0Mjg4NTQ5NDIzLCAwLjMxOTQxMjQ0MDA2MTU2OTIsIDAuNjEzOTA4ODg2OTA5NDg0OSwgLTAuMTM3MzY3NzI1MzcyMzE0NDUsIC0wLjAzNDc0Mzc5MzMwODczNDg5NCwgMC4wMDQ0NzcwMzYxODU1NjI2MTEsIDAuMjEwMTUyNDE3NDIxMzQwOTQsIDAuMzk5NTU5MTk5ODEwMDI4MSwgMC4wMTA3MDQ5NjYyNjE5ODI5MTgsIDAuMTE3ODg2NTQzMjczOTI1NzgsIC0wLjE4Mjk4MTY2OTkwMjgwMTUsIC0wLjQ1MDc5MDc2MjkwMTMwNjE1LCAtMC4xNTQ5MDkzNzIzMjk3MTE5MSwgLTAuMDcyMTQzMDAzMzQ0NTM1ODMsIDAuMTA4OTY3NjYxODU3NjA0OTgsIC0wLjAzMzk2NjAxOTc0OTY0MTQyLCAwLjAxMzQ1NjIxMTQyNTM2NDAxNywgMC4zNjY2MjM2Njk4NjI3NDcyLCAwLjE5NzE5Nzk3MzcyODE3OTkzLCAtMC4xMTM2MDA3NjA2OTgzMTg0OCwgLTAuMDY2MDI0NjM4NzEyNDA2MTYsIDAuMTUzMDE3MDczODY5NzA1MiwgMC41MzcyNjMxNTQ5ODM1MjA1LCAwLjY3NDAwNjA0NDg2NDY1NDUsIC0wLjc5MzA4Nzk1OTI4OTU1MDgsIDAuMTc0ODgwMDU3NTczMzE4NDgsIDAuMDMwNjE1MzQ4MzY4ODgzMTMzLCAwLjEwMDExMjYwOTU2NTI1ODAzLCAtMC4wODA5NTAxNTU4NTQyMjUxNl0sIFstMC4wMDI2NjU0MTA3NDk2MTQyMzg3LCAwLjMzMzg2NDAzMzIyMjE5ODUsIDAuMTI3ODI2MTk4OTM1NTA4NzMsIC0wLjU3MzE0NDQzNTg4MjU2ODQsIDAuNDM0MzU2ODA4NjYyNDE0NTUsIC0wLjM3MzQyNzAzMzQyNDM3NzQ0LCAtMC4xMTEyNzA0ODczMDg1MDIyLCAtMC4wMDA3OTUzNjM5MTQyMjE1MjUyLCAwLjExMDkzMDE4MjAzOTczNzcsIDAuMzc0MTU4MzgyNDE1NzcxNSwgMC4zNjI4MjgwMTYyODExMjc5MywgLTAuMjA1MjMxODc1MTgxMTk4MTIsIDAuMTgyNzY5NDc3MzY3NDAxMTIsIDAuMDA2ODAyOTcwMDc3ODQyNDc0LCAtMC4wOTQ4MDc2Njk1MjAzNzgxMSwgMC4yNjMzOTgyMzAwNzU4MzYyLCAtMC4wMDUwNzQ3OTY3MzI1MTUwOTcsIDAuMDcwNTI0NTczMzI2MTEwODQsIDAuMDM0ODExNzc5ODU2NjgxODI0LCAwLjM5MzkzNDgxNjEyMjA1NTA1LCAtMC4yNzU2MTYxMDkzNzExODUzLCAxLjAxMTQ1MjU1NTY1NjQzMywgLTAuMjUyODE3OTU4NTkzMzY4NTMsIDAuMDAxNTE2NDU2NzE1NzYyNjE1MiwgLTAuMjU2MTUxNzk1Mzg3MjY4MDcsIC0wLjQwNjM3MjMwODczMTA3OTEsIDAuMjA0MTIxMTcyNDI4MTMxMSwgLTAuODY2NDM1NTI3ODAxNTEzNywgMC41NjQ4MDg5NjQ3MjkzMDkxLCAwLjA0MTg3Nzc2MTQ4MzE5MjQ0NCwgLTAuMDE1NDQ4NDg0NTY5Nzg3OTc5LCAwLjA0MDU2NDA2MzkzNjQ3MTk0XSwgWzAuNTYwNDg4MDQ1MjE1NjA2NywgMC44MTczNzk0NzQ2Mzk4OTI2LCAtMC44MjIzNjYxMTg0MzEwOTEzLCAxLjEzNjY1NTU2OTA3NjUzOCwgMC45NDE4ODA5NDEzOTA5OTEyLCAtMC41MDc2OTE5Nzk0MDgyNjQyLCAwLjkxMzQ0MzgwMzc4NzIzMTQsIC0wLjU1OTkxODI4NDQxNjE5ODcsIDAuMDc2NTg0NTc3NTYwNDI0OCwgLTAuNDQ1MDAzMjcxMTAyOTA1MywgMC4wMzgzNDkzOTc0ODA0ODc4MjMsIDEuMzA3NzI1MTkxMTE2MzMzLCAxLjQyMjI1ODg1MzkxMjM1MzUsIC0xLjAyMDI2NDM4NzEzMDczNzMsIDEuMjMyOTE1ODc4Mjk1ODk4NCwgLTAuMzg1MjA0MTY2MTczOTM0OTQsIC0xLjM2NTQ2NTg3OTQ0MDMwNzYsIC0xLjA3MDg3NzQzMjgyMzE4MTIsIDEuMjI0OTY0MTQxODQ1NzAzMSwgLTAuNzAyNDMzMDQ5Njc4ODAyNSwgLTAuMDQzMTY1OTA3MjYzNzU1OCwgLTAuODQwMjg1NzE4NDQxMDA5NSwgMS4yMDI0MTk1MTk0MjQ0Mzg1LCAxLjQ2OTU0ODEwNjE5MzU0MjUsIDAuNDg1NjMyMDAyMzUzNjY4MiwgLTAuMzQ4NjMwMTMwMjkwOTg1MSwgLTEuMDk3NTc3ODEwMjg3NDc1NiwgMS40OTU4NzQ2NDMzMjU4MDU3LCAtMC4zOTQ0NjAyNjA4NjgwNzI1LCAwLjEyNjI3NjM1ODk2MjA1OTAyLCAtMC44NDIzMzE3NjcwODIyMTQ0LCAwLjUxODg4OTE4ODc2NjQ3OTVdLCBbLTEuMDA1NTg3ODE2MjM4NDAzMywgLTEuNTM0ODA4Mzk3MjkzMDkwOCwgMC42ODA1MDYzNDg2MDk5MjQzLCAwLjcwNzQyNDk5ODI4MzM4NjIsIC0wLjMwNjg3Mjc4NTA5MTQwMDE1LCAtMC40MDg1NjI4OTg2MzU4NjQyNiwgMC42MDk1MjI0NjE4OTExNzQzLCAwLjIxMDA3MDUzNTU0MDU4MDc1LCAtMy42ODcwMTEyNDE5MTI4NDIsIC0wLjE0NDA0NzE3MDg3NzQ1NjY3LCAtMS41ODYwMDkyNjM5OTIzMDk2LCAwLjMxMjYyMDE2Mjk2Mzg2NzIsIDAuMTQ3NzQ1ODkyNDA1NTA5OTUsIDAuNDI0NDgwMzE5MDIzMTMyMywgLTAuMjA4MzM2NzEwOTI5ODcwNiwgMC4yNDQ0MTcwNDE1NDAxNDU4NywgMC40Mjk0MjE0MjQ4NjU3MjI2NiwgLTAuMDA3ODAxNjIwMjg5NjgzMzQyLCAwLjUwOTE5NzExNTg5ODEzMjMsIDAuNDEzNDQ4NjkxMzY4MTAzLCAtMC40MDQ1MzQzOTk1MDk0Mjk5MywgLTIuNTQyMDUyMjY4OTgxOTMzNiwgMC4xODQwNDQ2MTQ0MzQyNDIyNSwgMC40NTUxOTkzNjA4NDc0NzMxNCwgMC4yMjk1Njc3NTEyODg0MTQsIC0wLjgxMDIwMDA5NTE3NjY5NjgsIC0wLjIwNjkyMDc3Mjc5MDkwODgsIDAuNTUyNDEzNTIzMTk3MTc0MSwgLTMuNTI5NzY0ODkwNjcwNzc2NCwgLTAuNzczMjc5NzI2NTA1Mjc5NSwgMC40MzkyMDcwNzcwMjYzNjcyLCAtMC40NjUzMjk0NjgyNTAyNzQ2Nl0sIFstMC4wNzYyOTgyNTE3NDgwODUwMiwgLTAuMDk4NDUwMzU1MjMxNzYxOTMsIDAuMTQzODQzOTA0MTM3NjExNCwgLTAuMDkyNDI0ODg0NDM4NTE0NzEsIDAuMTY0MTQyNjk4MDQ5NTQ1MywgLTAuMTA2MDg3ODMzNjQyOTU5NiwgLTAuMDk4NjcxMDkzNTgzMTA3LCAwLjA3NjkxNDg0Njg5NzEyNTI0LCAwLjI0OTMyNTkzMTA3MjIzNTEsIC0wLjAyNjE5MTk0OTg0NDM2MDM1LCAtMC4xNjUwMDg3ODMzNDA0NTQxLCAtMC4xNjczODY3NzAyNDg0MTMwOSwgMC4xNTgyNzg5MTIzMDU4MzE5LCAtMC4wODA4NzgyODc1NTM3ODcyMywgLTAuMDM5MjY3OTQ2MDM0NjY5ODc2LCAtMC4wNDU0NTk0MDgzMTMwMzU5NjUsIDAuMDk4NTkxNjU1NDkyNzgyNTksIDAuMTY3OTMwMTI2MTkwMTg1NTUsIDAuMDEzNjg1NDcyMzA5NTg5Mzg2LCAtMC4wNjYyOTcyMDMzMDIzODM0MiwgLTAuMDgyMTE5NzMzMDk1MTY5MDcsIC0wLjA2NDQwMTEzNDg0ODU5NDY3LCAwLjAxMDM5ODYxMTQyNjM1MzQ1NSwgLTAuMDk5NTczNTIyODA2MTY3NiwgMC4wNTM0NDU1NjI3MjAyOTg3NywgMC4wNTUzOTkzNTA4MjE5NzE4OSwgMC4wNTQ0NTE4OTQwMTUwNzM3NzYsIDAuMDk0MzE2MDUwNDEwMjcwNjksIC0wLjI1NDkzMTM5MDI4NTQ5MTk0LCAtMC4wODE5NzM2NzE5MTMxNDY5NywgLTAuMTY3ODEyOTQzNDU4NTU3MTMsIC0wLjA3NTIxODAwNjk2ODQ5ODIzXSwgWy0wLjA4MjgzMjcyMzg1NTk3MjI5LCAwLjAxNTAyODM2Nzc1MDM0NjY2LCAwLjAzMzU2NzA0MTE1ODY3NjE1LCAwLjE1NjQ0Mzc0NDg5Nzg0MjQsIDAuMjA3NzAwNjk5NTY3Nzk0OCwgMC4wOTM3NDQ5NzA4NTgwOTcwOCwgLTAuMjA5MTIxNTU1MDg5OTUwNTYsIC0wLjAyMDA4Njc2OTAxNDU5Njk0LCAtMC4wOTA5MTc3ODA5OTUzNjg5NiwgMC4xNzc1NzE4MDMzMzEzNzUxMiwgMC4wNTEwOTU0OTMxMzc4MzY0NTYsIC0wLjExNzAxMDU3ODUxMzE0NTQ1LCAwLjIxMzYzMjU4MzYxODE2NDA2LCAtMC4wMTI3NDM0OTE2Nzk0MzAwMDgsIC0wLjI2ODcwMzg3NzkyNTg3MjgsIC0wLjAwOTY1MTc3OTE5NzE1NjQzLCAtMC4wMzQ0NzYyMzkyMzQyMDkwNiwgLTAuMDIwMjk5OTcxMTAzNjY4MjEzLCAwLjEyNjEyNTQ4NDcwNDk3MTMsIC0wLjQzMDk0NTc1NDA1MTIwODUsIDAuMTQ1MzcyMjcxNTM3NzgwNzYsIC0wLjI4MTE4NDM0NTQ4Mzc3OTksIDAuMDUwMTg3NDE2Mzc0NjgzMzgsIDAuMDA4MDEzMjIyMzY2NTcxNDI2LCAwLjEzNzUyNzk0MjY1NzQ3MDcsIC0wLjA2MjUyOTk4ODU4NjkwMjYyLCAtMC4xMTM5NjA2Mzg2NDIzMTExLCAtMC4wNjY4MzY3NjY4OTg2MzIwNSwgLTAuMDE0MTIxODY1ODUzNjY3MjYsIC0wLjI0OTE4NzYxODQ5NDAzMzgsIC0wLjEwMTQzODYxMTc0NTgzNDM1LCAwLjA2NDYxNTc1NjI3MzI2OTY1XSwgWzAuMDA0NzE0MTUzNzA3MDI3NDM1LCAtMC4yMzMzNjI3MzQzMTc3Nzk1NCwgMC4yNTMwMDQ4Nzg3NTkzODQxNiwgMC4wOTI5ODc3NDYwMDAyODk5MiwgMC4xNDI1MjM3NTA2NjI4MDM2NSwgMC4wNDE3MjA5NjAyODkyMzk4OCwgLTAuMDI3MTc0NDQ4NTk0NDUwOTUsIDAuNDUxMDI1MDM4OTU3NTk1OCwgLTAuMzE3NTg4MDYxMDk0Mjg0MDYsIC0wLjE1MjU4NjAyNzk3OTg1MDc3LCAtMC40Mjc3MTEzMDgwMDI0NzE5LCAtMC4wMDcxMTg1OTAxNzYxMDU0OTksIC0wLjAyNjE4NDQ3NjkxMjAyMTYzNywgMC4zODY2MjY3NTAyMzA3ODkyLCAtMC4wNDU3MDg5MzE5ODI1MTcyNCwgMC4zNzMxNjU3ODYyNjYzMjY5LCAtMC4yMjAxOTc2MzI5MDg4MjExLCAwLjE0NjE0MDMwNzE4ODAzNDA2LCAtMC4xMzExNzc4MTI4MTQ3MTI1MiwgMC4yNDUxMTk0NjczNzc2NjI2NiwgMC4wNTM0NjAwODM5MDE4ODIxNywgLTAuMTI0MTQzNDIxNjQ5OTMyODYsIDAuMTI3NDQ2Mjc4OTI5NzEwNCwgLTAuMDg4Nzg2NjkxNDI3MjMwODMsIC0wLjEzMDE2ODM5MzI1NDI4MDEsIDAuMDU3MTc0MzIxMjY0MDI4NTUsIDAuMDgyOTU0MjcyNjI3ODMwNSwgLTAuMDIzMjg5NjczMDMwMzc2NDM0LCAtMC4xNjc0Mjk0OTE4Nzc1NTU4NSwgMC4wNjE1MzA5NjI1ODY0MDI4OSwgMC4yMTMzMDIwMDEzNTcwNzg1NSwgLTAuMTM3Nzc4MzcxNTcyNDk0NV0sIFstMC4wMTQwNjE5ODM2NzQ3NjQ2MzMsIDAuMDU3MTQ1MzU3MTMxOTU4MDEsIDAuMDgxNDY0MjUzMzY1OTkzNSwgLTAuMDIzNDE2MDQ3OTE1ODE2MzA3LCAwLjE3MDIxNjExMzMyODkzMzcyLCAwLjYwMDA2MjI1MTA5MTAwMzQsIDAuMDY3MDgzNTgyMjgyMDY2MzUsIC0wLjM1Mjg5NTYxNzQ4NTA0NjQsIC0wLjExNzIyODcwMTcxMDcwMDk5LCAwLjEyMzg4MzQ3ODM0MzQ4Njc5LCAwLjE1MTk3Mjc3MDY5MDkxNzk3LCAwLjEwNzU2Mzc3ODc1ODA0OTAxLCAwLjA0MDcwNjI3Njg5MzYxNTcyLCAtMC4xMDAxNjYzMjA4MDA3ODEyNSwgMC4wMzE4NDYyMjg5ODY5Nzg1MywgLTAuNzU1MzQ1ODgwOTg1MjYsIDAuMTQzMDQ5ODUxMDU5OTEzNjQsIDAuMjU0Mzc1OTM0NjAwODMwMSwgMC4yMjMyMzY3Njk0Mzc3ODk5MiwgLTEuMDQ3Nzg0NDQ3NjY5OTgzLCAtMC4xMTkzOTE0ODYwNDg2OTg0MywgMC4wNDcyMDkzMDc1NTEzODM5NywgLTAuMDQ1NjE4NTE5MTg2OTczNTcsIDAuMDQ2Mzc4MjE3NjM3NTM4OTEsIC0wLjAxOTQ5MDcxNjk3ODkwNzU4NSwgMC4zMjMwMTQ1ODcxNjM5MjUxNywgMC4wMDUyODg1NzI1MTYyOTIzMzQsIDAuMDAyNjM4NzAzMjEyMTQxOTkwNywgLTAuMDY5NjM1MzkxMjM1MzUxNTYsIC0wLjA1Njg5MjY0ODMzOTI3MTU0NSwgLTAuMDMzMTI1OTQ0NDM1NTk2NDY2LCAtMC4xNjI2NjU5MDM1NjgyNjc4Ml0sIFswLjUyNDc2NzE2MDQxNTY0OTQsIDAuMzQwNzIxMDQwOTY0MTI2NiwgLTAuMzY3MTQ2ODQ5NjMyMjYzMiwgLTAuMzI4Mjg4NzA0MTU2ODc1NiwgMC41Njg2ODYzNjYwODEyMzc4LCAwLjExMzMwMDUxNzIwMTQyMzY1LCAtMC4wNDg3MDA5NDM1ODkyMTA1MSwgLTAuMTE5NzIwMTkwNzYzNDczNTEsIC0wLjIxMDI5ODY1NzQxNzI5NzM2LCAwLjM3NzQwMDM5ODI1NDM5NDUzLCAwLjYyMjUyNTk5MDAwOTMwNzksIDAuMTU1NzU1NjY4ODc4NTU1MywgMC4zNzE1MTYzNDY5MzE0NTc1LCAtMC4wNTM3MjA1ODYwMDE4NzMwMTYsIDAuMTUzMzYzODUzNjkzMDA4NDIsIC0wLjA5MzY4NzMyNTcxNjAxODY4LCAtMC4yNTk0MTQyNTU2MTkwNDkxLCAtMC4wMTUyNzExNjQ0NzY4NzE0OSwgMC4yMTQzMDk3ODE3ODk3Nzk2NiwgLTAuMDQ0MTU2MDExMTkzOTkwNzEsIDAuNDcxNTg3MTgxMDkxMzA4NiwgMC41OTM0NjcyMzU1NjUxODU1LCAtMC4wMjM2OTU1NDcxMzM2ODQxNiwgMC4zMDY0ODI2NzI2OTEzNDUyLCAwLjE2Nzk5ODY0MTcyOTM1NDg2LCAwLjEzMjMzNjQ4MjQwNTY2MjU0LCAwLjIyNDYyNDk5MTQxNjkzMTE1LCAwLjAxNzIyMjMxMTM0NzcyMzAwNywgMC4yODU5NDk2NDc0MjY2MDUyLCAwLjY1NDYxMTUyNzkxOTc2OTMsIDAuMDIyMTA2OTA0NTM2NDg1NjcyLCAwLjQ2NDg0MzYzMDc5MDcxMDQ1XSwgWy0wLjE2MDA4Mzg4OTk2MTI0MjY4LCAtMC4yMDQ3MDQ2MTI0OTM1MTUwMSwgMC40MDgwNjUzMTkwNjEyNzkzLCAtMC4xMDI3NjUwNTM1MTA2NjU5LCAtMC4wODc5NTMyNjk0ODE2NTg5NCwgMC40OTcyNjg4MjU3Njk0MjQ0NCwgLTAuMTE5MDE4NDU3ODI5OTUyMjQsIDAuNDIzNDE4NDYyMjc2NDU4NzQsIC0wLjE5ODI4OTY5MjQwMTg4NiwgMC40NDU3ODM4NTM1MzA4ODM4LCAwLjA3NTIzMDk3MDk3ODczNjg4LCAtMC4xMjg5MDE5Mjg2NjMyNTM3OCwgLTAuMTg5NTU0NjkxMzE0Njk3MjcsIDAuMzc1MzI2NDU0NjM5NDM0OCwgLTAuMDU2NTgxOTIxODc1NDc2ODQsIDAuMTUwMjA4NDU4MzA0NDA1MiwgMC41NzY5NzgwODc0MjUyMzE5LCAwLjYyNjc3MDI1Nzk0OTgyOTEsIC0wLjE0MDcwODE2MzM4MDYyMjg2LCAwLjM0MDY1NDkwOTYxMDc0ODMsIC0wLjAyOTc5NTM1MjM2OTU0Njg5LCAtMC4wOTI5NjQzNDM3MjY2MzQ5OCwgMC4xMzA5MTEzNjUxNTE0MDUzMywgLTAuMTU5MTQwOTc0MjgzMjE4MzgsIDAuMjA0Mjk5NDc5NzIyOTc2NjgsIDAuMjc5MTkzNTIwNTQ1OTU5NSwgMC41Mzc0NjU5Mjk5ODUwNDY0LCAtMC4wNzA3ODIyNDQyMDU0NzQ4NSwgLTAuMTM5MjM3NTgyNjgzNTYzMjMsIC0wLjA4MzEyNjgxMzE3MzI5NDA3LCAwLjM5OTY3NTc4NjQ5NTIwODc0LCAwLjIyMzMwMzQ2NzAzNTI5MzU4XV0sIFswLjEyNTIwNzcwNzI4NTg4MTA0LCAwLjA4NDkwMjYyOTI1NjI0ODQ3LCAwLjEzMzQ0OTUwOTczOTg3NTgsIDAuMDIzNTk0MzcxOTc0NDY4MjMsIC0wLjA3MzEyNTE2ODY4MTE0NDcxLCAwLjAwNTUyNTY1NDY0NzQ5OTMyMywgLTAuMDI0Nzg2ODExMzIxOTczOCwgMC4xMTY4NzgyMjYzOTk0MjE2OSwgMC4wNjY5MzgyOTU5NjA0MjYzMywgMC4wOTI3MjgxNjc3NzIyOTMwOSwgMC4xMzMyMjA4NjYzMjI1MTc0LCAwLjAxODgxMjg0NjM5MjM5MzExMiwgLTAuMTEyNjA3NjM1NTU3NjUxNTIsIDAuMTA2MjI3MTg5MzAyNDQ0NDYsIC0wLjAwMzA4NDU3MjAzMjA5NDAwMTgsIDAuMDcxMTg4MzYwNDUyNjUxOTgsIDAuMDgzOTUzMDkwMDEyMDczNTIsIDAuMTkwOTAzMDY3NTg4ODA2MTUsIC0wLjA1MjQyNTIyMDYwODcxMTI0LCAtMC4wNjAxNjE3NjE5Mzk1MjU2MDQsIDAuMDA0NzQ3MDk4Nzc3NDQzMTcwNSwgMC4xMDg2Mzc1NzEzMzQ4Mzg4NywgMC4wODkyMDA2MzA3ODQwMzQ3MywgLTAuMDI3NDY1NDUxNTA4NzYwNDUyLCAwLjEwMjg0MTEzMTM4OTE0MTA4LCAtMC4wMTExODI2MTM2NzA4MjU5NTgsIDAuMjIyODc2ODc2NTkyNjM2MSwgLTAuMDM4NTA2OTc3MjYwMTEyNzYsIDAuMDI4MTUyNDczMjcwODkzMDk3LCAtMC4wMjY2ODg3ODgwODYxNzU5MiwgMC4wODc5MDg1MzYxOTU3NTUsIDAuMjM0MDQwMzE5OTE5NTg2MThdLCBbWy0wLjIxNTU0NjY1MjY3NDY3NSwgMC4zNjg1NDIwMTU1NTI1MjA3NSwgMC41NTQ4NTk3NTc0MjM0MDA5LCAwLjIyOTU0NTgxNjc3OTEzNjY2LCAtMC4xNDcyMTQ3NTU0MTU5MTY0NCwgMC42MDg0MTc2MzAxOTU2MTc3LCAwLjU2Njk4NjAyNDM3OTczMDIsIC0wLjI1MjE3MTQ1NjgxMzgxMjI2LCAtMC4xMjA1Njk5Mjk0ODA1NTI2NywgLTAuMTE3NTI2Mjg1MzUwMzIyNzIsIDAuMTUwMTcyMTI5MjczNDE0NiwgLTAuNDYzODYxOTQyMjkxMjU5NzcsIC0wLjEyOTUzNjAxNzc3NTUzNTU4LCAwLjYzODUyMDEyMTU3NDQwMTksIC0wLjE2NjcxMTUwOTIyNzc1MjY5LCAwLjMzMDA2NDI5NjcyMjQxMjFdLCBbLTAuMjc2MzM3ODYyMDE0NzcwNSwgMC4yODQxNjE2NTcwOTQ5NTU0NCwgMC40OTQ0Nzc0MjEwNDUzMDMzNCwgMC4zODIzNDA2Njk2MzE5NTgsIC0wLjIxOTIzMDMzODkzMTA4MzY4LCAwLjQ5MDMyODkwNzk2NjYxMzc3LCAwLjQ2Nzc2NjA0NjUyNDA0Nzg1LCAtMC40MTc0ODgwMzg1Mzk4ODY1LCAtMC4yNDc1MTEwNTkwNDU3OTE2MywgMC4xMzAzMzk0NzM0ODU5NDY2NiwgLTAuMTYzNzMyNjQ3ODk1ODEzLCAtMC40NTEzOTA5MjIwNjk1NDk1NiwgLTAuMDM4NzA4OTEwMzQ2MDMxMTksIDAuNTc4NzI5NTY5OTExOTU2OCwgMC4xMDk4Mzc5MTk0NzM2NDgwNywgMC41MzY3NTIwNDUxNTQ1NzE1XSwgWy0wLjQ2MjgyOTQ3MDYzNDQ2MDQ1LCAtMC4yMTY5Mjc3NjY3OTk5MjY3NiwgLTAuMDcwODY0NDgzNzE0MTAzNywgMC4zNTU1NTMwMzA5Njc3MTI0LCAtMC4xODM2NzM1MDEwMTQ3MDk0NywgLTAuMzExNDUwODA5MjQwMzQxMiwgLTAuMTMyMDY1NTA0Nzg5MzUyNDIsIC0wLjE2ODc1OTEyMjQ5MDg4Mjg3LCAwLjA1MDQ1NjI0NDQ5ODQ5MTI5LCAwLjQ2NDgzODgwMjgxNDQ4MzY0LCAwLjI1OTU4NTk0Njc5ODMyNDYsIDAuMDQ3NzY5NzMyNzczMzAzOTg2LCAwLjA3MjMwNzM5Mjk1NDgyNjM1LCAtMC4yNTk1NDM1MzgwOTM1NjY5LCAwLjI1MjYxNDg1NTc2NjI5NjQsIDAuNDY4MDEyNzUwMTQ4NzczMl0sIFstMC45NjkxODU1OTA3NDQwMTg2LCAwLjQ0NTEwNTA3NTgzNjE4MTY0LCAwLjI3MzIxMTY1ODAwMDk0NjA0LCAxLjEwMTAwMDMwODk5MDQ3ODUsIC0xLjAwNzU4MDk5NTU1OTY5MjQsIDAuMzE5NzI0MjAyMTU2MDY2OSwgMC4xNTA3Njg4MzEzNzIyNjEwNSwgLTEuMDI2MDEzMDE2NzAwNzQ0NiwgLTAuNjI3NDIwNTQ0NjI0MzI4NiwgMC43MTA0MjgxMTg3MDU3NDk1LCAtMC41ODc0NDI2OTYwOTQ1MTI5LCAtMC41OTA0MjI4Njg3Mjg2Mzc3LCAtMC4zMDExMDEyNjczMzc3OTkxLCAwLjQ1NTYzODgyNTg5MzQwMjEsIC0wLjU2NzYxMzg0MDEwMzE0OTQsIDAuOTg5NzU2OTQxNzk1MzQ5MV0sIFstMC4yNDg5MTIwMjE1MTc3NTM2LCAwLjc4MTA3NTA2MDM2NzU4NDIsIDAuMzg0NDE5MTQzMTk5OTIwNjUsIDAuNDE0MjU5MDE2NTEzODI0NDYsIC0wLjI2MDYwNjA1MDQ5MTMzMywgMC4zNjk0ODI0ODc0NDAxMDkyNSwgMC4yNzMwOTU5MDU3ODA3OTIyNCwgMC4wNjM1MDU4ODc5ODUyMjk0OSwgLTAuNDE5NjYwMTUxMDA0NzkxMjYsIDAuOTM4NDMyMTU3MDM5NjQyMywgLTAuNjE3MjE3ODk4MzY4ODM1NCwgLTAuMTU2MzM2NjA1NTQ4ODU4NjQsIC0wLjQ4NzU5OTMxMzI1OTEyNDc2LCAwLjI1OTU3ODE2ODM5MjE4MTQsIC0wLjY5NDU5MjcxNDMwOTY5MjQsIDAuNDk2NjEzNDQyODk3Nzk2NjNdLCBbMS40Njk0NzA5Nzc3ODMyMDMxLCAtMC42NTk3NjkxNzc0MzY4Mjg2LCAtMS4wODEwMzUwMTc5NjcyMjQxLCAtMS4zNzg2NjM4OTc1MTQzNDMzLCAwLjg5NDc2ODIzODA2NzYyNywgLTEuMTAxNDQ2MzkwMTUxOTc3NSwgLTEuMjU4NjA1NzE4NjEyNjcxLCAxLjE3MjMxODQ1ODU1NzEyOSwgMC43MjM0Mjk5Nzc4OTM4MjkzLCAwLjI4NTI0MDM1MjE1Mzc3ODEsIDAuNjgyOTk4MjM5OTk0MDQ5MSwgMS4wNjU5MDQyNTk2ODE3MDE3LCAwLjE5MzI4NDMxNzg1MTA2NjYsIC0xLjQwNDA3NzA1MzA3MDA2ODQsIDAuNTMwNDY2OTE0MTc2OTQwOSwgLTEuNDUwNTM0NTgyMTM4MDYxNV0sIFstMC41ODc2NDQ5OTQyNTg4ODA2LCAwLjU1NjExNjk5ODE5NTY0ODIsIDAuMzA1NzYzNDUzMjQ1MTYyOTYsIDAuMzExOTI2ODQxNzM1ODM5ODQsIC0wLjY3NTU0NjI4ODQ5MDI5NTQsIDAuMzQzNDQ0NTg1ODAwMTcwOSwgMC4yNTEzMjg5NzQ5NjIyMzQ1LCAtMC4zMjEzNzY4MDA1MzcxMDk0LCAtMC41MTc3OTAzNzcxNDAwNDUyLCAwLjM1MzQzNjI2MTQxNTQ4MTU3LCAtMC4xNTQzNTk2MDg4ODg2MjYxLCAtMC40MTQ0Njk2NTkzMjg0NjA3LCAtMC4wNDkyMjU2NDMyNzcxNjgyNzQsIDAuMjI2MjExMTAwODE2NzI2NjgsIC0wLjA0MDQ0ODAyNDg2ODk2NTE1LCAwLjUxNDY2Mjk4MTAzMzMyNTJdLCBbMC41NDEyNDIxMjI2NTAxNDY1LCAwLjEwNzMyNDkyMDU5NDY5MjIzLCAtMC4yMTAyMTIzNzk2OTM5ODQ5OSwgMC4wMzIyOTAyMzE0MzY0OTEwMSwgMC4zODI5NzQ4MzMyNTAwNDU4LCAtMC40MTcyODUwODQ3MjQ0MjYyNywgLTAuNDkwMDQ2MzUyMTQ4MDU2MDMsIDAuMjQ2NjQ4NjI0NTM5Mzc1MywgLTAuMTY5MTQ2MTUwMzUwNTcwNjgsIDAuMjYxMjI2ODAzMDY0MzQ2MywgLTAuMjczNDU5NTUzNzE4NTY2OSwgMC4xMDI1MTY5MDQ0NzMzMDQ3NSwgLTAuMTc4NzEyMzk3ODEzNzk3LCAtMC4zODY3OTc3ODU3NTg5NzIxNywgLTAuMTQ5MDUzNjE4MzExODgyMDIsIC0wLjMwNDg2NjAxNTkxMTEwMjNdLCBbLTAuNzU3NjA2OTIzNTgwMTY5NywgMC43MzAxOTQ1Njg2MzQwMzMyLCAwLjgxODc5NDcyNzMyNTQzOTUsIDAuNzYxMjUxNTY4Nzk0MjUwNSwgLTAuNTk5MDQzMTMwODc0NjMzOCwgMC43MDQ3MDk3NjgyOTUyODgxLCAwLjkzODY1OTYwODM2NDEwNTIsIC0wLjcwODk4MzA2MzY5NzgxNDksIC0wLjY0NjQzNDkwMzE0NDgzNjQsIDAuNTY2MzA5MjEzNjM4MzA1NywgLTAuNTY2MTY1MjA4ODE2NTI4MywgLTAuODIyMzU0NDM1OTIwNzE1MywgLTAuNjkyNTM2ODMwOTAyMDk5NiwgMC45NTY2MTkzMjIyOTk5NTczLCAtMC41NjEzMjUyNTIwNTYxMjE4LCAwLjcwOTU2MzAxNjg5MTQ3OTVdLCBbMC4wMzU0NjQxNzg3NzA3ODA1NiwgMC4wMjU1Nzg1ODQ1MjIwMDg4OTYsIDAuMDE1NjgwMzExMjQ3NzA2NDEzLCAtMC4xMzg3NTc5ODg4MTA1MzkyNSwgMC4wOTU5ODE1NjgwOTgwNjgyNCwgMC4xNjgyOTE2MjgzNjA3NDgzLCAwLjE4OTMxNDA4MjI2NDkwMDIsIDAuMTQ4NDY1ODQyMDA4NTkwNywgMC4zNzEwNjI3MjU3ODIzOTQ0LCAtMC4wNzI1MDUyMjA3NzA4MzU4OCwgMC4zOTg1MDA2NTExMjExMzk1LCAwLjM0MjQxNTM5MjM5ODgzNDIzLCAwLjI0MDc5MTYxODgyNDAwNTEzLCAtMC4wNjMzODQ1MjU0Nzc4ODYyLCAwLjc1MzE2MTc4Nzk4Njc1NTQsIDAuMTY2MTU1NjM2MzEwNTc3NF0sIFstMC4wNDg1MDA0MDc0ODcxNTQwMSwgLTAuMTAwNDY4ODQ0MTc1MzM4NzUsIDAuMzkwNzcwNjE0MTQ3MTg2MywgMC4yMjQ2ODM5NTUzMTE3NzUyLCAwLjEwMDA1MTI2MTQ4NDYyMjk2LCAwLjM2NTEwMjY0ODczNTA0NjQsIDAuMzk5MzUyNjY5NzE1ODgxMzUsIDAuMTEyODk3NTQ1MDk5MjU4NDIsIDAuMTc1ODQ2MDk5ODUzNTE1NjIsIC0wLjE1NDkzMjA5NjYwMDUzMjUzLCAwLjAxMTMyMjAyNDI3ODM0MjcyNCwgLTAuMDM4MDQ1MTg2NTQ5NDI1MTI1LCAwLjM5OTU4NzY2MTAyNzkwODMsIDAuMTU4OTE2MTQ1NTYzMTI1NiwgMC4zMDgxMDc4MjMxMzM0Njg2MywgMC4yMTY1NTUwNDQwNTQ5ODUwNV0sIFswLjA0NDc0NTkxNDYzODA0MjQ1LCAwLjIwMTg4MDM2NTYxMDEyMjY4LCAwLjAzNzk3ODU4MjA4NDE3ODkyNSwgMC4yMjI5ODU4NDg3ODQ0NDY3MiwgMC4yNDU3Njk1MDA3MzI0MjE4OCwgMC4yODAxMjU4NTYzOTk1MzYxMywgMC4xMzQ3MDcwNDg1MzUzNDY5OCwgLTAuMjE0MjY2NTk4MjI0NjM5OSwgLTAuMjA1MTkyNjI1NTIyNjEzNTMsIDAuNDMwODg0MjQyMDU3ODAwMywgLTAuMTQyOTEzNTk0ODQxOTU3MSwgLTAuMDc3Mzc2Njc4NTg2MDA2MTYsIDAuMDU4NTY4NjA0MjkwNDg1MzgsIDAuMjI2Nzk4MjM2MzcwMDg2NjcsIC0wLjI2MDQ5MTMxMTU1MDE0MDQsIDAuMTQyMzc5NjU2NDM0MDU5MTRdLCBbLTAuMTU0NjkzNDg0MzA2MzM1NDUsIDAuNTI5Mjc5MTcyNDIwNTAxNywgMC4xOTIyMzU3Njc4NDEzMzkxLCAwLjI3MTU0NDY5NDkwMDUxMjcsIC0wLjE0MDk3MDkzMDQ1NzExNTE3LCAwLjE4NjcxNTA2NjQzMjk1Mjg4LCAwLjU0NDcyOTg4ODQzOTE3ODUsIDAuMDM0OTg4MjE3MDU1Nzk3NTgsIC0wLjM1MjYwMjU0MTQ0NjY4NTgsIDAuNDk0NTE5NTMxNzI2ODM3MTYsIC0wLjExODI0NDQyNDQ2MjMxODQyLCAtMC4zNTI1ODQ2ODk4NTU1NzU1NiwgMC4wNzAzNzY1MDc5Mzc5MDgxNywgMC40OTYyMjUyMzc4NDYzNzQ1LCAtMC4zMDg5MDg5OTg5NjYyMTcwNCwgMC4xMjIzMjM5Mzc3MTQwOTk4OF0sIFswLjA5Mzg3NTc3MzI1MTA1NjY3LCAwLjA4MjQ5MTkxOTM5ODMwNzgsIC0wLjEwMzE4NzM5NzEyMjM4MzEyLCAtMC4zODAzOTYxMjc3MDA4MDU2NiwgMC4zMDQ4NzE0MTAxMzE0NTQ0NywgLTAuMTk5OTM3MzI4Njk2MjUwOTIsIC0wLjM5ODQ5OTYzNzg0MjE3ODM0LCAwLjQ0NTMxOTgzMTM3MTMwNzQsIDAuMTkwODA5Mzk4ODg5NTQxNjMsIDAuMDY4MTcyOTAxODY4ODIwMTksIDAuMjMwNjIwNDg4NTI0NDM2OTUsIDAuMzQ2Mzk1NTgxOTYwNjc4MSwgMC4yMjIzNTU3NTMxODMzNjQ4NywgLTAuMDQwMDk3NDc1MDUxODc5ODgsIDAuMTQzMjcwNTY3MDU5NTE2OSwgLTAuMDEwNTQxNjA0ODMxODE0NzY2XSwgWy0wLjMxNjkxMzc4MzU1MDI2MjQ1LCAwLjQzMjM1MjI0NDg1Mzk3MzQsIDAuNDg0MzM5NjU0NDQ1NjQ4MiwgLTAuMTYxMzA4OTc0MDI3NjMzNjcsIC0wLjM0NTg0MTQ5NzE4Mjg0NjA3LCAwLjM4MzE0MDE3NjUzNDY1MjcsIDAuMjc1MDk5MzA3Mjk4NjYwMywgLTAuMTIyMzU3NjE0MzM4Mzk3OTgsIC0wLjAwNDA0MzQ2NTQ4MDIwODM5NywgLTAuMDQzNzYzOTAyMDM4MzM1OCwgLTAuMDgzOTE0OTUwNDg5OTk3ODYsIC0wLjM0NTYzNzg1NzkxMzk3MDk1LCAtMC4xNTA3MDk1Njk0NTQxOTMxMiwgMC4yNDg3Mzg3NjU3MTY1NTI3MywgLTAuMDY1ODQxNjUyNDUyOTQ1NzEsIDAuMTM3NTE3MDY0ODA5Nzk5Ml0sIFswLjIwMjY0OTI2NTUyNzcyNTIyLCAtMC40MTcyMjU2ODg2OTU5MDc2LCAtMC41MjE5NzY0NzA5NDcyNjU2LCAwLjE3NjMxMDE4MTYxNzczNjgyLCAtMC4wNjI1NDYxOTM1OTk3MDA5MywgLTAuMzk3Mjc2NTIwNzI5MDY0OTQsIC0wLjE3MTE1MjYyMTUwNzY0NDY1LCAtMC4xNDIxNDExMTg2NDU2NjgwMywgMC4wNjgxMDc0MTg3MTU5NTM4MywgLTAuMDAzNDk2Nzk1NDI3MDU0MTY3LCAwLjMzMTkyNjA0NzgwMTk3MTQ0LCAwLjM1MjA3MDkyNzYxOTkzNDEsIDAuMTIxNTMzMTkyNjk0MTg3MTYsIC0wLjI1MzQwOTgwMjkxMzY2NTc3LCAtMC4wNDY4MDUyNDc2NjQ0NTE2LCAwLjA0NjYyMDQ3MzI2NTY0Nzg5XSwgWzAuMzc4ODQ1NzIxNDgzMjMwNiwgLTAuMTUzNjkyMjE1NjgxMDc2MDUsIC0wLjk3Mzg2MDM4MzAzMzc1MjQsIC0wLjUxMjMwMTU2NDIxNjYxMzgsIDAuNDczMzc1MDUyMjEzNjY4OCwgLTEuMDkxMjEyNTExMDYyNjIyLCAtMS4xNTcyNjk3MTYyNjI4MTc0LCAwLjM5OTk1NzIzOTYyNzgzODEzLCAwLjI0OTU5MDM2NzA3ODc4MTEzLCAwLjQxNDQ2Nzg3MTE4OTExNzQzLCAwLjI5NzEwMzk3MTI0MjkwNDY2LCAwLjc4NTk5ODIyNTIxMjA5NzIsIC0wLjI2Nzg3ODUwMjYwNzM0NTYsIC0wLjg1MTIxOTg5MjUwMTgzMSwgMC4xMTYzODQ4Nzg3NTQ2MTU3OCwgLTAuMzUyOTg5OTQxODM1NDAzNDRdLCBbMC40NDIxMTcyNzM4MDc1MjU2MywgLTAuNjQ4NTA4OTA2MzY0NDQwOSwgLTAuMzIzOTkyMjUyMzQ5ODUzNSwgLTAuNzI4NzM1OTIzNzY3MDg5OCwgMC40NzcwNTQ5NTM1NzUxMzQzLCAtMC41NTc2NzMyMTU4NjYwODg5LCAtMC44NDc3MTc1MjM1NzQ4MjkxLCAwLjMyMzgwNDY3NjUzMjc0NTM2LCAwLjkwODQ5MDMwMDE3ODUyNzgsIC0xLjM5MTY1MTg2ODgyMDE5MDQsIDEuMDI4NTg2Mzg3NjM0Mjc3MywgMC43MzA1NDc3ODU3NTg5NzIyLCAxLjA3MTAxNDc2MTkyNDc0MzcsIC0xLjA5MjkwNzkwNTU3ODYxMzMsIDAuOTUxMTc4MzcxOTA2MjgwNSwgLTAuNTEwOTc0NTI2NDA1MzM0NV0sIFstMC4xNTQ4Mjg2MDgwMzYwNDEyNiwgMC4zNDI0NDU3MzExNjMwMjQ5LCAwLjAzOTM1MjUxMzg0OTczNTI2LCAwLjI5MTY5MDQ2ODc4ODE0NywgLTAuMTE2MzY0NTY4NDcxOTA4NTcsIC0wLjA2NDI1MDA2Njg3NjQxMTQ0LCAwLjMxMjczMzg4ODYyNjA5ODYzLCAtMC41MDI3MDQyNjI3MzM0NTk1LCAwLjA4MDQ4ODc0ODg0ODQzODI2LCAwLjA5NDE1NDk4Mzc1ODkyNjM5LCAtMC4yNDA5MTQxMzYxNzEzNDA5NCwgLTAuMjQyODEzMTEwMzUxNTYyNSwgLTAuMDE5MTAxOTMwNzgyMTk4OTA2LCAwLjIwODU0NTY2OTkxMzI5MTkzLCAwLjA1NjU0OTM0MDQ4NjUyNjQ5LCAwLjQ0MDc3NjY0NjEzNzIzNzU1XSwgWzAuNzU4NDA2ODc3NTE3NzAwMiwgLTAuMDM4MzYzOTE4NjYyMDcxMjMsIC0wLjI5MjM3NDk5ODMzMTA2OTk1LCAtMC40MDQzMjE1NTEzMjI5MzcsIDAuNzY2MDg0NDMyNjAxOTI4NywgLTAuMjc4NzQ2NjA0OTE5NDMzNiwgLTAuOTg0MTM4NzI3MTg4MTEwNCwgMC44MTU4MjQ1NjgyNzE2MzcsIDAuNDk0MTgwODU4MTM1MjIzNCwgLTAuMjA4ODU1MDE4MDE5Njc2MiwgMC40OTkxMTk1MjAxODczNzc5MywgMC42NTA1OTcwMzU4ODQ4NTcyLCAwLjc3MjkyNzc2MTA3Nzg4MDksIC0wLjQ2MDMxMDQ1OTEzNjk2MjksIDAuNjcwNDIwMTY5ODMwMzIyMywgLTAuNjY5NzU1NDU4ODMxNzg3MV0sIFsxLjM5MjkzMDc0NjA3ODQ5MTIsIC0wLjc3ODg1MTE1MTQ2NjM2OTYsIC0xLjA5OTg5ODA5OTg5OTI5MiwgLTAuODg1NTE1MDM0MTk4NzYxLCAxLjUzMjg5MzMwMDA1NjQ1NzUsIC0xLjA2NjgxMzcwNzM1MTY4NDYsIC0wLjk4MDE4Nzg5MjkxMzgxODQsIDEuMzczNTI4NDgwNTI5Nzg1MiwgMS45MTE5Nzk0MzY4NzQzODk2LCAtMC43NTEzNDA3NDY4Nzk1Nzc2LCAyLjA0MjUwNDU0OTAyNjQ4OTMsIDEuODQ0NzEwODI2ODczNzc5MywgMS44NDQwMjkzMDczNjU0MTc1LCAtMC43NDMxNDQ2MzEzODU4MDMyLCAxLjk1MzI1MTQ4MTA1NjIxMzQsIC0wLjg2NzY0NDMwOTk5NzU1ODZdLCBbLTEuMTI1NzIzNjAwMzg3NTczMiwgMC41MzgxMjUyNzY1NjU1NTE4LCAxLjA2NTgxMTk5MTY5MTU4OTQsIDAuNzkyNTI0MDM5NzQ1MzMwOCwgLTAuOTM4MDk5MjY1MDk4NTcxOCwgMS4yMzM2ODY0NDcxNDM1NTQ3LCAwLjc5ODQ0MTI5MDg1NTQwNzcsIC0wLjk1OTcyMzIzNDE3NjYzNTcsIC0wLjUzNTM1MDAyNDcwMDE2NDgsIDAuMDA2MjU3MzQ2ODMxMjYyMTEyLCAtMC4xNjk1NjcyNzIwNjcwNywgLTEuMDYzNDEyNzg1NTMwMDkwMywgLTAuMTU4NDEyNTAxMjE1OTM0NzUsIDAuODU1MzExNTEyOTQ3MDgyNSwgLTAuMTQxMTk5NzA3OTg0OTI0MzIsIDEuMjQ2ODc4NjIzOTYyNDAyM10sIFswLjE4MjE0MTE0MDEwMzM0MDE1LCAwLjYwNjg4OTAwOTQ3NTcwOCwgMC40MTM0OTU4Mzg2NDIxMjAzNiwgMC40ODE3NzkxODc5MTc3MDkzNSwgMC4xMjM2NjYxMDc2NTQ1NzE1MywgMC40MDM3MzYzMjMxMTgyMDk4NCwgMC4wNDUzOTM2MTU5NjEwNzQ4MywgMC4wNDMzMDgzNzcyNjU5MzAxNzYsIC0wLjAwOTY1NzcyMDEwMzg1OTkwMSwgMC4zNDkyNzEyMDgwNDc4NjY4LCAtMC4yNzUxODM2NDc4NzEwMTc0NiwgLTAuMTE1NzAyMjU2NTYwMzI1NjIsIC0wLjE5MDU3MTA2OTcxNzQwNzIzLCAwLjM4NDQ5Mzc5ODAxNzUwMTgzLCAtMC4xNzc4OTkwMDMwMjg4Njk2MywgMC4wNzQxMzMxNDI4Mjg5NDEzNV0sIFswLjEwOTQyMDAxNjQwNzk2NjYxLCAwLjE5MTg5NjQzODU5ODYzMjgsIDAuMzE2MjEzMDcxMzQ2MjgyOTYsIDAuMjM3MjQzMTYwNjA1NDMwNiwgMC4xMjgxNzEyNTAyMjQxMTM0NiwgMC4xNzQ3MDk4NzE0MTEzMjM1NSwgMC4zNzAxODcyODI1NjIyNTU4NiwgLTAuMDYwNDM1NzE5Nzg4MDc0NDksIC0wLjAwMTcxNDAyNzk1MjQwMjgzMDEsIDAuNTU4NzIzOTg2MTQ4ODM0MiwgMC4wMjQzNDU5MzA2NjU3MzE0MywgLTAuMTY3NjAxNjAwMjg5MzQ0OCwgLTAuNDg1OTg4MjI5NTEzMTY4MzMsIDAuMjI0Mzk5OTY4OTgxNzQyODYsIC0wLjE3ODQwMzA3OTUwOTczNTEsIDAuMTEwNjU1NDQxODgwMjI2MTRdLCBbLTAuMTg0MTE2NzY1ODU2NzQyODYsIDAuMDQ2MzE4NTEyNDA5OTI1NDYsIDAuMTY2MTcyNjIzNjM0MzM4MzgsIDAuMjYzNjA4MDY4MjI3NzY3OTQsIC0wLjA1NDI4MDkwMzE5MDM3NDM3NCwgMC4yNDE4OTkyMjIxMzU1NDM4MiwgMC4wNjIyMjM3MzI0NzE0NjYwNjQsIC0wLjEyNjMxMDEzOTg5NDQ4NTQ3LCAwLjIyOTM2NjgwOTEyOTcxNDk3LCAtMC4xMTc0NTYwNDg3MjcwMzU1MiwgMC4yMDg3NTMwNzkxNzU5NDkxLCAwLjA5MDQ5NDA2NjQ3NjgyMTksIDAuMTQ4NTQ1MTE2MTg2MTQxOTcsIDAuMjA1NzU4MzQ4MTA3MzM3OTUsIDAuMDE2OTc0NDkxOTk4NTUzMjc2LCAwLjIxNzU4MTMwMTkyNzU2NjUzXSwgWzIuMTAwOTk4ODc4NDc5MDA0LCAtMC43OTAyMDI4NTYwNjM4NDI4LCAtMC45ODM3NzU5MTM3MTUzNjI1LCAtMS4yODM4NjM1NDQ0NjQxMTEzLCAxLjcyNTExOTcwOTk2ODU2NywgLTEuMjgwNzczODc4MDk3NTM0MiwgLTAuNzIwMzk5ODU2NTY3MzgyOCwgMS41NjE5NzI2MTgxMDMwMjczLCAxLjA5MzE2MTgyMTM2NTM1NjQsIC0wLjIxNzc5NDY4NjU1NTg2MjQzLCAxLjE4OTAyNzc4NjI1NDg4MjgsIDEuNDY4NTA5NDM1NjUzNjg2NSwgMS4zNjc2MDUyMDkzNTA1ODYsIC0wLjc0OTY1NTM2NTk0MzkwODcsIDEuMzM4MDAwMDU5MTI3ODA3NiwgLTEuMzYyNzg1MzM5MzU1NDY4OF0sIFsxLjAxMDA2NzgyMDU0OTAxMTIsIDAuMTU2MjkwODI5MTgxNjcxMTQsIC0wLjUxNjI1MDQ5MTE0MjI3MywgLTAuODgyNDg3MTc3ODQ4ODE1OSwgMC44NjM0ODQ5Nzg2NzU4NDIzLCAtMC4yMjkzNDExOTQwMzM2MjI3NCwgLTAuNTgxMTAyNDkwNDI1MTA5OSwgMC44OTQzNzQ4NDc0MTIxMDk0LCAwLjM3MjU0NDM0ODIzOTg5ODcsIC0wLjA1MzczNDMwOTk3MTMzMjU1LCAwLjE5MzUxMTQ1NjI1MTE0NDQsIDAuNzY3MjQwMDQ3NDU0ODM0LCAwLjM1NDg0ODk4MDkwMzYyNTUsIC0wLjUwMDk2OTE3MTUyNDA0NzksIDAuNDI0NDI0NzA3ODg5NTU2OSwgLTAuNjE0MDM0NDE0MjkxMzgxOF0sIFstMC44MzQ5MjIxOTQ0ODA4OTYsIDAuOTM1NTEzMDE5NTYxNzY3NiwgMC45OTk4NjIzMTMyNzA1Njg4LCAwLjgyNjIzOTIyODI0ODU5NjIsIC0wLjczMDc5NjA5ODcwOTEwNjQsIDAuODcyMzY3NTAxMjU4ODUwMSwgMC42MTg5NzAyNzQ5MjUyMzE5LCAtMC43NTQzODk3NjI4Nzg0MTgsIC0wLjUyNTI2MjQ3NTAxMzczMjksIDAuNzMwNDA1Njg4Mjg1ODI3NiwgLTAuNDM4MTQ1MTAxMDcwNDA0MDUsIC0wLjc3Njc5NTAyOTY0MDE5NzgsIC0wLjczMjU2MzE5NzYxMjc2MjUsIDAuNjQ2NTgzMzE4NzEwMzI3MSwgLTAuNTA1OTAyNzY3MTgxMzk2NSwgMC45MDU0NDIyMzc4NTQwMDM5XSwgWy0wLjgyMjE1NTI5NjgwMjUyMDgsIDEuMDYxMTczNTU4MjM1MTY4NSwgMS4xOTg3NDE2NzQ0MjMyMTc4LCAwLjg1MzY2MTQxNzk2MTEyMDYsIC0wLjk0Mjc1OTIxNTgzMTc1NjYsIDEuMjQ3OTY3NDgxNjEzMTU5MiwgMC45NDk1MTUwNDQ2ODkxNzg1LCAtMC44OTE1MTAwMDk3NjU2MjUsIC0wLjkxNjU4ODE4NzIxNzcxMjQsIDAuNjIyMDI2NDQzNDgxNDQ1MywgLTEuMDE2Nzc2MDg0ODk5OTAyMywgLTEuMTQyNTUyNjE0MjEyMDM2MSwgLTAuNTk0NDg1MTA0MDg0MDE0OSwgMC45NTQwNDA2NDY1NTMwMzk2LCAtMC42NDc1ODE4MTU3MTk2MDQ1LCAxLjE1NDk4NTE4OTQzNzg2NjJdLCBbMC4xMDM0MDIxNTI2NTc1MDg4NSwgMC4zMjk0NjI3NjY2NDczMzg4NywgMC4xMzIzMTA3MzMxOTkxMTk1NywgMC41MTM1MjY0Mzk2NjY3NDgsIC0wLjI1MDA5NjgyNzc0NTQzNzYsIDAuMzY5NTE2Nzg5OTEzMTc3NSwgMC42MTM0MDQ4NzAwMzMyNjQyLCAtMC4wNDY1OTkwMDQ0MTc2NTc4NSwgLTAuNDYzODA3NzAyMDY0NTE0MTYsIDAuMzA3NzgyNDExNTc1MzE3NCwgLTAuNDMxMzg0NTkzMjQ4MzY3MywgLTAuMDI5Nzg1OTY0NjM3OTk0NzY2LCAtMC4wMjQ0OTE0ODUyMDgyNzI5MzQsIDAuMjc3Mjg0MDg1NzUwNTc5ODMsIC0wLjMwNjQ3MjM5MDg5MDEyMTQ2LCAwLjE3Njc1ODE5OTkzMDE5MTA0XSwgWzAuMDc1MTY5MzI0ODc0ODc3OTMsIC0wLjAzMDEwMDE5MTAxMjAyNDg4LCAtMC4xNjM5MDA3MzI5OTQwNzk2LCAwLjA5OTQyNTQwNTI2MzkwMDc2LCAtMC4wNDY0NzUxMzQ3ODk5NDM2OTUsIC0wLjE2OTc4NTI5MDk1NjQ5NzIsIC0wLjEyMDgwNjA2ODE4MTk5MTU4LCAwLjQyNzAyMDM0MTE1NzkxMzIsIDAuNDM0MDY3OTY0NTUzODMzLCAwLjE1NDAyMzM0OTI4NTEyNTczLCAwLjAzMzE3ODY0NjExNzQ0ODgxLCAwLjQ0Mjc4ODA5NDI4MjE1MDI3LCAtMC4wNzU1MjgzNjgzNTM4NDM2OSwgLTAuMTM0OTYzOTg5MjU3ODEyNSwgMC4xMDgzNzY1NDc2OTQyMDYyNCwgMC4wNDExNjY5Mzg4NDEzNDI5MjZdLCBbMC4yMTA3NTg2ODYwNjU2NzM4MywgMC4wNjYyMTI1Nzk2MDc5NjM1NiwgMC4zNzg2MDg0MDU1OTAwNTc0LCAwLjE4OTQ2NTE2NTEzODI0NDYzLCAwLjU0OTM0NDEyMjQwOTgyMDYsIDAuNDIzMjI2OTUyNTUyNzk1NCwgLTAuMTEyNjgzMTYyMDkzMTYyNTQsIDAuMTQ1MjU4Njk0ODg3MTYxMjUsIDAuMTQwNTk4MDg4NTAyODgzOSwgLTAuMzQ2MzU4NTM3NjczOTUwMiwgMC4zOTYyNzgwODMzMjQ0MzI0LCAwLjExMzgwNDAyNzQzODE2Mzc2LCAwLjI2Mzc2OTAwMDc2ODY2MTUsIDAuMjUxOTg4MTEyOTI2NDgzMTUsIDAuMjI0NDkzMjk0OTU0Mjk5OTMsIDAuMzM4MTIyODc0NDk4MzY3M11dLCBbMC4xNjQxMzc0MDgxMzczMjE0NywgMC4wOTIzOTE2OTk1NTI1MzYwMSwgMC4wNzYyMjE3MDQ0ODMwMzIyMywgMC4yMDg3MjA5MDc1Njg5MzE1OCwgMC4xMTkwNzE2NjI0MjU5OTQ4NywgMC4wNzYxNzQ5MzcxODg2MjUzNCwgMC4xMjczODc0Nzg5NDc2Mzk0NywgMC4wNDk2OTA2MDc5MzUxOTAyLCAwLjAyNTYwMjIzMDgwMjE3ODM4MywgMC4xMTM4Nzc1MzQ4NjYzMzMwMSwgMC4wMzE5ODE3NDM4NzIxNjU2OCwgMC4wNTA0Nzg0MzYwNTI3OTkyMjUsIDAuMDQ3OTUyMjYwODIyMDU3NzI0LCAwLjExMTQyMTQyODYyMDgxNTI4LCAwLjA0MjQ0ODA0NzU0ODUzMjQ4NiwgMC4wNTUzNTA0MTU0MDg2MTEzXSwgW1stMS4wODYzNTEzOTQ2NTMzMjAzXSwgWzAuNTcwNzQxNTM0MjMzMDkzM10sIFsxLjUzMDk5NDQxNTI4MzIwMzFdLCBbMS4xNDM1OTg3OTQ5MzcxMzM4XSwgWy0xLjM2NDMwNjY4ODMwODcxNThdLCBbMS40ODY5NzUxOTMwMjM2ODE2XSwgWzEuODQ3NzY3MjMzODQ4NTcxOF0sIFstMC44NDgwODAyMTc4MzgyODc0XSwgWy0wLjY2NDgwNDE2MDU5NDk0MDJdLCBbMC42NDE5OTkzNjM4OTkyMzFdLCBbLTAuNzU0NTI4ODgwMTE5MzIzN10sIFstMS42NzAwNDk2NjczNTgzOTg0XSwgWy0wLjU2ODI4MzU1Nzg5MTg0NTddLCBbMS41NjI4MDAyODgyMDAzNzg0XSwgWy0wLjM5MjA5MzMwMDgxOTM5N10sIFswLjgyODU3MDE4NzA5MTgyNzRdXSwgWzAuMDQ5NDY4NTMyMjA0NjI3OTldXQ==", "metrics": {"loss": 0.159092, "accuracy": 0.934771, "auc": 0.983462, "precision": 0.931857, "recall": 0.948013}}