{"round": 5, "weights_b64": "W1tbLTAuMjI5NjUwOTc0MjczNjgxNjQsIDAuMDAwMjIwNjA1NjM3ODc4MTc5NTUsIDAuMDc4Mjc5NTE3NTkwOTk5NiwgMC4xNDAzMTc4Mjc0NjMxNTAwMiwgMC4wNDk5MjE4MTA2MjY5ODM2NCwgLTAuMDQ1NzgxNjU3MDk5NzIzODE2LCAwLjAzODEyNTUxMTI1ODg0MDU2LCAwLjIzMzc4NDA2NDY1MDUzNTU4LCAwLjIwNTIyNjgzODU4ODcxNDYsIC0wLjAzNTk5MzU2MTE0ODY0MzQ5NCwgLTAuMDA4NTA1OTkyNTkxMzgxMDczLCAtMC4wNjYzNDAyOTAwMDk5NzU0MywgMC40MTQ3NTAyNzc5OTYwNjMyMywgLTAuMDQyNTg5NTM3Nzk5MzU4MzcsIC0wLjAyNjI4MTc4ODk0NTE5ODA2LCAtMC42OTQ4NTAyMDYzNzUxMjIxLCAtMC41MTc1Mjk2NjY0MjM3OTc2LCAtMC4wNTUyNTQzODQ4NzUyOTc1NDYsIDAuMDkwNjY1OTY2MjcyMzU0MTMsIDAuMjEyMTYwNzM2MzIyNDAyOTUsIC0wLjQ1NDQ0MjYyMDI3NzQwNDgsIDAuMDIwNTc2MzYxNTY2NzgxOTk4LCAwLjA3ODE4MzAyNTEyMTY4ODg0LCAtMC4wNzIyNDM4ODQyMDU4MTgxOCwgMC4yNjQyMzQ4NzA2NzIyMjU5NSwgLTAuMTU1NTk2ODY3MjAzNzEyNDYsIC0wLjA1MzcwODA1NDEyNTMwODk5LCAwLjA4NjM2OTE3MTczODYyNDU3LCAwLjI4ODk0MDk2NjEyOTMwMywgLTAuMDM4NzQzNTcwNDQ2OTY4MDgsIDAuMTIzNTM3MTMwNjUzODU4MTgsIDAuMTUwNzMzMDgzNDg2NTU3XSwgWy0wLjAxMDAyNjY1MjM2NTkyMjkyOCwgMC4zMzMxNDU0Mzk2MjQ3ODY0LCAtMC4wMjMyNTMzNTE0NDk5NjY0MywgMC4xMDYyMjYyNzI4ODEwMzEwNCwgLTAuNDY4ODAwMjQ2NzE1NTQ1NjUsIC0wLjM5NDk2ODQ1MDA2OTQyNzUsIC0wLjA3OTQzMDQ4MzI4MTYxMjQsIDAuNjUxNTQxOTQ4MzE4NDgxNCwgMC44MjE5OTMxMTI1NjQwODY5LCAtMC4wODkyMDUyNTAxNDQwMDQ4MiwgLTAuMjA3NjE5NjA3NDQ4NTc3ODgsIDAuMDE4NDUzMjY4MzM0MjY5NTI0LCAxLjEyMDU5OTAzMTQ0ODM2NDMsIC0wLjE4NjI5MTQ0MTMyMTM3Mjk5LCAwLjI4OTQzMTI3MzkzNzIyNTM0LCAtMC45MjcxMDAzMDA3ODg4Nzk0LCAtMC40MTg0Nzg4NDY1NDk5ODc4LCAwLjEwMzkwODQwNDcwNzkwODYzLCAwLjEzODUzNDAwOTQ1NjYzNDUyLCAxLjA3MTgyODk2MTM3MjM3NTUsIDAuMjU3NTk3NDQ2NDQxNjUwNCwgMC4wMjA5Mzk0MDc4NzAxNzM0NTQsIDAuMjAxMTMwMzkwMTY3MjM2MzMsIC0wLjIwNDM2NjE0NzUxODE1Nzk2LCAxLjAzMTg4NDkwODY3NjE0NzUsIC0wLjA4NzQxMzQ0NTExNTA4OTQyLCAwLjMyNzY0ODg0ODI5NTIxMTgsIDAuMDQ0ODA5NzQzNzYyMDE2Mjk2LCAtMC4zMDIwNTc3NDMwNzI1MDk3NywgLTAuMzk1NTkxNjE2NjMwNTU0MiwgLTAuMTgwNTQyMjYwNDA4NDAxNSwgMC4yNDMwMDU3MjI3NjExNTQxN10sIFstMC4wMzE2OTE3NDQ5MjM1OTE2MTQsIDAuMzA4NTYzNTMwNDQ1MDk4OSwgLTAuMzcyNzM3NTI2ODkzNjE1NywgMC4yMDQ2ODgzMTA2MjMxNjg5NSwgLTAuOTQ4Mjk4Mzk0NjgwMDIzMiwgLTAuNzE3ODM3ODEwNTE2MzU3NCwgMC4wNzkwOTkyNzUxNzE3NTY3NCwgMC40NTk5OTQzMTYxMDEwNzQyLCAwLjQ2MjI5OTMxNzEyMTUwNTc0LCAtMC4xNTA1NDY1OTU0NTQyMTYsIC0wLjIwMTA5Mzk0MTkyNjk1NjE4LCAtMC4wNjg1NTc5MTA2MjExNjYyMywgMC4yMzk0MjcyNjg1MDUwOTY0NCwgLTAuMzk4NDUxNjI2MzAwODExNzcsIC0wLjE0NDc5NTU5NjU5OTU3ODg2LCAtMC40MTY5ODE3NTY2ODcxNjQzLCAtMC40MjQ3MTgwNTIxNDg4MTg5NywgMC4xNjc1NjI5NjE1NzgzNjkxNCwgMC4yNTc5MjQ4NTQ3NTU0MDE2LCAwLjE1MjcyMjk4NDU1MjM4MzQyLCAwLjEyOTgwOTc5NjgxMDE1MDE1LCAwLjIxODA3MTkwNzc1ODcxMjc3LCAwLjMyMDc0OTA0NDQxODMzNDk2LCAtMC4xMTA5OTMyODEwMDY4MTMwNSwgMC4zMjAyODc1MjU2NTM4MzkxLCAtMC4xOTY2ODEwNTI0NDYzNjUzNiwgLTAuMDAwMzM2MDU0NzEyNTMzOTUwOCwgMC4xMTY4MTk5MzMwNTY4MzEzNiwgLTAuMjU0MTQyNjQyMDIxMTc5MiwgLTEuMjA4MTQxODAzNzQxNDU1LCAwLjEyODYzMzUyODk0NzgzMDIsIDAuMzUzMTQwNDczMzY1NzgzN10sIFstMC40MTkyNzQ3NDczNzE2NzM2LCAwLjI1MTcyMzQ5ODEwNjAwMjgsIC0wLjI3Mjc2MDgwODQ2Nzg2NSwgLTAuMTk2MTAxNTYxMTg4Njk3ODEsIC0wLjAxMTI3Mzc2Nzc5OTEzOTAyMywgMC4wOTk5MDc1MjQ4ODM3NDcxLCAtMC4wNzY3NDIzODgzMDgwNDgyNSwgMC4yMzc4OTk0MjI2NDU1Njg4NSwgMC43NzYzNTQ4NDkzMzg1MzE1LCAtMC41NTAwNTUzODQ2MzU5MjUzLCAtMC4yMzAyOTg5NTEyNjgxOTYxLCAtMC4xNDI5ODAzMzcxNDI5NDQzNCwgMC40MjI0NDE3ODA1NjcxNjkyLCAtMC4xODI5MDg2ODQwMTUyNzQwNSwgMC4wNjA2NDUzOTQwMjcyMzMxMjQsIC0xLjAzMzM2ODU4NzQ5Mzg5NjUsIC0wLjI4MzY1ODA1NzQ1MTI0ODE3LCAwLjE2MTU3NjUyNDM3Njg2OTIsIC0wLjMzNDIxMzYxNDQ2MzgwNjE1LCAwLjg0NzUwNzUzNjQxMTI4NTQsIC0wLjQyMjEyMDI3MzExMzI1MDczLCAtMC41NTYzNjg1ODk0MDEyNDUxLCAtMC4wMDExMDI5OTg4NTI3Mjk3OTc0LCAtMC4xMzQ4NjYxNDgyMzM0MTM3LCAwLjY3NTc2Mzg0NTQ0MzcyNTYsIDAuMDkzOTAyMjY3NTE1NjU5MzMsIDAuMTY1NzI3NzY0MzY4MDU3MjUsIDAuMDk2ODE3OTAzMjIwNjUzNTMsIC0wLjIzMjkwODg1OTg0ODk3NjE0LCAwLjA2MzUyNjUzMzU0NDA2MzU3LCAtMC42MDUzMTQxMzU1NTE0NTI2LCAwLjIwMDY2NDU1MDA2NTk5NDI2XSwgWzAuMzA3NDc5NTYwMzc1MjEzNiwgMC4yNzA2OTkwMjQyMDA0Mzk0NSwgMC4xMTQ1Njk1NDQ3OTIxNzUyOSwgMC4wNzQ3NzY3Njg2ODQzODcyMSwgLTEuMzIyMzExMTYyOTQ4NjA4NCwgLTAuNDMzMDkzMTMwNTg4NTMxNSwgMC4wMzEzMjc0MTE1MzI0MDIwNCwgMC4wMzkxMzcyNTkxMjU3MDk1MzQsIDAuMjg3MTA0NDI3ODE0NDgzNjQsIDAuMjU0NDI4NDE2NDkwNTU0OCwgMC4xNzc3NjMzNzI2NTk2ODMyMywgMC4xMDY1MDE4NzczMDc4OTE4NSwgMC4xODYzODAxNjI4MzUxMjExNSwgLTAuMjg3ODM4Nzg2ODQwNDM4ODQsIC0wLjUxMTM0MTQ1MjU5ODU3MTgsIC0wLjAxNjMxNTAwMDEzMTcyNjI2NSwgLTAuNzMzODMyMjQwMTA0Njc1MywgLTAuMTQ4MjM3ODU0MjQyMzI0ODMsIDAuMDM0MDc0NTg1ODg0ODA5NDk0LCAtMC4zNzE4MTkxMzg1MjY5MTY1LCAwLjE4ODAzODI1OTc0NDY0NDE3LCAwLjE0MDQ0MjY5OTE5Mzk1NDQ3LCAtMC4wOTIyNjg5Mjg4ODU0NTk5LCAtMC4xOTE4MjA0NzI0Nzg4NjY1OCwgMC4xMDc3OTA0NzAxMjMyOTEwMiwgLTAuMTE1OTk2ODE1MjY0MjI1LCAtMC4xMTI1ODg0MzU0MTE0NTMyNSwgMC4wODMzNDU4ODI1OTQ1ODU0MiwgMC4yNTAzOTU5NTM2NTUyNDI5LCAtMi4yMzUxMzcyMjQxOTczODc3LCAwLjEzNDY1MTYzMTExNjg2NzA3LCAtMC4wNTM3MTM3OTg1MjI5NDkyMl0sIFswLjAyODI0MjM1MzM0OTkyNDA4OCwgLTAuNjQzNTczMzQzNzUzODE0NywgLTAuMDg2NzI1MTk3NzMyNDQ4NTgsIDAuMjAwMTk4NzY5NTY5Mzk2OTcsIDAuMTA1MDk5NDM5NjIwOTcxNjgsIC0wLjA1NzM0Njc3NjEyNzgxNTI1LCAwLjA2NzA3MDIzODI5MjIxNzI1LCAwLjEzOTA4ODM5MjI1NzY5MDQzLCAwLjE0ODY2ODI4OTE4NDU3MDMsIDAuMDI1OTA0MTA1OTc2MjIzOTQ2LCAtMC4xMDgyNTc5OTQwNTU3NDc5OSwgLTAuMDUwNzA4MDc3ODQ3OTU3NjEsIDAuMDAxMTEyODg2OTM3MzM1MTMzNiwgLTAuMDAyMTY2OTg3ODYyNDM3OTYzNSwgLTAuMDYwNDcwNjQwNjU5MzMyMjc1LCAwLjA5NjA1NjEwMzcwNjM1OTg2LCAwLjA4MDE0MTMyMDgyNDYyMzExLCAwLjEyNjg2NzkwNTI1OTEzMjM5LCAwLjE0OTM2NDYzNTM0ODMyLCAwLjA2NDczNDU5MzAzMzc5MDU5LCAwLjA4NTEwMzI2NTk0MTE0MzA0LCAwLjQyMjY2NTQxNzE5NDM2NjQ2LCAwLjE0NzcyMTMwNTQ4OTU0MDEsIDAuMDMyMjg3ODgwNzc4MzEyNjgsIDAuMDU2NjI2MDg4OTE3MjU1NCwgMC4wMzA1MjM2OTY5MTQzMTUyMjQsIDAuMTU0MjgzMjg1MTQwOTkxMiwgLTAuMDQ0MjE3NDMwMDU1MTQxNDUsIDAuMDM3Mjg3Njg5NzQ1NDI2MTgsIDAuMDEyODQ1Mzg0ODg4MzUwOTY0LCAwLjA4NTk4NTUzMzg5MzEwODM3LCAwLjA1NzI0NjQ5MTMxMjk4MDY1XSwgWzAuMDg4MzY5MzU0NjA1Njc0NzQsIC0wLjAwMjUyNDE2MzEwODMxOTA0NCwgMC4zODI2NzI0ODg2ODk0MjI2LCAtMS4zNjA0MDk3MzY2MzMzMDA4LCAwLjE1NTc4Mjg2MzQ5NzczNDA3LCAtMC4wOTEzMTYyNjAzOTc0MzQyMywgLTAuMDg2ODEyOTczMDIyNDYwOTQsIDAuMDg3NjkwOTcxNzkxNzQ0MjMsIDAuMDYxNzU3ODcwMDE4NDgyMjEsIC0wLjA4MjY3NjgxMzAwNjQwMTA2LCAtMC4xMzI5NjM0NjM2NjQwNTQ4NywgMC4xNzk3NDgyMzcxMzMwMjYxMiwgMC4wMjg3ODM3ODcwNDE5MDI1NDIsIC0wLjEzNzUxODk0MjM1NjEwOTYyLCAwLjEzMzkxNTk5MDU5MTA0OTIsIC0wLjkwNDI3MDg4NzM3NDg3NzksIC0wLjE3NjIyMDUwNjQyOTY3MjI0LCAwLjAzNjI1NzAyODU3OTcxMTkxNCwgMC4yMjg2MDY1MjIwODMyODI0NywgLTAuMTI0NTQ2Nzk2MDgzNDUwMzIsIDAuMTAzODM5MzY3NjI4MDk3NTMsIDAuMzE5NTIzOTAwNzQ3Mjk5MiwgLTAuMjU4MDYxMTcwNTc4MDAyOTMsIDAuMDMxMzUwNzI0Mzk5MDg5ODEsIC0wLjEwMDcwNjE3NDk2OTY3MzE2LCAtMC4wMjUzMjMxMjI3Mzk3OTE4NywgMC4xNzU2ODk4NDYyNzcyMzY5NCwgMC4wODYxODEwNTk0Nzk3MTM0NCwgMC4xMTYxOTUxNTcxNzAyOTU3MiwgMC4wMzU2NDk2OTQ1MDIzNTM2NywgLTAuMDgwNDg3NDc0Nzk5MTU2MTksIDAuMDQzMzYzMTk0OTEyNjcyMDRdLCBbMS4wMTU1OTA2Njc3MjQ2MDk0LCAtMS4xNzc0MDk2NDg4OTUyNjM3LCAxLjE3NDk1NDE3NTk0OTA5NjcsIDAuMzY5ODQ4OTA2OTkzODY1OTcsIC0xLjE1MDA2NTg5ODg5NTI2MzcsIC0wLjMzMDc0ODExMTAwOTU5NzgsIDAuOTYzNjA1NjQyMzE4NzI1NiwgLTAuNjk2MjQzNjQzNzYwNjgxMiwgLTIuOTQ1ODk5NDg2NTQxNzQ4LCAxLjM5NzY0NjE4ODczNTk2MiwgMC40ODQ0Njk4OTA1OTQ0ODI0LCAxLjQ0MTEwNTg0MjU5MDMzMiwgLTIuODE1OTg1Njc5NjI2NDY1LCAtMC4yMDY2NTI4Nzk3MTQ5NjU4MiwgLTEuMTExNjU4MDk2MzEzNDc2NiwgLTAuNTYwNjIzNjQ1NzgyNDcwNywgMi41OTcxNzY1NTE4MTg4NDc3LCAtMC43NDQ4NzI4NjgwNjEwNjU3LCAwLjk4MzM2NzkxOTkyMTg3NSwgLTIuMjg5MDM0MzY2NjA3NjY2LCAxLjA2MzEzMjg4MjExODIyNSwgMC45NzY2NzgxOTI2MTU1MDksIC0wLjI4ODc5OTIyNjI4NDAyNzEsIC0wLjE4NDM2NTE4MzExNTAwNTUsIC0yLjk0ODQ3OTQxMzk4NjIwNiwgLTAuMzUzNTUzOTUwNzg2NTkwNiwgLTAuMjY4MDk1MTM1Njg4NzgxNzQsIC0wLjQ5NzM1MjIxMjY2NzQ2NTIsIDAuNzYwOTI3MjAwMzE3MzgyOCwgLTIuMTE5NDc5NjU2MjE5NDgyNCwgMC42NDk1MjkyMTg2NzM3MDYsIC0wLjY5NTQ5NjMyMDcyNDQ4NzNdLCBbLTAuNDE0MjUwMDQ2MDE0Nzg1NzcsIC0wLjAzMTE0MTc1MDUxNDUwNzI5NCwgLTAuMjYzMDI5NTE1NzQzMjU1NiwgMC4zMzI1NjMyNTEyNTY5NDI3NSwgLTAuNDIyMTMzOTgyMTgxNTQ5MSwgLTAuMzUxNTg3OTgwOTg1NjQxNSwgLTAuMDEyNDQ1NzA3ODA1NDU0NzMxLCAwLjQ3NjgwMDE0MzcxODcxOTUsIDAuMzIwNTA2ODExMTQxOTY3OCwgLTAuMjk0MDA0NDQwMzA3NjE3MiwgLTAuMjI3ODQyODY3Mzc0NDIwMTcsIC0wLjA3ODUxOTY5NDUwNzEyMjA0LCAtMC4yNTk5NDg2NDEwNjE3ODI4NCwgLTAuMzcxNzM2NDY2ODg0NjEzMDQsIDAuMjI0MTIwNTg3MTEwNTE5NCwgLTAuMTY2NzI5MjExODA3MjUwOTgsIC0wLjM5MjY1MzA0ODAzODQ4MjY3LCAwLjEyNTUwMTU0MzI4MzQ2MjUyLCAtMC4zMjA4MTY2MzYwODU1MTAyNSwgMC4zMjU2NTU5MzcxOTQ4MjQyLCAwLjMyNjE1Njk3MzgzODgwNjE1LCAtMC4yOTY2NDg2ODExNjM3ODc4NCwgMC4wNTU0NTMwMzIyNTUxNzI3MywgLTAuMDcxMzgyMTk0NzU3NDYxNTUsIDAuMTU2ODMzNDEwMjYzMDYxNTIsIDAuMDk3NjYzNDYyMTYyMDE3ODIsIC0wLjIxNDYwMzMzNDY2NTI5ODQ2LCAwLjI2NDE5MDg1MjY0MjA1OTMsIC0wLjAxNzkxMzQ1NzAwNjIxNjA1LCAtMC4yNDYwMjU3NTYwMDE0NzI0NywgLTAuMjQ4MzAyMzEwNzA1MTg0OTQsIDAuNTA2OTA0NjYxNjU1NDI2XSwgWy0wLjEzNjMzODgwMDE5MTg3OTI3LCAwLjYyMjU2MTkzMTYxMDEwNzQsIC0wLjMwOTYxMzY3NDg3OTA3NDEsIC0wLjAwMTMwNzA2NDY2NzM0NDA5MzMsIC0yLjU3NDUzODIzMDg5NTk5NiwgLTEuNTIyMTYzNTEwMzIyNTcwOCwgLTAuMDMzNzQwMjkzMjM0NTg2NzE2LCAwLjU4Nzk5NzM3NjkxODc5MjcsIDAuNTAyNTk3Njg5NjI4NjAxMSwgLTAuNTE5NDE5OTA4NTIzNTU5NiwgLTAuNTEyNTgyMDYzNjc0OTI2OCwgLTAuNTE4MTU5OTg1NTQyMjk3NCwgLTAuMDE4OTEyMjExMDYwNTIzOTg3LCAtMS40Mjk4OTgyNjIwMjM5MjU4LCAwLjE4Njg4OTM1MDQxNDI3NjEyLCAtMC4zMzkxMzA0OTEwMTgyOTUzLCAtMC45MDk0NjgxNzM5ODA3MTI5LCAwLjI2MTQ0OTg0MzY0NTA5NTgsIDAuMDEwNTI5Mjg5MDIyMDg4MDUsIC0wLjEzNzQ0Mjg3MTkyODIxNTAzLCAwLjE1NjUxNDM0NjU5OTU3ODg2LCAwLjIwOTY1NTY3MjMxMTc4Mjg0LCAwLjAzMTMzMjAxOTcxNjUwMTIzNiwgLTAuMjEwMDEwOTQ1Nzk2OTY2NTUsIC0wLjE2MDQ1MDk5NDk2ODQxNDMsIDAuMDU5ODU3ODM3ODU1ODE1ODksIDAuMTgzNTE1Mjk1Mzg2MzE0NCwgMC40NDk1NDU2ODE0NzY1OTMsIC0wLjUwMTQ4NjA2MzAwMzU0LCAtMi42NjE1MDI4MzgxMzQ3NjU2LCAwLjA4MTExNTQ5OTEzODgzMjA5LCAwLjM2Nzg1MjA5MTc4OTI0NTZdLCBbLTAuMzI4MjE5MTE1NzM0MTAwMzQsIC0wLjQyOTkzNTkzMjE1OTQyMzgzLCAwLjEyMDM1OTg5MDE2Mjk0NDgsIDAuMDUyMzM3MTU0NzQ2MDU1NiwgLTAuMTExNzA4MDQ1MDA1Nzk4MzQsIDAuMTQ5NjE1MTIzODY3OTg4NiwgMC4zMTMyMzU5OTgxNTM2ODY1LCAtMC4wMDIzMTAxODQ3NjE4ODE4MjgzLCAtMC4wNjMyNjQ1MTg5NzYyMTE1NSwgMC4xOTI1Njg3Nzg5OTE2OTkyMiwgMC4xOTc3NDc4ODYxODA4Nzc2OSwgMC4yMjk5MjY3MDUzNjA0MTI2LCAwLjMwNDgwOTkyNzk0MDM2ODY1LCAwLjAxNTkxNDkyNjMwNTQxMzI0NiwgMC4yNjkzNTMzMzAxMzUzNDU0NiwgLTAuNDYzNjc4MDkxNzY0NDUwMSwgLTAuMjE2MzAyNzUyNDk0ODEyLCAwLjA3MjA0NTA5NTI2NDkxMTY1LCAwLjQ2Mjc2ODAxODI0NTY5NywgMC4yMjU2NDU0ODI1NDAxMzA2MiwgLTAuMzMyMzUzNTAyNTExOTc4MTUsIDAuMzMwNjU5MjEwNjgxOTE1MywgLTAuNDYyNTYxMDExMzE0MzkyMSwgMC4xODc0ODI5MjMyNjkyNzE4NSwgMC4xMTg5NTk2MDU2OTM4MTcxNCwgLTAuMDI4NDcyNTcyNTY1MDc4NzM1LCAwLjA2NTA2MjE4MDE2MTQ3NjE0LCAwLjA5NTI5ODM2NDc1ODQ5MTUyLCAwLjMwNzk2NzYwMzIwNjYzNDUsIC0wLjE5NjczNDI3OTM5NDE0OTc4LCAtMC4wMzM0MjUwODUyNDY1NjI5NiwgLTAuMTAzNjc1MzM1NjQ1Njc1NjZdLCBbLTAuMDkwNjI1MzAxMDAzNDU2MTIsIC0xLjE3NTAyMDMzNzEwNDc5NzQsIDAuMDI1OTg5Mjc1NDI1NjcyNTMsIDAuMTM4MzI3NzMyNjgyMjI4MSwgMC4xMjM1MjEwODk1NTM4MzMwMSwgLTAuMDE3MDM1MjYwNzk2NTQ2OTM2LCAwLjA0NTAwMjc0MzYwMTc5OTAxLCAtMC4xNjgwMTIyMzE1ODgzNjM2NSwgLTAuMzI2ODgzOTcxNjkxMTMxNiwgMC4yNDM5MjIxMTQzNzIyNTM0MiwgMC4xNjQ3OTMxOTMzNDAzMDE1LCAwLjA0OTY4MzI4NzczOTc1MzcyLCAtMC4xNjg1NDA5NTQ1ODk4NDM3NSwgMC4wNTQzNDUxNjA3MjI3MzI1NDQsIDAuMTI2MjgwMDM5NTQ4ODczOSwgLTAuMDc0MzQ2MTg0NzMwNTI5NzksIC0wLjAzMDc5NjczODM0MTQ1MDY5LCAtMC4xNjE3OTAyNTE3MzE4NzI1NiwgMC4wNTE5MDQyNjExMTIyMTMxMzUsIDAuMDU3ODIzOTUyMjg3NDM1NTMsIDAuMDk2MzE1NzkzNjkzMDY1NjQsIC0wLjIxNjQ3MzEwMjU2OTU4MDA4LCAtMC4yMDI3NTUxODI5ODE0OTExLCAwLjA1NTg5MTY0NzkzNDkxMzYzNSwgLTAuMjQ1NjcxODUzNDIzMTE4NiwgLTAuMTQ4MTc0ODY3MDMzOTU4NDQsIC0wLjA0NzE1NDA5NTAyMzg3MDQ3LCAwLjAwNjY0MDc4MjU3OTc3OTYyNSwgMC4xOTMzMDU1ODE4MDgwOTAyLCAwLjEwNTAzMTExNzc5Njg5Nzg5LCAtMC4xMTc5OTQ4MDc2NjA1Nzk2OCwgMC4wMTcwNzk2MzY0NTQ1ODIyMTRdLCBbMC4wNjEzMjE2NTcxNTA5ODM4MSwgLTEuMDA1MzIwNzg3NDI5ODA5NiwgMS4wMTgxMjE4Mzg1Njk2NDExZS0wNSwgLTAuMTUyNTY2ODUwMTg1Mzk0MywgMC4yMjA5NzU4OTA3NTU2NTMzOCwgMC4xNDkxOTQyMTA3Njc3NDU5NywgLTAuMDc2MzMzOTAyNzc2MjQxMywgMC4xMDk3NzYyNzMzNjk3ODkxMiwgLTAuMTE4MTQ5Mjk1NDQ5MjU2OSwgMC4wMDgzMDIzODMxMjQ4MjgzMzksIDAuMTQ4MDkyODk1NzQ2MjMxMDgsIDAuMDU3ODAzNTUyNTk3NzYxMTU0LCAtMC4xOTA0MDkwOTQwOTUyMzAxLCAwLjExODE3NjYxNjcyODMwNTgyLCAtMC4xMzM3OTM4MTU5NzA0MjA4NCwgLTAuMjQyNjE5ODcyMDkzMjAwNjgsIC0wLjExOTc3NTEzODc5NTM3NTgyLCAwLjE5NDc2NzQzMDQyNDY5MDI1LCAtMC4wODQ1NzY3NjMyMTI2ODA4MiwgMC4xODcyMTgzMDg0NDg3OTE1LCAtMC4wODcyNDA0MjAyODE4ODcwNSwgLTAuMDU4OTY4MzEzMDM4MzQ5MTUsIC0wLjQ2NzExMTQ5ODExNzQ0NjksIDAuMDM1MTUwMzQ5MTQwMTY3MjM2LCAtMC4wNTUwNDA0NDE0NTM0NTY4OCwgMC4xNDg1MDQ4NjgxNDk3NTczOSwgLTAuMTA2OTY0MDY2NjI0NjQxNDIsIDAuMDMxMDIxNTc2Mzc0NzY5MjEsIDAuMDg1MjkwMzI3NjY4MTksIDAuMjAxMzMxNjc1MDUyNjQyODIsIDAuMDI2NDIxNDQwNzY1MjYxNjUsIDAuMDgyMjQ4MzMwMTE2MjcxOTddLCBbLTAuMDg1NzUxMzg0NDk2Njg4ODQsIC0wLjA0Njg2NDUxMzMwNzgwOTgzLCAwLjI2MjQ4OTcwNjI3Nzg0NzMsIDAuMTExMjUzNDcwMTgyNDE4ODIsIC0wLjYyMzQxODQ1MDM1NTUyOTgsIC0wLjcwODk1OTUxOTg2MzEyODcsIDAuMDIzNTkzMDA4NTE4MjE4OTk0LCAwLjA0MTU0NzkwMTkyODQyNDgzNSwgMC40NDA5MjY0MzI2MDk1NTgxLCAtMC4wNjMyMzA3NTI5NDQ5NDYyOSwgLTAuMzcwOTQ5MjY4MzQxMDY0NDUsIDAuMzIxOTg2MjU4MDI5OTM3NzQsIC0wLjM2MTk5NjIzMzQ2MzI4NzM1LCAtMC41OTE3NDQ2NjEzMzExNzY4LCAwLjM4ODE0NjgxNzY4NDE3MzYsIC0wLjQ0NTYwODQ2Njg2MzYzMjIsIC0wLjc0NTQxMjY0NzcyNDE1MTYsIDAuMjEyNjA0NTIyNzA1MDc4MTIsIDAuMTI2MTU3Nzc1NTIxMjc4MzgsIDAuMjA3OTY5NDI3MTA4NzY0NjUsIDAuMTE0NDkxNjQ4OTcyMDM0NDUsIDAuODQ1Mjc4OTc4MzQ3Nzc4MywgMC45MDYxNzY4MDU0OTYyMTU4LCAtMC4xNTIwMzI3Nzc2NjcwNDU2LCAtMC4zMzYzNjA2OTI5Nzc5MDUzLCAwLjAwMjIxMjc0MzA0MjAzNjg5MSwgMC4wMTc4Mjc1NTM2NzQ1Nzg2NjcsIDAuMzcyOTY4MjU2NDczNTQxMjYsIC0wLjQzOTA0ODA1MTgzNDEwNjQ1LCAtMC42MjMxMDU2NDUxNzk3NDg1LCAwLjEyMTQ1Njk5NTYwNjQyMjQyLCAwLjQ1NDg4MTEzMTY0OTAxNzMzXSwgWy0wLjA3ODQzMTgwMDAwNzgyMDEzLCAtMC4wNzcwOTgwNjQxMjQ1ODQyLCAwLjAwNTQwMzI5OTM1MDI5MTQ5MDYsIDAuMTExMDAzODkwNjMzNTgzMDcsIDAuMDY0MjQ2NzU4ODE4NjI2NCwgMC4yMTI0MjYzMDQ4MTcxOTk3LCAtMC4wNDYxMDk4OTI0Mjc5MjEyOTUsIC0wLjMxMzkzNTEwMTAzMjI1NzEsIC0wLjMyMTExNjg5NDQ4MzU2NjMsIDAuMTA5MzA4NTExMDE4NzUzMDUsIDAuMDMwNzE5NzIzNTUyNDY1NDQsIDAuMDYzNjI4OTExOTcyMDQ1OSwgLTAuNDQ1ODUwOTA4NzU2MjU2MSwgMC4xMTQ0MjQ2NzU3MDMwNDg3LCAtMC4xNTY0NTE3MDIxMTc5MTk5MiwgMC4xMTc0MzIwNTc4NTc1MTM0MywgLTAuMDI1NTc3NTY3NTE3NzU3NDE2LCAtMC4wNzUyNjI5MDQxNjcxNzUyOSwgLTAuMTY0NDQ5NzA2NjczNjIyMTMsIC0wLjMyNTQyNzUzMjE5NjA0NDksIC0wLjAzODAzMDU2MTA1OTcxMzM2NCwgMC4wNTQ4NTgzOTc2OTI0NDE5NCwgLTAuMjI0MTkyMzUxMTAyODI4OTgsIC0wLjAyMDY1NDAzMDE0NDIxNDYzLCAtMC40Mjc0MjAxMzkzMTI3NDQxNCwgLTAuMDQzMzg5NDk5MTg3NDY5NDgsIC0wLjA0NDUzOTI5NTEzNjkyODU2LCAwLjA5MzQ5MjI5OTMxODMxMzYsIDAuMDczNjkzNTQzNjcyNTYxNjUsIDAuMDczOTY4NjExNjU3NjE5NDgsIC0wLjEyNzczMzM2NDcwMTI3MTA2LCAwLjIxMzA0MTU0Mzk2MDU3MTNdLCBbMC4wMjUzMTA1NTM2MTAzMjQ4NiwgMC4wMDg3NDMxNzgwOTkzOTM4NDUsIC0wLjAwMzI0ODMwOTk0OTQxMjk0MiwgLTAuMDcxMDQ1NTE3OTIxNDQ3NzUsIDAuMDE1MjcyNTA1NTgxMzc4OTM3LCAtMC4wNzg3NzgzMTE2MTAyMjE4NiwgLTAuMDA5MjExNjYxMjk0MTAyNjY5LCAwLjAxNzA4MzY3ODM5NDU1NjA0NiwgMC4wMDA1MDUxNjYxMjgyNzc3Nzg2LCAtMC4wNTAyMzA4MDg1NTYwNzk4NjUsIDAuMDM2ODQxMzY2NDQwMDU3NzU1LCAtMC4wMDQ0MjgwNDQ4OTI4NDc1MzgsIC0wLjE0MDE0MTc1NTM0MjQ4MzUyLCAwLjA1NTI3MzI4Njk5ODI3MTk0LCAtMC4wMDQ1NTc4ODI0MzU2MTk4MzEsIC0wLjE4Mjk5Njk1ODQ5NDE4NjQsIC0wLjAxMjg0ODE4OTEwMDYyMzEzLCAwLjAwMzE3NTc5ODgwMzU2Nzg4NjQsIDAuMDAyMjE1MDExNzQzODI4NjU0MywgMC4wMjA3ODQwMTExMTA2NjM0MTQsIC0wLjAxNTI1MjU3OTAwMzU3MjQ2NCwgMC4wMDA1MDI3ODM4MDUxMzE5MTIyLCAtMC4wMDg1NDY3NDcyNjcyNDYyNDYsIDAuMDk1OTA4MTA1MzczMzgyNTcsIC0wLjAyMDk5NTExMzk5ODY1MTUwNSwgMC4xMDI4MDg4MTgyMjEwOTIyMiwgLTAuMDI1MTg2ODUxNjIwNjc0MTMzLCAwLjAxMDUwMzE4NTkxMjk2NjcyOCwgMC4wMzU0MTg3NDg4NTU1OTA4MiwgLTAuMDE1MzkxOTcwMDUzMzE1MTYzLCAtMC4wMjczMDc3NTYyNDUxMzYyNiwgLTAuMDE0NjI4MjI1OTM3NDg1Njk1XSwgWy0wLjAwNjcwNzYwMDMxNzg5NTQxMjQsIC0wLjAwMzA4NzQ5NzMxNjMwMDg2OSwgLTAuMDA3NzAyMjIwMjMxMjk0NjMyLCAtMC4xMzkxMzIwODI0NjIzMTA4LCAwLjAwOTY5Njg5OTkxMzI1MTQsIC0wLjA2MTE3NDE4NzgwOTIyODksIDAuMDAyMDcyMzU0MzEyOTg2MTM1NSwgMC4wMTM0NjEwNDU5MjA4NDg4NDYsIC0wLjAzOTY1NjAxMzI1MDM1MDk1LCAwLjA1MDA0NzQ4NzAyMDQ5MjU1NCwgMC4wNzYyNDE3MjQxOTMwOTYxNiwgLTAuMDMxMDg1MjAyNDcwNDIxNzksIC0wLjAxODY0MTkxNTE3MjMzODQ4NiwgMC4wMjA0MjI5OTUwOTA0ODQ2MiwgMC4wMTIwOTY5Mzk2MDg0NTQ3MDQsIC0wLjA4MDAzMjE2MjM2ODI5NzU4LCAwLjAzNTU0NDYzMzg2NTM1NjQ0NSwgLTAuMDEwODU4MDQ0MDI4MjgyMTY2LCAwLjAwNTY4NDA2NTYzMjUyMjEwNiwgLTAuMDkxNzc2NjY5MDI1NDIxMTQsIC0wLjAyNDQzNzk2MjA5OTkwOTc4MiwgMC4wNjEwOTQ3Mzg1NDMwMzM2LCAtMC4wMDAzNTMwNDQ0ODEwMTY2OTU1LCAtMC4wMzI3NDA1MDM1NDk1NzU4MDYsIC0wLjAyOTQ1MTQ0MTAxOTc3MzQ4MywgMC4wMjMzMTkxOTU5NTU5OTE3NDUsIC0wLjAwMzY2MzAzODM2OTI2ODE3OSwgLTAuMDA1NTY4MjQzNTYzMTc1MjAxLCAwLjAyMDQ4NzE4NTU2NzYxNzQxNiwgMC4wMDAzMjAxOTM4MjM0MjY5NjE5LCAtMC4wMjA1Mjc5NTE0MTkzNTM0ODUsIDAuMDEzOTkyNzcxNTA2MzA5NTFdLCBbMC4wODcyNjYyMDY3NDEzMzMwMSwgMC4wNzk4MzkxMzI3MjYxOTI0NywgLTAuMTM3ODYwMTQ5MTQ1MTI2MzQsIC0wLjIzNzk1MzYwMzI2NzY2OTY4LCAtMC4wODkwNjExNTU5MTUyNjAzMSwgLTAuMDAyMDI4MzIyNzc4NjQyMTc3NiwgLTAuMTM0MzgzMzUwNjEwNzMzMDMsIDAuMDQ3Mzg0NzI0MDIwOTU3OTUsIDAuMDc1NDE5NDExMDYzMTk0MjcsIC0wLjA3NDU1Mjc0NDYyNjk5ODksIC0wLjAwMDM5ODYxMjIzMTk0NzQ4MTYzLCAtMC4yNTI4MTcwMzQ3MjEzNzQ1LCAtMC4wNDE4MjYzNTI0NzcwNzM2NywgLTAuMDYyOTA5MDE0NTIzMDI5MzMsIDAuMDUyMDg0MzA0MzkyMzM3OCwgLTAuMjI1NjE2NTQ0NDg1MDkyMTYsIC0wLjE2Nzg1OTQ5NDY4NjEyNjcsIDAuMDMyMTI0NzI3OTY0NDAxMjQ1LCAwLjE2ODU5OTc1NDU3MTkxNDY3LCAwLjAzNTczNTA4NTYwNjU3NTAxLCAwLjA3Mzg1ODA3NDg0Mzg4MzUxLCAwLjExMTA2MDE0MjUxNzA4OTg0LCAwLjA1MjI3NzMyNjU4Mzg2MjMwNSwgLTAuMDE0ODU1NjM5MDc3NzIzMDI2LCAtMC4wOTgyMTgyMDI1OTA5NDIzOCwgMC4xMjcyNDYwMjIyMjQ0MjYyNywgMC4wMjM1MzkwMTc4ODU5MjMzODYsIC0wLjAzMTU2OTkxNjc1NDk2MTAxNCwgLTAuMDE2NTk0NTE3OTc2MDQ1NjEsIC0wLjA3NDEwMDEzNjc1Njg5Njk3LCAtMC4wNDI4MjI4MjI5Mjg0Mjg2NSwgLTAuMTU3MzkyMTE0NDAwODYzNjVdLCBbLTAuMzMzMjgzNjYyNzk2MDIwNSwgLTAuNDAzMzU1NTA5MDQyNzM5ODcsIC0wLjEyODk1NDI2MTU0MTM2NjU4LCAtMC41NjkwMTAxMzg1MTE2NTc3LCAwLjQxMTg3NjgyNzQ3ODQwODgsIDAuNTQxNDQwNzI1MzI2NTM4MSwgLTAuMDg0NTM1NzkyNDY5OTc4MzMsIDAuMDY3Mjk3MjQyNTgxODQ0MzMsIC0wLjM1MjcwODQ4ODcwMjc3NDA1LCAtMC4wNzg4NjcyNTY2NDEzODc5NCwgLTAuMTUzMTAyODU5ODU0Njk4MTgsIC0wLjExNTc0NDg4ODc4MjUwMTIyLCAtMC4xNDk1Mzg5MDQ0Mjg0ODIwNiwgMC40NjA5NDU1NDY2MjcwNDQ3LCAtMC4xMTcyODYwNTYyODAxMzYxMSwgMC4xODQ1NzQxNTY5OTk1ODgsIDAuMTg1NjY0NzQzMTg1MDQzMzMsIC0wLjQ4MDU2NzI3NjQ3NzgxMzcsIC0wLjQzMTg3NTc2NTMyMzYzODksIC0wLjUxMzE0Njk5NjQ5ODEwNzksIC0wLjE3MzcyMTEzNDY2MjYyODE3LCAtMS40MzI5OTE3NDMwODc3Njg2LCAwLjExMjcwNDI0NzIzNjI1MTgzLCAtMC41Njk0MjM4NTQzNTEwNDM3LCAtMC4yNTI5NDQ4MjcwNzk3NzI5NSwgLTAuNDMzNDY4MTYzMDEzNDU4MjUsIC0wLjI0MDMzMTcyNDI4NjA3OTQsIC0wLjM1MTQ1NDcwNDk5OTkyMzcsIDAuMzI5NjUzNjIwNzE5OTA5NjcsIDAuMTc5OTAzMzczMTIyMjE1MjcsIC0wLjI3MDU5ODg4ODM5NzIxNjgsIC0wLjU0NzY0MDkxOTY4NTM2MzhdLCBbLTAuNDg4ODY5MTkwMjE2MDY0NDUsIC0wLjYwNTUwNjA2MjUwNzYyOTQsIC0wLjAzMDE0NjEyMzg0MTQwNDkxNSwgLTAuNjYyMjg0Mzc0MjM3MDYwNSwgMC40OTEyMzI4MTI0MDQ2MzI1NywgMC44MzYwMTk5MzMyMjM3MjQ0LCAwLjE1NTA1OTg0NDI1NTQ0NzQsIC0wLjAwOTU5MDk1NzMxMzc3NjAxNiwgLTAuNDczNTA3NjcyNTQ4Mjk0MDcsIDAuMzQ2OTA0MTU4NTkyMjI0MSwgMC4xOTI0MTg0NTYwNzc1NzU2OCwgMC4xNDE5MzE5OTU3NDk0NzM1NywgLTAuMDcxOTUyNTk2MzA2ODAwODQsIDAuODIyMjA0NTMwMjM5MTA1MiwgLTAuMDk3NzAzMTQzOTU0Mjc3MDQsIDAuMzI5NTc2MTk0Mjg2MzQ2NDQsIDAuMzc1MDM4NzQzMDE5MTA0LCAtMC41NzA1MTUzMzQ2MDYxNzA3LCAtMC40NDYxOTkyOTc5MDQ5NjgyNiwgLTAuNTEzMTk4NTU0NTE1ODM4NiwgLTAuMDMyMDY5Mjg4MTk0MTc5NTM1LCAtMC45NzI4OTYxNTg2OTUyMjEsIDAuMDE1ODQxNDA1ODM4NzI3OTUsIC0wLjc4Mjg4NDk1NTQwNjE4OSwgLTAuMjEzMzk5MjYxMjM2MTkwOCwgLTAuNzk2MjkyNzgxODI5ODM0LCAtMC4yNTAzNzMxODQ2ODA5Mzg3LCAtMC41MjMzODU4ODIzNzc2MjQ1LCAwLjUyNzU0MTYzNzQyMDY1NDMsIDAuMzM4MjEwNTIzMTI4NTA5NSwgLTAuMjQyODQwODg2MTE2MDI3ODMsIC0wLjU2NDIzMjA1MTM3MjUyODFdLCBbLTAuMzIxNjg1MzE0MTc4NDY2OCwgLTAuMjM4ODE3NzM2NTA2NDYyMSwgLTAuMTgzNTQ0OTQ4Njk3MDkwMTUsIC0wLjgyODg1MDI2OTMxNzYyNywgMC4wMzkxODk4ODYzMDE3NTU5MDUsIDAuMzQ2OTAyNjY4NDc2MTA0NzQsIC0wLjE3MzY5NTQxNTI1ODQwNzYsIDAuMjE4MDA4Nzg2NDM5ODk1NjMsIC0wLjIzMzk5MjE4OTE2ODkzMDA1LCAtMC4wNDk5ODM2OTUxNDk0MjE2OSwgLTAuMjM0OTI5MjYzNTkxNzY2MzYsIC0wLjMyODA5ODU5NTE0MjM2NDUsIC0wLjA1MjIzMDE3MTg1OTI2NDM3NCwgMC4yNjUxNjQzMTU3MDA1MzEsIC0wLjA5MjQyMTI0ODU1NTE4MzQxLCAwLjAwOTE2NjM4Nzg0MTEwNTQ2MSwgMC4xMjk0MzE0MjY1MjUxMTU5NywgLTAuMDE2MzY0NzkyMzYxODU1NTA3LCAtMC44MzYzOTE4MDY2MDI0NzgsIC0wLjI0MjUxNjgzMDU2MzU0NTIzLCAtMC4yNDc3NDg0MzQ1NDM2MDk2MiwgLTEuNTQ4MzE1NzYzNDczNTEwNywgMC4xMDY4ODQzODI2NjUxNTczMiwgLTAuNDUwNjY0NDAxMDU0MzgyMywgLTAuNDIzMDI5MzMzMzUzMDQyNiwgLTAuMzI1NDgwODc4MzUzMTE4OSwgLTAuMjUyNjE4NjQwNjYxMjM5NiwgMC4xNTUyODcwODY5NjM2NTM1NiwgMC4xODIwNzI2Mzk0NjUzMzIwMywgMC4xNTQwMzMwMDUyMzc1NzkzNSwgLTAuMjE0Njg2NzgxMTY3OTg0LCAtMC4wMTkxNzAyOTkxNzI0MDE0MjhdLCBbLTAuMzI5NTk4NzU0NjQ0MzkzOSwgMC4wMDU0Mjc2ODY5NjMyMzAzNzE1LCAwLjMxNjM5MjQyMTcyMjQxMjEsIC0yLjgyODQ0OTQ4NzY4NjE1NzIsIC0wLjAwMzE4MDQxNDkwMzkwODk2OCwgMC4wODI2NDgyODQ3MzMyOTU0NCwgMC4wMzU0ODcwMDczNDk3Mjk1NCwgMC4xMTg2MzUwMDYyNDg5NTA5NiwgMC4wMDM0ODMxNTEwODU2NzQ3NjI3LCAtMC4zNDU2Njc3Nzk0NDU2NDgyLCAwLjA4NDY3ODIxNzc2ODY2OTEzLCAwLjI2OTcxNTYwNzE2NjI5MDMsIDAuMjcxNDcwMjc4NTAxNTEwNiwgMC4xNTY2MjQ3OTQwMDYzNDc2NiwgMC4xMDYyMzYwODUyOTU2NzcxOSwgLTEuNDc4ODY0Nzg5MDA5MDk0MiwgLTAuMDI3MjQ2MDgwMzM4OTU0OTI2LCAtMC4wMTg5NDc1MTE5MTEzOTIyMTIsIC0wLjExNzI4OTA2NjMxNDY5NzI3LCAtMC40OTYyNzAwMzA3MzY5MjMyLCAtMC4wNDIzODE0MjgxODIxMjUwOSwgLTAuMDYxMzY1NDMzMDM3MjgxMDM2LCAtMC41NDg4NTc2MjkyOTkxNjM4LCAtMC4yODQ4MTI1OTk0MjA1NDc1LCAwLjE4MTY0ODU4MjIyMDA3NzUxLCAtMC4yMTc0NjYwMjY1NDQ1NzA5MiwgMC4wMDI0OTYwNDUwODI4MDc1NDEsIDAuMDU5Mjg3ODc1ODkwNzMxODEsIC0wLjA1NTc5MDIxNTczMDY2NzExNCwgMC4wNDYzNDkwNDg2MTQ1MDE5NSwgLTAuMDY0MDA1Mjg1NTAxNDgwMSwgMC4wNTQyMDYxMzY2MTQwODQyNDRdLCBbMC4xMjA5OTk2OTM4NzA1NDQ0MywgLTAuNDMzODI3NzU3ODM1Mzg4MiwgLTAuMDc0MDg2NjM2MzA0ODU1MzUsIDAuMTk2NTkxMDQ5NDMyNzU0NTIsIC0wLjMyMjA1MTY0NDMyNTI1NjM1LCAtMC40MzQ2MzkwMzY2NTU0MjYsIDAuNTYxMzUxNTM3NzA0NDY3OCwgMC45NzY0MDk0OTQ4NzY4NjE2LCAtMC4yOTkyOTgyMjY4MzMzNDM1LCAwLjA2NjAzMjY3MDQzODI4OTY0LCAtMC4wMDg0MTE1ODE2MjgwMjQ1NzgsIC0wLjE5MjQyMDA5NTIwNTMwNywgMC4yNTA0MzcxNDA0NjQ3ODI3LCAtMC4yMzg4OTE1NzE3NjAxNzc2LCAwLjAyNjA1OTkxNDM4MDMxMTk2NiwgLTAuMzYyMjQzMjM1MTExMjM2NiwgLTAuNjA2NDM2ODQ4NjQwNDQxOSwgMC40NTIzMTgzNzAzNDIyNTQ2NCwgMC4wOTY1NTA4MjIyNTc5OTU2LCAwLjIxNjk2MzYxODk5Mzc1OTE2LCAtMC4wNzg1MTgwMDMyMjUzMjY1NCwgMC4xNzIyMTc3NzE0MTA5NDIwOCwgMC41NTkwNzgzMzU3NjIwMjM5LCAwLjE2NjY1ODI4MjI3OTk2ODI2LCAwLjE1NTA2NjcyODU5MTkxODk1LCAwLjA0OTc5NzAwNTk1MTQwNDU3LCAwLjExMzEzNDA0ODg3OTE0NjU4LCAwLjE2MTY4MzExMjM4Mjg4ODgsIC0wLjA3ODgwNTQ2MTUyNTkxNzA1LCAtMS4zNTc3MjkzMTU3NTc3NTE1LCAtMC4wMjIyNjQ0Njc1NTIzMDQyNjgsIDAuNTIyMDA3Mjg2NTQ4NjE0NV0sIFswLjEwMTgxMDU0NDcyOTIzMjc5LCAwLjI3MTk2NzU2MDA1Mjg3MTcsIC0wLjA2MjAzMDY1NDQwMDU4NzA4LCAwLjIzODQwNzIwOTUxNTU3MTYsIC0wLjE5NDI4NDg4NjEyMTc0OTg4LCAtMC4wNzkwNTc3MDA5MzIwMjU5MSwgMC4zMDQ4NTY4MzY3OTU4MDY5LCAtMC41NzExMDU5NTcwMzEyNSwgMC4zMTc5OTMxOTM4NjQ4MjI0LCAtMC4wMTI2MjYzMTQ1MzU3MzcwMzgsIC0wLjAwNzkzNjI3MDkwNzUyMTI0OCwgMC4wNzQyNDUzNDExMjIxNTA0MiwgMC4wMzk5MzE1NjU1MjMxNDc1OCwgLTAuMDAyNDM3ODUwNDYwNDEwMTE4LCAwLjEzNTU3MDMxNzUwNjc5MDE2LCAwLjAzMzUyODYwNzMzODY2NjkxNiwgLTAuNDkzMjU0NzIxMTY0NzAzMzcsIC0wLjA5NDM5MDQyMjEwNTc4OTE4LCAwLjAxOTIyMDUyNTM5ODg1MDQ0LCAwLjI2MzAwMTc2OTc4MTExMjY3LCAtMC4yMDYyNjQwMTkwMTI0NTExNywgMC4xMDgwOTUzMTgwNzg5OTQ3NSwgLTAuMzA4NjQyNTM2NDAxNzQ4NjYsIDAuMDc5MjQxMzM1MzkxOTk4MjksIDAuMTY0MDA2NDg2NTM1MDcyMzMsIDAuMjA3NDE2NzI4MTM4OTIzNjUsIC0wLjA3NDAzODc4MTIyNTY4MTMsIC0wLjAzNTY2MTA0OTE4NzE4MzM4LCAtMC4xMDIxNjMzMjIyNjk5MTY1MywgLTEuMTE1MzI2NDA0NTcxNTMzMiwgLTAuMTE5OTIyNjc1MTkyMzU2MTEsIC0wLjEzMjkzOTY2NjUwOTYyODNdLCBbLTAuMDA5OTExMzQ2MjQ5MjgyMzYsIC0wLjAyNzUzMDEyNjI3MzYzMjA1LCAwLjIzNzQ0NjE0NDIyMzIxMzIsIDAuMDg2NDE3NjMwMzE0ODI2OTcsIC0wLjI0MDQ5OTE2ODYzNDQxNDY3LCAtMC4zMjk0MjA4MDQ5Nzc0MTcsIC0wLjE3NzQ5NjAxNjAyNTU0MzIsIDAuMTQ0MDMzNzg5NjM0NzA0NiwgMC4yMTEzNDY4MTk5OTY4MzM4LCAwLjEwNzU0MDYwNzQ1MjM5MjU4LCAtMC4xMTQyNjgyNTgyMTM5OTY4OSwgLTAuMTQ1NTYyMzM1ODQ4ODA4MywgLTAuMDA1NTg0MTgzMTQ5MDM5NzQ1LCAtMC40ODg3MzAwNzI5NzUxNTg3LCAtMC4zMzY2NzY0NDg1ODM2MDI5LCAwLjE5OTQ4NTcxOTIwMzk0ODk3LCAtMC4yMDEzMzM4MjA4MTk4NTQ3NCwgLTAuMTY1OTI3NTU5MTM3MzQ0MzYsIDAuMDQwMDc5NzQ2Mzk1MzQ5NSwgLTAuMjQ2MDQ3NDM3MTkxMDA5NTIsIC0wLjA0MjE3NjQwNjgzMDU0OTI0LCAtMC4wMzA5NTY4NjgwODIyODQ5MjcsIDAuMDE3NTIyNTQ3Mzk0MDM3MjQ3LCAtMC4wNDkyNzAxMDQ2MTY4ODA0MiwgLTAuMDE2OTMyMzQ3Nzg5NDA2Nzc2LCAwLjA0OTE3ODM1MDcxNjgyOTMsIDAuMzUyNjQ2ODg3MzAyMzk4NywgLTAuMDU0MjM1NTQ0MDU1NzAwMywgLTAuMDUwNzA3NTYwMDMyNjA2MTI1LCAwLjI3Nzc5OTY2NTkyNzg4Njk2LCAwLjA5MzM4NjU2MDY3ODQ4MjA2LCAwLjAzNDE5ODE4NzI5MTYyMjE2XSwgWzAuMjA3MDAxNDQ3Njc3NjEyMywgMC4zODM3MjQ1MTA2Njk3MDgyNSwgMC4yODM4MTA5NzMxNjc0MTk0MywgLTAuMDE3OTY5ODkzMjkxNTkyNTk4LCAtMC4wOTQ0MDc1ODgyNDM0ODQ1LCAtMC4xNzgyMTU5NTA3Mjc0NjI3NywgMC4xNDk4Nzg0NzIwODk3Njc0NiwgMC4zMDk3Njk4MDkyNDYwNjMyMywgMC40ODU3NDM0NjMwMzkzOTgyLCAwLjIwMjQyOTgzMTAyNzk4NDYyLCAwLjA5NjMzMDA3NjQ1NjA2OTk1LCAwLjE3MDY3MTA0NTc4MDE4MTg4LCAtMC4wODg0MTM0NzY5NDM5Njk3MywgMC4wNjkwNTEzMTc4NzA2MTY5MSwgMC4zNTM5ODQyOTYzMjE4Njg5LCAwLjAzNzM3MTU4MzI4Mjk0NzU0LCAwLjIxMzQ4NTAwMjUxNzcwMDIsIDAuNDYxMDI1ODkzNjg4MjAxOSwgMC4wODkyMjI2OTk0MDM3NjI4MiwgMC4yNTY2NDMyOTUyODgwODU5NCwgMC4wNzI1MTM1NTA1MTk5NDMyNCwgMC4zMjI3NTY0MDk2NDUwODA1NywgLTAuNDI3MzY2MDc3ODk5OTMyODYsIDAuMDMyNjM4MTAyNzY5ODUxNjg1LCAwLjQ1MDY5MTY0MDM3NzA0NDcsIC0wLjA4NDk0MTQzMTg3OTk5NzI1LCAwLjIyOTg5MDgwODQ2MzA5NjYyLCAtMC4yMTk3NzU0NjgxMTEwMzgyLCAwLjA2MDg3Nzg1OTU5MjQzNzc0NCwgLTAuMDcxMzgxMzYwMjkyNDM0NjksIDAuMTE2MzQ2MjEwMjQxMzE3NzUsIC0wLjA0MTc4NzE1NDk3MjU1MzI1XSwgWy0wLjAzMzQ1NTUwNTk2NzE0MDIsIDAuMDYwMzE4MDc1MTIwNDQ5MDY2LCAtMC4yNzcxOTEwNzI3MDI0MDc4NCwgMC4wNjY1MDM5NDk0NjMzNjc0NiwgMC4zMTEwNTIwODM5NjkxMTYyLCAwLjM5MTc5OTMwMDkwOTA0MjM2LCAtMC41NDU1OTc2NzI0NjI0NjM0LCAwLjE2NzcwNzc3MTA2Mjg1MDk1LCAwLjAwNTk4NDE3OTIwOTkxNzc4NCwgMC4xNTE1ODM5OTkzOTUzNzA0OCwgLTAuMzQyMTI3MTQ0MzM2NzAwNDQsIC0wLjM4ODMyNTY5MTIyMzE0NDUzLCAwLjAzNTExMjM2OTgwNTU3NDQyLCAwLjIwNTgyOTM4MTk0Mjc0OTAyLCAwLjA0OTM1NTAzMDA1OTgxNDQ1LCAwLjMyMDczNzMzMjEwNTYzNjYsIDAuMjU2MjYzMTk2NDY4MzUzMjcsIDAuMTYwOTkzNjIwNzUzMjg4MjcsIC0wLjg4NzE5MjI0OTI5ODA5NTcsIDAuMDQ0NTA5MzQzODAyOTI4OTI1LCAtMC40MTQ1ODAxMDY3MzUyMjk1LCAtMS45ODI3OTUzNTc3MDQxNjI2LCAwLjE3NjQ2MDI2NjExMzI4MTI1LCAwLjQ4MjExMTY5MjQyODU4ODg3LCAtMC4xNDQwNzEzNDA1NjA5MTMwOSwgMC4xMTg3MDgyMDgyMDMzMTU3MywgMC4xNTYwNDM4NTczMzYwNDQzLCAwLjA0ODI4MjcyMzg3Mzg1MzY4MywgLTAuMjI4NTgwMzU1NjQ0MjI2MDcsIDAuNjQ0OTgyMDk5NTMzMDgxLCAtMC40NTAzNTE2NTU0ODMyNDU4NSwgMC4wMzM5MTA1MzE1NTA2NDU4M10sIFswLjIzMzcyOTA5NDI2Njg5MTQ4LCAtMC4wMTUwNDU5MzA2MzE0NTg3NiwgMC4xMTk4Nzg1MDgxNTA1Nzc1NSwgMC4wMDMxMDkxOTgyOTY0NDI2MjgsIC0wLjY4NzI5MTg2MDU4MDQ0NDMsIC0wLjEwNTY2NDQwMjI0NjQ3NTIyLCAwLjQ2MDg1NjQzNzY4MzEwNTQ3LCAwLjI2NzE3OTg0Njc2MzYxMDg0LCAwLjAwNzEwNjExNTU3NTg3OTgxMiwgLTAuMjAyMDQzMTc1Njk3MzI2NjYsIC0wLjEwNzc0MzY4MDQ3NzE0MjMzLCAwLjI0OTgwODQwMDg2OTM2OTUsIDAuMTY4MTYyMDc3NjY1MzI4OTgsIC0wLjAyMTAyOTMwNDcxMzAxMDc4OCwgMC4wNDk1NzE2NTk0MTU5NjAzMSwgLTAuMDA5NTM5NzE3ODA4MzY1ODIyLCAtMC4wMTc1OTM5NDI1ODI2MDcyNywgMC4wNzIwMzU1NTEwNzExNjY5OSwgMC4wMDU3MTYxNjkyNTI5OTE2NzYsIDAuMzI1MDYxNTI5ODc0ODAxNjQsIDAuNjE0MTIxNDM3MDcyNzUzOSwgMC4yNzEzMTg0MzU2Njg5NDUzLCAwLjA1OTg2MDcxMzc3OTkyNjMsIDAuMTEwNTczMTgwMDE5ODU1NSwgMC4yNzE4OTM1NjA4ODYzODMwNiwgMC4xMDM4MTIxNTgxMDc3NTc1NywgMC41MTI1NTgyMjE4MTcwMTY2LCAtMC4wOTM5OTkzNTYwMzE0MTc4NSwgLTAuMTc0NTg0OTI1MTc0NzEzMTMsIC0wLjEzODk3NDU2MjI4NzMzMDYzLCAwLjQyNTU1MDkzNzY1MjU4NzksIDAuMTE1MjkwMTc5ODQ4NjcwOTZdLCBbMC4wNTAxNjc4ODg0MDI5Mzg4NCwgMC44OTQ0NzE2NDUzNTUyMjQ2LCAwLjA0MTI2NjgzNjIyNTk4NjQ4LCAwLjQyMTYxMDQ3NDU4NjQ4NjgsIDAuMjIzOTE5MzAyMjI1MTEyOTIsIDAuMDUwMzkxMjk0MDYyMTM3NjA0LCAtMC4xNjg0MjU3MDkwMDkxNzA1MywgMC4yNjE3OTc2NjY1NDk2ODI2LCAwLjIyNjAxODEzMDc3OTI2NjM2LCAwLjE0MDIwNDM3MDAyMTgyMDA3LCAwLjE2NjQyMjIxODA4NDMzNTMzLCAtMC4wNjE2MjcxMjcyMzAxNjczOSwgMC4wMzA5NTA5NDY3MzMzNTU1MjIsIDAuMDQ1NzY2NzI2MTM2MjA3NTgsIDAuMzg4MjI0ODk5NzY4ODI5MzUsIDAuMDgwOTEzNzUyMzE3NDI4NTksIDAuMjUyMzg0NjkyNDMwNDk2MiwgMC40MDQwMjUwNzc4MTk4MjQyLCAtMC4yNTk1MzQzMjkxNzU5NDkxLCAwLjI3NTE2ODgzNjExNjc5MDc3LCAtMC4zMTczNjQ1MTM4NzQwNTM5NiwgLTAuNDE5OTkzMDQyOTQ1ODYxOCwgLTAuNDg3MTU1Njc1ODg4MDYxNSwgMC4zMTQxMjM1NzA5MTkwMzY4NywgMC4yNTI3NDQ5NzI3MDU4NDEwNiwgMC4wMjc0MTYxMDQ0NTA4MjE4NzcsIDAuMTM3MTUxNTU0MjI2ODc1MywgMC4xNTQwNjU0NzQ4Njc4MjA3NCwgLTAuMDY0ODgzNDcwNTM1Mjc4MzIsIDAuMDA0OTI2MTUxMTMwMzQ4NDQ0LCAwLjEwMDQ5Mzk4MjQzNDI3Mjc3LCAwLjQ3Mjk0MDM1NTUzOTMyMTldLCBbMC40NTEzOTMyMTY4NDgzNzM0LCAwLjA0NTg3NjcyMjc4Mjg1MDI2NiwgLTEuMzg1MzYxNTUyMjM4NDY0NCwgLTAuMzIxNjA3OTQ3MzQ5NTQ4MzQsIC0wLjk1NzQzNjU2MTU4NDQ3MjcsIC0wLjU4NzkwNjU5OTA0NDc5OTgsIC0xLjA1Njk4NjMzMTkzOTY5NzMsIDAuNDEwMDE3OTk3MDI2NDQzNSwgMC43MzI4MTg0ODQzMDYzMzU0LCAwLjQ1ODM3NDk3NzExMTgxNjQsIC0wLjM0OTgyNjkwMjE1MTEwNzgsIC0xLjUyNjMwNjM5MDc2MjMyOSwgMC42MzYxNDg5Mjk1OTU5NDczLCAtMC42MjkzNzUzMzg1NTQzODIzLCAwLjQ5OTA5MzM1Mzc0ODMyMTUzLCAtMC4xMjE5MDMyNTU1ODE4NTU3NywgLTAuNjQ4MzIyOTM5ODcyNzQxNywgMC4xMTc1MDQyNjg4ODQ2NTg4MSwgLTAuMjY1OTU4NDU4MTg1MTk1OSwgMS4wNDUwNTAzODI2MTQxMzU3LCAtMC4zNzg3MDMzNTU3ODkxODQ1NywgLTAuMDgwMTE2NjY2ODUzNDI3ODksIDAuNjYwNTUxMTkwMzc2MjgxNywgMS4xMDE4OTkxNDcwMzM2OTE0LCAwLjk1Mjc4NzUxODUwMTI4MTcsIDAuNjg3OTI2ODg4NDY1ODgxMywgMC4yNjAyNTMyNTA1OTg5MDc0NywgLTAuNjMwMjcyNTY3MjcyMTg2MywgMC4wMjA5ODgxMTc5MDM0NzA5OTMsIC0xLjEzOTEzMTU0NjAyMDUwNzgsIC0xLjQzODQ2NTM1NjgyNjc4MjIsIDAuMDI5ODEzMDk1OTI3MjM4NDY0XSwgWy0wLjM1ODg4OTQwMDk1OTAxNDksIC0yLjYzNzI5NDUzMDg2ODUzMDMsIC0wLjA2MzA3NDc0NTIzNzgyNzMsIC0wLjE1ODU3NTkyMjI1MDc0NzY4LCAwLjMxNDU1NDMzMzY4NjgyODYsIDAuMzY1ODE4OTc3MzU1OTU3MDMsIC0wLjExMDczODQxMTU0NTc1MzQ4LCAtMC4wNjU5ODAyNDgxNTMyMDk2OSwgLTAuMTU0MzAxMTk2MzM2NzQ2MjIsIDAuMTEwNzA4ODk5Nzk2MDA5MDYsIDAuMDkwODAzNDg5MDg5MDEyMTUsIC0wLjAxMDU2NTAyMzg2OTI3NjA0NywgMC41ODMzNjEzODcyNTI4MDc2LCAwLjI4MTQ5MDQ0NTEzNzAyMzksIC0xLjc2NzA3MDUzMTg0NTA5MjgsIC0wLjA1MzUzNTM1NzExNzY1Mjg5LCAwLjEwMzQwMTIxMzg4NDM1MzY0LCAtMS44NTQzMzM0MDA3MjYzMTg0LCAtMC4xMzE5ODQ3MjU1OTQ1MjA1NywgMC4yMzM1OTM3MzIxMTg2MDY1NywgLTAuNTUwNTQ1MzM0ODE1OTc5LCAtMC41MDcxNjk3ODMxMTUzODcsIDAuNzYyMjY2NTc2MjkwMTMwNiwgLTAuMDA1NjMwMjY1OTIxMzU0Mjk0LCAwLjQ4Nzc3MzM1ODgyMTg2ODksIC0wLjI2OTY2NzQ0NjYxMzMxMTc3LCAtMC4xNjQ2NDY1MzYxMTE4MzE2NywgLTMuOTMyNTE1NjIxMTg1MzAyNywgMC4xMDUwMDE1NDY0NDI1MDg3LCAwLjE5MzYxODg5MzYyMzM1MjA1LCAtMC4xMjc3NDI3ODIyMzUxNDU1NywgLTMuMDczNzYzODQ3MzUxMDc0XSwgWzAuMTQyNzU0MDAzNDA1NTcwOTgsIC0wLjAyNTc2OTI2MzUwNTkzNTY3LCAwLjAzMTE0MzE1NDk0ODk0OTgxNCwgLTAuMDkzMzgwODAxMzc5NjgwNjMsIC0wLjAyMTM5MjcyMTY4Mjc4Njk0LCAtMC4yMTYwOTY5NTI1NTc1NjM3OCwgLTAuMDAyNjE4OTExNjc2MTA4ODM3LCAwLjA1NTM3NDU0MDM4ODU4NDE0LCAwLjEyMDIzNDU0OTA0NTU2Mjc0LCAtMC4xNzI5MDc3Njk2ODAwMjMyLCAtMC4wODgzMDAwMjY5NTMyMjAzNywgMC4wOTM4MzU0NzMwNjA2MDc5MSwgMC4wMzQ1MjI1NDA4NjczMjg2NDQsIC0wLjExNzQ2Mjk2Mjg2NTgyOTQ3LCAtMC4wODA0MDE0NTc4NDYxNjQ3LCAwLjExOTczNzQ2MTIwOTI5NzE4LCAwLjA2ODI3MTgwODMyNjI0NDM1LCAtMC4wNDM4NTQ4ODQ4MDMyOTUxMzUsIDAuMTUzODU4MjQ0NDE5MDk3OSwgMC4xMTc3MTkwMDk1MTg2MjMzNSwgMC4wNDc2Mjg5NTc3NzgyMTU0MSwgMC4xMDUyNDcxMzk5MzA3MjUxLCAwLjA2MzIxNzY5OTUyNzc0MDQ4LCAwLjA5NjQ3NzMxNDgyOTgyNjM1LCAwLjA3NjY1OTk5OTc4NzgwNzQ2LCAwLjA3Mzc2MjUwNjI0NjU2Njc3LCAtMC4xNDE2NTMyOTkzMzE2NjUwNCwgLTAuMTY4MTk0NTAyNTkyMDg2OCwgMC4wMzM0NzYwNDcyMTc4NDU5MiwgLTAuMDE1NDQ2MTc3NjgzNzcwNjU3LCAtMC4wMDg1NDA3ODEyMTQ4MzMyNiwgLTAuMDkyODQzNTAyNzU5OTMzNDddLCBbMC4wMDY5NjQyMTY5NDAxMDQ5NjEsIC0wLjE2NzYwODc5NzU1MDIwMTQyLCAwLjA1NTIwOTM0MjM5MDI5ODg0LCAwLjA3NDU1NTY1MDM1MzQzMTcsIDAuMDc1ODEwNzQ1MzU4NDY3MSwgLTAuMDM5Nzc3NzI1OTM0OTgyMywgLTAuMDMyNDQ4OTA2NDUxNDYzNywgMC4xODEzOTQzMzg2MDc3ODgwOSwgMC4xMTI5NTcwNzUyMzgyMjc4NCwgMC4wNDcxMzAyMzgyNjQ3OTkxMiwgMC4wMzU0MDQ3NDE3NjQwNjg2MDQsIDAuMDMyMDU3Mjc3ODU4MjU3Mjk0LCAtMC4xMzk5ODM0NzUyMDgyODI0NywgLTAuMDQ3ODg3Mzk5NzkyNjcxMjA0LCAwLjA0Njc1MjMzMzY0MTA1MjI0NiwgLTAuMjIxOTg5NDIzMDM2NTc1MzIsIDAuMTY5Mzk5MDgyNjYwNjc1MDUsIC0wLjE0Mjg4NDEzNTI0NjI3Njg2LCAtMC4wNDQwMDk1OTIzODQwOTk5NiwgMC4yMzY4NDEzOTU0OTczMjIwOCwgLTAuMDM0MDQ4OTM3MjYxMTA0NTg0LCAwLjAwMjc5MTU0NDg4ODE2ODU3MzQsIDAuMjEyMTMzNTg2NDA2NzA3NzYsIC0wLjAxODQ3OTc5OTg1MTc3NTE3LCAwLjAyMjg3NTAzNzA0NDI4NjcyOCwgLTAuMTA3MTM4NzUyOTM3MzE2OSwgMC4xMzkyNzA3OTczNzE4NjQzMiwgLTAuMjM5MDYyNDI4NDc0NDI2MjcsIC0wLjAzODU1ODQxOTc5Mzg0NDIyLCAwLjA1MDQxMTgyNzg2MjI2MjcyNiwgLTAuMDYxNjc4MTQxMzU1NTE0NTI2LCAwLjEwNDQwNzk4MTAzODA5MzU3XSwgWzAuMTEwMTUyODcwNDE2NjQxMjQsIDAuMjI0MDEzNDc3NTYzODU4MDMsIDAuMTA2NzgxODQwMzI0NDAxODYsIC0wLjAyMTczMjAzMjI5OTA0MTc0OCwgMC4yMDA4OTAyNzI4NTU3NTg2NywgMC4xNzY4ODg3MzQxMDIyNDkxNSwgMC41MzE1MTIyNjA0MzcwMTE3LCAtMC41MzgyMzIwODgwODg5ODkzLCAwLjA3MDM5NzA3ODk5MDkzNjI4LCAwLjI5NDgyMzE5OTUxMDU3NDM0LCAtMC4wNjgwMDUzNjgxMTM1MTc3NiwgMC4yMTExNTgzMDU0MDY1NzA0MywgMC4wMDU2MTkzNjU3MjE5NDA5OTQsIDAuMDgxMzI1NDA0MzQ1OTg5MjMsIC0wLjE4NDc3MzMyNTkyMDEwNDk4LCAwLjA5MDk2NDUyNTkzODAzNDA2LCAtMC4xMjI4MzUxMjIwNDg4NTQ4MywgLTAuNTk0NTA1OTY1NzA5Njg2MywgMC4xMDczOTk3MDIwNzIxNDM1NSwgLTAuMDM5NzEwOTk4NTM1MTU2MjUsIDAuMDI1MzM0NzAyODA0Njg0NjQsIDAuMDQ4NTMzMzM1MzI4MTAyMTEsIC0wLjA0MjA1NDg1MDYwODExMDQzLCAwLjA4NDk4Nzk2ODIwNjQwNTY0LCAwLjExMTAwNTM1MDk0NzM4MDA3LCAtMC4xMjI4OTYwMDA3NDI5MTIyOSwgLTAuMDcyOTU3ODczMzQ0NDIxMzksIC0wLjI3ODA2Mzk1MjkyMjgyMTA0LCAwLjE2NzY3MDc3MTQ3OTYwNjYzLCAtMC45NDQ0NDYxNDY0ODgxODk3LCAwLjA1Mjg1MzE0NDcwNTI5NTU2LCAtMC41ODg1OTcyOTc2Njg0NTddLCBbMC4xMTE3ODM2ODMzMDAwMTgzMSwgMC4wMjU2MjMwMTc5MjIwNDM4LCAwLjQ0NzExMTYwNjU5NzkwMDQsIC0wLjA0OTg4MjU1MzUxNzgxODQ1LCAwLjAzOTMzOTIyMjAxMzk1MDM1LCAtMC4xMDEyMjUwNjMyMDQ3NjUzMiwgLTAuMjEyNDE2Njc4NjY3MDY4NDgsIDAuMjk5NDEwNzYwNDAyNjc5NDQsIC0wLjAxNjk3MzkwMTU0MDA0MDk3LCAtMC4xMTgyNDQ4NTY1OTU5OTMwNCwgMC4wMzQzNTk0Nzc0NjAzODQzNywgMC4wMTk3MDI5NzI4NDQyNDMwNSwgMC4wODMwMzQ1MTUzODA4NTkzOCwgLTAuNDA3OTQ1MTU2MDk3NDEyMSwgMC4xNTU3NzAwNzgzMDE0Mjk3NSwgLTAuMzI2NTYwNjc2MDk3ODY5OSwgMC4zNDE5MDAzNDg2NjMzMzAxLCAtMC4wMTMxNDM5Mjk2NTI4Njk3MDEsIDAuMDA3NDQ0NjU2NDU0MDI2Njk5LCAwLjIzODQzMTU4NzgxNTI4NDczLCAwLjU0NzcyMTAyODMyNzk0MTksIDAuMDIyMDcyNTQwNTk2MTI3NTEsIDAuMTExODI2MDYyMjAyNDUzNjEsIDAuMzAxMTY0MzI5MDUxOTcxNDQsIDAuMTI1ODcyMTc5ODY1ODM3MSwgMC4xOTgwNTEzNDgzMjg1OTA0LCAwLjUzNTExMDY1MjQ0Njc0NjgsIC0wLjExNzUyNjgyOTI0MjcwNjMsIDAuMjE1Njg4NDA3NDIxMTEyMDYsIC0wLjEzNzA3MjI1MDI0NzAwMTY1LCAwLjI2MzE5MjM4NTQzNTEwNDM3LCAtMC4wODc1NDcwNjM4Mjc1MTQ2NV0sIFswLjM4OTEwODAwMjE4NTgyMTUzLCAwLjYzODk1NDU3OTgzMDE2OTcsIC0wLjEzODE4NDM2ODYxMDM4MjA4LCAwLjA1ODA2MzMwNTkxNDQwMjAxLCAtMC4xMjAwNDI1ODQ4MzY0ODMsIDAuMDIzNzYzNjkzODY5MTEzOTIyLCAwLjA2MDMwODYwNTQzMjUxMDM3NiwgMC40MDM0MzIwNzEyMDg5NTM4NiwgMC4zMjc1OTE2ODc0NDA4NzIyLCAwLjExMzgxODQwNzA1ODcxNTgyLCAwLjE1NjQ1NDcyNzA1MzY0MjI3LCAwLjAwNzU3Mzc2MDExNDYxMDE5NSwgMC4xMzM1NTQxOTAzOTcyNjI1NywgLTAuMDczMzEyNDE2NjcyNzA2NiwgMC42NjYwNTEyNjg1Nzc1NzU3LCAtMC4wODMzMDIwOTU1MzI0MTczLCAtMC4wMzU2NjA2ODQxMDg3MzQxMywgMC42MzQ0MTc4MzE4OTc3MzU2LCAwLjM1MTg1OTU2OTU0OTU2MDU1LCAwLjQxODYzMjMyODUxMDI4NDQsIDAuMTE4MTM0NDI0MDkwMzg1NDQsIDAuNTc5ODU3NDA5MDAwMzk2NywgLTAuMzcyNjgwNzIzNjY3MTQ0OCwgMC4yNjUwNjYzODUyNjkxNjUwNCwgMC4yNTc1NTM4MTU4NDE2NzQ4LCAwLjM3ODA1ODEzNTUwOTQ5MDk3LCAwLjI1Mjk1NDg3MDQ2MjQxNzYsIC0wLjM2OTc0MzE2ODM1NDAzNDQsIC0wLjAxNTc1MTc1MzAwMjQwNTE2NywgLTAuMjY0ODI5Mzk3MjAxNTM4MSwgMC4wNjY2MjA3Mjk4NjM2NDM2NSwgLTAuMTAzOTc3NTYwOTk3MDA5MjhdLCBbMC4xNTgzMTMxNTUxNzQyNTUzNywgLTAuMTAxMTkxNjk5NTA0ODUyMywgMC4yMTA4MTkyNzQxODcwODgsIDAuMDczNTE4NzUzMDUxNzU3ODEsIDAuMjk0ODY5MzYzMzA3OTUyOSwgMC4zMjcyMDY1NTIwMjg2NTYsIDAuMDQzMDQ1NDkwOTgwMTQ4MzE1LCAtMC4wNzY0MjI2MDE5MzgyNDc2OCwgLTAuMjI3MjM4Mzg2ODY5NDMwNTQsIDAuMDQ1NTg0MzUwODI0MzU2MDgsIDAuMjY3ODk5ODQxMDcwMTc1MTcsIDAuMjg0OTA3MDQyOTgwMTk0MSwgLTAuMTUzODY4NDIxOTEyMTkzMywgMC4xMzM2NzA4NjY0ODk0MTA0LCAtMC4xNzgwMTQxMjk0MDAyNTMzLCAwLjAzOTc2MjI2NTk4MDI0MzY4LCAwLjE1Mjg5MTE1OTA1NzYxNzIsIC0wLjEzMjg4MjM4NjQ0NTk5OTE1LCAtMC4wNTk1NjI4NTQ0Njg4MjI0OCwgMC4wMzM5NTU0NzcxNzgwOTY3NywgLTAuMDk0NzY2Nzk1NjM1MjIzMzksIDAuMjM0ODY4OTczNDkzNTc2MDUsIC0wLjE2MTA0NTIyMzQ3NDUwMjU2LCAwLjA2ODY2NzQ0OTA1NzEwMjIsIC0wLjAzNDgyODE3MTEzMzk5NTA1NiwgLTAuMDkyMTEwMDYwMTU1MzkxNywgMC4xMTkxMjE4MTk3MzQ1NzMzNiwgLTAuMTUwNTc0ODYyOTU3MDAwNzMsIDAuMTc2NzM4NDU1ODkxNjA5MiwgMC4yMDU3OTE2NTIyMDI2MDYyLCAwLjM5MDA4MTc2MzI2NzUxNzEsIC0wLjI1MTQwMDgyODM2MTUxMTIzXV0sIFswLjE0OTIzMzM0MTIxNzA0MTAyLCAwLjA1NjU5MTc4NjQ0NDE4NzE2NCwgMC4wODE1NTQ0NjQ5OTU4NjEwNSwgMC4xMjU3Njg5ODkzMjQ1Njk3LCA3Ljg3MzMwNzkxMzU0MTc5NGUtMDUsIC0wLjAxODQ1OTEyNjM1MzI2Mzg1NSwgMC4yMTMyNjgzODQzMzc0MjUyMywgMC4xNjM1NTQ1NDkyMTcyMjQxMiwgMC4xNjg1MTU0NDM4MDE4Nzk4OCwgMC4wNDk3MDI5NDk4MjE5NDkwMDUsIDAuMTYwMDQ0NjcwMTA0OTgwNDcsIDAuMTM5NDU2MDMzNzA2NjY1MDQsIDAuMDcxNjEwODYwNTI2NTYxNzQsIC0wLjAyMTgzOTYwMzc4MTcwMDEzNCwgMC4wOTg0MDA1NjMwMDE2MzI2OSwgLTAuMDIzNzg0NDkwMzAyMjA1MDg2LCAwLjEwNDk3OTQ0ODAyMDQ1ODIyLCAwLjA0Mjg3NzQwNTg4MTg4MTcxNCwgMC4wMDk2NTY1NjM0MDEyMjIyMjksIDAuMDkxMjYxMjk3NDY0MzcwNzMsIDAuMDIyNjEwMzQwMjY3NDE5ODE1LCAwLjAwODc5NDk0NDczMzM4MTI3MSwgMC4xMTgyODQ5MzMyNjkwMjM5LCAwLjM0NTI1MDAxMDQ5MDQxNzUsIDAuMjM5MTQ2MzIyMDExOTQ3NjMsIDAuMDk2MDY2MzYzMTU1ODQxODMsIDAuMjIyNTYyOTA5MTI2MjgxNzQsIDAuMDg1Njk3MTU5MTcxMTA0NDMsIDAuMDI2MTMwMjI5MjM0Njk1NDM1LCAwLjAwOTMzMjc3NjA2OTY0MTExMywgMC4yMjY0ODUwNTg2NjUyNzU1NywgMC4wNDE1ODc3MzI3MzIyOTU5OV0sIFtbLTAuMDY0OTQzMjMxNjQyMjQ2MjUsIC0wLjA0NjY2NzI5NjQzOTQwOTI1NiwgMC4wMjM1NjI3MjM3NzA3Mzc2NDgsIDAuMTU3OTY3MjY5NDIwNjIzNzgsIDAuMTc5NDYwNjQ0NzIxOTg0ODYsIDAuMzIyMDA2NjQyODE4NDUwOSwgMC4zMzAzMzc4NTIyMzk2MDg3NiwgMC4yMjQ1NDE3NTM1MzA1MDIzMiwgMC4zMDM1MzM2NzMyODY0MzgsIDAuMjAxODYyODI2OTQzMzk3NTIsIDAuMTI4ODIzOTA2MTgzMjQyOCwgMC4zMjY3NzkyNDYzMzAyNjEyMywgLTAuMDg1Mzc3MDgyMjI4NjYwNTgsIDAuMjgzOTI0NTc5NjIwMzYxMzMsIDAuMDA1NTIyNDg1ODIyNDM5MTk0LCAwLjA5NTU2MTQ1OTY2MDUzMDA5XSwgWy0xLjQxNTQzMjIxNDczNjkzODUsIC0xLjMzMDY1MjQ3NTM1NzA1NTcsIDEuNzY5NTgyNTA5OTk0NTA2OCwgLTEuNDEyMTA5MTM2NTgxNDIxLCAxLjU3ODgwNDQ5Mjk1MDQzOTUsIC0wLjIxNTg0MzIzMDQ4NTkxNjE0LCAtMC40NzE1NTc1ODczODUxNzc2LCAtMS4xNjc5NjYwMDgxODYzNDAzLCAxLjQzNTY5NjYwMTg2NzY3NTgsIC0xLjM0OTA4MzE4NTE5NTkyMjksIC0xLjU3MzQ4MDM2NzY2MDUyMjUsIC0xLjI3NjAyNzQ0MTAyNDc4MDMsIC0xLjA1MDM2ODc4NTg1ODE1NDMsIDEuMzgxNTI3NjYyMjc3MjIxNywgLTEuNDQ2MTU3MDk3ODE2NDY3MywgLTEuMTMwMzEzNjM0ODcyNDM2NV0sIFswLjM1MTYzMDYyODEwODk3ODI3LCAwLjQ4MTczNDY2MzI0ODA2MjEzLCAtMC41ODM3ODczMjIwNDQzNzI2LCAwLjY3MTI2MTkwNjYyMzg0MDMsIC0wLjQ2MTI1NDk1NDMzODA3MzczLCAwLjA5OTM5MDMzNTM4MTAzMTA0LCAtMC4xMzk3OTgwNzQ5NjA3MDg2MiwgMC4yNzE0MzYwMzU2MzMwODcxNiwgLTAuNjc4NDg3MzYwNDc3NDQ3NSwgMC42ODM1MzAwOTIyMzkzNzk5LCAwLjY2OTY0MzIyMzI4NTY3NSwgMC44ODQ0NTQxMzExMjY0MDM4LCAwLjIwMDI1MzMwNzgxOTM2NjQ2LCAtMC42MDE4MDEzOTU0MTYyNTk4LCAwLjQwMjYwNDg3Nzk0ODc2MSwgMC4xMTkyNzUzMzE0OTcxOTIzOF0sIFsxLjkxODYzOTY1OTg4MTU5MTgsIDEuNjgwMTE0MjY5MjU2NTkxOCwgLTEuMjU3NzUyNjU2OTM2NjQ1NSwgMS44NjIzNjc2MzAwMDQ4ODI4LCAtMS40MTIwMjU0NTE2NjAxNTYyLCAxLjEyODE0OTg2NzA1NzgwMDMsIDAuOTgwODkzNDMzMDk0MDI0NywgMS42MDIxNDQyNDEzMzMwMDc4LCAtMS43ODI2MTc1Njg5Njk3MjY2LCAxLjQyMDM1ODg5NjI1NTQ5MzIsIDEuNjA3NjY5NDcyNjk0Mzk3LCAxLjU3MzI5NzUwMDYxMDM1MTYsIDEuOTE3Mjc1OTA1NjA5MTMwOSwgLTEuNTE2OTAyOTIzNTgzOTg0NCwgMS42Njc1NDM4ODgwOTIwNDEsIDEuMzA3NTYzMTg1NjkxODMzNV0sIFswLjIzODQwNzcwMTI1Mzg5MSwgMC4yNzEwOTQwODM3ODYwMTA3NCwgLTAuMzg0NTA3MDYwMDUwOTY0MzYsIDAuMjQ0OTgxMzE4NzEyMjM0NSwgLTAuNTQzODA0ODgzOTU2OTA5MiwgLTAuMTAxNTgzNzE5MjUzNTQwMDQsIC0wLjEyOTI4NzE5ODE4NTkyMDcyLCAtMC4wMDk0ODk0OTkwMzI0OTc0MDYsIC0wLjI3ODQwODExMDE0MTc1NDE1LCAwLjI1NzE2MzI4NjIwOTEwNjQ1LCAwLjMwNjk1MjE3ODQ3ODI0MDk3LCAwLjM3OTcxODcyMDkxMjkzMzM1LCAwLjM1NTg2MDgyOTM1MzMzMjUsIC0wLjU3ODc3MDg3NTkzMDc4NjEsIDAuNDA2NjM4MjY0NjU2MDY2OSwgLTAuMDU2MzE5NjkxMjQwNzg3NTA2XSwgWzAuMTUyNTUwMjk0OTk1MzA3OTIsIDAuMjM1NTkxNzA5NjEzODAwMDUsIDAuMDQ5MTI4MTAwMjc1OTkzMzUsIDAuMzY2NjY1OTI5NTU1ODkyOTQsIDAuMDI5ODk0NTUzMTI0OTA0NjMzLCAtMC4xMzkxNzgzNTA1Njc4MTc3LCAwLjAyMzEzNTk0NTIwMDkyMDEwNSwgMC4yNTkyMzEyMDk3NTQ5NDM4NSwgLTAuMTg0OTMxMzk3NDM4MDQ5MzIsIDAuMTgzMjQ5OTY1MzEwMDk2NzQsIDAuMDAyMDI0Mzc0MjAzNzU2NDUxNiwgMC4zMDg3MjQyMjQ1Njc0MTMzMywgMC4xNzIxNzY3MDM4MTA2OTE4MywgLTAuMjM4MjQyMjgzNDYzNDc4MSwgMC4yMTU1OTE3MTM3ODYxMjUxOCwgMC4xODE5ODQwMjIyNTk3MTIyMl0sIFsxLjExMDY1NzY5MTk1NTU2NjQsIDAuNTcyNjk1NDM0MDkzNDc1MywgLTAuNDkzODIwNTQ4MDU3NTU2MTUsIDAuNDExNjIwMjU5Mjg0OTczMTQsIC0wLjQ5NjM2OTY1OTkwMDY2NTMsIDAuMDc3NjE5ODY1NTM2Njg5NzYsIC0wLjE2NTM0NzgxNDU1OTkzNjUyLCAwLjE1MjQyNzQwNTExODk0MjI2LCAtMC43MDAzMTEwNjQ3MjAxNTM4LCAwLjIwMjY4Njc4NjY1MTYxMTMzLCAwLjY4NzMzMTMxODg1NTI4NTYsIDAuMTQ2ODMzNTk4NjEzNzM5LCAwLjI1MzM4OTg5NDk2MjMxMDgsIC0wLjQ5OTkyMTA4MzQ1MDMxNzQsIDAuODg4NjY2NTEwNTgxOTcwMiwgMC4wNjY2MzY4MTU2NjcxNTI0XSwgWy0wLjIwNDA1NTcyNjUyODE2NzcyLCAtMC4xMzY0MTgxOTM1Nzg3MjAxLCAwLjM3Njc4OTU2OTg1NDczNjMzLCAtMC4wOTc1MjA1MDA0MjE1MjQwNSwgMC4zNDE5NDg2ODgwMzAyNDI5LCAwLjIwNzk5Njg4OTk0ODg0NDksIDAuMDIzMzMwMjU2MzQyODg3ODgsIC0wLjA3NTI0Nzc4NjkzOTE0NDEzLCAwLjMyNDY1NzA4MjU1NzY3ODIsIC0wLjAzNTIyNTg2ODIyNTA5NzY1NiwgLTAuMjA5NTg2MDM5MTg1NTI0LCAtMC4xMjk3MjE5MjQ2NjI1OTAwMywgLTAuMDA0MzEwOTcwNjYwMjk5MDYzLCAtMC4wMjE3MjUwODY0OTUyODAyNjYsIC0wLjI0NTEyOTk1Nzc5NTE0MzEzLCAtMC4xMTYzNzU2NDAwMzQ2NzU2XSwgWy0wLjE3MjU4NTM5Nzk1ODc1NTUsIC0wLjM4NTkwMTY4OTUyOTQxODk1LCAwLjc3MTc0NDYwODg3OTA4OTQsIC0wLjIwNDY0ODE1MTk5Mzc1MTUzLCAwLjQzNjMyNzI3ODYxNDA0NDIsIC0wLjAyNzIwMzIzMjA0OTk0MjAxNywgMC4wMTg2NzQ3Mjc1MjkyODczMzgsIC0wLjExMjgxMjc3MjM5MzIyNjYyLCAwLjQxNzQ5NTkzNjE1NTMxOTIsIDAuMDM2NzA1MTI4ODQ4NTUyNzA0LCAtMC4wNzg1OTA0MDA1MTY5ODY4NSwgMC4xNjE5NjYwNzA1MzI3OTg3NywgLTAuMDc4MDM3OTY5NzY4MDQ3MzMsIDAuMzc1MDc0ODkzMjM2MTYwMywgLTAuMDk3MzAwODI3NTAzMjA0MzUsIC0wLjI5NTA1NDYxNDU0MzkxNDhdLCBbMC4wMjY4Nzg5MTc1ODk3ODM2NywgLTAuMDc3NzQ0NzAwMDE0NTkxMjIsIDAuMTg1ODcxMzMyODgzODM0ODQsIC0wLjE2NjQ1MzM2MTUxMTIzMDQ3LCAtMC4wMTgyMjMzOTc0MzM3NTc3ODIsIC0wLjI3ODIyMjE0MzY1MDA1NDkzLCAwLjA0MjA2Njg3OTU3MDQ4NDE2LCAwLjEwOTUyNjA5Nzc3NDUwNTYyLCAwLjIxMDE5NzcxNjk1MTM3MDI0LCAwLjMyMzUyNzkzMjE2NzA1MzIsIDAuMjY3Mzk3NTUyNzI4NjUyOTUsIDAuMDUxNTU3OTA1OTcyMDAzOTQsIDAuMDA1NTEyNDc0NTcwNDIzMzY1LCAwLjQwNDU2NzcxODUwNTg1OTQsIDAuMTAzNDk3MzExNDcyODkyNzYsIDAuMjQwNDA4NDUwMzY1MDY2NTNdLCBbMC4yMDE4ODY5MDcyMTk4ODY3OCwgMC4yNDk2NDQ2MDczMDU1MjY3MywgMC4wODQxNzQ5NDU5NTA1MDgxMiwgMC4xNTg2MjA3MDAyNDAxMzUyLCAtMC4wMDQ3NjcyMDgzNjAxMzU1NTUsIC0wLjE1ODMyMzI4Nzk2Mzg2NzIsIC0wLjA3NDAyODcwMDU5MDEzMzY3LCAtMC4yOTA5MDYyNTA0NzY4MzcxNiwgLTAuMDAwNjMyMTY5NjU2NDU1NTE2OCwgMC4wNzA2NDI3ODQyMzc4NjE2MywgMC40NDM5MTE4NTA0NTI0MjMxLCAwLjIyMDcxNzYwODkyODY4MDQyLCAtMC4yMTk3OTg2OTkwMjEzMzk0MiwgLTAuMDI3NTAwODE5NDE0ODU0MDUsIDAuMTg1MzUyODAyMjc2NjExMzMsIC0wLjA0NjUwMTk3MTc4MTI1MzgxNV0sIFswLjQzMzIwNjYxNzgzMjE4Mzg0LCAwLjQ5MDE2MTE1MDY5Mzg5MzQzLCAtMC4yMjg4MTkxNjE2NTM1MTg2OCwgMC4zNzgwODMzMTg0NzE5MDg1NywgLTAuNTI0MzY2Nzk2MDE2NjkzMSwgMC4zMjIxMzY3NTk3NTc5OTU2LCAtMC4wMzE1MzkyODM2OTI4MzY3NiwgMC40NDU5MzEwNzcwMDM0NzksIC0wLjMwNDE1NTI5MDEyNjgwMDU0LCAwLjY3ODA0MTQ1ODEyOTg4MjgsIDAuNTkzMTc4ODY4MjkzNzYyMiwgMC40ODY4NDQwMDMyMDA1MzEsIDAuMDgxMTAzOTIwOTM2NTg0NDcsIC0wLjQ1NDI4MjcwMTAxNTQ3MjQsIDAuMzM2NzY3NDY0ODc2MTc0OSwgMC4yMjczMTExMTk0MzcyMTc3XSwgWy0wLjQzMzgyMjIxNDYwMzQyNDEsIC0wLjE4NjQ3MDQxOTE2ODQ3MjMsIDAuNDM1NDgyNjgwNzk3NTc2OSwgMC4wNDYyNzkzMDM3Mjk1MzQxNSwgMC4wMjQ4ODMwNTc5MjIxMjQ4NjMsIDAuMTQwMjE0NDU4MTA3OTQ4MywgMC4wODcyMzQzNzc4NjEwMjI5NSwgLTAuMDM1NzMxOTExNjU5MjQwNzIsIDAuNDgxOTYxMTMxMDk1ODg2MjMsIC0wLjExODM4MzYxNjIwOTAzMDE1LCAwLjAwMDkxMjQxNjcyNjM1MDc4NDMsIC0wLjEzMzk3OTAyMjUwMjg5OTE3LCAtMC4zMDg2NDUzMDgwMTc3MzA3LCAwLjQ4Mzc3NzcwMTg1NDcwNTgsIC0wLjE0NjYxMzk0MDU5NjU4MDUsIC0wLjAyODc0Nzg4NDU1NjY1MTExNV0sIFstMC4xMjQ1MzY4ODY4MTEyNTY0MSwgLTAuMDI1NDg4OTYxNDg4MDA4NSwgMC4yNDY3MTUyNjI1MzIyMzQyLCAwLjIxNjk2MjQyNjkwMDg2MzY1LCAwLjAxMDI5Mjc4NzEwNDg0NTA0NywgLTAuMDM3NjE3Mjg0ODA0NTgyNTk2LCAtMC4xNDQ5NTY0NTQ2MzQ2NjY0NCwgMC40NTc1NDU2MzgwODQ0MTE2LCAtMC4yMzcxNjkwODY5MzMxMzYsIDAuMjU0MTc5NTk2OTAwOTM5OTQsIDAuMTI0OTI3NTg3ODA3MTc4NSwgMC4yNjMwNjA2ODg5NzI0NzMxNCwgLTAuMDUzNTk0ODk0NzA3MjAyOTEsIC0wLjI3MTc3MTgxODM5OTQyOTMsIDAuMDYwODg5NzA2MDE1NTg2ODUsIDAuMDYwMDY4ODE1OTQ2NTc4OThdLCBbLTAuOTIyNTk0NjY2NDgxMDE4MSwgLTAuNjMzMTE2NjAyODk3NjQ0LCAwLjg2Mjk2OTI3OTI4OTI0NTYsIC0wLjUwMzk3ODc4ODg1MjY5MTcsIDAuNjg1Mjc1MDc3ODE5ODI0MiwgMC4yNzkwOTQ2MDY2Mzc5NTQ3LCAtMC4yNjM4MDY3MzA1MDg4MDQzLCAtMC4yNjkxNDU3ODY3NjIyMzc1NSwgMC42OTU4MjkxNTMwNjA5MTMxLCAtMC41ODQwNDIzMTA3MTQ3MjE3LCAtMC40MzIzNDc3NzQ1MDU2MTUyMywgLTAuNTIwNzE2MzY5MTUyMDY5MSwgLTAuNTk0NjU4OTcwODMyODI0NywgMC43OTgyMTk3OTk5OTU0MjI0LCAtMC42NjY1MjY0OTY0MTAzNjk5LCAtMC4xNjcyODI1OTYyMzA1MDY5XSwgWzAuOTAyNTc1NjEyMDY4MTc2MywgMC42OTMzMTU2MjUxOTA3MzQ5LCAtMC44MzI3MDQwNjcyMzAyMjQ2LCAwLjk4NDEwNzAxNzUxNzA4OTgsIC0xLjAyMDg0NDM0MDMyNDQwMTksIDEuMjQ0MTYxNjA1ODM0OTYxLCAxLjQ4MDE0Njg4NDkxODIxMywgMC44MTI2MTc3MTkxNzM0MzE0LCAtMC41NTYzMzQ5NzIzODE1OTE4LCAwLjQ3NDA5NTQ2Mzc1Mjc0NjYsIDAuODMyNjk0NTkwMDkxNzA1MywgMC41ODUwMDMzMTY0MDI0MzUzLCAwLjg5NDE3NzQzNjgyODYxMzMsIC0wLjYxMzExMzI4NDExMTAyMywgMC44NDYzMjQzMjQ2MDc4NDkxLCAxLjI5Nzc2NDMwMTMwMDA0ODhdLCBbMC4wMjE0NTk1MjkxNzYzNTQ0MDgsIDAuNDk3NDQ5NzU1NjY4NjQwMTQsIDAuMDAxNzkyODE1NzQ2NzM5NTA2NywgMC40MjIzOTEwNTcwMTQ0NjUzMywgLTAuMTk2MzAyMDg2MTE0ODgzNDIsIDAuMTgzNTg4MDI3OTU0MTAxNTYsIDAuMjU5MTA1OTIwNzkxNjI2LCAwLjMwODEwODI0MDM2NTk4MjA2LCAtMC4wMTc0MzM4NDQ1MDY3NDA1NywgMC40ODk1Njk3ODMyMTA3NTQ0LCAwLjEzNjkwODUwMTM4NjY0MjQ2LCAwLjQ5MjE1MzUyNTM1MjQ3OCwgMC4yNjA4Mjk1MDgzMDQ1OTU5NSwgMC4wMTc4MDUyODIwMjY1MjkzMTIsIDAuMTA2ODQ1Mzg2MzI2MzEzMDIsIDAuMTU4NzQ3NjQzMjMyMzQ1NThdLCBbLTAuNjYxMzkxMjU4MjM5NzQ2MSwgLTAuNTM3MzYyNDU2MzIxNzE2MywgMC43MTMxMjMwODMxMTQ2MjQsIC0wLjY3NDc1MTg3Nzc4NDcyOSwgMC43NDYwMjA2MTUxMDA4NjA2LCAwLjA3ODU5OTQ2MDQyMjk5MjcsIDAuMTkwNzkxOTM0NzI4NjIyNDQsIC0wLjM1MjEwMTgzMjYyODI1MDEsIDAuNjg2MDE4NjQ1NzYzMzk3MiwgLTAuMzYxMjEwNzAzODQ5NzkyNSwgLTAuNTgyMTcwNzg0NDczNDE5MiwgLTAuMzAwNzIzMTA1NjY5MDIxNiwgLTAuNjU3MjQ5MDMzNDUxMDgwMywgMC42NDgyNjU3MTk0MTM3NTczLCAtMC40OTc3MjgyODgxNzM2NzU1NCwgLTAuMTkxNDc2NzkyMDk3MDkxNjddLCBbMC4zNTY5NTU3OTY0ODAxNzg4MywgMC43MzMyMjgzMjU4NDM4MTEsIC0wLjcwNjU4MDI4MTI1NzYyOTQsIDAuODQ2ODUyMzAyNTUxMjY5NSwgLTAuOTU0MDAyODU3MjA4MjUyLCAxLjMxMjg2NjkyNjE5MzIzNzMsIDEuMjQ3MTI4NzI1MDUxODc5OSwgMC45MzI2Njg3NDU1MTc3MzA3LCAtMC41OTQ5OTM0MTI0OTQ2NTk0LCAwLjU3MDY2NjEzNDM1NzQ1MjQsIDAuNzAwMTI4NTU1Mjk3ODUxNiwgMC41MzgwNDI0ODU3MTM5NTg3LCAtMC41NTg0Nzk0ODc4OTU5NjU2LCAtMC4zMjMxNzQ5MjM2NTgzNzA5NywgMC42MzA3MDA4MjY2NDQ4OTc1LCAwLjkwNTc1NTQ2MDI2MjI5ODZdLCBbLTAuMDE1NjEzMzU4NDY3ODE3MzA3LCAwLjA0MTExOTU5Nzg1MjIzMDA3LCAwLjMzNDk4ODI2NjIyOTYyOTUsIC0wLjExODAyMjU3NTk3NDQ2NDQyLCAwLjI3Nzc5MDYwNjAyMTg4MTEsIDAuMTYzOTc0MTgwODE3NjA0MDYsIDAuMjMwMjA3MzgzNjMyNjU5OSwgLTAuMjkyMDUwNDIxMjM3OTQ1NTYsIDAuMjA0MTI3MTMyODkyNjA4NjQsIC0wLjQ3NzI5NDM4NTQzMzE5NywgMC4wMDk2NDA3ODEyMDg4NzI3OTUsIC0wLjIzNzQwMjk3NTU1OTIzNDYyLCAwLjA5MTM4NDY5Mzk4MDIxNjk4LCAwLjM4Mzk4MTQzNjQ5MTAxMjYsIDAuMDc3ODQ0NDExMTM0NzE5ODUsIDAuMDg1NzY0MTEwMDg4MzQ4MzldLCBbMC41OTI4NDg3MTgxNjYzNTEzLCAwLjkxNzI0NDA3NjcyODgyMDgsIC0wLjc4MTUwNTIyNzA4ODkyODIsIDAuOTQxMzg1Njg2Mzk3NTUyNSwgLTAuOTAxMzI1ODIxODc2NTI1OSwgMS4wNzczNjk0NTE1MjI4MjcxLCAwLjcyNzg1ODcyMjIwOTkzMDQsIDAuODc2NjQyNzA0MDEwMDA5OCwgLTAuNTQ2NjA2NTQwNjc5OTMxNiwgMC43ODI2MTc5ODYyMDIyNCwgMC44MzYyMTEzMjM3MzgwOTgxLCAwLjY4NzI0MzIyMzE5MDMwNzYsIDAuMjU5OTQzOTAyNDkyNTIzMiwgLTAuNDQyMDUyMzY0MzQ5MzY1MjMsIDAuNzU4MDE2MTA5NDY2NTUyNywgMS4xMTA1MzgwMDU4Mjg4NTc0XSwgWzEuOTc3NTA5ODU2MjI0MDYsIDIuMTgzNzM5OTAwNTg4OTg5MywgLTIuMjgzNDc4MjYwMDQwMjgzLCAyLjE2ODg2NDI1MDE4MzEwNTUsIC0xLjkzMjQyNjIxNDIxODEzOTYsIDEuNjQzNTU0OTI1OTE4NTc5LCAxLjQ5NTIxODk5MjIzMzI3NjQsIDIuMjQ2MzU0ODE4MzQ0MTE2LCAtMi40MjA4MTY4OTgzNDU5NDczLCAyLjIzMzU0MDUzNDk3MzE0NDUsIDIuMzE5MDUzNDExNDgzNzY0NiwgMi42MzIyNjY3NTk4NzI0MzY1LCAwLjA3Njk3MzQ2ODA2NTI2MTg0LCAtMS43ODE0MTE0MDkzNzgwNTE4LCAyLjI4MDA0MjY0ODMxNTQyOTcsIDEuMzY2OTY4NjMxNzQ0Mzg0OF0sIFstMC44NzE4ODk4Mjk2MzU2MjAxLCAtMC45NjYzODY0Mzc0MTYwNzY3LCAxLjMxMDM0OTgyMjA0NDM3MjYsIC0wLjc0NDMwMDcyMzA3NTg2NjcsIDEuMTAzNTQ1NTQ2NTMxNjc3MiwgLTAuMTI0MjY1NTM2NjY1OTE2NDQsIDAuMDQ2Mjc3MjY1OTk1NzQwODksIC0wLjUwOTE3MDc3MDY0NTE0MTYsIDEuMTAzOTU4NjA2NzE5OTcwNywgLTAuNzQ5MDY4NTU4MjE2MDk1LCAtMS4wMDQ3NjUyNzIxNDA1MDMsIC0wLjg0OTAzMjI4MjgyOTI4NDcsIC0wLjgyNDQ1MDg1MDQ4Njc1NTQsIDAuODc4ODY3MjY4NTYyMzE2OSwgLTEuMTY4MTUzNDA1MTg5NTE0MiwgLTAuNDI0MTA3NjExMTc5MzUxOF0sIFswLjI1Njg4NDc1MzcwNDA3MTA0LCAwLjA3NTU0ODE3MTk5NzA3MDMxLCAwLjM4MTY3MTAxMTQ0NzkwNjUsIDAuMTU3NTM2NDQ3MDQ4MTg3MjYsIDAuMjQ3ODg2NTA4NzAzMjMxOCwgLTAuMzM4MzE5MTIyNzkxMjkwMywgLTAuNDY0NzMyODg1MzYwNzE3OCwgMC4xMTA0ODU2NTA1OTkwMDI4NCwgMC4zNjI5NDk0MzA5NDI1MzU0LCAwLjE0MTU4NDg3MzE5OTQ2MjksIDAuMTYyNTQ1MjA0MTYyNTk3NjYsIC0wLjA4ODMxNDgwMTQ1NDU0NDA3LCAwLjA2NzQ4OTk3NDIwMDcyNTU2LCAtMC4wODkxMTYzMDUxMTI4Mzg3NSwgMC4wODUxNjUzMDY5MjU3NzM2MiwgLTAuMDYzNjU5OTgwODkzMTM1MDddLCBbMC4yODgwMzM1NDUwMTcyNDI0MywgMC4xNDY0MTg5NTg5MDIzNTksIDAuNDcxNzQzOTcxMTA5MzkwMjYsIC0wLjA3MDAwNzEzNzk1NDIzNTA4LCAwLjMzOTk3MzA5MjA3OTE2MjYsIDAuMzExNzc0NjExNDczMDgzNSwgMC4yMTAwMzA3NjQzNDEzNTQzNywgLTAuMjI2NzU3NzY0ODE2Mjg0MTgsIDAuMjgxMjUxMjUxNjk3NTQwMywgLTAuMTg3NTIzNjMzMjQxNjUzNDQsIDAuMDQyOTM2MDEyMTQ4ODU3MTIsIC0wLjIwNzI1MjA1NTQwNjU3MDQzLCAtMC4xNjE1NzA1NjM5MTIzOTE2NiwgMC40MDk5MzMyNjkwMjM4OTUyNiwgMC4wMTQ5NDYyMDM2Nzg4NDYzNiwgMC4wOTI1MDA0NDA3NzYzNDgxMV0sIFswLjAxNjE1NzgyMDgyMDgwODQxLCAwLjEzNDY3ODcwNjUyNjc1NjMsIDAuMjY5NzgyNDUzNzc1NDA1OSwgMC4xNzEyNzMwMjI4OTAwOTA5NCwgMC4xNTAyMjc4NTk2MTYyNzk2LCAwLjE3MTQwNzIyMjc0NzgwMjczLCAwLjI4NzAyOTIwNjc1Mjc3NzEsIDAuMDcyNDk0NTg4NzkyMzI0MDcsIDAuMTAwNDEwNDMxNjIzNDU4ODYsIDAuMDU3NzY2MDA1Mzk2ODQyOTYsIC0wLjE3MzkxNTAyODU3MjA4MjUyLCAwLjA1Mjk5ODg5Mjk2MjkzMjU5LCAwLjI4NTE5Nzc5NDQzNzQwODQ1LCAwLjE0MDA2NzYzNjk2NjcwNTMyLCAtMC4xMTYxODI0MzE1Nzg2MzYxNywgMC4xNjc4NDU0Mjc5ODk5NTk3Ml0sIFswLjE5NjEzNDQxODI0OTEzMDI1LCAwLjExODg2ODYwNDMwMjQwNjMxLCAwLjM2MzQwODk4Mjc1Mzc1MzY2LCAtMC4wMTc3ODk2NzQ5MjI4MjM5MDYsIDAuNDkyNTg2OTcwMzI5Mjg0NjcsIC0wLjI0NTI2NTI5MDE0MTEwNTY1LCAtMC4wOTUwNTY2NzUzNzQ1MDc5LCAwLjAyMzA5Nzc5NDUwMjk3MzU1NywgMC4xNzQ4ODU1MjYyOTk0NzY2MiwgMC4xMzQ4Nzg0NzE0OTM3MjEsIC0wLjA2MzkwODM2MDg5ODQ5NDcyLCAwLjA4MDM5NDAwNzI2NTU2Nzc4LCAwLjIwOTI3NTQ1NDI4Mjc2MDYyLCAtMC4wMjk4ODkxMDg2MTMxMzM0MywgMC4yNzM4NjU0MDE3NDQ4NDI1MywgLTAuMjI5NjIzMDE5Njk1MjgxOThdLCBbLTEuMDEzNTc4MTc2NDk4NDEzLCAtMC44NjA3ODcwOTM2MzkzNzM4LCAxLjA0Mzg0MDY0Njc0Mzc3NDQsIC0wLjc2ODU1NTUyMTk2NTAyNjksIDAuODc3ODEzNjk2ODYxMjY3MSwgMC4xNDY2NzI2OTU4NzUxNjc4NSwgLTAuMDg5MjAwNjc1NDg3NTE4MzEsIC0wLjY3NTg3ODY0Mzk4OTU2MywgMS4yMDk5MTU4NzYzODg1NDk4LCAtMC44MTkzOTg0MDMxNjc3MjQ2LCAtMC43MDQ1NDY4MDkxOTY0NzIyLCAtMC42NjQwMjIyMDcyNjAxMzE4LCAtMC43MjM5OTg2NjU4MDk2MzEzLCAwLjg4MzI3MTkzMjYwMTkyODcsIC0xLjA0MDk1NzU3MDA3NTk4ODgsIC0wLjQ3OTMxMzkxMDAwNzQ3NjhdLCBbMC4xNTk0MTA2ODUzMDA4MjcwMywgMC4zMDkwMzA3MTE2NTA4NDg0LCAtMC4wNzQyODAyOTE3OTU3MzA1OSwgLTAuMTI0NTA1NTA0OTY1NzgyMTcsIC0wLjM1Mzc2NDg5MTYyNDQ1MDcsIDAuMjI4MTE4ODM2ODc5NzMwMjIsIDAuMTkxNTQ0MTQ1MzQ1Njg3ODcsIDAuMDUwMjAzNzIxOTcwMzE5NzUsIC0wLjIyNTY3NDA2Mjk2NzMwMDQyLCAwLjQwNjQ0MjgyMTAyNTg0ODQsIDAuNDQ3ODc3OTQzNTE1Nzc3NiwgMC4xNzQ2Nzk4MTU3NjkxOTU1NiwgLTAuMTgwNjY0NDQ5OTMwMTkxMDQsIC0wLjI1NDgwOTM3OTU3NzYzNjcsIDAuMzc3MjI4MDgxMjI2MzQ4OSwgMC4xMjE1NzM3MzEzMDMyMTUwM10sIFswLjYzMTIwNDQ4NTg5MzI0OTUsIDAuNjQ0MjEwNjk2MjIwMzk4LCAtMC41Njc2OTI5OTUwNzE0MTExLCAwLjU1ODk3MjAwMTA3NTc0NDYsIC0wLjQ2ODA3NTA5NjYwNzIwODI1LCAtMC4yMzk0NDY1ODA0MTAwMDM2NiwgLTAuNDQxNjc2Mzc4MjUwMTIyMDcsIDAuNDc3OTk5Njg3MTk0ODI0MiwgLTAuNjg2Mjk5MTQ1MjIxNzEwMiwgMC43OTI1Njk5OTQ5MjY0NTI2LCAwLjU3MDY5NzAwOTU2MzQ0NiwgMC45Mzc5MjAwMzM5MzE3MzIyLCAwLjk1ODYwMjQyODQzNjI3OTMsIC0wLjY3Mjg5NjI2NTk4MzU4MTUsIDAuNjM5MDgxNDc4MTE4ODk2NSwgMC4wMTk3NDQzMDMwNzc0NTkzMzVdLCBbMC4yMDc2ODM4MDE2NTEwMDA5OCwgMC41NTA2MTE2NzQ3ODU2MTQsIC0wLjMxNDU3NTA0NjMwMDg4ODA2LCAwLjU1MDE0NDk3MDQxNzAyMjcsIC0wLjYyNjE1NjA5MTY5MDA2MzUsIDAuOTg5Mzk3NjQ0OTk2NjQzMSwgMC41NzYyNjQ3OTg2NDEyMDQ4LCAwLjU2ODQyNjA3MjU5NzUwMzcsIDAuMDE0NDk5NjEyMTUyNTc2NDQ3LCAwLjE3MDI5NjcyODYxMDk5MjQzLCAwLjQyMTM3ODkxMDU0MTUzNDQsIDAuMjc5NzAwOTY0Njg5MjU0NzYsIDAuMDc2MjE5OTYxMDQ3MTcyNTUsIC0wLjE5NDYyNTM5MjU1NjE5MDUsIDAuNDA2Njg2NDU1MDExMzY3OCwgMC44ODU3NjM5NDMxOTUzNDNdLCBbLTAuMzcxODUxODYxNDc2ODk4MiwgLTAuNzE3MzgyNjY5NDQ4ODUyNSwgMC41ODM4Njg0NDM5NjU5MTE5LCAtMC41NzYzNDk3MzUyNjAwMDk4LCAwLjcxODA3MzkwNDUxNDMxMjcsIDAuMDQyNjMxNjIyNDAzODYwMDksIC0wLjMzMzEwMjEwNzA0ODAzNDY3LCAtMC42MTY4OTU3OTQ4Njg0NjkyLCAwLjUzMzQwODEwNTM3MzM4MjYsIC0wLjU2MzA1NDQ0MjQwNTcwMDcsIC0wLjYxMzk0MzU3NjgxMjc0NDEsIC0wLjQ1Mjk5ODE2MTMxNTkxNzk3LCAtMC40MTY5MzM1OTYxMzQxODU4LCAwLjc0ODMyNTgyNDczNzU0ODgsIC0wLjU1MTI3MjYzMDY5MTUyODMsIC0wLjA0ODc3NzU1MDQ1ODkwODA4XV0sIFswLjA0NDcyNTAwODMwODg4NzQ4LCAwLjA5ODI3NzYxMzUyMDYyMjI1LCAwLjI2NTMyMzY5ODUyMDY2MDQsIDAuMDM3NzMyNTkzNzE1MTkwODksIDAuMjEyMTg0MDcxNTQwODMyNTIsIDAuMTE1MTkyMzkwOTc4MzM2MzMsIDAuMDY4MTU0NzUyMjU0NDg2MDgsIDAuMDg1NDg0OTIxOTMyMjIwNDYsIDAuMTkxNDE1NjIyODMwMzkwOTMsIDAuMDAxODE0MzM3MzMwODcwMzMwMywgMC4wODM0MTQ4Mzc3MTgwMDk5NSwgMC4wNDQzMTcyODI3MzYzMDE0MiwgMC4xMTMyODE2NjcyMzI1MTM0MywgMC4xMDA3ODE5MzI0NzMxODI2OCwgMC4xMTE4MjI0NDEyMjAyODM1MSwgMC4xMDY0MzIxMzI0MjI5MjQwNF0sIFtbLTAuODk3NjQxNzc3OTkyMjQ4NV0sIFstMS43NTI2MzAyMzM3NjQ2NDg0XSwgWzAuOTgyNjI4ODIyMzI2NjYwMl0sIFstMS43MDU1OTU5NzAxNTM4MDg2XSwgWzEuNTM3NDk0MTgyNTg2NjddLCBbLTAuMjkxODQ1MjAyNDQ1OTgzOV0sIFstMC40ODMzMDI5NTA4NTkwNjk4XSwgWy0xLjI4MDU2NzE2OTE4OTQ1MzFdLCBbMS4wODEzODU4NTA5MDYzNzJdLCBbLTEuMDg3MzU1Mzc1Mjg5OTE3XSwgWy0xLjYwMzUyMDI3NDE2MjI5MjVdLCBbLTAuOTA2MzU4OTU3MjkwNjQ5NF0sIFstMS4zMzY5MzMxMzU5ODYzMjgxXSwgWzEuMjQ2OTY1Mjg5MTE1OTA1OF0sIFstMS41OTM2ODE4MTIyODYzNzddLCBbLTAuNzkzNTAwNDIzNDMxMzk2NV1dLCBbMC4yMDU0NzM4OTk4NDEzMDg2XV0=", "metrics": {"loss": 0.142187, "accuracy": 0.943213, "auc": 0.987073, "precision": 0.944273, "recall": 0.947973}}